{
  "version": "1.0",
  "truncation": null,
  "padding": null,
  "added_tokens": [
    {
      "id": 0,
      "content": "[PAD]",
      "single_word": false,
      "lstrip": false,
      "rstrip": false,
      "normalized": false,
      "special": true
    },
    {
      "id": 1,
      "content": "[BOS]",
      "single_word": false,
      "lstrip": false,
      "rstrip": false,
      "normalized": false,
      "special": true
    },
    {
      "id": 2,
      "content": "[EOS]",
      "single_word": false,
      "lstrip": false,
      "rstrip": false,
      "normalized": false,
      "special": true
    },
    {
      "id": 3,
      "content": "[UNK]",
      "single_word": false,
      "lstrip": false,
      "rstrip": false,
      "normalized": false,
      "special": true
    }
  ],
  "normalizer": null,
  "pre_tokenizer": {
    "type": "ByteLevel",
    "add_prefix_space": true,
    "trim_offsets": true,
    "use_regex": true
  },
  "post_processor": null,
  "decoder": null,
  "model": {
    "type": "BPE",
    "dropout": null,
    "unk_token": null,
    "continuing_subword_prefix": null,
    "end_of_word_suffix": null,
    "fuse_unk": false,
    "byte_fallback": false,
    "vocab": {
      "[PAD]": 0,
      "[BOS]": 1,
      "[EOS]": 2,
      "[UNK]": 3,
      "!": 4,
      "#": 5,
      "$": 6,
      "%": 7,
      "&": 8,
      "(": 9,
      ")": 10,
      "*": 11,
      "+": 12,
      ",": 13,
      "-": 14,
      ".": 15,
      "/": 16,
      "0": 17,
      "1": 18,
      "2": 19,
      "3": 20,
      "4": 21,
      "5": 22,
      "6": 23,
      "7": 24,
      "8": 25,
      "9": 26,
      ":": 27,
      ";": 28,
      "?": 29,
      "@": 30,
      "[": 31,
      "\\": 32,
      "]": 33,
      "_": 34,
      "a": 35,
      "b": 36,
      "c": 37,
      "d": 38,
      "e": 39,
      "f": 40,
      "g": 41,
      "h": 42,
      "i": 43,
      "j": 44,
      "k": 45,
      "l": 46,
      "m": 47,
      "n": 48,
      "o": 49,
      "p": 50,
      "q": 51,
      "r": 52,
      "s": 53,
      "t": 54,
      "u": 55,
      "v": 56,
      "w": 57,
      "x": 58,
      "y": 59,
      "z": 60,
      "{": 61,
      "|": 62,
      "}": 63,
      "£": 64,
      "¤": 65,
      "¥": 66,
      "¬": 67,
      "¶": 68,
      "¼": 69,
      "Â": 70,
      "Ã": 71,
      "â": 72,
      "Ġ": 73,
      "Ĥ": 74,
      "Ł": 75,
      "en": 76,
      "er": 77,
      "ch": 78,
      "Ġd": 79,
      "in": 80,
      "ie": 81,
      "Ġs": 82,
      "un": 83,
      "Ġa": 84,
      "st": 85,
      "Ġw": 86,
      "ei": 87,
      "Ġe": 88,
      "Ġi": 89,
      "Ġb": 90,
      "Ġm": 91,
      "an": 92,
      "on": 93,
      "ge": 94,
      "Ġf": 95,
      "Ã¼": 96,
      "Ġdie": 97,
      "te": 98,
      "Ġv": 99,
      "Ã¤": 100,
      "ung": 101,
      "Ġh": 102,
      "ss": 103,
      "ich": 104,
      "Ġk": 105,
      "sch": 106,
      "Ġun": 107,
      "or": 108,
      "ti": 109,
      "Ġn": 110,
      "Ġp": 111,
      "ar": 112,
      "re": 113,
      "Ġder": 114,
      "Ġz": 115,
      "ll": 116,
      "ra": 117,
      "ur": 118,
      "Ġin": 119,
      "as": 120,
      "Ġau": 121,
      "Ġein": 122,
      "it": 123,
      "ter": 124,
      "ten": 125,
      "Ġg": 126,
      "es": 127,
      "mm": 128,
      "ir": 129,
      "Ġl": 130,
      "al": 131,
      "Ġge": 132,
      "gen": 133,
      "den": 134,
      "Ġist": 135,
      "Ġund": 136,
      "Ã¼r": 137,
      "Ġan": 138,
      "de": 139,
      "Ã¶": 140,
      "Ġwir": 141,
      "hr": 142,
      "Ġsie": 143,
      "Ġbe": 144,
      "Ġt": 145,
      "Ġdas": 146,
      "em": 147,
      "Ġzu": 148,
      "der": 149,
      "Ġver": 150,
      "Ġer": 151,
      "ro": 152,
      "at": 153,
      "ĠfÃ¼r": 154,
      "ein": 155,
      "el": 156,
      "icht": 157,
      "ber": 158,
      "Ġdies": 159,
      "um": 160,
      "eit": 161,
      "ol": 162,
      "lich": 163,
      "tion": 164,
      "isch": 165,
      "Ġ2": 166,
      "ent": 167,
      "omm": 168,
      "Ġ(": 169,
      "au": 170,
      "ier": 171,
      "Ġj": 172,
      "op": 173,
      "et": 174,
      "ach": 175,
      "Ġ1": 176,
      "Ġsch": 177,
      "Ġich": 178,
      "ab": 179,
      "Ġst": 180,
      "00": 181,
      "ion": 182,
      "Ġvon": 183,
      "Ġauf": 184,
      "Ġre": 185,
      "ÃŁ": 186,
      "Ġeur": 187,
      "is": 188,
      "iss": 189,
      "le": 190,
      "Ġes": 191,
      "am": 192,
      "and": 193,
      "Ġden": 194,
      "Ġmit": 195,
      "il": 196,
      "ck": 197,
      "Ġnicht": 198,
      "Ġc": 199,
      "ig": 200,
      "ft": 201,
      "Ġdes": 202,
      "kt": 203,
      "Ã¼ber": 204,
      "rei": 205,
      "Ġeurop": 206,
      "ation": 207,
      "Ġim": 208,
      "ungen": 209,
      "Ġ-": 210,
      "ien": 211,
      "Ġkomm": 212,
      "ind": 213,
      "eu": 214,
      "eh": 215,
      "Ġwer": 216,
      "Ã¤n": 217,
      "ah": 218,
      "ĠÃ¼ber": 219,
      "ann": 220,
      "ist": 221,
      "nen": 222,
      "Ġaus": 223,
      "Ġher": 224,
      "sp": 225,
      "Ġo": 226,
      "Ġeine": 227,
      "ssen": 228,
      "Ġda": 229,
      "Ġvor": 230,
      "for": 231,
      "Ġso": 232,
      "Ġsind": 233,
      "ff": 234,
      "eil": 235,
      "Ġuns": 236,
      "Ġab": 237,
      "ehr": 238,
      "..": 239,
      "Ġpro": 240,
      "ri": 241,
      "Ġkommiss": 242,
      "ĠeuropÃ¤": 243,
      "ĠeuropÃ¤isch": 244,
      "om": 245,
      "Ġsich": 246,
      "Ġum": 247,
      "ell": 248,
      "Ġr": 249,
      "Ã¤r": 250,
      "Ġwerden": 251,
      "iel": 252,
      "ut": 253,
      "och": 254,
      "sti": 255,
      "und": 256,
      "Ġwei": 257,
      "Ġfin": 258,
      "ben": 259,
      "si": 260,
      "schl": 261,
      "Ġall": 262,
      "Ġherr": 263,
      "gt": 264,
      "tel": 265,
      "Ġber": 266,
      "form": 267,
      "Ġhab": 268,
      "Ġsp": 269,
      "ver": 270,
      "Ġal": 271,
      "Ġent": 272,
      "fa": 273,
      "uch": 274,
      "Ġkommission": 275,
      "Ġwird": 276,
      "Ġunter": 277,
      "be": 278,
      "Ġauch": 279,
      "rÃ¤": 280,
      "Ġih": 281,
      "etz": 282,
      "Ġra": 283,
      "Ġwie": 284,
      "Ġbei": 285,
      "ag": 286,
      "ister": 287,
      "gr": 288,
      "Ġweiter": 289,
      "inister": 290,
      "ort": 291,
      "scha": 292,
      "us": 293,
      "ress": 294,
      "Ġho": 295,
      "ĠmÃ¶": 296,
      "che": 297,
      "uss": 298,
      "wei": 299,
      "Ġfra": 300,
      "ungs": 301,
      "ank": 302,
      "Ġkon": 303,
      "he": 304,
      "teil": 305,
      "formation": 306,
      "Ġdiese": 307,
      "la": 308,
      "ern": 309,
      "Ġhin": 310,
      "eine": 311,
      "tig": 312,
      "men": 313,
      "hal": 314,
      "sten": 315,
      "Ã¶n": 316,
      "Ġdem": 317,
      "anz": 318,
      "ul": 319,
      "Ġinformation": 320,
      "Ġhat": 321,
      "schaft": 322,
      "Ġwas": 323,
      "os": 324,
      "Ġar": 325,
      "oll": 326,
      "Ġhier": 327,
      "Ġwar": 328,
      "Ġpress": 329,
      "ik": 330,
      "Ġhaben": 331,
      "rÃ¼": 332,
      "Ġ200": 333,
      "cht": 334,
      "hren": 335,
      "Ġ3": 336,
      "Ã¤t": 337,
      "ĠeuropÃ¤ische": 338,
      "chen": 339,
      "ing": 340,
      "Ġeu": 341,
      "Ġzur": 342,
      "Ġste": 343,
      "Ġals": 344,
      "ta": 345,
      "Ġunser": 346,
      "ĠmÃ¶ch": 347,
      "Ġnach": 348,
      "ĠkÃ¶n": 349,
      "ang": 350,
      "bt": 351,
      "ed": 352,
      "kte": 353,
      "Ġweitere": 354,
      "eiten": 355,
      "Ġminister": 356,
      "ot": 357,
      "se": 358,
      "stimm": 359,
      "Ġinformationen": 360,
      "ger": 361,
      "ok": 362,
      "ommen": 363,
      "Ġma": 364,
      "ht": 365,
      "zu": 366,
      "ste": 367,
      "iti": 368,
      "ick": 369,
      "bl": 370,
      "Ġneu": 371,
      "siden": 372,
      "land": 373,
      "liche": 374,
      "Ġde": 375,
      "Ġkann": 376,
      "Ġen": 377,
      "lie": 378,
      "rÃ¤siden": 379,
      "ande": 380,
      "Ġwe": 381,
      "Ġam": 382,
      "Ã¶r": 383,
      "tw": 384,
      "Ġange": 385,
      "Ġgr": 386,
      "Ġhinter": 387,
      "lei": 388,
      "grund": 389,
      "...": 390,
      "tes": 391,
      "Ġgi": 392,
      "di": 393,
      "ze": 394,
      "Ġsein": 395,
      "fen": 396,
      "Ġviel": 397,
      "Ġla": 398,
      "tra": 399,
      "rÃ¤sident": 400,
      "wer": 401,
      "aus": 402,
      "det": 403,
      "ne": 404,
      "Ġihre": 405,
      "stell": 406,
      "teilung": 407,
      "Ġhintergrund": 408,
      "ma": 409,
      "Ġpar": 410,
      "hen": 411,
      "ner": 412,
      "01": 413,
      "fÃ¼": 414,
      "Ġmehr": 415,
      "Ã¤nder": 416,
      "Ġfa": 417,
      "Ġauss": 418,
      "Ġja": 419,
      "tige": 420,
      "Ġzum": 421,
      "32": 422,
      "ĠmÃ¼": 423,
      "Ġte": 424,
      "heit": 425,
      "tet": 426,
      "beit": 427,
      "Ġ4": 428,
      "Ġnoch": 429,
      "bar": 430,
      "Ġaber": 431,
      "Ġwur": 432,
      "sa": 433,
      "ĠkÃ¶nnen": 434,
      "Ġu": 435,
      "qu": 436,
      "emit": 437,
      "Ġpressemit": 438,
      "Ġkl": 439,
      "Ġgibt": 440,
      "keit": 441,
      "zi": 442,
      "Ġ.": 443,
      "Ġdank": 444,
      "sam": 445,
      "ad": 446,
      "Ġhotel": 447,
      "Ġgen": 448,
      "kl": 449,
      "Ġrat": 450,
      "Ġwen": 451,
      "ische": 452,
      "oliti": 453,
      "Ġdar": 454,
      "mmer": 455,
      "Ġman": 456,
      "tre": 457,
      "Ġnur": 458,
      "tiv": 459,
      "fol": 460,
      "ill": 461,
      "ek": 462,
      "ru": 463,
      "tschaft": 464,
      "zen": 465,
      "Ġpressemitteilung": 466,
      "Ġwel": 467,
      "Ġdieser": 468,
      "iert": 469,
      "Ġsoll": 470,
      "ahl": 471,
      "Ġ5": 472,
      "lo": 473,
      "neh": 474,
      "Ġsehr": 475,
      "ĠÃ¶": 476,
      "gra": 477,
      "Ġmar": 478,
      "ĠprÃ¤sident": 479,
      "ĠmÃ¼ssen": 480,
      "rit": 481,
      "Ġoder": 482,
      "Ã¼n": 483,
      "ord": 484,
      "we": 485,
      "Ġ22": 486,
      "nah": 487,
      "Ġinter": 488,
      "Ġpun": 489,
      "ak": 490,
      "Ġzwei": 491,
      "Ġle": 492,
      "Ġfol": 493,
      "Ġeinen": 494,
      "me": 495,
      "Ġalle": 496,
      "andel": 497,
      "mer": 498,
      "sta": 499,
      "lin": 500,
      "rache": 501,
      "Ġch": 502,
      "ige": 503,
      "Ġper": 504,
      "pf": 505,
      "itÃ¤t": 506,
      "Ã¤h": 507,
      "takt": 508,
      "Ġro": 509,
      "age": 510,
      "ĠeuropÃ¤ischen": 511,
      "ce": 512,
      "ehen": 513,
      "fall": 514,
      "99": 515,
      "Ã¼ck": 516,
      "ster": 517,
      "etzt": 518,
      "Ġbericht": 519,
      "stimmung": 520,
      "Ġfr": 521,
      "Ġgem": 522,
      "sen": 523,
      "ffen": 524,
      "achten": 525,
      "ĠmÃ¶chten": 526,
      "klÃ¤r": 527,
      "kommen": 528,
      "legen": 529,
      "schen": 530,
      "Ġ(+": 531,
      "oh": 532,
      "Ġander": 533,
      "Ġdi": 534,
      "fe": 535,
      "Ġfor": 536,
      "att": 537,
      "reich": 538,
      "ho": 539,
      "Ġbis": 540,
      "sser": 541,
      "mmen": 542,
      "ieren": 543,
      "ossen": 544,
      "ichtig": 545,
      "prache": 546,
      "Ġschl": 547,
      "Ġkeine": 548,
      "ischen": 549,
      "Ġje": 550,
      "Ġfinanz": 551,
      "urch": 552,
      "schlossen": 553,
      "Ġdass": 554,
      "Ġfrau": 555,
      "lle": 556,
      "zie": 557,
      "pp": 558,
      "glie": 559,
      "Ġwann": 560,
      "lung": 561,
      "utz": 562,
      "Ġihr": 563,
      "Ġlie": 564,
      "du": 565,
      "Ġth": 566,
      "nung": 567,
      "olitik": 568,
      "Ã¼t": 569,
      "ale": 570,
      "sche": 571,
      "Ġse": 572,
      "Ġ229": 573,
      "Ġmo": 574,
      "geb": 575,
      "bei": 576,
      "trag": 577,
      "ia": 578,
      "Ġ0": 579,
      "ĠerklÃ¤r": 580,
      "Ġwurde": 581,
      "heiten": 582,
      "fra": 583,
      "mit": 584,
      "Ġaussprache": 585,
      "Ġabstimmung": 586,
      "Ġsta": 587,
      "ĠÃ¼bern": 588,
      "Ġvie": 589,
      "wen": 590,
      "aten": 591,
      "gramm": 592,
      "Ġunion": 593,
      "glich": 594,
      "Ġeuropa": 595,
      "gie": 596,
      "Ġihnen": 597,
      "ts": 598,
      "io": 599,
      "Ġteil": 600,
      "Ġkontakt": 601,
      "rie": 602,
      "dig": 603,
      "Ġfolgen": 604,
      "dung": 605,
      "ov": 606,
      "Ġfinden": 607,
      "uÃŁ": 608,
      "Ġzeit": 609,
      "eich": 610,
      "Ġgew": 611,
      "Ġmein": 612,
      "Ġausw": 613,
      "ktion": 614,
      "fer": 615,
      "id": 616,
      "ken": 617,
      "Ġmuss": 618,
      "Ġger": 619,
      "Ġdurch": 620,
      "Ġreg": 621,
      "ssel": 622,
      "ĠÃ¼bernachten": 623,
      "ĠmÃ¶chte": 624,
      "lan": 625,
      "wick": 626,
      "Ġbet": 627,
      "lau": 628,
      "Ġ...": 629,
      "Ġdu": 630,
      "ierung": 631,
      "net": 632,
      "Ġgeschlossen": 633,
      "Ġrecht": 634,
      "glied": 635,
      "Ġland": 636,
      "tier": 637,
      "Ġbes": 638,
      "Ġ6": 639,
      "Ġuhr": 640,
      "ÃŁen": 641,
      "Ġunsere": 642,
      "rauch": 643,
      "ug": 644,
      "Ġvielen": 645,
      "Ġmich": 646,
      "Ġweb": 647,
      "itz": 648,
      "Ġdieses": 649,
      "Ġeiner": 650,
      "Ġ7": 651,
      "Ġgegen": 652,
      "her": 653,
      "Ġneue": 654,
      "Ġei": 655,
      "Ġdiesem": 656,
      "ws": 657,
      "fahren": 658,
      "Ġsa": 659,
      "Ġstatt": 660,
      "ic": 661,
      "Ġbit": 662,
      "Ġ201": 663,
      "Ġarbeit": 664,
      "Ġpunkte": 665,
      "Ġangelegen": 666,
      "Ġhabe": 667,
      "Ġgro": 668,
      "Ġthe": 669,
      "Ġlu": 670,
      "art": 671,
      "Ġheu": 672,
      "atz": 673,
      "Ġpa": 674,
      "Ġgesch": 675,
      "blem": 676,
      "Ġ|": 677,
      "Ġkein": 678,
      "ffent": 679,
      "lt": 680,
      "ett": 681,
      "treter": 682,
      "Ġgemein": 683,
      "enz": 684,
      "Ġ9": 685,
      "Ġentwick": 686,
      "Ġ12": 687,
      "Ġstell": 688,
      "Ġko": 689,
      "auf": 690,
      "lam": 691,
      "ve": 692,
      "Ġwenn": 693,
      "Ġangelegenheiten": 694,
      "Ġto": 695,
      "Ġben": 696,
      "Ġwirtschaft": 697,
      "Ġ8": 698,
      "Ġfindet": 699,
      "Ġzusa": 700,
      "wir": 701,
      "Ġwichtig": 702,
      "mal": 703,
      "Ġfrage": 704,
      "ub": 705,
      "Ġnie": 706,
      "to": 707,
      "Ġjetzt": 708,
      "Ġsicher": 709,
      "og": 710,
      "lichen": 711,
      "Ġproblem": 712,
      "elt": 713,
      "Ġganz": 714,
      "Ġbitte": 715,
      "Ã¤ch": 716,
      "eut": 717,
      "Ġbil": 718,
      "Ġzusammen": 719,
      "kehr": 720,
      "Ġson": 721,
      "Ġeinem": 722,
      "Ġmitglied": 723,
      "Ġgu": 724,
      "Ġkommissar": 725,
      "Ġbin": 726,
      "Ġju": 727,
      "Ġdiesen": 728,
      "30": 729,
      "Ġnun": 730,
      "vor": 731,
      "nahmen": 732,
      "Ġmach": 733,
      "Ġmen": 734,
      "Ġparlam": 735,
      "Ġges": 736,
      "halt": 737,
      "ĠbrÃ¼": 738,
      "sse": 739,
      "Ġhandel": 740,
      "pro": 741,
      "iz": 742,
      "Ġdam": 743,
      "ine": 744,
      "Ġparlament": 745,
      "gel": 746,
      "nis": 747,
      "Ġheute": 748,
      "Ġne": 749,
      "minister": 750,
      "ard": 751,
      "ĠÃ¤nder": 752,
      "ĠauswÃ¤r": 753,
      "len": 754,
      "Ġsti": 755,
      "Ġpo": 756,
      "fach": 757,
      "pt": 758,
      "bil": 759,
      "nehmen": 760,
      "tik": 761,
      "10": 762,
      "Ġwa": 763,
      "Ġsel": 764,
      "mar": 765,
      "Ġverb": 766,
      "ĠbrÃ¼ssel": 767,
      "rif": 768,
      "ran": 769,
      "Ġdeut": 770,
      "stÃ¼t": 771,
      "Ġand": 772,
      "Ġfre": 773,
      "Ġbest": 774,
      "Ġlei": 775,
      "ges": 776,
      "Ġjed": 777,
      "Ġqu": 778,
      "200": 779,
      "Ġ10": 780,
      "alt": 781,
      "ĠÃ¶ffent": 782,
      "ret": 783,
      "ap": 784,
      "Ġtun": 785,
      "genommen": 786,
      "Ġex": 787,
      "ler": 788,
      "tigen": 789,
      "ĠauswÃ¤rtige": 790,
      "Ġetw": 791,
      "Ġfl": 792,
      "site": 793,
      "halten": 794,
      "war": 795,
      "folger": 796,
      "ĠunterstÃ¼t": 797,
      "Ġvi": 798,
      "Ġins": 799,
      "rin": 800,
      "yst": 801,
      "ĠfÃ¼": 802,
      "Ġgeht": 803,
      "issen": 804,
      "Ġdazu": 805,
      "gab": 806,
      "Ġfe": 807,
      "Ġnat": 808,
      "Ġit": 809,
      "nt": 810,
      ".)": 811,
      "Ġ%": 812,
      "Ġschluss": 813,
      "ke": 814,
      "ant": 815,
      "dem": 816,
      "son": 817,
      "Ġwill": 818,
      "Ġon": 819,
      "Ġmeine": 820,
      "chn": 821,
      "Ġalso": 822,
      "isse": 823,
      "eite": 824,
      "fÃ¼r": 825,
      "Ġdann": 826,
      "Ġzi": 827,
      "Ġ+": 828,
      "org": 829,
      "Ġgel": 830,
      "fin": 831,
      "Ġeuro": 832,
      "Ġkom": 833,
      "Ġvom": 834,
      "unden": 835,
      "arbeit": 836,
      "Ġbesch": 837,
      "Ġsiehe": 838,
      "Ġop": 839,
      "bur": 840,
      "Ġcom": 841,
      "Ġprogramm": 842,
      "ÃŁnahmen": 843,
      "ystem": 844,
      "sk": 845,
      "yp": 846,
      "Ã¤hr": 847,
      "wirtschaft": 848,
      "Ġjahr": 849,
      "halb": 850,
      "Ġmor": 851,
      "ischer": 852,
      "Ġwebsite": 853,
      "Ġimmer": 854,
      "els": 855,
      "Ġgrund": 856,
      "Ġpri": 857,
      "Ã¤u": 858,
      "ĠgroÃŁ": 859,
      "fÃ¼hr": 860,
      "ere": 861,
      "Ġir": 862,
      "Ġmon": 863,
      "000": 864,
      "Ġem": 865,
      "gend": 866,
      "zieh": 867,
      "fl": 868,
      "Ġeinfach": 869,
      "welt": 870,
      "ha": 871,
      "vi": 872,
      "nehmer": 873,
      "Ġgeb": 874,
      "Ġwor": 875,
      "Ġur": 876,
      "folgerungen": 877,
      "twort": 878,
      "pl": 879,
      "alien": 880,
      "nisse": 881,
      "Ġmin": 882,
      "Ġsol": 883,
      "je": 884,
      "Ġstra": 885,
      "Ġwieder": 886,
      "Ġfragen": 887,
      "Ġ19": 888,
      "Ġco": 889,
      "setz": 890,
      "Ġeinige": 891,
      "Ġjedoch": 892,
      "Ġ11": 893,
      "Ġangenommen": 894,
      "ina": 895,
      "Ġdoch": 896,
      ").": 897,
      "beifall": 898,
      "Ġme": 899,
      "ĠverfÃ¼": 900,
      "Ġsozi": 901,
      "Ġprei": 902,
      "elle": 903,
      "Ġspiel": 904,
      "ark": 905,
      "Ġwirk": 906,
      "burg": 907,
      "anien": 908,
      "ĠstÃ¤n": 909,
      "Ġwoll": 910,
      "ahre": 911,
      "spro": 912,
      "Ġrei": 913,
      "Ġregion": 914,
      "ult": 915,
      "Ġleben": 916,
      "Ġsitz": 917,
      "ĠmÃ¶glich": 918,
      "im": 919,
      "Ġ14": 920,
      "zeu": 921,
      "Ġgut": 922,
      "Ġzahl": 923,
      "lichkeit": 924,
      "pu": 925,
      "tive": 926,
      "Ġfall": 927,
      "bst": 928,
      "Ġkur": 929,
      "richt": 930,
      "Ġeigen": 931,
      "Ã¤re": 932,
      "Ġstaat": 933,
      "Ġbereit": 934,
      "Ġvertreter": 935,
      "Ġschlussfolgerungen": 936,
      "Ġbrauch": 937,
      "Ġwelt": 938,
      "Ġak": 939,
      "Ġvorschl": 940,
      "Ġetwas": 941,
      "ucht": 942,
      "Ġdah": 943,
      "Ġprodu": 944,
      "leich": 945,
      "hne": 946,
      "nahme": 947,
      "Ġrates": 948,
      "Ġricht": 949,
      "Ġtra": 950,
      "frage": 951,
      "igen": 952,
      "Ġ199": 953,
      "rechen": 954,
      "Ġgra": 955,
      "Ġlang": 956,
      "mail": 957,
      "Ġlin": 958,
      "Ġvers": 959,
      "Ġgemeinsam": 960,
      "Ġhaus": 961,
      "fon": 962,
      "Ġbel": 963,
      "ziehungen": 964,
      "Ġentwicklung": 965,
      "Ġerfol": 966,
      "schlie": 967,
      "Ġwarum": 968,
      "Ġha": 969,
      "Ġmir": 970,
      "Ġbeg": 971,
      "zeit": 972,
      "Ġdrei": 973,
      "schie": 974,
      "ffe": 975,
      "gang": 976,
      "Ġwo": 977,
      "Ġser": 978,
      "lage": 979,
      "ilfe": 980,
      "Ġhost": 981,
      "Ġitalien": 982,
      "ordnung": 983,
      "bo": 984,
      "Ġmenschen": 985,
      "ate": 986,
      "mittel": 987,
      "Ġ20": 988,
      "ec": 989,
      "35": 990,
      "chte": 991,
      "Ġwissen": 992,
      "Ġru": 993,
      "Ġ15": 994,
      "Ġbed": 995,
      "Ġfinanzen": 996,
      "Ġumwelt": 997,
      "stat": 998,
      "Ġener": 999,
      "dern": 1000,
      "gien": 1001,
      "Ġti": 1002,
      "Ġlandwirtschaft": 1003,
      "Ġy": 1004,
      "Ġausge": 1005,
      "Ġdaher": 1006,
      "Ġli": 1007,
      "Ġbo": 1008,
      "Ġdamit": 1009,
      "schei": 1010,
      "komm": 1011,
      ".:": 1012,
      "Ġthem": 1013,
      "ĠdafÃ¼r": 1014,
      "Ġsollte": 1015,
      "ds": 1016,
      "Ġpol": 1017,
      "tok": 1018,
      "retÃ¤r": 1019,
      "hÃ¶r": 1020,
      "kun": 1021,
      "gem": 1022,
      "25": 1023,
      "los": 1024,
      "Ġmorgen": 1025,
      "satz": 1026,
      "stellt": 1027,
      "ritt": 1028,
      "Ġalles": 1029,
      "Ġjahre": 1030,
      "11": 1031,
      "Ġvo": 1032,
      "Ġ:": 1033,
      "onder": 1034,
      "tionen": 1035,
      "Ġohne": 1036,
      "Ġdok": 1037,
      "Ġis": 1038,
      "Ġslo": 1039,
      "Ã¶s": 1040,
      "Ġergeb": 1041,
      "Ġbar": 1042,
      "tro": 1043,
      "tokoll": 1044,
      "pun": 1045,
      "Ġred": 1046,
      "stÃ¤n": 1047,
      "Ġhau": 1048,
      "gar": 1049,
      "Ġnr": 1050,
      "Ġliegt": 1051,
      "Ġviele": 1052,
      "alen": 1053,
      "Ġfrei": 1054,
      "stiz": 1055,
      "Ġwurden": 1056,
      "Ġwort": 1057,
      "Ġhostels": 1058,
      "uchen": 1059,
      "ĠmaÃŁnahmen": 1060,
      "Ġtel": 1061,
      "Ġteilnehmer": 1062,
      "schland": 1063,
      "Ġsollten": 1064,
      "Ġlux": 1065,
      "auen": 1066,
      "mus": 1067,
      "Ġspanien": 1068,
      "derung": 1069,
      "Ġandere": 1070,
      "Ġvoll": 1071,
      "esen": 1072,
      "Ġwelche": 1073,
      "tikel": 1074,
      "rift": 1075,
      "kunft": 1076,
      "samt": 1077,
      "all": 1078,
      "str": 1079,
      "Ġsitzung": 1080,
      "Ġunternehmen": 1081,
      "Ġverein": 1082,
      "hof": 1083,
      "ssek": 1084,
      "ĠerklÃ¤rte": 1085,
      "linie": 1086,
      "Ġsicherheit": 1087,
      "hÃ¤": 1088,
      "ktor": 1089,
      "Ġprotokoll": 1090,
      "tei": 1091,
      "eg": 1092,
      "Ġwoh": 1093,
      "gehen": 1094,
      "werb": 1095,
      "upp": 1096,
      "itu": 1097,
      "Ġinn": 1098,
      "ssekretÃ¤r": 1099,
      "51": 1100,
      "kon": 1101,
      "Ġjustiz": 1102,
      "Ġziel": 1103,
      "co": 1104,
      "tigt": 1105,
      "spiel": 1106,
      "Ġzimmer": 1107,
      "Ġwollen": 1108,
      "Ġx": 1109,
      "per": 1110,
      "fahr": 1111,
      "ĠnatÃ¼r": 1112,
      "Ġenergie": 1113,
      "rifft": 1114,
      "des": 1115,
      "geben": 1116,
      "Ġnieder": 1117,
      "Ġbegr": 1118,
      "Ġdokum": 1119,
      "staaten": 1120,
      "ĠunterstÃ¼tz": 1121,
      "Ġdeshalb": 1122,
      "Ġad": 1123,
      "Ġzw": 1124,
      "Ã¼nf": 1125,
      "merk": 1126,
      "Ġdeutschland": 1127,
      "Ġkosten": 1128,
      "llen": 1129,
      "Ġeinz": 1130,
      "spolitik": 1131,
      "blik": 1132,
      "Ġtag": 1133,
      "unde": 1134,
      "Ġbie": 1135,
      "cken": 1136,
      "Ġmachen": 1137,
      "Ġselbst": 1138,
      "politik": 1139,
      "Ġtran": 1140,
      "):": 1141,
      "Ġpl": 1142,
      "Ġ/": 1143,
      "Ġdaten": 1144,
      "stimmt": 1145,
      "pa": 1146,
      "zei": 1147,
      "Ġihren": 1148,
      "Ġhal": 1149,
      "Ġdanke": 1150,
      "Ġdab": 1151,
      "Ġmal": 1152,
      "ĠverfÃ¼g": 1153,
      "markt": 1154,
      "sicht": 1155,
      "Ġeben": 1156,
      "iele": 1157,
      "mmt": 1158,
      "Ġinternet": 1159,
      "Ġdabei": 1160,
      "stag": 1161,
      "Ġlage": 1162,
      "Ġwerde": 1163,
      "Ġschon": 1164,
      "Ġkar": 1165,
      "Ġ2009": 1166,
      "adt": 1167,
      "sterreich": 1168,
      "wert": 1169,
      "ow": 1170,
      "Ġsehen": 1171,
      "ks": 1172,
      "Ã¶rter": 1173,
      "Ġschrift": 1174,
      "Ġkommen": 1175,
      "publik": 1176,
      "zep": 1177,
      "Ġlassen": 1178,
      "ĠgrÃ¼": 1179,
      "ache": 1180,
      "Ġtele": 1181,
      "Ġluxem": 1182,
      "Ġap": 1183,
      "ĠnÃ¤ch": 1184,
      "agen": 1185,
      "Ġsteht": 1186,
      "Ġperson": 1187,
      "ris": 1188,
      "acht": 1189,
      "Ġfolgende": 1190,
      "12": 1191,
      "Ġblei": 1192,
      "ÃŁer": 1193,
      "40": 1194,
      "Ġbede": 1195,
      "ph": 1196,
      "ilt": 1197,
      "ĠnatÃ¼rlich": 1198,
      "Ġverkehr": 1199,
      "Ġentschei": 1200,
      "Ġschw": 1201,
      "inder": 1202,
      "gl": 1203,
      "Ġstand": 1204,
      "ert": 1205,
      "Ġpunkt": 1206,
      "ment": 1207,
      "Ġluxemburg": 1208,
      "igkeit": 1209,
      "ĠÃ¶sterreich": 1210,
      "digen": 1211,
      "Ã¤m": 1212,
      "Ġfun": 1213,
      "Ġbelgien": 1214,
      "ĠwÃ¼r": 1215,
      "Ġfort": 1216,
      "Ġanfrage": 1217,
      "Ġlo": 1218,
      "ven": 1219,
      "rat": 1220,
      "ast": 1221,
      "issar": 1222,
      "ren": 1223,
      "Ġph": 1224,
      "ktur": 1225,
      "ĠfrÃ¼": 1226,
      "Ġii": 1227,
      "iger": 1228,
      "Ġtechn": 1229,
      "20": 1230,
      "Ġus": 1231,
      "Ġung": 1232,
      "Ġbrauchen": 1233,
      "Ġgef": 1234,
      "ĠbÃ¼r": 1235,
      "ungsan": 1236,
      "Ġirland": 1237,
      "Ġnah": 1238,
      "Ġaller": 1239,
      "ettbe": 1240,
      "zahl": 1241,
      "Ġsonsti": 1242,
      "Ġ,": 1243,
      "alitÃ¤t": 1244,
      "Ġwaren": 1245,
      "ĠerÃ¶rter": 1246,
      "Ġseit": 1247,
      "Ġschwe": 1248,
      "Ġern": 1249,
      "Ġnichts": 1250,
      "tern": 1251,
      "Ġrepublik": 1252,
      "Ġmittel": 1253,
      "Ġdav": 1254,
      "rag": 1255,
      "Ġgeben": 1256,
      "verfahren": 1257,
      "Ġgilt": 1258,
      "Ġbesten": 1259,
      "Ã¤f": 1260,
      "ettbewerb": 1261,
      "Ġklar": 1262,
      "Ġaussch": 1263,
      "dien": 1264,
      "Ġsagen": 1265,
      "Ġfest": 1266,
      "Ġat": 1267,
      "Ġantwort": 1268,
      "ser": 1269,
      "Ġzusammenarbeit": 1270,
      "ĠÃ¶ffentlichkeit": 1271,
      "Ġabge": 1272,
      "Ġempf": 1273,
      "Ġni": 1274,
      "inn": 1275,
      "Ġip": 1276,
      "handel": 1277,
      "Ġ18": 1278,
      "Ġbetrifft": 1279,
      "Ġ16": 1280,
      "hÃ¤lt": 1281,
      "Ġeines": 1282,
      "setzung": 1283,
      "Ġniederl": 1284,
      "ente": 1285,
      "Ġbek": 1286,
      "Ġgar": 1287,
      "Ġseite": 1288,
      "alis": 1289,
      "Ġerste": 1290,
      "Ġbereits": 1291,
      "Ġfinn": 1292,
      "Ġproje": 1293,
      "schlieÃŁ": 1294,
      "ÃŁe": 1295,
      "line": 1296,
      "ip": 1297,
      "licher": 1298,
      "Ġbeit": 1299,
      "ichtige": 1300,
      "Ġ2007": 1301,
      "Ġneuen": 1302,
      "stellung": 1303,
      "ac": 1304,
      "icken": 1305,
      "Ġken": 1306,
      "ĠdÃ¤n": 1307,
      "emark": 1308,
      "tieren": 1309,
      "Ġfunktion": 1310,
      "uen": 1311,
      "Ġsozial": 1312,
      "Ġfischer": 1313,
      "Ġschweden": 1314,
      "ka": 1315,
      "weise": 1316,
      "bung": 1317,
      "man": 1318,
      "stra": 1319,
      "Ġ17": 1320,
      "Ġseine": 1321,
      "va": 1322,
      "ĠzurÃ¼ck": 1323,
      "uer": 1324,
      "zeich": 1325,
      "ange": 1326,
      "Ġglau": 1327,
      "Ġbl": 1328,
      "ionen": 1329,
      "ktu": 1330,
      "Ġdire": 1331,
      "Ġel": 1332,
      "Ġviews": 1333,
      "Ġletz": 1334,
      "Ġintern": 1335,
      "forder": 1336,
      "cl": 1337,
      "Ġniederlande": 1338,
      "rist": 1339,
      "Ġ13": 1340,
      "Ġunserer": 1341,
      "ungsantrag": 1342,
      "Ġanderen": 1343,
      "Ġfinnland": 1344,
      "Ġschn": 1345,
      "Ġzei": 1346,
      "Ġihrer": 1347,
      "Ġherrn": 1348,
      "Ġthema": 1349,
      "die": 1350,
      "ichte": 1351,
      "Ġweg": 1352,
      "Ġgenau": 1353,
      "ĠwÃ¤re": 1354,
      "Ġvorschlag": 1355,
      "Ġkurz": 1356,
      "Ġangenommene": 1357,
      "Ġnam": 1358,
      "Ġdenn": 1359,
      "ium": 1360,
      "Ġbesser": 1361,
      "stellen": 1362,
      "Ġpresse": 1363,
      "Ġministerin": 1364,
      "ĠÃ¤": 1365,
      "keiten": 1366,
      "schutz": 1367,
      "ĠdÃ¤nemark": 1368,
      "ĠerÃ¶rterte": 1369,
      "Ġverfahren": 1370,
      "ehmen": 1371,
      "Ġverst": 1372,
      "das": 1373,
      "Ġsu": 1374,
      "punkt": 1375,
      "ÃŁt": 1376,
      "Ġintere": 1377,
      "Ġof": 1378,
      "so": 1379,
      "tigung": 1380,
      "Ġerrei": 1381,
      "Ġfrank": 1382,
      "nte": 1383,
      "Ġter": 1384,
      "ĠmuÃŁ": 1385,
      "Ġhei": 1386,
      "ding": 1387,
      "Ġwirklich": 1388,
      "Ġtw": 1389,
      "gabe": 1390,
      "ĠgrÃ¶": 1391,
      "ja": 1392,
      "Ġeinzel": 1393,
      "hang": 1394,
      "Ġinner": 1395,
      "Ġdis": 1396,
      "angen": 1397,
      "Ġzwischen": 1398,
      "Ġget": 1399,
      "Ġmitgliedstaaten": 1400,
      "stand": 1401,
      "Ġzukunft": 1402,
      "Ġallgem": 1403,
      "ca": 1404,
      "Ġrichtlinie": 1405,
      "gew": 1406,
      "Ġtage": 1407,
      "ĠgrÃ¼n": 1408,
      "ĠstaatssekretÃ¤r": 1409,
      "Ġfeh": 1410,
      "itter": 1411,
      "Ġerfolg": 1412,
      "Ġgestimmt": 1413,
      "Ġ2010": 1414,
      "Ġinternation": 1415,
      "auss": 1416,
      "Ġaktu": 1417,
      "ruktur": 1418,
      "fern": 1419,
      "rich": 1420,
      "Ġonline": 1421,
      "Ġstehen": 1422,
      "ĠdaÃŁ": 1423,
      "Ġveran": 1424,
      "âĤ": 1425,
      "Ġkult": 1426,
      "âĤ¬": 1427,
      "ĠbeschÃ¤f": 1428,
      "Ġprior": 1429,
      "Ġbesonder": 1430,
      "arn": 1431,
      "ritte": 1432,
      "vertreter": 1433,
      "Ġkam": 1434,
      "Ġersten": 1435,
      "Ġfischerei": 1436,
      "tisch": 1437,
      "Ġ2008": 1438,
      "gaben": 1439,
      "ĠbegrÃ¼": 1440,
      "Ġnot": 1441,
      "min": 1442,
      "Ġjan": 1443,
      "weiter": 1444,
      "Ġjun": 1445,
      "Ġinve": 1446,
      "Ġcon": 1447,
      "Ġgericht": 1448,
      "ahn": 1449,
      "Ġdien": 1450,
      "46": 1451,
      "50": 1452,
      "Ġport": 1453,
      "Ġ*": 1454,
      "Ġgern": 1455,
      "Ġsonstige": 1456,
      "Ġest": 1457,
      "ĠlÃ¤nder": 1458,
      "iste": 1459,
      "Ġbinnen": 1460,
      "Ġpoliti": 1461,
      "ald": 1462,
      "Ġrechts": 1463,
      "Ġverw": 1464,
      "ĠhÃ¶": 1465,
      "Ġjeder": 1466,
      "Ġhilfe": 1467,
      "ade": 1468,
      "sÃ¤t": 1469,
      "od": 1470,
      "ellen": 1471,
      "Ġende": 1472,
      "ekon": 1473,
      "ou": 1474,
      "ĠauÃŁer": 1475,
      "oren": 1476,
      "ĠentschlieÃŁ": 1477,
      "96": 1478,
      "Ġbeim": 1479,
      "Ġgleich": 1480,
      "Ġpreis": 1481,
      "Ġgute": 1482,
      "Ġsystem": 1483,
      "eht": 1484,
      "Ġeinmal": 1485,
      "Ġlau": 1486,
      "ember": 1487,
      "Ġpressekon": 1488,
      "Ġor": 1489,
      "Ġverwen": 1490,
      "igung": 1491,
      "annt": 1492,
      "ismus": 1493,
      "Ġtre": 1494,
      "Ġ[": 1495,
      "verkehr": 1496,
      "eta": 1497,
      "bau": 1498,
      "beiten": 1499,
      "ite": 1500,
      "Ġgl": 1501,
      "Ġgeld": 1502,
      "Ġmed": 1503,
      "Ġmio": 1504,
      "Ġob": 1505,
      "Ġbeispiel": 1506,
      "Ġzent": 1507,
      "tegie": 1508,
      "Ġhand": 1509,
      "rÃ¤ge": 1510,
      "Ġerw": 1511,
      "Ġtwitter": 1512,
      "ian": 1513,
      "ĠgehÃ¶r": 1514,
      "ko": 1515,
      "Ġfer": 1516,
      "ĠfÃ¶r": 1517,
      "Ġstar": 1518,
      "Ġca": 1519,
      "Ġkinder": 1520,
      "uten": 1521,
      "ase": 1522,
      "Ġtex": 1523,
      "Ġverl": 1524,
      "eln": 1525,
      "Ġbefin": 1526,
      "Ġ!": 1527,
      "Ġinhalt": 1528,
      "Ġoffen": 1529,
      "sto": 1530,
      "ierte": 1531,
      "ĠlÃ¶s": 1532,
      "Ġwettbewerb": 1533,
      "Ġergebnisse": 1534,
      "lungen": 1535,
      "Ġvertrag": 1536,
      "Ġka": 1537,
      "Ġpolen": 1538,
      "wa": 1539,
      "Ġnor": 1540,
      "unter": 1541,
      "hmen": 1542,
      "Ġhel": 1543,
      "fragen": 1544,
      "Ġtelefon": 1545,
      "Ġpart": 1546,
      "Ġverh": 1547,
      "zeug": 1548,
      "vers": 1549,
      "lungs": 1550,
      "ikation": 1551,
      "asst": 1552,
      "Ġlit": 1553,
      "Ġart": 1554,
      "twor": 1555,
      "Ġbu": 1556,
      "Ã¶ff": 1557,
      "our": 1558,
      "lex": 1559,
      "dlich": 1560,
      "Ġverk": 1561,
      "ĠâĤ¬": 1562,
      "raum": 1563,
      "utzen": 1564,
      "Ġforsch": 1565,
      "ssung": 1566,
      "eitung": 1567,
      "innen": 1568,
      "Ġdarauf": 1569,
      "undheit": 1570,
      "riften": 1571,
      "Ã¤ten": 1572,
      "Ġhoch": 1573,
      "einen": 1574,
      "staat": 1575,
      "tor": 1576,
      "15": 1577,
      "Ġpe": 1578,
      "Ġ30": 1579,
      "Ġdavon": 1580,
      "Ġverbrauch": 1581,
      "Ġdat": 1582,
      "da": 1583,
      "Ġallen": 1584,
      "98": 1585,
      "schieden": 1586,
      "Ġverbe": 1587,
      "tiven": 1588,
      "Ġspe": 1589,
      "ĠstÃ¤ndig": 1590,
      "ehm": 1591,
      "Ġfrankreich": 1592,
      "bot": 1593,
      "Ġnation": 1594,
      "Ġkommt": 1595,
      "Ġby": 1596,
      "Ġeinge": 1597,
      "schriften": 1598,
      "strie": 1599,
      "Ġstadt": 1600,
      "erung": 1601,
      "Ġkro": 1602,
      "Ġide": 1603,
      "falls": 1604,
      "fel": 1605,
      "Ġkultur": 1606,
      "Ġbild": 1607,
      "Ġsk": 1608,
      "Ġkm": 1609,
      "rak": 1610,
      "74": 1611,
      "tische": 1612,
      "Ġgener": 1613,
      "Ġdokument": 1614,
      "ĠdÃ¼r": 1615,
      "Ġpass": 1616,
      "ĠstÃ¤ndigen": 1617,
      "Ġtransp": 1618,
      "Ġklicken": 1619,
      "ĠerklÃ¤rungen": 1620,
      "ci": 1621,
      "Ġvotes": 1622,
      "Ġvier": 1623,
      "tiert": 1624,
      "recht": 1625,
      "anden": 1626,
      "Ġscha": 1627,
      "Ġnehmen": 1628,
      "beziehungen": 1629,
      "Ġmobil": 1630,
      "raft": 1631,
      "kommissar": 1632,
      "end": 1633,
      "ĠwÃ¼rde": 1634,
      "Ġzyp": 1635,
      "16": 1636,
      "ĠeuropÃ¤ischer": 1637,
      "olle": 1638,
      "Ġmacht": 1639,
      "zlich": 1640,
      "Ġdemok": 1641,
      "Ġdeb": 1642,
      "Ġthis": 1643,
      "ue": 1644,
      "Ġgemeinsame": 1645,
      "Ġreform": 1646,
      "ĠdarÃ¼ber": 1647,
      "organ": 1648,
      "ima": 1649,
      "Ġgerichts": 1650,
      "Ġvertreters": 1651,
      "schaf": 1652,
      "weis": 1653,
      "ferenz": 1654,
      "09": 1655,
      "Ġbeziehungen": 1656,
      "hol": 1657,
      "Ġwillkommen": 1658,
      "ituation": 1659,
      "Ġnimmt": 1660,
      "Ġgehen": 1661,
      "Ġ25": 1662,
      "ens": 1663,
      "Ġdarf": 1664,
      "Ġbinnenmarkt": 1665,
      "Ġgesundheit": 1666,
      "Ġlangu": 1667,
      "ĠunterstÃ¼tzung": 1668,
      "ĠfrÃ¼h": 1669,
      "02": 1670,
      "03": 1671,
      "ron": 1672,
      "Ġvorge": 1673,
      "Ġas": 1674,
      "are": 1675,
      "13": 1676,
      "ĠerklÃ¤rung": 1677,
      "bank": 1678,
      "Ġstu": 1679,
      "Ġna": 1680,
      "aler": 1681,
      "Ġbereich": 1682,
      "Ġerweiter": 1683,
      "leist": 1684,
      "Ã¤hlen": 1685,
      "Ġhaupt": 1686,
      "Ġtat": 1687,
      "ĠbÃ¼rger": 1688,
      "Ġlanguage": 1689,
      "tis": 1690,
      "ure": 1691,
      "Ġstimm": 1692,
      "na": 1693,
      "Ġpolitik": 1694,
      "Ġgest": 1695,
      "Ġ28": 1696,
      "Ġungarn": 1697,
      "treten": 1698,
      "plan": 1699,
      "Ġkor": 1700,
      "Ġjul": 1701,
      "Ġerhalten": 1702,
      "Ġartikel": 1703,
      "Ġzypern": 1704,
      "club": 1705,
      "Ġheraus": 1706,
      "ative": 1707,
      "gesamt": 1708,
      "ari": 1709,
      "Ġvors": 1710,
      "45": 1711,
      "Ġmarkt": 1712,
      "itÃ¤ten": 1713,
      "Ġschnell": 1714,
      "Ġaktion": 1715,
      "Ġmu": 1716,
      "Ġinvesti": 1717,
      "Ġentsp": 1718,
      "Ġjahren": 1719,
      "Ġmill": 1720,
      "Ġanhang": 1721,
      "Ġbucht": 1722,
      "Ġstellen": 1723,
      "beh": 1724,
      "Ġfolgenden": 1725,
      "ĠĠ": 1726,
      "zess": 1727,
      "Ġdel": 1728,
      "Ġwach": 1729,
      "po": 1730,
      "ĠrÃ¼ck": 1731,
      "Ġform": 1732,
      "Ġsh": 1733,
      "schech": 1734,
      "Ġwirtschafts": 1735,
      "fÃ¤": 1736,
      "Ġba": 1737,
      "undes": 1738,
      "Ġmag": 1739,
      "tem": 1740,
      "ĠverfÃ¼gbar": 1741,
      "gs": 1742,
      "Ġcar": 1743,
      "Ġredner": 1744,
      "Ġrum": 1745,
      "hin": 1746,
      "cher": 1747,
      "altung": 1748,
      "75": 1749,
      "86": 1750,
      "Ġschwer": 1751,
      "352": 1752,
      "ĠschÃ¶n": 1753,
      "Ġarbeits": 1754,
      "Ġdisk": 1755,
      "iv": 1756,
      "Ġdin": 1757,
      "Ġihrem": 1758,
      "Ġposi": 1759,
      "Ġslowen": 1760,
      "rum": 1761,
      "zent": 1762,
      "Ġregel": 1763,
      "ruck": 1764,
      "fort": 1765,
      "Ġtschech": 1766,
      "Ġerwar": 1767,
      "Ġschutz": 1768,
      "Ġkommissarin": 1769,
      "ĠmÃ¤r": 1770,
      "Ġflug": 1771,
      "ĠtÃ¼r": 1772,
      "uppe": 1773,
      "ĠprÃ¤sidentin": 1774,
      "97": 1775,
      "sagt": 1776,
      "Ġinsgesamt": 1777,
      "df": 1778,
      "Ġgo": 1779,
      "Ġprobleme": 1780,
      "spe": 1781,
      "Ã¶l": 1782,
      "enten": 1783,
      "Ġsituation": 1784,
      "ys": 1785,
      "prÃ¼": 1786,
      "Ġdeta": 1787,
      "Ġglaube": 1788,
      "Ġslowenien": 1789,
      "Ġhostelsclub": 1790,
      "Ġabkommen": 1791,
      "Ġpartner": 1792,
      "Ġbenutz": 1793,
      "ĠgroÃŁe": 1794,
      "Ġindu": 1795,
      "Ġbesteht": 1796,
      "Ġlebens": 1797,
      "ĠstÃ¤ndiger": 1798,
      "Ġgerichtshof": 1799,
      "Ġbul": 1800,
      "rÃ¤n": 1801,
      "Ġ000": 1802,
      "olo": 1803,
      "stÃ¼ck": 1804,
      "Ġfahr": 1805,
      "ĠkÃ¶nig": 1806,
      "ĠtÃ¤": 1807,
      "33": 1808,
      "ob": 1809,
      "wak": 1810,
      "Ã¤ÃŁ": 1811,
      "Ġausschuss": 1812,
      "licht": 1813,
      "ome": 1814,
      "tin": 1815,
      "ĠfÃ¼hr": 1816,
      "Ã¤ft": 1817,
      "ign": 1818,
      "Ġsag": 1819,
      "22": 1820,
      "Ġgemeinschaft": 1821,
      "atte": 1822,
      "ĠweiÃŁ": 1823,
      "Ġjeden": 1824,
      "alog": 1825,
      "Ġol": 1826,
      "Ã¤sser": 1827,
      "Ġstellvertreter": 1828,
      "stum": 1829,
      "Ġhe": 1830,
      "Ġestland": 1831,
      "ettland": 1832,
      "ity": 1833,
      "Ġlinks": 1834,
      "Ġempfeh": 1835,
      "digung": 1836,
      "Ġbietet": 1837,
      "Ġhierzu": 1838,
      "erst": 1839,
      "Ġunseren": 1840,
      "tens": 1841,
      "Ġverbesser": 1842,
      "Ġdort": 1843,
      "ĠsÃ¼": 1844,
      "igt": 1845,
      "Ġschriftliche": 1846,
      "Ġwahr": 1847,
      "Ġslowak": 1848,
      "Ġinnov": 1849,
      "Ġerst": 1850,
      "ĠrumÃ¤n": 1851,
      "mo": 1852,
      "Ġ23": 1853,
      "Ġinte": 1854,
      "Ġleider": 1855,
      "ĠbeschÃ¤ftigung": 1856,
      "fang": 1857,
      "enzen": 1858,
      "one": 1859,
      "Ġkre": 1860,
      "Ġpressekontakt": 1861,
      "Ġlitauen": 1862,
      "kten": 1863,
      "Ġlettland": 1864,
      "amil": 1865,
      "gu": 1866,
      "Ã¤ng": 1867,
      "Ã¼b": 1868,
      "leg": 1869,
      "Ġcl": 1870,
      "Ġbesuch": 1871,
      "Ġtro": 1872,
      "cc": 1873,
      "cess": 1874,
      "ĠwÃ¼n": 1875,
      "Ġbulgar": 1876,
      "iet": 1877,
      "bes": 1878,
      "Ġverbraucher": 1879,
      "programm": 1880,
      "ogen": 1881,
      "Ġwichtige": 1882,
      "unikation": 1883,
      "schrei": 1884,
      "sordnung": 1885,
      "Ġsy": 1886,
      "95": 1887,
      "Ġbildung": 1888,
      "Ġwahl": 1889,
      "Ã¤ge": 1890,
      "dings": 1891,
      "lagen": 1892,
      "tag": 1893,
      "Ġmei": 1894,
      "lassen": 1895,
      "schluss": 1896,
      "abil": 1897,
      "Ġaf": 1898,
      "ĠÃ¤nderungsantrag": 1899,
      "ander": 1900,
      "Ġentfern": 1901,
      "wertung": 1902,
      "Ġdirekt": 1903,
      "Ġallerdings": 1904,
      "Ġ24": 1905,
      "Ġkeinen": 1906,
      "ĠrumÃ¤nien": 1907,
      "),": 1908,
      "Ġgerne": 1909,
      "Ġ21": 1910,
      "th": 1911,
      "ied": 1912,
      "Ġmai": 1913,
      "ans": 1914,
      "Ġta": 1915,
      "press": 1916,
      "ĠprÃ¤": 1917,
      "ban": 1918,
      "ĠnÃ¤h": 1919,
      "Ġmeiner": 1920,
      "achen": 1921,
      "Ġindustrie": 1922,
      "Ġerstellt": 1923,
      "Ã¤mpf": 1924,
      "ckt": 1925,
      "201": 1926,
      "eration": 1927,
      "Ġbulgarien": 1928,
      "Ġklima": 1929,
      "az": 1930,
      "ils": 1931,
      "legt": 1932,
      "Ġew": 1933,
      "Ġpla": 1934,
      "Ġword": 1935,
      "gegen": 1936,
      "gri": 1937,
      "sver": 1938,
      "pe": 1939,
      "Ġluft": 1940,
      "Ġwichtigste": 1941,
      "ĠgÃ¤": 1942,
      "Ġchina": 1943,
      "mb": 1944,
      "Ġort": 1945,
      "tworten": 1946,
      "Ġpdf": 1947,
      "Ġtschechische": 1948,
      "Ġmem": 1949,
      "Ġfot": 1950,
      "Ġeuropas": 1951,
      "Ġ?": 1952,
      "Ġwoch": 1953,
      "ĠgeschÃ¤ft": 1954,
      "cen": 1955,
      "splan": 1956,
      "Ġverschieden": 1957,
      "Ġglo": 1958,
      "schlÃ¼": 1959,
      "fÃ¤h": 1960,
      "Ġsl": 1961,
      "Ã¤nger": 1962,
      "mel": 1963,
      "fiz": 1964,
      "lÃ¤nder": 1965,
      "Ġsan": 1966,
      "abel": 1967,
      "ĠkÃ¶nnte": 1968,
      "Ġno": 1969,
      "ĠauÃŁen": 1970,
      "Ġwasser": 1971,
      "Ġinneres": 1972,
      "fre": 1973,
      "Ġweit": 1974,
      "artikel": 1975,
      "Ġzugang": 1976,
      "18": 1977,
      "Ġziele": 1978,
      "hilfe": 1979,
      "Ġpersonen": 1980,
      "Ġfamil": 1981,
      "Ġbr": 1982,
      "Ġgenehm": 1983,
      "ĠdÃ¼rfen": 1984,
      "Ġzweite": 1985,
      "Ġaussen": 1986,
      "14": 1987,
      "chten": 1988,
      "ringen": 1989,
      "Ġpage": 1990,
      "Ġprojekt": 1991,
      "Ġklein": 1992,
      "ruf": 1993,
      "Ġvertei": 1994,
      "Ġgesagt": 1995,
      "Ġsprechen": 1996,
      "Ġbleibt": 1997,
      "Ġschlie": 1998,
      "haus": 1999,
      "Ġnov": 2000,
      "Ġeigent": 2001,
      "under": 2002,
      "Ġ50": 2003,
      "Ġdenke": 2004,
      "fÃ¼hrt": 2005,
      "kan": 2006,
      "Ġslowakei": 2007,
      "zt": 2008,
      "nungen": 2009,
      "Ġgesamt": 2010,
      "zÃ¼": 2011,
      "fasst": 2012,
      "Ġruss": 2013,
      "zeprÃ¤sident": 2014,
      "Ġansp": 2015,
      "Ġmil": 2016,
      "urop": 2017,
      "Ġliste": 2018,
      "ĠlÃ¶sung": 2019,
      "Ġtranspar": 2020,
      "organis": 2021,
      "abkommen": 2022,
      "Ġihn": 2023,
      "Ġkontro": 2024,
      "opp": 2025,
      "Ġprodukte": 2026,
      "fte": 2027,
      "cker": 2028,
      "Ġhotels": 2029,
      "Ġzentra": 2030,
      "Ġ@": 2031,
      "Ġbundes": 2032,
      "rise": 2033,
      "Ġverantwort": 2034,
      "Ġregionen": 2035,
      "Ġjuni": 2036,
      "bericht": 2037,
      "Ġforschung": 2038,
      "Ġpal": 2039,
      "ichter": 2040,
      "Ġbestimm": 2041,
      "wie": 2042,
      "sol": 2043,
      "tions": 2044,
      "Ġdan": 2045,
      "Ġentscheidung": 2046,
      "chs": 2047,
      "Ġ100": 2048,
      "Ġschul": 2049,
      "ugal": 2050,
      "Ġinst": 2051,
      "woh": 2052,
      "Ġlange": 2053,
      "Ġ27": 2054,
      "ba": 2055,
      "Ġsen": 2056,
      "Ġrolle": 2057,
      "sich": 2058,
      "Ġkap": 2059,
      "Ġvereinig": 2060,
      "llig": 2061,
      "ril": 2062,
      "Ġva": 2063,
      "ĠkÃ¶nigreich": 2064,
      "Ġstr": 2065,
      "Ġhoffe": 2066,
      "ĠstÃ¤r": 2067,
      "reis": 2068,
      "Ġsagte": 2069,
      "Ġglob": 2070,
      "eicht": 2071,
      "Ġ2000": 2072,
      "Ġnotwen": 2073,
      "ĠkÃ¼": 2074,
      "Ġarbeiten": 2075,
      "Ġhinzu": 2076,
      "sprochen": 2077,
      "reg": 2078,
      "olog": 2079,
      "wegen": 2080,
      "eig": 2081,
      "Ġstrategie": 2082,
      "ile": 2083,
      "Ġsor": 2084,
      "Ġfrauen": 2085,
      "Ġurteil": 2086,
      "vice": 2087,
      "Ġwenden": 2088,
      "weg": 2089,
      "bet": 2090,
      "Ġtelefonisch": 2091,
      "Ġwes": 2092,
      "eren": 2093,
      "ĠunterstÃ¼tzen": 2094,
      "Ġerweiterung": 2095,
      "Ġmemo": 2096,
      "ware": 2097,
      "seite": 2098,
      "Ġbleiben": 2099,
      "Ġdinge": 2100,
      "Ġdo": 2101,
      "stagung": 2102,
      "fÃ¼hrung": 2103,
      "Ã¤s": 2104,
      "Ġaut": 2105,
      "Ġverm": 2106,
      "auer": 2107,
      "ides": 2108,
      "ĠnÃ¤chsten": 2109,
      "zept": 2110,
      "kar": 2111,
      "sprogramm": 2112,
      "ĠprioritÃ¤t": 2113,
      "Ġ&": 2114,
      "Ġrechtss": 2115,
      "04": 2116,
      "Ġwert": 2117,
      "Ġtour": 2118,
      "Ġworden": 2119,
      "Ġverg": 2120,
      "Ġerreichen": 2121,
      "Ġlast": 2122,
      "Ġportugal": 2123,
      "Ġ2006": 2124,
      "Ġwachstum": 2125,
      "Ġzie": 2126,
      "cke": 2127,
      "struktur": 2128,
      "eint": 2129,
      "Ġfil": 2130,
      "Ġrahmen": 2131,
      "ĠbenÃ¶": 2132,
      "Ġkat": 2133,
      "Ġpark": 2134,
      "Ġwohl": 2135,
      "05": 2136,
      "do": 2137,
      "Ġpreise": 2138,
      "ratie": 2139,
      "Ġstimme": 2140,
      "llt": 2141,
      "ĠverÃ¤nder": 2142,
      "Ġbenach": 2143,
      "Ġeg": 2144,
      "Ġdon": 2145,
      "Ġbefindet": 2146,
      "cessed": 2147,
      "itt": 2148,
      "bel": 2149,
      "Ġwi": 2150,
      "Ġentfernt": 2151,
      "alten": 2152,
      "Ġbas": 2153,
      "Ġsieht": 2154,
      "Ġant": 2155,
      "21": 2156,
      "erik": 2157,
      "Ġbal": 2158,
      "06": 2159,
      "Ã¤d": 2160,
      "Ã¤nd": 2161,
      "ĠtÃ¼rk": 2162,
      "rÃ¤gt": 2163,
      "ĠgrÃ¶ÃŁ": 2164,
      "Ġaktiv": 2165,
      "ission": 2166,
      "laub": 2167,
      "ĠÃ¤ndern": 2168,
      "hÃ¶": 2169,
      "Ġunterb": 2170,
      "ino": 2171,
      "Ġrichtig": 2172,
      "vorschriften": 2173,
      "ĠverfÃ¼gung": 2174,
      "Ã¤mpfung": 2175,
      "Ġzun": 2176,
      "Ġzahlen": 2177,
      "arbei": 2178,
      "ĠÃ¤uÃŁ": 2179,
      "Ġfehler": 2180,
      "utet": 2181,
      "Ġherren": 2182,
      "rom": 2183,
      "ĠprÃ¼": 2184,
      "fonds": 2185,
      "ies": 2186,
      "ĠwÃ¤hlen": 2187,
      "303": 2188,
      "Ġfar": 2189,
      "rechte": 2190,
      "Ġstimmen": 2191,
      "Ġnamen": 2192,
      "up": 2193,
      "Ġjuli": 2194,
      "Ġac": 2195,
      "Ġnutzen": 2196,
      "Ġtext": 2197,
      "hau": 2198,
      "Ã¶ffnet": 2199,
      "ga": 2200,
      "Ġbieten": 2201,
      "uf": 2202,
      "Ġbuch": 2203,
      "Ġsee": 2204,
      "Ġgraph": 2205,
      "anken": 2206,
      "24": 2207,
      "ĠfÃ¤": 2208,
      "Ġinnovation": 2209,
      "ii": 2210,
      "Ġbeen": 2211,
      "Ġdamen": 2212,
      "Ġfortsch": 2213,
      "Ġpers": 2214,
      "ance": 2215,
      "rech": 2216,
      "amp": 2217,
      "tien": 2218,
      "34": 2219,
      "Ġnahm": 2220,
      "yn": 2221,
      "Ġdatei": 2222,
      "hn": 2223,
      "Ġfolgt": 2224,
      "ĠvizeprÃ¤sident": 2225,
      "ĠglÃ¼ck": 2226,
      "Ġerforder": 2227,
      "Ġjugend": 2228,
      "mut": 2229,
      "Ġfal": 2230,
      "isten": 2231,
      "buch": 2232,
      "liches": 2233,
      "daten": 2234,
      "Ġnachhal": 2235,
      "Ġdienst": 2236,
      "information": 2237,
      "Ġend": 2238,
      "Ġselec": 2239,
      "Ġdarum": 2240,
      "aket": 2241,
      "zieht": 2242,
      "Ġgeneral": 2243,
      "ĠgÃ¤ste": 2244,
      "Ġkostenlos": 2245,
      "ore": 2246,
      "halts": 2247,
      "Ġfern": 2248,
      "Ġvorber": 2249,
      "mÃ¶": 2250,
      "Ġbra": 2251,
      "Ġratstagung": 2252,
      "Ġdetails": 2253,
      "teile": 2254,
      "Ġbedeutet": 2255,
      "com": 2256,
      "Ġtab": 2257,
      "ker": 2258,
      "oten": 2259,
      "treffen": 2260,
      "hows": 2261,
      "Ġkunden": 2262,
      "kre": 2263,
      "ĠvÃ¶": 2264,
      "ana": 2265,
      "Ġanwen": 2266,
      "Ġunserem": 2267,
      "Ġvide": 2268,
      "Ġsolche": 2269,
      "Ġkri": 2270,
      "ĠfÃ¼nf": 2271,
      "gor": 2272,
      "Ġost": 2273,
      "Ġbus": 2274,
      "Ġergebnis": 2275,
      "Ġgraphik": 2276,
      "Ġsei": 2277,
      "toine": 2278,
      "ĠÃ¶ffentliche": 2279,
      "Ġbro": 2280,
      "res": 2281,
      "Ġmodi": 2282,
      "Ġrue": 2283,
      "Ġebenfalls": 2284,
      "ĠfrÃ¼hstÃ¼ck": 2285,
      "Ġ2001": 2286,
      "Ġri": 2287,
      "Ġplan": 2288,
      "ellschaft": 2289,
      "rig": 2290,
      "Ġgol": 2291,
      "70": 2292,
      "Ġ4303": 2293,
      "ĠqualitÃ¤t": 2294,
      "ĠmÃ¤rz": 2295,
      "bahn": 2296,
      "Ġglei": 2297,
      "Ġup": 2298,
      "own": 2299,
      "Ġhatte": 2300,
      "Ġgetan": 2301,
      "Ġiv": 2302,
      "Ġfreuen": 2303,
      "ĠgehÃ¶rt": 2304,
      "uar": 2305,
      "Ġbewertung": 2306,
      "Ġvan": 2307,
      "Ġbenachrich": 2308,
      "voll": 2309,
      "Ġnetz": 2310,
      "Ġanlage": 2311,
      "Ġspra": 2312,
      "zug": 2313,
      "Ġslides": 2314,
      "als": 2315,
      "Ġjo": 2316,
      "Ġnotwendig": 2317,
      "port": 2318,
      "Ġapp": 2319,
      "Ġschwier": 2320,
      "ĠauÃŁerdem": 2321,
      "frie": 2322,
      "Ġprocessed": 2323,
      "Ġdialog": 2324,
      "Ġeurostat": 2325,
      "Ġtransparenz": 2326,
      "ute": 2327,
      "Ġ)": 2328,
      "ĠerhÃ¤lt": 2329,
      "Ġcol": 2330,
      "Ġneues": 2331,
      "artner": 2332,
      "Ġsteuer": 2333,
      "ki": 2334,
      "Ġ32": 2335,
      "blick": 2336,
      "maÃŁnahmen": 2337,
      "Ġentwicklungs": 2338,
      "Ġbesonders": 2339,
      "mÃ¤ÃŁ": 2340,
      "ĠentschlieÃŁung": 2341,
      "Ġmet": 2342,
      "Ġlesen": 2343,
      "Ġbenachrichtigt": 2344,
      "euer": 2345,
      "mon": 2346,
      "Ã¤chst": 2347,
      "ffer": 2348,
      "Ġapril": 2349,
      "frei": 2350,
      "ĠtÃ¼rkei": 2351,
      "Ã¤l": 2352,
      "Ġallgemeine": 2353,
      "fo": 2354,
      "Ã¼l": 2355,
      "lass": 2356,
      "ĠunterstÃ¼tzt": 2357,
      "ernen": 2358,
      "Ġwind": 2359,
      "Ġspa": 2360,
      "teilt": 2361,
      "Ġversion": 2362,
      "ĠhÃ¤t": 2363,
      "Ġsep": 2364,
      "aussch": 2365,
      "Ġslideshows": 2366,
      "Ġschritt": 2367,
      "tz": 2368,
      "zus": 2369,
      "Ġvol": 2370,
      "lleicht": 2371,
      "Ġ26": 2372,
      "Ġwenig": 2373,
      "Ġvielleicht": 2374,
      "Ġnein": 2375,
      "Ġaussenbeziehungen": 2376,
      "Ġ2005": 2377,
      "Ġmer": 2378,
      "Ġbeide": 2379,
      "Ġblo": 2380,
      "Ġbemerk": 2381,
      "oma": 2382,
      "Ġ2003": 2383,
      "ech": 2384,
      "ĠÃ¼b": 2385,
      "bereich": 2386,
      "Ġdaran": 2387,
      "ĠfÃ¶rderung": 2388,
      "88": 2389,
      "lli": 2390,
      "Ġverteidigung": 2391,
      "ette": 2392,
      "37": 2393,
      "Ġseiten": 2394,
      "Ġmodif": 2395,
      "Ġbau": 2396,
      "Ġletzten": 2397,
      "nten": 2398,
      "system": 2399,
      "Ġersch": 2400,
      "con": 2401,
      "Ġles": 2402,
      "Ġged": 2403,
      "reifen": 2404,
      "Ġhum": 2405,
      "elie": 2406,
      "schaften": 2407,
      "hl": 2408,
      "Ġunver": 2409,
      "Ġnutz": 2410,
      "Ġunbe": 2411,
      "Ġderzeit": 2412,
      "Ġerg": 2413,
      "Ġeib": 2414,
      "Ġvis": 2415,
      "etzen": 2416,
      "Ġdemokratie": 2417,
      "Ġkop": 2418,
      "Ġris": 2419,
      "zember": 2420,
      "fassung": 2421,
      "Ġselector": 2422,
      "ror": 2423,
      "Ġbeiden": 2424,
      "Ġaspe": 2425,
      "Ã¤ss": 2426,
      "Ġpriv": 2427,
      "Ġminuten": 2428,
      "17": 2429,
      "ierungs": 2430,
      "Ã¤tze": 2431,
      "Ġtechnische": 2432,
      "Ġgab": 2433,
      "Ġchar": 2434,
      "Ġliegen": 2435,
      "Ġhar": 2436,
      "Ġpre": 2437,
      "Ġanders": 2438,
      "fu": 2439,
      "Ġmi": 2440,
      "Ġantworten": 2441,
      "staur": 2442,
      "Ġumsetzung": 2443,
      "ose": 2444,
      "fig": 2445,
      "Ġnu": 2446,
      "Ġkons": 2447,
      "tigkeit": 2448,
      "dungen": 2449,
      "iere": 2450,
      "Ġele": 2451,
      "Ġerle": 2452,
      "Ġinteress": 2453,
      "Ġvorsitz": 2454,
      "ationen": 2455,
      "ĠvorschlÃ¤ge": 2456,
      "Ġallem": 2457,
      "Ġ2004": 2458,
      "ologie": 2459,
      "ober": 2460,
      "Ġzoll": 2461,
      "Ġrechte": 2462,
      "bildung": 2463,
      "reiben": 2464,
      "merksam": 2465,
      "Ġkroes": 2466,
      "schn": 2467,
      "Ġvorh": 2468,
      "64": 2469,
      "Ġantrag": 2470,
      "rik": 2471,
      "rika": 2472,
      "Ġrund": 2473,
      "resse": 2474,
      "Ġwest": 2475,
      "94": 2476,
      "Ġ..": 2477,
      "Ġrussland": 2478,
      "ins": 2479,
      "Ġaufmerksam": 2480,
      "Ġbeifall": 2481,
      "ungsverfahren": 2482,
      "laden": 2483,
      "ziel": 2484,
      "stall": 2485,
      "Ġprojekte": 2486,
      "zliche": 2487,
      "Ġiniti": 2488,
      "ator": 2489,
      "ĠspÃ¤": 2490,
      "liegen": 2491,
      "Ġmeinung": 2492,
      "ĠvÃ¶llig": 2493,
      "fung": 2494,
      "ring": 2495,
      "arf": 2496,
      "Ġneelie": 2497,
      "za": 2498,
      "Ġcor": 2499,
      "Ġbedeut": 2500,
      "07": 2501,
      "scht": 2502,
      "Ġverpf": 2503,
      "Ġkern": 2504,
      "Ġinternationale": 2505,
      "dit": 2506,
      "Ġvertra": 2507,
      "Ġstabil": 2508,
      "tur": 2509,
      "Ġinnern": 2510,
      "Ġberichter": 2511,
      "gelung": 2512,
      "Ġgesam": 2513,
      "Ã¤nde": 2514,
      "Ġgrie": 2515,
      "zimmer": 2516,
      "Ġjede": 2517,
      "Ġstellt": 2518,
      "Ġjanuar": 2519,
      "Ġfran": 2520,
      "Ġ99": 2521,
      "Ġkraft": 2522,
      "Ġprof": 2523,
      "Ġrele": 2524,
      "Ġusa": 2525,
      "Ġdrit": 2526,
      "ib": 2527,
      "gesetzt": 2528,
      "Ġag": 2529,
      "Ġ2002": 2530,
      "Ġsache": 2531,
      "Ġmus": 2532,
      "kungen": 2533,
      "rieb": 2534,
      "Ġhandels": 2535,
      "kung": 2536,
      "andlungen": 2537,
      "Ġerreicht": 2538,
      "Ġrechtssache": 2539,
      "fr": 2540,
      "yl": 2541,
      "Ġsport": 2542,
      "Ġraum": 2543,
      "ct": 2544,
      "Ġbean": 2545,
      "reise": 2546,
      "Ġtats": 2547,
      "Ġgemacht": 2548,
      "yer": 2549,
      "ĠÃ¼berprÃ¼": 2550,
      "Ġunterschie": 2551,
      "Ġprodukt": 2552,
      "aritÃ¤t": 2553,
      "ppe": 2554,
      "Ġmillionen": 2555,
      "Ġbisher": 2556,
      "Ġrich": 2557,
      "Ġtreffen": 2558,
      "Ġmodified": 2559,
      "Ġdezember": 2560,
      "Ġgenug": 2561,
      "Ġsollen": 2562,
      "Ġpolitische": 2563,
      "Ġcas": 2564,
      "ath": 2565,
      "Ġschwei": 2566,
      "Ġ2015": 2567,
      "Ġhaushalt": 2568,
      "Ġrestaur": 2569,
      "stelle": 2570,
      "Ġaufge": 2571,
      "spiele": 2572,
      "Ġrichtung": 2573,
      "Ġdown": 2574,
      "ieden": 2575,
      "Ġkoh": 2576,
      "Ġhalte": 2577,
      "hei": 2578,
      "stehen": 2579,
      "zip": 2580,
      "80": 2581,
      "fassen": 2582,
      "inen": 2583,
      "ĠpersÃ¶n": 2584,
      "Ġaufgabe": 2585,
      "linien": 2586,
      "Ġmeer": 2587,
      "Ġberichterstat": 2588,
      "199": 2589,
      "Ġseiner": 2590,
      "Ġ29": 2591,
      "Ġmitteilung": 2592,
      "spek": 2593,
      "Ġweniger": 2594,
      "Ġganze": 2595,
      "Ġetwa": 2596,
      "Ġbilder": 2597,
      "ote": 2598,
      "zer": 2599,
      "wach": 2600,
      "ĠfÃ¼hren": 2601,
      "ende": 2602,
      "Ġzwe": 2603,
      "schlagen": 2604,
      "Ġihm": 2605,
      "mitglied": 2606,
      "Ġdebatte": 2607,
      "67": 2608,
      "dige": 2609,
      "ategor": 2610,
      "Ġsoft": 2611,
      "Ġbundesminister": 2612,
      "Ġlernen": 2613,
      "ierten": 2614,
      "Ġhol": 2615,
      "Ġorganis": 2616,
      "onnen": 2617,
      "rieben": 2618,
      "mals": 2619,
      "Ġversch": 2620,
      "Ġberei": 2621,
      "Ġgerade": 2622,
      "255": 2623,
      "Ġhalten": 2624,
      "ias": 2625,
      "Ġmusi": 2626,
      "Ġwesent": 2627,
      "wesen": 2628,
      "Ġbot": 2629,
      "itzen": 2630,
      "tember": 2631,
      "rigen": 2632,
      "Ġallein": 2633,
      "aut": 2634,
      "Ġsub": 2635,
      "Ġhil": 2636,
      "Ġkompl": 2637,
      "frieden": 2638,
      "Ġev": 2639,
      "ital": 2640,
      "werk": 2641,
      "strum": 2642,
      "ola": 2643,
      "ĠmÃ¼n": 2644,
      "Ġ75": 2645,
      "ondere": 2646,
      "Ġeinw": 2647,
      "uppen": 2648,
      "glieder": 2649,
      "zw": 2650,
      "Ġewsa": 2651,
      "ĠspÃ¤ter": 2652,
      "Ġfel": 2653,
      "Ġgeschehen": 2654,
      "besondere": 2655,
      "Ġauto": 2656,
      "dio": 2657,
      "Ġmeisten": 2658,
      "Ġbeste": 2659,
      "Ġhandeln": 2660,
      "Ġfir": 2661,
      "Ġstruktur": 2662,
      "Ġsuchen": 2663,
      "Ġmeinen": 2664,
      "tex": 2665,
      "Ġnord": 2666,
      "Ġlog": 2667,
      "ire": 2668,
      "Ġinsbesondere": 2669,
      "Ġministerium": 2670,
      "Ġsuch": 2671,
      "Ġgelten": 2672,
      "Ġernen": 2673,
      "Ġbedeutung": 2674,
      "Ġnatur": 2675,
      "Ġsoziale": 2676,
      "Ġwettbewerbs": 2677,
      "Ġberichterstatter": 2678,
      "Ġfunktioniert": 2679,
      "Ġbenutzer": 2680,
      "aufen": 2681,
      "Ġbekannt": 2682,
      "Ġtier": 2683,
      "Ġsc": 2684,
      "etter": 2685,
      "schlieÃŁen": 2686,
      "sverl": 2687,
      "Ġbeitrag": 2688,
      "zogen": 2689,
      "Ġzug": 2690,
      "Ġsicherheits": 2691,
      "vo": 2692,
      "Ġet": 2693,
      "Ġabruf": 2694,
      "Ġroom": 2695,
      "ows": 2696,
      "ĠzusÃ¤t": 2697,
      "Ã¤hlt": 2698,
      "Ġentzieht": 2699,
      "Ġ3255": 2700,
      "alisierung": 2701,
      "Ġhelfen": 2702,
      "schlÃ¼sse": 2703,
      "frist": 2704,
      "Ġanti": 2705,
      "ĠlÃ¶": 2706,
      "Ġbew": 2707,
      "isches": 2708,
      "Ġservice": 2709,
      "Ġentscheiden": 2710,
      "por": 2711,
      "hil": 2712,
      "!!": 2713,
      "Ã¤hren": 2714,
      "Ġbeteil": 2715,
      "Ġterror": 2716,
      "Ġsto": 2717,
      "ĠerwÃ¤h": 2718,
      "Ġdownlo": 2719,
      "Ġabrufbar": 2720,
      "87": 2721,
      "Ġdig": 2722,
      "stunde": 2723,
      "ehe": 2724,
      "fahrt": 2725,
      "Ġstandard": 2726,
      "27": 2727,
      "ruch": 2728,
      "Ġdagegen": 2729,
      "fÃ¼hren": 2730,
      "Ġwichtigsten": 2731,
      "strÃ¶": 2732,
      "cu": 2733,
      "stung": 2734,
      "ssil": 2735,
      "Ġinteresse": 2736,
      "Ġinvestitionen": 2737,
      "Ġhuman": 2738,
      "Ġrisik": 2739,
      "Ġdein": 2740,
      "ĠhÃ¶r": 2741,
      "Ġeff": 2742,
      "Ġrichtige": 2743,
      "urr": 2744,
      "ommer": 2745,
      "Ġgesetz": 2746,
      "Ġjedes": 2747,
      "Ġspielen": 2748,
      "Ġwin": 2749,
      "durch": 2750,
      "Ġchrist": 2751,
      "atur": 2752,
      "93": 2753,
      "Ġfranz": 2754,
      "Ġplatz": 2755,
      "ssystem": 2756,
      "Ġenthalten": 2757,
      "Ġdeine": 2758,
      "aben": 2759,
      "ieten": 2760,
      "ise": 2761,
      "Ġhervor": 2762,
      "pfel": 2763,
      "Ġvereinigtes": 2764,
      "tragen": 2765,
      "stet": 2766,
      "Ġkolle": 2767,
      "ĠmaÃŁ": 2768,
      "Ġwelch": 2769,
      "lÃ¤u": 2770,
      "Ġinstall": 2771,
      "Ġwider": 2772,
      "Ġmel": 2773,
      "ktober": 2774,
      "Ġwissenschaft": 2775,
      "dliche": 2776,
      "sverletz": 2777,
      "Ġuni": 2778,
      "Ã¶ffent": 2779,
      "ations": 2780,
      "Ġfrieden": 2781,
      "Ġsim": 2782,
      "Ġschi": 2783,
      "ÃŁlich": 2784,
      "ĠheiÃŁt": 2785,
      "Ġprak": 2786,
      "ĠeuropÃ¤isches": 2787,
      "Ġren": 2788,
      "Ã¼ndet": 2789,
      "skomm": 2790,
      "Ġsinn": 2791,
      "gesch": 2792,
      "ager": 2793,
      "Ġpeter": 2794,
      "Ġ]": 2795,
      "Ġangebot": 2796,
      "Ġleg": 2797,
      "2001": 2798,
      "65": 2799,
      "fs": 2800,
      "Ġparlaments": 2801,
      "Ġhaushalts": 2802,
      "Ġbi": 2803,
      "istan": 2804,
      "Ġsogar": 2805,
      "chenland": 2806,
      "Ġuk": 2807,
      "genda": 2808,
      "31": 2809,
      "Ġverordnung": 2810,
      "spl": 2811,
      "Ġfast": 2812,
      "ĠentschlieÃŁungsantrag": 2813,
      "85": 2814,
      "urs": 2815,
      "del": 2816,
      "indung": 2817,
      "Ġeng": 2818,
      "sb": 2819,
      "Ġmom": 2820,
      "Ġmad": 2821,
      "Ġmax": 2822,
      "Ġfinanzie": 2823,
      "Ġober": 2824,
      "Ã¤ren": 2825,
      "Ġliefer": 2826,
      "Ġ02": 2827,
      "Ġzeigt": 2828,
      "pan": 2829,
      "Ã¼ssel": 2830,
      "Ġmehrere": 2831,
      "Ġmaria": 2832,
      "Ġjahres": 2833,
      "dest": 2834,
      "Ġvery": 2835,
      "agement": 2836,
      "ĠschluÃŁ": 2837,
      "Ġblick": 2838,
      "iou": 2839,
      "platz": 2840,
      "auft": 2841,
      "Ġkommunikation": 2842,
      "usion": 2843,
      "rÃ¤sidenten": 2844,
      "Ġspezi": 2845,
      "Ġnen": 2846,
      "Ġnews": 2847,
      "Ġbestehen": 2848,
      "Ġbraucht": 2849,
      "punkte": 2850,
      "Ġschriftlich": 2851,
      "Ġbip": 2852,
      "teilungen": 2853,
      "Ġoft": 2854,
      "Ġverfol": 2855,
      "ĠenthÃ¤lt": 2856,
      "stÃ¤ndig": 2857,
      "ĠzunÃ¤chst": 2858,
      "gessen": 2859,
      "Ġgesp": 2860,
      "Ġweiterhin": 2861,
      "Ġthemen": 2862,
      "kÃ¼nf": 2863,
      "Ġrede": 2864,
      "Ġrechn": 2865,
      "Ġverantwortung": 2866,
      "Ġengl": 2867,
      "Ġangebo": 2868,
      "Ġmark": 2869,
      "skommissar": 2870,
      "eile": 2871,
      "Ġsoftware": 2872,
      "mas": 2873,
      "Ġherzlich": 2874,
      "08": 2875,
      "Ġhart": 2876,
      "lla": 2877,
      "Ġherz": 2878,
      "aktion": 2879,
      "Ġvertragsverletz": 2880,
      "ona": 2881,
      "setzen": 2882,
      "ĠprioritÃ¤ten": 2883,
      "ix": 2884,
      "Ġass": 2885,
      "stein": 2886,
      "Ã¼h": 2887,
      "Ġoktober": 2888,
      "Ã¤he": 2889,
      "ĠverÃ¶ffent": 2890,
      "istr": 2891,
      "rid": 2892,
      "Ġentsprechen": 2893,
      "Ġdro": 2894,
      "reichen": 2895,
      "Ġmoder": 2896,
      "Ġernst": 2897,
      "Ġname": 2898,
      "Ġreise": 2899,
      "Ġelekt": 2900,
      "stadt": 2901,
      "Ġvert": 2902,
      "Ġentde": 2903,
      "Ġseptember": 2904,
      "ales": 2905,
      "tete": 2906,
      "que": 2907,
      "Ġapart": 2908,
      "19": 2909,
      "af": 2910,
      "go": 2911,
      "Ġgd": 2912,
      "Ġrest": 2913,
      "Ġgeschichte": 2914,
      "forderungen": 2915,
      "deu": 2916,
      "Ġ546": 2917,
      "bru": 2918,
      "hÃ¤ng": 2919,
      "ano": 2920,
      "tischen": 2921,
      "Ġerfahren": 2922,
      "Ġhinweis": 2923,
      "Ġneuer": 2924,
      "Ġerfolgt": 2925,
      "Ġeigentlich": 2926,
      "Ġrelease": 2927,
      "Ġeingehen": 2928,
      "Ġoff": 2929,
      "haupt": 2930,
      "don": 2931,
      "Ġzuge": 2932,
      "leistungen": 2933,
      "Ġseinen": 2934,
      "ĠgroÃŁen": 2935,
      "schreibung": 2936,
      "mÃ¶glich": 2937,
      "Ġpost": 2938,
      "Ġverkauf": 2939,
      "Ġgriechenland": 2940,
      "Ġbeispiele": 2941,
      "Ġbill": 2942,
      "Ġpra": 2943,
      "denken": 2944,
      "Ġanfang": 2945,
      "dert": 2946,
      "Ġfax": 2947,
      "ial": 2948,
      "Ġtagesordnung": 2949,
      "Ġcolom": 2950,
      "Ġerster": 2951,
      "Ġjoh": 2952,
      "Ġkleine": 2953,
      "Ġverwenden": 2954,
      "Ġgruppe": 2955,
      "Ġpat": 2956,
      "ĠbeschlÃ¼sse": 2957,
      "Ġeigenen": 2958,
      "ux": 2959,
      "Ġcent": 2960,
      "Ġmig": 2961,
      "sektor": 2962,
      "Ã¤um": 2963,
      "see": 2964,
      "Ġvorbereitung": 2965,
      "29": 2966,
      "Ġbon": 2967,
      "ĠnÃ¼t": 2968,
      "Ġrechnungs": 2969,
      "ers": 2970,
      "Ġgre": 2971,
      "gewÃ¤sser": 2972,
      "druck": 2973,
      "partner": 2974,
      "Ġberuf": 2975,
      "Ã¤ndert": 2976,
      "frastruktur": 2977,
      "Ġnovember": 2978,
      "Ġdonner": 2979,
      "36": 2980,
      "89": 2981,
      "Ġkrise": 2982,
      "auber": 2983,
      "bare": 2984,
      "Ġbeh": 2985,
      "Ġinstitu": 2986,
      "Ġabsol": 2987,
      "Ġhintergrundinformation": 2988,
      "Ġzweck": 2989,
      "Ġschle": 2990,
      "Ġantoine": 2991,
      "ump": 2992,
      "Ġreser": 2993,
      "stimmen": 2994,
      "Ġletzte": 2995,
      "Ġerstens": 2996,
      "gangen": 2997,
      "Ġinform": 2998,
      "ith": 2999,
      "Ġkonferenz": 3000,
      "Ġgenie": 3001,
      "513": 3002,
      "uropa": 3003,
      "Ġbehandel": 3004,
      "ĠÃ¶ff": 3005,
      "Ġvill": 3006,
      "Ġkrie": 3007,
      "altungs": 3008,
      "26": 3009,
      "iete": 3010,
      "ĠgÃ¼n": 3011,
      "Ġfraktion": 3012,
      "fÃ¤higkeit": 3013,
      "Ġdopp": 3014,
      "ont": 3015,
      "ĠÃ¤nderungen": 3016,
      "Ã¤hrung": 3017,
      "staatssekretÃ¤r": 3018,
      "strÃ¶m": 3019,
      "925": 3020,
      "Ġeindeu": 3021,
      "Ġfolgendes": 3022,
      "union": 3023,
      "Ġkomp": 3024,
      "Ġvorsitzes": 3025,
      "bruar": 3026,
      "skon": 3027,
      "Ġverbesserung": 3028,
      "Ġdefin": 3029,
      "Ġamerik": 3030,
      "Ġkennt": 3031,
      "Ġvideo": 3032,
      "Ã¤hrend": 3033,
      "berg": 3034,
      "Ġeurope": 3035,
      "Ġ40": 3036,
      "Ã¤uft": 3037,
      "zeigt": 3038,
      "84": 3039,
      "ater": 3040,
      "ĠlÃ¤ndern": 3041,
      "Ġmoment": 3042,
      "ight": 3043,
      "han": 3044,
      "wÃ¤r": 3045,
      "Ġvereinbar": 3046,
      "Ġiii": 3047,
      "ĠhÃ¶ch": 3048,
      "Ġkn": 3049,
      "dienst": 3050,
      "isa": 3051,
      "Ġleicht": 3052,
      "ling": 3053,
      "ĠwÃ¤hrend": 3054,
      "Ġleh": 3055,
      "Ġalt": 3056,
      "Ġkonta": 3057,
      "Ġmode": 3058,
      "Ġfreund": 3059,
      "ingt": 3060,
      "unsch": 3061,
      "gestellt": 3062,
      "Ġleu": 3063,
      "riter": 3064,
      "Ġakzep": 3065,
      "Ġwoche": 3066,
      "ssiliou": 3067,
      "erheit": 3068,
      "ĠgeÃ¶ffnet": 3069,
      "Ġnachhaltige": 3070,
      "ĠfÃ¼hrt": 3071,
      "gte": 3072,
      "ieht": 3073,
      "tim": 3074,
      "ĠnÃ¤he": 3075,
      "bek": 3076,
      "ada": 3077,
      "Ġserv": 3078,
      "bani": 3079,
      "Ġsommer": 3080,
      "Ġfisch": 3081,
      "ĠgefÃ¤hr": 3082,
      "Ġdir": 3083,
      "Ġeuch": 3084,
      "roso": 3085,
      "Ġrev": 3086,
      "Ġcan": 3087,
      "Ġauswahl": 3088,
      "Ġkennen": 3089,
      "Ġvertragsverletzungsverfahren": 3090,
      "ly": 3091,
      "ausch": 3092,
      "ame": 3093,
      "Ġauswir": 3094,
      "Ġdennoch": 3095,
      "ourcen": 3096,
      "Ġcolombani": 3097,
      "orden": 3098,
      "Ġweise": 3099,
      "Ġsal": 3100,
      "Ġfan": 3101,
      "Ġregistr": 3102,
      "Ġfortschritte": 3103,
      "Ġaufmerksamkeit": 3104,
      "ĠstabilitÃ¤t": 3105,
      "mann": 3106,
      "ritts": 3107,
      "Ġ93": 3108,
      "Ġverschiedene": 3109,
      "Ġbeendet": 3110,
      "rank": 3111,
      "forderung": 3112,
      "ica": 3113,
      "Ġaktuelle": 3114,
      "est": 3115,
      "Ġlaufen": 3116,
      "Ġdownload": 3117,
      "Ġkan": 3118,
      "produ": 3119,
      "ĠhÃ¤": 3120,
      "Ġfebruar": 3121,
      "ael": 3122,
      "zung": 3123,
      "igkeiten": 3124,
      "gruppe": 3125,
      "ry": 3126,
      "Ġtut": 3127,
      "izien": 3128,
      "44": 3129,
      "nu": 3130,
      "Ġare": 3131,
      "Ġsofort": 3132,
      "Ġbefinden": 3133,
      "74513": 3134,
      "ps": 3135,
      "ief": 3136,
      "schul": 3137,
      "li": 3138,
      "netz": 3139,
      "Ġdich": 3140,
      "mmern": 3141,
      "einkommen": 3142,
      "ĠnÃ¤chste": 3143,
      "Ġstrand": 3144,
      "Ġerforderlich": 3145,
      "Ġdonnerstag": 3146,
      "sh": 3147,
      "Ġkun": 3148,
      "Ġweltw": 3149,
      "Ġdiskuss": 3150,
      "ration": 3151,
      "Ġbezahl": 3152,
      "sÃ¤tze": 3153,
      "ausschuss": 3154,
      "Ġbre": 3155,
      "arbeiten": 3156,
      "Ġrela": 3157,
      "zeugnisse": 3158,
      "Ġverpflicht": 3159,
      "mand": 3160,
      "Ġkategor": 3161,
      "Ġers": 3162,
      "Ġbeding": 3163,
      "Ġtrotz": 3164,
      "by": 3165,
      "Ġscheint": 3166,
      "Ġoperation": 3167,
      "Ġregional": 3168,
      "Ġkroa": 3169,
      "preis": 3170,
      "Ġkos": 3171,
      "Ġpu": 3172,
      "Ġyou": 3173,
      "ĠhÃ¤tte": 3174,
      "Ġvertrauen": 3175,
      "Ġmr": 3176,
      "Ġzweitens": 3177,
      "rinzip": 3178,
      "ĠfrÃ¼her": 3179,
      "strategie": 3180,
      "Ġaugen": 3181,
      "Ġangaben": 3182,
      "dok": 3183,
      "Ġbrin": 3184,
      "rop": 3185,
      "able": 3186,
      "Ġkomment": 3187,
      "Ġnacht": 3188,
      "Ġerhe": 3189,
      "Ġ1999": 3190,
      "tisti": 3191,
      "urf": 3192,
      "Ġansatz": 3193,
      "ular": 3194,
      "Ġhandelspolitik": 3195,
      "ĠerhÃ¶": 3196,
      "elles": 3197,
      "Ġjedem": 3198,
      "Ġ2013": 3199,
      "Ġstellung": 3200,
      "antrÃ¤ge": 3201,
      "uel": 3202,
      "Ġerfahr": 3203,
      "ott": 3204,
      "Ġdanken": 3205,
      "Ġwichtiger": 3206,
      "ĠbekÃ¤mpfung": 3207,
      "Ġbank": 3208,
      "ali": 3209,
      "ement": 3210,
      "Ġbessere": 3211,
      "wor": 3212,
      "Ġrein": 3213,
      "meer": 3214,
      "Ġmichael": 3215,
      "Ã¤chlich": 3216,
      "sminister": 3217,
      "Ġsolid": 3218,
      "ĠgehÃ¶ren": 3219,
      "Ġverhandlungen": 3220,
      "Ġav": 3221,
      "ller": 3222,
      "weisen": 3223,
      "Ġ2011": 3224,
      "Ġguten": 3225,
      "Ġhandelt": 3226,
      "ativen": 3227,
      "Ġbelli": 3228,
      "Ġberat": 3229,
      "Ġmeinem": 3230,
      "Ġregierung": 3231,
      "Ġkarte": 3232,
      "Ġverwendet": 3233,
      "ĠerhÃ¤ltlich": 3234,
      "met": 3235,
      "Ġkonkre": 3236,
      "Ġendg": 3237,
      "ativ": 3238,
      "bien": 3239,
      "Ġmitglieder": 3240,
      "Ġinformations": 3241,
      "haf": 3242,
      "imm": 3243,
      "inner": 3244,
      "Ġsetzen": 3245,
      "Ġphil": 3246,
      "Ġbelliard": 3247,
      "60": 3248,
      "wort": 3249,
      "orn": 3250,
      "Ġaugu": 3251,
      "ĠgewÃ¤sser": 3252,
      "Ġprozess": 3253,
      "Ġgrenz": 3254,
      "Ġkonsult": 3255,
      "mp": 3256,
      "innt": 3257,
      "ĠschlÃ¼ssel": 3258,
      "ĠnÃ¤here": 3259,
      "Ġwindows": 3260,
      "ordin": 3261,
      "Ġvorgeschlagen": 3262,
      "ĠerfÃ¼": 3263,
      "gtra": 3264,
      "quis": 3265,
      "ordne": 3266,
      "wÃ¼r": 3267,
      "Ġgelegen": 3268,
      "haltung": 3269,
      "Ġferien": 3270,
      "racht": 3271,
      "Ġeinzi": 3272,
      "Ġvergessen": 3273,
      "sprÃ¤sident": 3274,
      "ĠgrÃ¼nde": 3275,
      "ĠwÃ¼nschen": 3276,
      "halte": 3277,
      "Ġwirtschaftliche": 3278,
      "2007": 3279,
      "Ġveranst": 3280,
      "Ġbugtra": 3281,
      "Ġdigit": 3282,
      "nor": 3283,
      "Ġsin": 3284,
      "Ġbekommen": 3285,
      "schlag": 3286,
      "Ġdoppel": 3287,
      "ms": 3288,
      "Ġair": 3289,
      "raine": 3290,
      "ĠbetrÃ¤gt": 3291,
      "Ġurlaub": 3292,
      "Ġdemokra": 3293,
      "Ġbugtraq": 3294,
      "39": 3295,
      "Ġsek": 3296,
      "sper": 3297,
      "ĠflÃ¼": 3298,
      "Ġworte": 3299,
      "Ġreicht": 3300,
      "Ġbetra": 3301,
      "Ġpaar": 3302,
      "Ġcurr": 3303,
      "stens": 3304,
      "Ġsec": 3305,
      "28": 3306,
      "Ġbri": 3307,
      "hafen": 3308,
      "ĠhÃ¤u": 3309,
      "tiger": 3310,
      "Ġdau": 3311,
      "Ġvote": 3312,
      "Ġdokumenten": 3313,
      "Ġfalsch": 3314,
      "Ġflex": 3315,
      "Ġfusion": 3316,
      "ĠschlieÃŁlich": 3317,
      "Ġrestaurant": 3318,
      "andlung": 3319,
      "Ġmass": 3320,
      "jahr": 3321,
      "Ġmusik": 3322,
      "hilfen": 3323,
      "Ġcurrent": 3324,
      "Ġsam": 3325,
      "ĠfuÃŁ": 3326,
      "ichten": 3327,
      "Ġ31": 3328,
      "Ġgeschieht": 3329,
      "zeichnet": 3330,
      "Ġerwarten": 3331,
      "Ġtor": 3332,
      "Ġzufrieden": 3333,
      "Ġgefunden": 3334,
      "Ġgleiche": 3335,
      "Ġpfl": 3336,
      "entwick": 3337,
      "Ġpressemitteilungen": 3338,
      "Ġgegenteil": 3339,
      "ĠbegrÃ¼ÃŁe": 3340,
      "Ġehr": 3341,
      "lauf": 3342,
      "Ã¤sst": 3343,
      "mu": 3344,
      "sehen": 3345,
      "Ġunters": 3346,
      "Ġtest": 3347,
      "Ġpassiert": 3348,
      "ide": 3349,
      "ars": 3350,
      "ĠÃ¤nderungs": 3351,
      "Ġtagung": 3352,
      "Ġebene": 3353,
      "Ġbetreffen": 3354,
      "Ġumfasst": 3355,
      "Ġteam": 3356,
      "Ã¤hn": 3357,
      "zielle": 3358,
      "Ġsuper": 3359,
      "ĠbenÃ¶tigen": 3360,
      "Ġagenda": 3361,
      "ĠprÃ¤sidenten": 3362,
      "ĠwÃ¼rden": 3363,
      "Ġgon": 3364,
      "behÃ¶r": 3365,
      "Ġfo": 3366,
      "Ġstelle": 3367,
      "Ġausgew": 3368,
      "Ġsektor": 3369,
      "ĠbegrÃ¼ÃŁen": 3370,
      "sach": 3371,
      "Ġagr": 3372,
      "Ġgegeben": 3373,
      "Ġeinzelheiten": 3374,
      "ros": 3375,
      "Ġgei": 3376,
      "Ġzeitpunkt": 3377,
      "Ġlink": 3378,
      "Ġgemeinsamen": 3379,
      "Ġtrans": 3380,
      "Ġintegra": 3381,
      "Ġaspekte": 3382,
      "Ġunivers": 3383,
      "cel": 3384,
      "leitung": 3385,
      "Ġstunden": 3386,
      "Ġdesign": 3387,
      "2000": 3388,
      "ĠgroÃŁer": 3389,
      "23": 3390,
      "dat": 3391,
      "rahmen": 3392,
      "Ġerk": 3393,
      "operation": 3394,
      "Ġnew": 3395,
      "Ġweil": 3396,
      "Ġverwaltungs": 3397,
      "Ġzentral": 3398,
      "Ġdenken": 3399,
      "Ġ34": 3400,
      "Ġmagst": 3401,
      "zÃ¼glich": 3402,
      "Ġkroatien": 3403,
      "Ġjem": 3404,
      "Ġstaaten": 3405,
      "skontro": 3406,
      "57": 3407,
      "Ġhome": 3408,
      "verstÃ¤n": 3409,
      "dire": 3410,
      "1040": 3411,
      "Ġbald": 3412,
      "Ġerken": 3413,
      "ehn": 3414,
      "Ġalb": 3415,
      "Ġwebseite": 3416,
      "feld": 3417,
      "Ġosten": 3418,
      "bauen": 3419,
      "ĠÃ¤nderung": 3420,
      "gesehen": 3421,
      "ĠÃ¤hn": 3422,
      "ĠkÃ¼nf": 3423,
      "ĠgeschÃ¤ftsordnung": 3424,
      "--": 3425,
      "int": 3426,
      "scher": 3427,
      "schein": 3428,
      "ĠgeÃ¤ndert": 3429,
      "Ġfinde": 3430,
      "beschreibung": 3431,
      "Ġstimmt": 3432,
      "riterien": 3433,
      "Ġauswirkungen": 3434,
      "Ġaugust": 3435,
      "Ġleit": 3436,
      "Ġanmerk": 3437,
      "Ã¤nge": 3438,
      "Ġsprache": 3439,
      "Ġaltern": 3440,
      "ĠbestÃ¤": 3441,
      "Ġernennungen": 3442,
      "Ġsicht": 3443,
      "abon": 3444,
      "Ġref": 3445,
      "Ġdadurch": 3446,
      "Ġgruppen": 3447,
      "Ġ2014": 3448,
      "Ġkeiner": 3449,
      "sie": 3450,
      "Ġzudem": 3451,
      "Ġbeginnen": 3452,
      "kÃ¼nfte": 3453,
      "utter": 3454,
      "use": 3455,
      "Ġgrenzen": 3456,
      "Ġwelchen": 3457,
      "Ġmobiltel": 3458,
      "ara": 3459,
      "Ġres": 3460,
      "Ġ142": 3461,
      "Ġallgemein": 3462,
      "Ġwith": 3463,
      "ichtet": 3464,
      "ita": 3465,
      "Ġtur": 3466,
      "ovo": 3467,
      "Ġprogramme": 3468,
      "Ġsil": 3469,
      "Ġdeutlich": 3470,
      "90": 3471,
      "Ġdra": 3472,
      "Ġmann": 3473,
      "ĠhÃ¤n": 3474,
      "Ġansicht": 3475,
      "Ġstei": 3476,
      "Ġhintergrundinformationen": 3477,
      "Ġbringt": 3478,
      "Ġhumanit": 3479,
      "Ġmy": 3480,
      "Ġhen": 3481,
      "Ġschritte": 3482,
      "Ġumfassen": 3483,
      "Ġberlin": 3484,
      "Ġhatten": 3485,
      "ĠnÃ¤her": 3486,
      "Ġeindeutig": 3487,
      "Ġsw": 3488,
      "aren": 3489,
      "verb": 3490,
      "Ġfragestunde": 3491,
      "geln": 3492,
      "Ġverstehen": 3493,
      "81": 3494,
      "era": 3495,
      "rou": 3496,
      "ova": 3497,
      "prom": 3498,
      "Ġwochen": 3499,
      "Ġsprachen": 3500,
      "Ġkomme": 3501,
      "Ġvorgehen": 3502,
      "edig": 3503,
      "Ġbesuchen": 3504,
      "gesellschaft": 3505,
      "vention": 3506,
      "ene": 3507,
      "Ġval": 3508,
      "ĠkÃ¼r": 3509,
      "Ġeinger": 3510,
      "ĠkÃ¶nnten": 3511,
      "Ġbedarf": 3512,
      "Ġbedingungen": 3513,
      "Ġdritte": 3514,
      "Ġwein": 3515,
      "Ġtyp": 3516,
      "Ġhinaus": 3517,
      "richtlinie": 3518,
      "ogra": 3519,
      "Ġgeor": 3520,
      "Ġwarten": 3521,
      "Ġ2012": 3522,
      "ĠverstÃ¤r": 3523,
      "Ġagrar": 3524,
      "Ġjapan": 3525,
      "ĠwÃ¼nsche": 3526,
      "Ġniemand": 3527,
      "ĠgrÃ¼nden": 3528,
      "Ġreserv": 3529,
      "Ġmot": 3530,
      "issabon": 3531,
      "Ġregeln": 3532,
      "gi": 3533,
      "eilen": 3534,
      "dition": 3535,
      "Ġzentrum": 3536,
      "ierungen": 3537,
      "onen": 3538,
      "Ġinstrum": 3539,
      "ash": 3540,
      "alter": 3541,
      "Ġannahme": 3542,
      "Ġbelie": 3543,
      "bert": 3544,
      "Ġkoordin": 3545,
      "Ġdruck": 3546,
      "Ġliebe": 3547,
      "Ġruh": 3548,
      "ĠÃ¤uÃŁerst": 3549,
      "Ġanwendung": 3550,
      "Ġwunder": 3551,
      "ĠstÃ¤d": 3552,
      "Ġcost": 3553,
      "kommunikation": 3554,
      "ĠprioritÃ¤tsach": 3555,
      "ammen": 3556,
      "reiche": 3557,
      "Ġoption": 3558,
      "Ġkmu": 3559,
      "Ġdiskussion": 3560,
      "sz": 3561,
      "Ġirak": 3562,
      "Ġmeines": 3563,
      "Ġwillst": 3564,
      "Ġmedien": 3565,
      "Ġpartnerschaft": 3566,
      "Ġukraine": 3567,
      "ĠlÃ¤sst": 3568,
      "Ġteile": 3569,
      "sek": 3570,
      "zeichnung": 3571,
      "Ġfamilie": 3572,
      "Ġterrorismus": 3573,
      "lÃ¤ss": 3574,
      "ante": 3575,
      "ama": 3576,
      "stellungen": 3577,
      "Ġfotos": 3578,
      "zusammen": 3579,
      "55": 3580,
      "ssch": 3581,
      "Ġlissabon": 3582,
      "Ġchin": 3583,
      "Ġdrin": 3584,
      "Ġschwar": 3585,
      "Ġress": 3586,
      "Ġabgeordne": 3587,
      "Ġeinzelnen": 3588,
      "Ġlebensmittel": 3589,
      "Ġkunst": 3590,
      "ero": 3591,
      "Ġvern": 3592,
      "ĠverfÃ¼gt": 3593,
      "ĠsolidaritÃ¤t": 3594,
      "jÃ¤hr": 3595,
      "leh": 3596,
      "Ġsomit": 3597,
      "Ġgenehmigt": 3598,
      "umping": 3599,
      "kel": 3600,
      "Ġpf": 3601,
      "Ġvorhanden": 3602,
      "iode": 3603,
      "Ġmensch": 3604,
      "Ġdor": 3605,
      "ĠmÃ¤n": 3606,
      "Ġfac": 3607,
      "Ġprogramms": 3608,
      "skommissarin": 3609,
      "Ġweltweit": 3610,
      "Ġimm": 3611,
      "Ġeigene": 3612,
      "Ġafrika": 3613,
      "ud": 3614,
      "Ġ9396": 3615,
      "til": 3616,
      "Ġpan": 3617,
      "Ġanzahl": 3618,
      "Ġanfragen": 3619,
      "ĠausfÃ¼hr": 3620,
      "Ġarch": 3621,
      "Ġarbei": 3622,
      "Ġflughafen": 3623,
      "rang": 3624,
      "iten": 3625,
      "Ġlehr": 3626,
      "Ġcat": 3627,
      "Ġkommissions": 3628,
      "Ġmichel": 3629,
      "Ġpap": 3630,
      "Ġdeleg": 3631,
      "lang": 3632,
      "Ã¤che": 3633,
      "etten": 3634,
      "Ġperspek": 3635,
      "Ġreihe": 3636,
      "ĠhÃ¶ren": 3637,
      "ay": 3638,
      "wurf": 3639,
      "Ġerd": 3640,
      "Ġherunter": 3641,
      "Ġdarin": 3642,
      "mitt": 3643,
      "Ġgere": 3644,
      "Ġsonder": 3645,
      "ons": 3646,
      "artige": 3647,
      "ĠerÃ¶ff": 3648,
      "teilen": 3649,
      "Ġloc": 3650,
      "Ġdavid": 3651,
      "Ġweiteren": 3652,
      "karte": 3653,
      "vel": 3654,
      "wandel": 3655,
      "Ġ00": 3656,
      "Ġfei": 3657,
      "ĠlÃ¤uft": 3658,
      "elbe": 3659,
      "Ġrech": 3660,
      "schnitt": 3661,
      "Ġrechnungshof": 3662,
      "77": 3663,
      "osla": 3664,
      "Ġparis": 3665,
      "Ġmonat": 3666,
      "38": 3667,
      "Ġ149": 3668,
      "Ġapartment": 3669,
      "Ġfusionskontro": 3670,
      "fÃ¶r": 3671,
      "ini": 3672,
      "Ġerlau": 3673,
      "umen": 3674,
      "Ġaktionsplan": 3675,
      "Ġgonz": 3676,
      "xis": 3677,
      "ted": 3678,
      "Ġstark": 3679,
      "Ġanderes": 3680,
      "Ġquelle": 3681,
      "astrop": 3682,
      "sei": 3683,
      "Ġche": 3684,
      "iges": 3685,
      "Ġ80": 3686,
      "Ġkomprom": 3687,
      "Ġasso": 3688,
      "61": 3689,
      "isierung": 3690,
      "Ġbemerkungen": 3691,
      "finden": 3692,
      "ĠÃ¼brigen": 3693,
      "gern": 3694,
      "Ġeh": 3695,
      "Ġtri": 3696,
      "Ġbenutzen": 3697,
      "Ġinitiative": 3698,
      "ule": 3699,
      "Ġwto": 3700,
      "Ġgutes": 3701,
      "Ġkollegen": 3702,
      "Ġkaufen": 3703,
      "Ġang": 3704,
      "Ġfahren": 3705,
      "ĠgegenÃ¼ber": 3706,
      "Ġsagt": 3707,
      "Ġmenschenrechte": 3708,
      "Ġfamilien": 3709,
      "dumping": 3710,
      "kom": 3711,
      "unt": 3712,
      "Ġiran": 3713,
      "gende": 3714,
      "Ġ500": 3715,
      "marquis": 3716,
      "kosten": 3717,
      "bal": 3718,
      "Ġgas": 3719,
      "vertreten": 3720,
      "mens": 3721,
      "ura": 3722,
      "Ġhinsicht": 3723,
      "wettbewerb": 3724,
      "Ġeinigen": 3725,
      "Ġgeeig": 3726,
      "Ġandre": 3727,
      "Ġbeschrei": 3728,
      "49": 3729,
      "Ġkampf": 3730,
      "Ġgenehmigung": 3731,
      "ml": 3732,
      "stu": 3733,
      "Ġhor": 3734,
      "Ġpie": 3735,
      "aly": 3736,
      "Ġanpa": 3737,
      "Ġtitel": 3738,
      "Ġbarroso": 3739,
      "stoff": 3740,
      "ĠtÃ¤tig": 3741,
      "griffen": 3742,
      "lÃ¤ndern": 3743,
      "europa": 3744,
      "Ġeinsatz": 3745,
      "Ġzeichen": 3746,
      "Ġschaffen": 3747,
      "Ġintegration": 3748,
      "arbeitet": 3749,
      "Ġtrotzdem": 3750,
      "Ġkal": 3751,
      "Ġtagen": 3752,
      "Ġvorteile": 3753,
      "Ġ35": 3754,
      "Ġstre": 3755,
      "sprÃ¼": 3756,
      "ings": 3757,
      "Ġtelekommunikation": 3758,
      "ĠhÃ¤ufig": 3759,
      "dam": 3760,
      "Ġanmel": 3761,
      "ets": 3762,
      "anzen": 3763,
      "Ġhartmut": 3764,
      "Ġpaket": 3765,
      "Ġgestellt": 3766,
      "richtung": 3767,
      "Ġdanach": 3768,
      "Ġblog": 3769,
      "hlen": 3770,
      "tifiz": 3771,
      "twoch": 3772,
      "ministerin": 3773,
      "Ġnennen": 3774,
      "Ġzer": 3775,
      "Ġlos": 3776,
      "aussprache": 3777,
      "Ġfilm": 3778,
      "Ġid": 3779,
      "Ġpak": 3780,
      "Ġinfrastruktur": 3781,
      "Ġrad": 3782,
      "Ġangezeigt": 3783,
      "Ġstatisti": 3784,
      "Ġbem": 3785,
      "Ġkommun": 3786,
      "Ġchance": 3787,
      "Ġunterbricht": 3788,
      "drÃ¼": 3789,
      "tere": 3790,
      "Ġerziel": 3791,
      "cks": 3792,
      "vil": 3793,
      "techn": 3794,
      "Ġlon": 3795,
      "Ġlok": 3796,
      "Ġschreiben": 3797,
      "Ġreal": 3798,
      "ĠÃ¼berhaupt": 3799,
      "Ġperfe": 3800,
      "ni": 3801,
      "vÃ¶l": 3802,
      "Ġagen": 3803,
      "Ġecu": 3804,
      "Ã¶st": 3805,
      "Ġbevor": 3806,
      "istor": 3807,
      "Ġsowie": 3808,
      "ziehen": 3809,
      "Ġserver": 3810,
      "fi": 3811,
      "pfen": 3812,
      "usi": 3813,
      "Ġtren": 3814,
      "Ġfinanzierung": 3815,
      "Ġzeigen": 3816,
      "ĠtÃ¤glich": 3817,
      "mÃ¤ÃŁig": 3818,
      "dor": 3819,
      "par": 3820,
      "konferenz": 3821,
      "Ġinvestitions": 3822,
      "Ġvassiliou": 3823,
      "zusammenarbeit": 3824,
      "iesen": 3825,
      "Ġunten": 3826,
      "Ġeinheit": 3827,
      "Ġtu": 3828,
      "Ġcec": 3829,
      "Ġneben": 3830,
      "speriode": 3831,
      "ez": 3832,
      "Ġbio": 3833,
      "samm": 3834,
      "gebung": 3835,
      "haft": 3836,
      "zeugen": 3837,
      "ju": 3838,
      "mei": 3839,
      "mÃ¤r": 3840,
      "Ġbringen": 3841,
      "berei": 3842,
      "Ġstart": 3843,
      "Ġgewalt": 3844,
      "bild": 3845,
      "Ġwollte": 3846,
      "ĠmÃ¶glichkeit": 3847,
      "Ġfreiheit": 3848,
      "Ġkenn": 3849,
      "pen": 3850,
      "Ġten": 3851,
      "Ġham": 3852,
      "Ġpau": 3853,
      "Ġmittwoch": 3854,
      "ĠberÃ¼ck": 3855,
      "Ġberichte": 3856,
      "wohl": 3857,
      "Ġgesprochen": 3858,
      "ums": 3859,
      "Ġdeswegen": 3860,
      "Ġgipfel": 3861,
      "langen": 3862,
      "Ġ60": 3863,
      "sprozess": 3864,
      "Ġrednerin": 3865,
      "Ġflexi": 3866,
      "Ġdom": 3867,
      "Ġaner": 3868,
      "fallen": 3869,
      "zeuge": 3870,
      "ĠergÃ¤n": 3871,
      "Ġunab": 3872,
      "ĠlÃ¶sungen": 3873,
      "47": 3874,
      "Ġunge": 3875,
      "Ġindi": 3876,
      "Ġmonate": 3877,
      "puter": 3878,
      "Ġbeginnt": 3879,
      "Ġadresse": 3880,
      "9586": 3881,
      "weil": 3882,
      "Ġcamp": 3883,
      "Ġ1998": 3884,
      "zeptabel": 3885,
      "Ġmadrid": 3886,
      "gliche": 3887,
      "Ġteilen": 3888,
      "ĠverÃ¶ffentlicht": 3889,
      "Ġbuchen": 3890,
      "emente": 3891,
      "Ġseinem": 3892,
      "Ġzahlungen": 3893,
      "Ġinnerhalb": 3894,
      "ĠtatsÃ¤chlich": 3895,
      "Ġoffi": 3896,
      "bs": 3897,
      "stre": 3898,
      "Ġ09": 3899,
      "ĠmÃ¶chtest": 3900,
      "Ã¤sion": 3901,
      "Ġmul": 3902,
      "ĠwettbewerbsfÃ¤higkeit": 3903,
      "Ġfusionskontroll": 3904,
      "sabkommen": 3905,
      "Ġigl": 3906,
      "Ġanzu": 3907,
      "messen": 3908,
      "Ġvereinfach": 3909,
      "ala": 3910,
      "Ġbetro": 3911,
      "Ġganzen": 3912,
      "52": 3913,
      "euerung": 3914,
      "Ġsitzungsperiode": 3915,
      "Ġq": 3916,
      "stausch": 3917,
      "altet": 3918,
      "Ġschen": 3919,
      "Ġschla": 3920,
      "abstimmung": 3921,
      "Ġidee": 3922,
      "Ġkrieg": 3923,
      "obil": 3924,
      "Ġsi": 3925,
      "Ġcomm": 3926,
      "hotel": 3927,
      "alez": 3928,
      "Ġpersonal": 3929,
      "Ġschweiz": 3930,
      "Ġvir": 3931,
      "Ġintegr": 3932,
      "cs": 3933,
      "Ġalex": 3934,
      "Ġvertreten": 3935,
      "Ġvorschriften": 3936,
      "Ġstandpunkt": 3937,
      "Ġkontrolle": 3938,
      "ĠfranzÃ¶s": 3939,
      "Ġfinanzielle": 3940,
      "Ġeinzige": 3941,
      "Ġgonzalez": 3942,
      "Ã¼hr": 3943,
      "ĠlÃ¤nger": 3944,
      "Ã¶rper": 3945,
      "Ã¤hl": 3946,
      "Ġandrou": 3947,
      "Ġgast": 3948,
      "Ġgeplan": 3949,
      "Ġarbeitspl": 3950,
      "Ġkontroll": 3951,
      "Ġdritt": 3952,
      "Ġfon": 3953,
      "ĠlÃ¤nd": 3954,
      "ĠrealitÃ¤t": 3955,
      "Ġkannst": 3956,
      "Ġmarisa": 3957,
      "ĠgewÃ¤hr": 3958,
      "finanz": 3959,
      "56": 3960,
      "ost": 3961,
      "val": 3962,
      "Ġwh": 3963,
      "Ġwerte": 3964,
      "ĠÃ¶ffentlichen": 3965,
      "Ġtragen": 3966,
      "richten": 3967,
      "zwischen": 3968,
      "Ġigles": 3969,
      "jek": 3970,
      "Ġku": 3971,
      "Ġtac": 3972,
      "Ġverz": 3973,
      "Ġkonnte": 3974,
      "Ġisra": 3975,
      "Ġnormal": 3976,
      "Ġandroulla": 3977,
      "Ġfen": 3978,
      "dex": 3979,
      "Ġnachbar": 3980,
      "Ġbetrieb": 3981,
      "Ġstellvertreten": 3982,
      "stattet": 3983,
      "Ġwelches": 3984,
      "ĠgenieÃŁen": 3985,
      "ĠÃ¤nderungsantrÃ¤ge": 3986,
      "Ġiglesias": 3987,
      "vis": 3988,
      "Ġalter": 3989,
      "Ġstrate": 3990,
      "Ġnationale": 3991,
      "Ġprivat": 3992,
      "Ġabsolut": 3993,
      "Ġhistor": 3994,
      "Ġkriterien": 3995,
      "schung": 3996,
      "dienste": 3997,
      "Ġerwartet": 3998,
      "Ġluftverkehr": 3999,
      "Ġsuche": 4000,
      "Ġkind": 4001,
      "Ġvorbeh": 4002,
      "Ġverwaltung": 4003,
      "Ġsauber": 4004,
      "Ġcop": 4005,
      "Ġarten": 4006,
      "Ġeisen": 4007,
      "ĠgrÃ¶ÃŁte": 4008,
      "Ġgolf": 4009,
      "Ġpolitischen": 4010,
      "Ġendlich": 4011,
      "Ġproduktion": 4012,
      "ĠhÃ¶her": 4013,
      "fÃ¤lle": 4014,
      "Ġautoma": 4015,
      "ĠeinwÃ¤nde": 4016,
      "dd": 4017,
      "Ġdre": 4018,
      "Ġlam": 4019,
      "Ġvorgesehen": 4020,
      "eller": 4021,
      "hu": 4022,
      "Ġmik": 4023,
      "arte": 4024,
      "Ã¤ne": 4025,
      "stoffe": 4026,
      "ĠmobilitÃ¤t": 4027,
      "Ġantidumping": 4028,
      "ĠhumanitÃ¤re": 4029,
      "Ġbetroffen": 4030,
      "chan": 4031,
      "sson": 4032,
      "Ġgeorg": 4033,
      "Ġwerk": 4034,
      "Ġarg": 4035,
      "Ġsteu": 4036,
      "Ġgesellschaft": 4037,
      "arbeitung": 4038,
      "Ġgaran": 4039,
      "Ġpositiv": 4040,
      "Ġnutzung": 4041,
      "Ġjohn": 4042,
      "Ġkonsultation": 4043,
      "48": 4044,
      "les": 4045,
      "Ġsach": 4046,
      "Ġcam": 4047,
      "Ġziehen": 4048,
      "Ġkenntnis": 4049,
      "Ġverpflichtungen": 4050,
      "Ġressourcen": 4051,
      "Ġassozi": 4052,
      ");": 4053,
      "kraft": 4054,
      "etzung": 4055,
      "Ã¤ude": 4056,
      "Ġregionale": 4057,
      "51925": 4058,
      "indern": 4059,
      "Ġster": 4060,
      "Ġbir": 4061,
      "atten": 4062,
      "utt": 4063,
      "ika": 4064,
      "Ġmartin": 4065,
      "mbh": 4066,
      "datei": 4067,
      "Ã¼nst": 4068,
      "Ġkooperation": 4069,
      "wasser": 4070,
      "Ġhohe": 4071,
      "Ġzweiten": 4072,
      "Ġwall": 4073,
      "jekt": 4074,
      "sweise": 4075,
      "Ġvin": 4076,
      "Ġamt": 4077,
      "Ġlautet": 4078,
      "kommissarin": 4079,
      "out": 4080,
      "ĠabschlieÃŁen": 4081,
      "ĠmÃ¶glichkeiten": 4082,
      "Ġposition": 4083,
      "Ġsorgen": 4084,
      "Ġfirma": 4085,
      "Ġcre": 4086,
      "ĠauskÃ¼nfte": 4087,
      "Ġopfer": 4088,
      "Ġwiederauf": 4089,
      "Ġbemerkung": 4090,
      "cus": 4091,
      "Ġsetzt": 4092,
      "Ġbad": 4093,
      "Ġbeob": 4094,
      "Ġcomputer": 4095,
      "Ġebenso": 4096,
      "Ġdisku": 4097,
      "Ġgesamte": 4098,
      "ĠkohÃ¤sion": 4099,
      "text": 4100,
      "gelegt": 4101,
      "Ġjos": 4102,
      "sprechen": 4103,
      "usst": 4104,
      "Ġjean": 4105,
      "Ġbetru": 4106,
      "Ġverschiedenen": 4107,
      "Ġwinter": 4108,
      "Ġpraxis": 4109,
      "Ġkosovo": 4110,
      "Ġwunsch": 4111,
      "Ġmol": 4112,
      "sph": 4113,
      "Ġladen": 4114,
      "Ġmod": 4115,
      "weit": 4116,
      "Ġgebiet": 4117,
      "Ġwahrheit": 4118,
      "Ġphili": 4119,
      "ya": 4120,
      "Ġgmbh": 4121,
      "Ġ1997": 4122,
      "zentrum": 4123,
      "ij": 4124,
      "mes": 4125,
      "ution": 4126,
      "chter": 4127,
      "achtens": 4128,
      "hoben": 4129,
      "beding": 4130,
      "Ġsechs": 4131,
      "Ġgeworden": 4132,
      "Ġwohnung": 4133,
      "wand": 4134,
      "Ġkoll": 4135,
      "asc": 4136,
      "Ġledig": 4137,
      "Ġspeich": 4138,
      "grÃ¶": 4139,
      "Ġkleinen": 4140,
      "web": 4141,
      "ĠnÃ¼tzliche": 4142,
      "bekÃ¤mpfung": 4143,
      "Ġlediglich": 4144,
      "Ġessen": 4145,
      "tiver": 4146,
      "Ġaufbauen": 4147,
      "Ġoptim": 4148,
      "Ġwirkung": 4149,
      "Ġversuchen": 4150,
      "Ġklimawandel": 4151,
      "Ġperspektiven": 4152,
      "cy": 4153,
      "Ġbur": 4154,
      "roh": 4155,
      "Ġberichts": 4156,
      "Ġstaff": 4157,
      "stÃ¤ndige": 4158,
      "Ġallgemeinen": 4159,
      "Ġerfolgreich": 4160,
      "ĠsÃ¼d": 4161,
      "arbeiter": 4162,
      "heim": 4163,
      "bin": 4164,
      "Ġstat": 4165,
      "Ġreag": 4166,
      "Ġherzlichen": 4167,
      "ex": 4168,
      "Ġhu": 4169,
      "Ġging": 4170,
      "Ġtau": 4171,
      "Ġleist": 4172,
      "Ġbesondere": 4173,
      "dingt": 4174,
      "hi": 4175,
      "liste": 4176,
      "Ġordnung": 4177,
      "steuer": 4178,
      "eiden": 4179,
      "geber": 4180,
      "laufen": 4181,
      "mitteln": 4182,
      "Ġenglisch": 4183,
      "82": 4184,
      "angeb": 4185,
      "Ġkir": 4186,
      "Ġindien": 4187,
      "Ġreden": 4188,
      "Ã¼tzt": 4189,
      "Ġbeitritts": 4190,
      "Ġsenden": 4191,
      "54": 4192,
      "gei": 4193,
      "wn": 4194,
      "Ġban": 4195,
      "Ġwiederhol": 4196,
      "Ġgefahr": 4197,
      "Ġerachtens": 4198,
      "Ġarmut": 4199,
      "beitrag": 4200,
      "Ġkostet": 4201,
      "Ġkontak": 4202,
      "tu": 4203,
      "Ġbeachten": 4204,
      "ierter": 4205,
      "isla": 4206,
      "annte": 4207,
      "Ġnav": 4208,
      "rechpartner": 4209,
      "fik": 4210,
      "zun": 4211,
      "stes": 4212,
      "Ġmanch": 4213,
      "Ġvii": 4214,
      "bott": 4215,
      "paket": 4216,
      "uk": 4217,
      "ingen": 4218,
      "standen": 4219,
      "ary": 4220,
      "ats": 4221,
      "Ġcle": 4222,
      "Ġausbildung": 4223,
      "Ġgood": 4224,
      "Ġsteuern": 4225,
      "Ġsehe": 4226,
      "ĠgegenwÃ¤r": 4227,
      "Ġzivil": 4228,
      "Ġkategorie": 4229,
      "zur": 4230,
      "Ġbein": 4231,
      "Ġhoffen": 4232,
      "2005": 4233,
      "ĠfÃ¼gte": 4234,
      "Ġisland": 4235,
      "Ġunterschied": 4236,
      "Ġdrogen": 4237,
      "nier": 4238,
      "nam": 4239,
      "Ġanzei": 4240,
      "ents": 4241,
      "Ġberech": 4242,
      "Ġforum": 4243,
      "wachung": 4244,
      "Ġagentur": 4245,
      "Ġke": 4246,
      "Ġtot": 4247,
      "Ã¤hrungs": 4248,
      "Ġlive": 4249,
      "Ġgemeinschafts": 4250,
      "Ġempfehlung": 4251,
      "Ġclub": 4252,
      "Ġdringend": 4253,
      "Ġbeschreibung": 4254,
      "ĠunabhÃ¤ng": 4255,
      "Ġgal": 4256,
      "Ġlag": 4257,
      "Ġwirksam": 4258,
      "Ġbedeuten": 4259,
      "Ġgeneralsek": 4260,
      "Ġdauer": 4261,
      "ness": 4262,
      "ĠerklÃ¤rt": 4263,
      "tseite": 4264,
      "griff": 4265,
      "Ġschwierig": 4266,
      "ĠzusÃ¤tzliche": 4267,
      "68": 4268,
      "letter": 4269,
      "ors": 4270,
      "Ġregelung": 4271,
      "Ġoben": 4272,
      "leisch": 4273,
      "Ġchem": 4274,
      "Ġgesehen": 4275,
      "Ġtourismus": 4276,
      "Ġmetho": 4277,
      "Ġlesung": 4278,
      "Ġmrd": 4279,
      "Ġacht": 4280,
      "Ġout": 4281,
      "tierung": 4282,
      "Ġguter": 4283,
      "Ġwohn": 4284,
      "zeitig": 4285,
      "Ġsonstiges": 4286,
      "Ġansprechpartner": 4287,
      "Ġbahn": 4288,
      "urity": 4289,
      "ript": 4290,
      "Ġmac": 4291,
      "Ġangesprochen": 4292,
      "folgerung": 4293,
      "Ġnahe": 4294,
      "Ġsprach": 4295,
      "Ġeffizien": 4296,
      "Ġkommentare": 4297,
      "Ġuntersuch": 4298,
      "gleich": 4299,
      "Ġkla": 4300,
      "Ġzehn": 4301,
      "Ġabstimm": 4302,
      "Ġkarten": 4303,
      "Ġtechnologie": 4304,
      "Ġkaum": 4305,
      "Ġherausforderung": 4306,
      "Ġerleben": 4307,
      "92": 4308,
      "nissen": 4309,
      "ĠnÃ¶": 4310,
      "Ġinsel": 4311,
      "legung": 4312,
      "Ġsign": 4313,
      "Ġwil": 4314,
      "anen": 4315,
      "spok": 4316,
      "ĠschlÃ¤": 4317,
      "Ġextre": 4318,
      "Ġkomfort": 4319,
      "Ġasyl": 4320,
      "Ġkorre": 4321,
      "Ġschwerpunkt": 4322,
      "ometer": 4323,
      "ĠmÃ¼ndliche": 4324,
      "ĠmaÃŁnahme": 4325,
      "win": 4326,
      "Ġtop": 4327,
      "Ġerreich": 4328,
      "Ġausgaben": 4329,
      "adresse": 4330,
      "Ġkatastrop": 4331,
      "Ġleute": 4332,
      "eben": 4333,
      "reform": 4334,
      "Ġbewer": 4335,
      "Ġabend": 4336,
      "ecspok": 4337,
      "Ġglauben": 4338,
      "ĠprÃ¼fen": 4339,
      "Ġsem": 4340,
      "ĠgÃ¼l": 4341,
      "ison": 4342,
      "leben": 4343,
      "Ġrande": 4344,
      "ĠberÃ¼cksich": 4345,
      "Ġfusionskontrollvorschriften": 4346,
      "dre": 4347,
      "kerung": 4348,
      "ufen": 4349,
      "ele": 4350,
      "Ġexist": 4351,
      "Ġliber": 4352,
      "Ġhaup": 4353,
      "Ġempfehlen": 4354,
      "Ġdateien": 4355,
      "ĠerwÃ¤hnt": 4356,
      "Ġschiff": 4357,
      "van": 4358,
      "Ġbanken": 4359,
      "Ġfrom": 4360,
      "Ġpot": 4361,
      "ffung": 4362,
      "Ġhoff": 4363,
      "nehm": 4364,
      "Ġsondern": 4365,
      "Ġfreue": 4366,
      "Ġgeboren": 4367,
      "Ġkurze": 4368,
      "Ġfertig": 4369,
      "Ġentwicklungszusammenarbeit": 4370,
      "fuhr": 4371,
      "ld": 4372,
      "ĠspaÃŁ": 4373,
      "Ġentdecken": 4374,
      "Ġisrael": 4375,
      "Ġaufent": 4376,
      "....": 4377,
      "Ġspielt": 4378,
      "42": 4379,
      "Ġlas": 4380,
      "Ġmater": 4381,
      "ĠstraÃŁen": 4382,
      "Ġabgeschlossen": 4383,
      "2010": 4384,
      "Ġunbedingt": 4385,
      "Ġprem": 4386,
      "Ġakzeptieren": 4387,
      "szl": 4388,
      "Ġargum": 4389,
      "73": 4390,
      "ius": 4391,
      "ora": 4392,
      "Ġvorher": 4393,
      "takte": 4394,
      "Ġrot": 4395,
      "Ġsoziales": 4396,
      "Ġaktuellen": 4397,
      "Ġforschungs": 4398,
      "eng": 4399,
      "Ġjon": 4400,
      "Ġ%.": 4401,
      "Ġdatenschutz": 4402,
      "ĠbenÃ¶tigt": 4403,
      "Ġprofiti": 4404,
      "siehe": 4405,
      "Ġed": 4406,
      "anderung": 4407,
      "test": 4408,
      "uren": 4409,
      "itÃ¤r": 4410,
      "spun": 4411,
      "Ġ45": 4412,
      "Ġinvest": 4413,
      "Ġbalkan": 4414,
      "datenbank": 4415,
      "oo": 4416,
      "ony": 4417,
      "ole": 4418,
      "Ġspre": 4419,
      "Ġspricht": 4420,
      "Ġgewesen": 4421,
      "Ġfunktionieren": 4422,
      "behÃ¶rde": 4423,
      "feh": 4424,
      "Ġblau": 4425,
      "Ġwechs": 4426,
      "Ġdimens": 4427,
      "gebiet": 4428,
      "Ġboden": 4429,
      "Ġbarcel": 4430,
      "Ġvilla": 4431,
      "bÃ¼r": 4432,
      "cia": 4433,
      "Ġmiss": 4434,
      "Ã¼hren": 4435,
      "regelung": 4436,
      "rad": 4437,
      "Ġlszl": 4438,
      "Ġgek": 4439,
      "ĠbefÃ¼r": 4440,
      "Ġverfasst": 4441,
      "Ġcity": 4442,
      "heben": 4443,
      "Ġ90": 4444,
      "flÃ¼": 4445,
      "Ġarbeitslos": 4446,
      "Ġempfehlungen": 4447,
      "Ġverfolgt": 4448,
      "Ġsand": 4449,
      "ĠerÃ¶ffnet": 4450,
      "Ġgrat": 4451,
      "Ġstarten": 4452,
      "ĠschÃ¶ne": 4453,
      "ĠendgÃ¼l": 4454,
      "vÃ¶lkerung": 4455,
      "bringen": 4456,
      "mehr": 4457,
      "Ġtrifft": 4458,
      "ĠjÃ¤hr": 4459,
      "0000": 4460,
      "Ġ04": 4461,
      "Ġideal": 4462,
      "Ġtief": 4463,
      "Ġverteilt": 4464,
      "ema": 4465,
      "Ġbeihilfen": 4466,
      "Ġrom": 4467,
      "how": 4468,
      "orgung": 4469,
      "jekte": 4470,
      "Ġstartseite": 4471,
      "41": 4472,
      "ces": 4473,
      "page": 4474,
      "rien": 4475,
      "zy": 4476,
      "ichtigen": 4477,
      "Ġgeh": 4478,
      "Ġverhalten": 4479,
      "Ġdimas": 4480,
      "Ġmittelmeer": 4481,
      "Ġjoe": 4482,
      "verstÃ¤ndlich": 4483,
      "Ġmw": 4484,
      "Ġmitarbeiter": 4485,
      "spa": 4486,
      "Ġmasch": 4487,
      "Ġsozialpolitik": 4488,
      "Ġverteidigungspolitik": 4489,
      "Ġkontaktieren": 4490,
      "Ġhans": 4491,
      "ĠerlÃ¤u": 4492,
      "Ġaufgaben": 4493,
      "Ġrub": 4494,
      "grÃ¼ndet": 4495,
      "qualitÃ¤t": 4496,
      "ĠratsprÃ¤sident": 4497,
      "ziehung": 4498,
      "kontro": 4499,
      "Ġbeitritt": 4500,
      "wettbewerbskommissarin": 4501,
      "Ġgratul": 4502,
      ".-": 4503,
      "Ġfuer": 4504,
      "Ġdiesbe": 4505,
      "indu": 4506,
      "Ġspan": 4507,
      "Ġarbeitsprogramm": 4508,
      "zeugt": 4509,
      "sichtlich": 4510,
      "Ġaktualis": 4511,
      "2013": 4512,
      "dnis": 4513,
      "prÃ¤": 4514,
      "tung": 4515,
      "initi": 4516,
      "Ġunseres": 4517,
      "ĠÃ¶l": 4518,
      "Ġschaden": 4519,
      "schafter": 4520,
      "ĠauÃŁenbeziehungen": 4521,
      "Ġkonkrete": 4522,
      "Ġerlaubt": 4523,
      "ete": 4524,
      "sil": 4525,
      "Ġdoll": 4526,
      "Ġmm": 4527,
      "Ġjeweil": 4528,
      "ppen": 4529,
      "Ġunternehmens": 4530,
      "Ġerneut": 4531,
      "Ġanmerkungen": 4532,
      "fil": 4533,
      "greifen": 4534,
      "Ġreich": 4535,
      "gelt": 4536,
      "gefÃ¼hrt": 4537,
      "Ġderzei": 4538,
      "Ġcd": 4539,
      "Ġwenige": 4540,
      "Ġstav": 4541,
      "digt": 4542,
      "Ġpassen": 4543,
      "Ġcosta": 4544,
      "Ġbereiche": 4545,
      "Ġpr": 4546,
      "Ġbeschluss": 4547,
      "Ġvoraus": 4548,
      "Ġfakten": 4549,
      "Ġrats": 4550,
      "Ġzusammenhang": 4551,
      "ĠÃ¤l": 4552,
      "Ġangeboten": 4553,
      "91": 4554,
      "gn": 4555,
      "prÃ¤sident": 4556,
      "ĠkÃ¶rper": 4557,
      "tit": 4558,
      "ĠstÃ¼ck": 4559,
      "00352": 4560,
      "ish": 4561,
      "Ġos": 4562,
      "steller": 4563,
      "Ġmodell": 4564,
      "ĠschlÃ¤gt": 4565,
      "kor": 4566,
      "Ġdun": 4567,
      "statt": 4568,
      "Ġfach": 4569,
      "Ġinnen": 4570,
      "esien": 4571,
      "Ġleich": 4572,
      "einander": 4573,
      "Ġstahl": 4574,
      "Ġ70": 4575,
      "Ġbestand": 4576,
      "Ġinstitution": 4577,
      "jan": 4578,
      "kle": 4579,
      "get": 4580,
      "Ġauftrag": 4581,
      "ĠÃ¼berra": 4582,
      "Ġ43": 4583,
      "gangs": 4584,
      "Ġbook": 4585,
      "Ġbereichen": 4586,
      "ecspokes": 4587,
      "date": 4588,
      "eira": 4589,
      "Ġeint": 4590,
      "Ġihres": 4591,
      "Ġfair": 4592,
      "gehend": 4593,
      "Ġdokumente": 4594,
      "ĠgeschÃ¤fts": 4595,
      "Ġstock": 4596,
      "bereiche": 4597,
      "Ġemail": 4598,
      "Ġbab": 4599,
      "Ġpop": 4600,
      "Ġherzen": 4601,
      "Ġberg": 4602,
      "Ġhalb": 4603,
      "Ġkarel": 4604,
      "Ġnewsletter": 4605,
      "ĠhÃ¤lt": 4606,
      "Ġerfahrung": 4607,
      "66": 4608,
      "Ġsur": 4609,
      "Ġvorliegen": 4610,
      "werte": 4611,
      "ĠbeschrÃ¤n": 4612,
      "Ġhast": 4613,
      "Ġdatum": 4614,
      "Ġmilch": 4615,
      "Ġoperationelles": 4616,
      "wÃ¼rdig": 4617,
      "bedingungen": 4618,
      "ock": 4619,
      "Ġsamm": 4620,
      "Ġmenge": 4621,
      "Ġvergangen": 4622,
      "Ġangebote": 4623,
      "Ġmanchmal": 4624,
      "viel": 4625,
      "Ġil": 4626,
      "Ġix": 4627,
      "umwelt": 4628,
      "iko": 4629,
      "nummer": 4630,
      "ĠerÃ¶ffnung": 4631,
      "bie": 4632,
      "lÃ¼ck": 4633,
      "Ġheil": 4634,
      "schÃ¤t": 4635,
      "istisch": 4636,
      "Ġausreichen": 4637,
      "Ġvorlage": 4638,
      "rimin": 4639,
      "schaffen": 4640,
      "Ġbestimmte": 4641,
      "Ġdv": 4642,
      "ssern": 4643,
      "icherheit": 4644,
      "Ġ1000": 4645,
      "dient": 4646,
      "Ġangelegenheit": 4647,
      "antie": 4648,
      "Ġinternationalen": 4649,
      "Ġherausforderungen": 4650,
      "Ġfoto": 4651,
      "Ġkapital": 4652,
      "Ġstellungnahme": 4653,
      "ew": 4654,
      "itel": 4655,
      "Ġbos": 4656,
      "Ġkris": 4657,
      "Ġprinzip": 4658,
      "Ġzustimmen": 4659,
      "Ġschauen": 4660,
      "liefer": 4661,
      "fÃ¼gen": 4662,
      "Ġroman": 4663,
      "Ġleisten": 4664,
      "Ġfehlt": 4665,
      "Ġdienstleistungen": 4666,
      "balgs": 4667,
      "Ġschengen": 4668,
      "43": 4669,
      "stie": 4670,
      "Ġpc": 4671,
      "Ġanteil": 4672,
      "ĠtrÃ¤gt": 4673,
      "leb": 4674,
      "Ġkonzept": 4675,
      "Ġmail": 4676,
      "Ġgrundlegen": 4677,
      "Ġvollkommen": 4678,
      "Ġklare": 4679,
      "Ġserviert": 4680,
      "Ġdelegation": 4681,
      "Ġpiebalgs": 4682,
      "ira": 4683,
      "nern": 4684,
      "Ã¼ter": 4685,
      "atoren": 4686,
      "ume": 4687,
      "Ġmitt": 4688,
      "Ġcci": 4689,
      "bed": 4690,
      "Ġkonk": 4691,
      "Ġbesitz": 4692,
      "Ġspieler": 4693,
      "ĠselbstverstÃ¤ndlich": 4694,
      "Ġtechnolog": 4695,
      "unternehmen": 4696,
      "Ġaspekt": 4697,
      "Ġrestrik": 4698,
      "Ġbehandelt": 4699,
      "Ġphilippe": 4700,
      "fisch": 4701,
      "Ġmand": 4702,
      "dete": 4703,
      "Ġbezug": 4704,
      "Ġbern": 4705,
      "uld": 4706,
      "altungen": 4707,
      "Ġnorwegen": 4708,
      "Ġentspricht": 4709,
      "schlÃ¼ssel": 4710,
      "Ġvergleich": 4711,
      "Ġrichtigen": 4712,
      "Ġbotschaft": 4713,
      "Ġcostas": 4714,
      "Ġstellvertretender": 4715,
      "lÃ¶s": 4716,
      "gefÃ¼": 4717,
      "Ã¼tzen": 4718,
      "Ġgewinnen": 4719,
      "Ġsozialen": 4720,
      "Ġhause": 4721,
      "Ġpressekontakte": 4722,
      "Ġkredit": 4723,
      "ĠvizeprÃ¤sidentin": 4724,
      "Ġkopf": 4725,
      "fuhren": 4726,
      "Ġelektron": 4727,
      "ĠÃ¶ffnen": 4728,
      "sammlung": 4729,
      "83": 4730,
      "annen": 4731,
      "Ġpartei": 4732,
      "Ġzweifel": 4733,
      "Ġverbindung": 4734,
      "Ġmalm": 4735,
      "Ġverkehrs": 4736,
      "ĠhÃ¶he": 4737,
      "Ġvorhaben": 4738,
      "Ġbelieb": 4739,
      "ĠÃ¼berall": 4740,
      "Ġopen": 4741,
      "Ġminde": 4742,
      "fische": 4743,
      "Ã¤te": 4744,
      "Ġverab": 4745,
      "bezogen": 4746,
      "Ġwaffen": 4747,
      "retari": 4748,
      "Ġurs": 4749,
      "Ġberatung": 4750,
      "aid": 4751,
      "gas": 4752,
      "wald": 4753,
      "ane": 4754,
      "Ġkauf": 4755,
      "Ġloh": 4756,
      "Ġzucker": 4757,
      "Ġkonst": 4758,
      "ado": 4759,
      "zenz": 4760,
      "Ġreformen": 4761,
      "Ġtabelle": 4762,
      "Ġersucht": 4763,
      "Ġerheb": 4764,
      "Ġsecurity": 4765,
      "Ġarbeitet": 4766,
      "Ġbarcelona": 4767,
      "gung": 4768,
      "ghan": 4769,
      "zo": 4770,
      "ĠunterstÃ¼tze": 4771,
      "Ġirgend": 4772,
      "Ġzahlungs": 4773,
      "rechts": 4774,
      "Ġfenster": 4775,
      "industrie": 4776,
      "Ġ).": 4777,
      "Ġsn": 4778,
      "tert": 4779,
      "wser": 4780,
      "bilitÃ¤t": 4781,
      "Ġprotokolls": 4782,
      "Ġorig": 4783,
      "fÃ¤l": 4784,
      "hlt": 4785,
      "pla": 4786,
      "Ġkrank": 4787,
      "igar": 4788,
      "nete": 4789,
      "Ġverfahrens": 4790,
      "Ġfelder": 4791,
      "mlich": 4792,
      "onik": 4793,
      "Ġlicht": 4794,
      "ĠgefÃ¼hrt": 4795,
      "Ġque": 4796,
      "Ġpasswort": 4797,
      "Ġgleichen": 4798,
      "Ġlegisla": 4799,
      "ĠmalmstrÃ¶m": 4800,
      "fun": 4801,
      "preise": 4802,
      "vill": 4803,
      "Ġstein": 4804,
      "Ġsicherlich": 4805,
      "izei": 4806,
      "Ġlife": 4807,
      "konom": 4808,
      "Ġadr": 4809,
      "ĠgrÃ¶ÃŁer": 4810,
      "Ġsinne": 4811,
      "Ġdimension": 4812,
      "falt": 4813,
      "Ġ01": 4814,
      "asmus": 4815,
      "sidi": 4816,
      "Ġgerman": 4817,
      "ĠbeschÃ¤ftig": 4818,
      "Ġmwst": 4819,
      "ader": 4820,
      "anten": 4821,
      "Ã¤st": 4822,
      "Ġinf": 4823,
      "Ġzentrale": 4824,
      "Ġrisiko": 4825,
      "oslaw": 4826,
      "Ġret": 4827,
      "Ġhohen": 4828,
      "Ġ300": 4829,
      "Ġlou": 4830,
      "Ġafghan": 4831,
      "haushalt": 4832,
      "ĠfÃ¤llen": 4833,
      "iar": 4834,
      "Ġ$": 4835,
      "urt": 4836,
      "Ã¤nglich": 4837,
      "ĠÃ¼bereinkommen": 4838,
      "Ġ36": 4839,
      "Ġmanuel": 4840,
      "Ġmitgliedstaat": 4841,
      "Ġbegrenz": 4842,
      "undert": 4843,
      "uropÃ¤": 4844,
      "Ġanton": 4845,
      "Ġferner": 4846,
      "Ġerscheint": 4847,
      "Ġdauert": 4848,
      "Ġkompromiss": 4849,
      "Ġmittler": 4850,
      "Ġmat": 4851,
      "onien": 4852,
      "Ġgott": 4853,
      "Ġbestellen": 4854,
      "Ġvorbei": 4855,
      "agne": 4856,
      "Ġkonfl": 4857,
      "Ġchan": 4858,
      "ĠdurchfÃ¼hrung": 4859,
      "herr": 4860,
      "Ġtabak": 4861,
      "Ġvolk": 4862,
      "ĠpersÃ¶nlich": 4863,
      "Ġfischler": 4864,
      "Ġgeeignet": 4865,
      "Ġcostasur": 4866,
      "vent": 4867,
      "ques": 4868,
      "ziele": 4869,
      "vidu": 4870,
      "Ġmalta": 4871,
      "alismus": 4872,
      "Ġnationalen": 4873,
      "ĠschluÃŁfolgerung": 4874,
      "Ġbezahlen": 4875,
      "Ġimmobil": 4876,
      "Ġindividu": 4877,
      "Ġbrei": 4878,
      "Ġbut": 4879,
      "Ġbade": 4880,
      "fast": 4881,
      "Ġ37": 4882,
      "folge": 4883,
      "Ġdasselbe": 4884,
      "Ġtradition": 4885,
      "Ġ2020": 4886,
      "zeichen": 4887,
      "ension": 4888,
      "Ġlondon": 4889,
      "artement": 4890,
      "nien": 4891,
      "ĠhierfÃ¼r": 4892,
      "Ã¶rt": 4893,
      "leitet": 4894,
      "Ġreisen": 4895,
      "Ġgesamten": 4896,
      "nach": 4897,
      "Ġverpa": 4898,
      "barkeit": 4899,
      "Ġdaraus": 4900,
      "Ġwelcher": 4901,
      "ritten": 4902,
      "ards": 4903,
      "Ġfree": 4904,
      "2002": 4905,
      "Ġlinux": 4906,
      "Ġerfolgen": 4907,
      "Ã¶hn": 4908,
      "ĠverstÃ¤n": 4909,
      "ckung": 4910,
      "tage": 4911,
      "Ġdeutsch": 4912,
      "flÃ¤che": 4913,
      "Ġlinie": 4914,
      "ktoren": 4915,
      "Ġphp": 4916,
      "Ġmedia": 4917,
      "twortet": 4918,
      "retariat": 4919,
      "Ġorigin": 4920,
      "Ġmos": 4921,
      "tein": 4922,
      "ĠgegrÃ¼ndet": 4923,
      "ilia": 4924,
      "ktes": 4925,
      "Ġgenommen": 4926,
      "Ġzahlreiche": 4927,
      "Ġserbien": 4928,
      "kommission": 4929,
      "ĠÃ¤g": 4930,
      "Ġehem": 4931,
      "Ġanerken": 4932,
      "bra": 4933,
      "wÃ¼n": 4934,
      "Ġah": 4935,
      "Ġwell": 4936,
      "Ġeher": 4937,
      "ĠnÃ¤m": 4938,
      "uche": 4939,
      "Ġfordern": 4940,
      "Ġbitten": 4941,
      "Ġentwickelt": 4942,
      "Ġzusammensetzung": 4943,
      "code": 4944,
      "peten": 4945,
      "ĠstÃ¤rkung": 4946,
      "ĠnÃ¤mlich": 4947,
      "Ġiden": 4948,
      "Ġnic": 4949,
      "Ġerstellen": 4950,
      "rot": 4951,
      "Ġ33": 4952,
      "klusi": 4953,
      "ĠkÃ¼che": 4954,
      "Ã¼sse": 4955,
      "arch": 4956,
      "Ġann": 4957,
      "Ġbekomm": 4958,
      "issionen": 4959,
      "Ġgrand": 4960,
      "Ġanderer": 4961,
      "vorschlag": 4962,
      "Ġdeutsche": 4963,
      "Ġexter": 4964,
      "ĠverfÃ¼gen": 4965,
      "Ġjederzeit": 4966,
      "Ġfranch": 4967,
      "ĠdiesbezÃ¼glich": 4968,
      "zeiten": 4969,
      "Ġwol": 4970,
      "Ġinak": 4971,
      "Ġstol": 4972,
      "Ġce": 4973,
      "Ġangegeben": 4974,
      "baren": 4975,
      "vors": 4976,
      "Ġlangsam": 4977,
      "Ġversand": 4978,
      "ĠwÃ¤hrungs": 4979,
      "Ġuner": 4980,
      "Ġbeach": 4981,
      "ato": 4982,
      "Ġmitte": 4983,
      "ffet": 4984,
      "Ġ475": 4985,
      "Ġgesetzt": 4986,
      "Ġbasis": 4987,
      "Ġmigration": 4988,
      "alyse": 4989,
      "website": 4990,
      "bu": 4991,
      "jo": 4992,
      "Ġsage": 4993,
      "Ġep": 4994,
      "Ġpaten": 4995,
      "ĠjÃ¼n": 4996,
      "Ġvorauss": 4997,
      "Ġexper": 4998,
      "Ġterra": 4999,
      "leistet": 5000,
      "Ġ285": 5001,
      "Ġsymb": 5002,
      "Ġkritik": 5003,
      "Ġhomepage": 5004,
      "Ġleitlinien": 5005,
      "Ġmindestens": 5006,
      "Ġwege": 5007,
      "Ġzeitraum": 5008,
      "Ġgebrauch": 5009,
      "Ġverloren": 5010,
      "Ġdrittens": 5011,
      "ĠlÃ¶sen": 5012,
      "Ġkomplex": 5013,
      "Ġlocation": 5014,
      "Ġplen": 5015,
      "ĠeinfÃ¼hrung": 5016,
      "Ġtv": 5017,
      "Ġtom": 5018,
      "Ġberu": 5019,
      "osen": 5020,
      "Ġ07": 5021,
      "Ġsolchen": 5022,
      "Ġansprechen": 5023,
      "ĠhÃ¤tten": 5024,
      "Ġstavros": 5025,
      "sel": 5026,
      "enze": 5027,
      "Ġsank": 5028,
      "Ġbedenken": 5029,
      "Ġton": 5030,
      "schlÃ¤ge": 5031,
      "Ġnachstehen": 5032,
      "ĠmenÃ¼": 5033,
      "Ġpool": 5034,
      "ĠfÃ¶rdern": 5035,
      "fizit": 5036,
      "ĠprioritÃ¤tsachse": 5037,
      "Ġfranchise": 5038,
      "Ġbol": 5039,
      "schi": 5040,
      "Ġzwar": 5041,
      "ĠeuropÃ¤er": 5042,
      "Ġumfang": 5043,
      "schluÃŁ": 5044,
      "Ġbeihilfe": 5045,
      "62": 5046,
      "ktiv": 5047,
      "sent": 5048,
      "Ġerasmus": 5049,
      "ĠÃ¼berblick": 5050,
      "Ġ%)": 5051,
      "Ġ1996": 5052,
      "Ġhafen": 5053,
      "book": 5054,
      "Ġmuse": 5055,
      "mÃ¶glichkeiten": 5056,
      "ĠabschlieÃŁend": 5057,
      "dy": 5058,
      "ition": 5059,
      "ĠbÃ¼": 5060,
      "ants": 5061,
      "Ġhas": 5062,
      "Ġpet": 5063,
      "vertrag": 5064,
      "sequ": 5065,
      "ziell": 5066,
      "Ġmeter": 5067,
      "ĠvollstÃ¤ndig": 5068,
      "Ġglobale": 5069,
      "fÃ¶rderung": 5070,
      "Ġdring": 5071,
      "Ġinzwischen": 5072,
      "Ġga": 5073,
      "deut": 5074,
      "Ġjug": 5075,
      "Ġcm": 5076,
      "eugen": 5077,
      "Ġabsatz": 5078,
      "Ġspiele": 5079,
      "Ġ55": 5080,
      "Ġreding": 5081,
      "Ġbaum": 5082,
      "ĠmilitÃ¤r": 5083,
      "ime": 5084,
      "pel": 5085,
      "ena": 5086,
      "Ġve": 5087,
      "ese": 5088,
      "Ġtonnen": 5089,
      "Ġschei": 5090,
      "annten": 5091,
      "weite": 5092,
      "heet": 5093,
      "Ġgenannt": 5094,
      "Ġandor": 5095,
      "Ġbenutzt": 5096,
      "ĠhÃ¤ngt": 5097,
      "ĠnÃ¶tig": 5098,
      "eff": 5099,
      "Ġfein": 5100,
      "Ã¤chen": 5101,
      "Ġgekommen": 5102,
      "Ġvoran": 5103,
      "Ġminute": 5104,
      "Ġbarnier": 5105,
      "Ġgesundheits": 5106,
      "Ġgeneraldire": 5107,
      "bett": 5108,
      "ient": 5109,
      "Ġarbeitnehmer": 5110,
      "ĠgroÃŁes": 5111,
      "Ġtrag": 5112,
      "Ġbesucher": 5113,
      "ĠverÃ¤ndert": 5114,
      "Ġehemal": 5115,
      "72": 5116,
      "Ġara": 5117,
      "antoine": 5118,
      "Ġeinleitung": 5119,
      "rÃ¤ger": 5120,
      "izin": 5121,
      "Ġkurs": 5122,
      "Ġ1995": 5123,
      "Ġwahlen": 5124,
      "karten": 5125,
      "Ġappartement": 5126,
      "ĠkÃ¼rze": 5127,
      "ecspokesantoine": 5128,
      "ev": 5129,
      "zn": 5130,
      "Ġsex": 5131,
      "gebiete": 5132,
      "ĠauswÃ¤rtigen": 5133,
      "ĠgebÃ¤ude": 5134,
      "ĠgrÃ¶ÃŁe": 5135,
      "tischer": 5136,
      "Ġideen": 5137,
      "hafter": 5138,
      "dungs": 5139,
      "wo": 5140,
      "wahl": 5141,
      "Ġech": 5142,
      "Ġhon": 5143,
      "ĠgefÃ¼": 5144,
      "Ġforder": 5145,
      "Ġmodern": 5146,
      "zeption": 5147,
      "ĠfÃ¤lle": 5148,
      "Ġbreak": 5149,
      "Ġvorbehalten": 5150,
      "ios": 5151,
      "ude": 5152,
      "zig": 5153,
      "ĠbehÃ¶r": 5154,
      "Ġzuerst": 5155,
      "Ġweiteres": 5156,
      "inger": 5157,
      "oto": 5158,
      "stÃ¤nde": 5159,
      "Ġjemand": 5160,
      "545": 5161,
      "ziert": 5162,
      "inve": 5163,
      "itor": 5164,
      "Ġtr": 5165,
      "Ġeuropol": 5166,
      "Ġunternehmer": 5167,
      "Ġkonver": 5168,
      "Ġenor": 5169,
      "klÃ¤rungen": 5170,
      "problem": 5171,
      "ĠbegrÃ¼ÃŁt": 5172,
      "sicherheit": 5173,
      "Ġafghanistan": 5174,
      "Ġbla": 5175,
      "Ġbeweg": 5176,
      "Ġstren": 5177,
      "Ġprozent": 5178,
      "Ġkonzent": 5179,
      "Ġlandes": 5180,
      "Ġverbunden": 5181,
      "Ġworum": 5182,
      "Ġkurzbeschreibung": 5183,
      "Ġtreten": 5184,
      "version": 5185,
      "ĠprÃ¼fung": 5186,
      "focus": 5187,
      "Ġamerikan": 5188,
      "Ġschlaf": 5189,
      "ption": 5190,
      "Ġfu": 5191,
      "Ġzusatz": 5192,
      "Ġerhol": 5193,
      "Ġkontin": 5194,
      "Ġtem": 5195,
      "Ġbedau": 5196,
      "Ġgarten": 5197,
      "Ġtransport": 5198,
      "ĠgesprÃ¤": 5199,
      "Ġgeplant": 5200,
      "koh": 5201,
      "ther": 5202,
      "Ġbat": 5203,
      "Ġvia": 5204,
      "Ġhy": 5205,
      "Ġbestimmt": 5206,
      "spr": 5207,
      "Ġlegen": 5208,
      "Ġfalls": 5209,
      "management": 5210,
      "Ġelemente": 5211,
      "Ġtermin": 5212,
      "Ġferr": 5213,
      "Ġvorgelegt": 5214,
      "Ġzollunion": 5215,
      "Ġstrateg": 5216,
      "iven": 5217,
      "Ġtaten": 5218,
      "igation": 5219,
      "rÃ¤gen": 5220,
      "edien": 5221,
      "Ġteilnahme": 5222,
      "langt": 5223,
      "Ġpoten": 5224,
      "Ġfreunde": 5225,
      "Ġeinfache": 5226,
      "Ġmindest": 5227,
      "Ġbud": 5228,
      "Ġpositive": 5229,
      "Ġupdate": 5230,
      "Ġprofitieren": 5231,
      "Ġsecurityfocus": 5232,
      "Ġjugoslaw": 5233,
      "engl": 5234,
      "ĠwÃ¤ren": 5235,
      "Ġfolge": 5236,
      "plÃ¤tze": 5237,
      "Ġverwendung": 5238,
      "Ġbeteiligung": 5239,
      "Ġfacts": 5240,
      "Ġangst": 5241,
      "oul": 5242,
      "Ġ#": 5243,
      "Ġpina": 5244,
      "llo": 5245,
      "ĠverhÃ¤lt": 5246,
      "ĠspÃ¤t": 5247,
      "rufe": 5248,
      "Ġther": 5249,
      "Ġnied": 5250,
      "ĠgrundsÃ¤t": 5251,
      "Ġlangfrist": 5252,
      "hÃ¶ren": 5253,
      "achtung": 5254,
      "ĠernÃ¤hrung": 5255,
      "rechung": 5256,
      "Ġcasino": 5257,
      "ĠfrÃ¼here": 5258,
      "ĠerfÃ¼llt": 5259,
      "ĠÃ¤gyp": 5260,
      "erweise": 5261,
      "Ġband": 5262,
      "Ġhig": 5263,
      "achsen": 5264,
      "Ġakp": 5265,
      "Ġgleichzeitig": 5266,
      "auftrag": 5267,
      "mÃ¤rkte": 5268,
      "gut": 5269,
      "zte": 5270,
      "ĠÃ¤r": 5271,
      "onn": 5272,
      "tic": 5273,
      "ral": 5274,
      "quem": 5275,
      "lose": 5276,
      "Ġdebian": 5277,
      "Ġrestriktive": 5278,
      "%)": 5279,
      "Ġinfl": 5280,
      "Ġgap": 5281,
      "Ġvorrang": 5282,
      "Ġalten": 5283,
      "Ġdamals": 5284,
      "Ġstimmer": 5285,
      "Ġziffer": 5286,
      "Ġausgestattet": 5287,
      "Ġdritten": 5288,
      "ĠarbeitsplÃ¤tze": 5289,
      "Ġpotonik": 5290,
      "ewg": 5291,
      "71": 5292,
      "vin": 5293,
      "Ġsupp": 5294,
      "ĠfÃ¤h": 5295,
      "Ġkabel": 5296,
      "Ġeinzu": 5297,
      "indungen": 5298,
      "Ġfrem": 5299,
      "Ġpolizei": 5300,
      "Ġinstitutionen": 5301,
      "dienstleistungen": 5302,
      "Ġinakzeptabel": 5303,
      "ssion": 5304,
      "Ġklage": 5305,
      "Ġpok": 5306,
      "ragen": 5307,
      "Ġgebe": 5308,
      "Ġzustimmung": 5309,
      "spra": 5310,
      "Ġregul": 5311,
      "Ġsonst": 5312,
      "Ġselten": 5313,
      "Ġstaatsminister": 5314,
      "ĠĠĠĠ": 5315,
      "Ġfarbe": 5316,
      "Ġbrasil": 5317,
      "Ġeisenbahn": 5318,
      "icher": 5319,
      "Ġkr": 5320,
      "olution": 5321,
      "riff": 5322,
      "Ġstets": 5323,
      "Ġ08": 5324,
      "Ġshop": 5325,
      "Ġverbessert": 5326,
      "mode": 5327,
      "Ġkoordinierung": 5328,
      "Ġdr": 5329,
      "Ġps": 5330,
      "iser": 5331,
      "ftung": 5332,
      "Ġhierbei": 5333,
      "Ġstattfinden": 5334,
      "Ġjahrh": 5335,
      "Ġcode": 5336,
      "statten": 5337,
      "ĠÃ¼berprÃ¼ft": 5338,
      "Ġkrisen": 5339,
      "76": 5340,
      "dan": 5341,
      "ls": 5342,
      "ĠgeprÃ¼": 5343,
      "ĠÃ¼berwachung": 5344,
      "Ġausgang": 5345,
      "Ġentschieden": 5346,
      "hagen": 5347,
      "Ġworld": 5348,
      "Ġgoog": 5349,
      "Ġinvestitionsbank": 5350,
      "sst": 5351,
      "Ġprodi": 5352,
      "Ġunterkunft": 5353,
      "Ġangemessen": 5354,
      "ĠgewÃ¼n": 5355,
      "iness": 5356,
      "Ġfestgelegt": 5357,
      "Ġverbessern": 5358,
      "ĠgrenzÃ¼ber": 5359,
      "entwicklung": 5360,
      "scheinlich": 5361,
      "Ġherunterladen": 5362,
      "Ġstatistiken": 5363,
      "Ġfonds": 5364,
      "rt": 5365,
      "Ġbru": 5366,
      "regeln": 5367,
      "entschei": 5368,
      "Ġkonsequ": 5369,
      "Ġnice": 5370,
      "Ġwichtiges": 5371,
      "Ġvereinfachung": 5372,
      "Ġchancen": 5373,
      "eur": 5374,
      "ikt": 5375,
      "kap": 5376,
      "swert": 5377,
      "tÃ¤u": 5378,
      "tensi": 5379,
      "Ġaufbau": 5380,
      "amt": 5381,
      "grenzen": 5382,
      "Ġminder": 5383,
      "Ġbeginn": 5384,
      "ĠbÃ¼ro": 5385,
      "ĠbegrÃ¼ÃŁ": 5386,
      "Ġverbraucherschutz": 5387,
      "Ġseien": 5388,
      "Ġbeantworten": 5389,
      "Ġholz": 5390,
      "sphÃ¤re": 5391,
      "fikation": 5392,
      "nungs": 5393,
      "pft": 5394,
      "Ġwandel": 5395,
      "Ġverwir": 5396,
      "Ġwere": 5397,
      "Ġdessen": 5398,
      "Ġfallen": 5399,
      "ĠÃ¼berprÃ¼fung": 5400,
      "Ġbewusst": 5401,
      "Ġautomatisch": 5402,
      "Ġfactsheet": 5403,
      "fÃ¤hr": 5404,
      "uz": 5405,
      "Ġwichtigen": 5406,
      "Ġvar": 5407,
      "Ġverring": 5408,
      "Ġnochmals": 5409,
      "ype": 5410,
      "Ġanspruch": 5411,
      "Ġbosnien": 5412,
      "will": 5413,
      "Ġsite": 5414,
      "ĠbevÃ¶lkerung": 5415,
      "Ġabzu": 5416,
      "Ġabfall": 5417,
      "ehrte": 5418,
      "othe": 5419,
      "utzt": 5420,
      "Ġyour": 5421,
      "Ġaktionen": 5422,
      "Ġinitiativen": 5423,
      "ĠnÃ¤heres": 5424,
      "Ġmulti": 5425,
      "ften": 5426,
      "ice": 5427,
      "kauf": 5428,
      "vie": 5429,
      "ehme": 5430,
      "richtungen": 5431,
      "agentur": 5432,
      "weisung": 5433,
      "Ġbehandlung": 5434,
      "mod": 5435,
      "Ġul": 5436,
      "inst": 5437,
      "Ġereig": 5438,
      "Ġweiterer": 5439,
      "Ġwegen": 5440,
      "stellvertreter": 5441,
      "Ġ03": 5442,
      "herine": 5443,
      "Ġnahen": 5444,
      "Ġasien": 5445,
      "ĠmÃ¤rkte": 5446,
      "Ġbestimmungen": 5447,
      "Ġbrowser": 5448,
      "Ġbehandeln": 5449,
      "Ġerzielt": 5450,
      "seh": 5451,
      "sfonds": 5452,
      "Ġlauf": 5453,
      "amerik": 5454,
      "ĠgenÃ¼": 5455,
      "Ġzweif": 5456,
      "Ġgewinner": 5457,
      "Ġmex": 5458,
      "Ġtrain": 5459,
      "Ġboot": 5460,
      "Ġhaut": 5461,
      "Ġdienstag": 5462,
      "Ġvorsitzen": 5463,
      "Ġsekunden": 5464,
      "ep": 5465,
      "imal": 5466,
      "anlage": 5467,
      "Ġpin": 5468,
      "Ġind": 5469,
      "mme": 5470,
      "Ġsparen": 5471,
      "ickt": 5472,
      "lleg": 5473,
      "Ġtisch": 5474,
      "Ġheim": 5475,
      "Ġmeeres": 5476,
      "porte": 5477,
      "Ġgeorgie": 5478,
      "Ġaufenthalt": 5479,
      "investi": 5480,
      "nr": 5481,
      "Ġschrei": 5482,
      "Ġsoweit": 5483,
      "Ġjac": 5484,
      "Ġrichtlinien": 5485,
      "ĠstimmerklÃ¤rungen": 5486,
      "Ġgoogle": 5487,
      "erzeugnisse": 5488,
      "Ġwien": 5489,
      "Ġvari": 5490,
      "Ġpor": 5491,
      "Ġbequem": 5492,
      "Ġtal": 5493,
      "lehen": 5494,
      "Ġalte": 5495,
      "Ġnachricht": 5496,
      "Ġfreie": 5497,
      "flug": 5498,
      "box": 5499,
      "Ġjanez": 5500,
      "Ġfarben": 5501,
      "Ġcatherine": 5502,
      "Ġcopy": 5503,
      "Ġclean": 5504,
      "Ġstolz": 5505,
      "Ġbren": 5506,
      "ÃŁburg": 5507,
      "anda": 5508,
      "...?": 5509,
      "Ġ48": 5510,
      "Ġziemlich": 5511,
      "Ġharmon": 5512,
      "Ġuntersuchung": 5513,
      "54530": 5514,
      "ball": 5515,
      "no": 5516,
      "arten": 5517,
      "Ã¶h": 5518,
      "wegs": 5519,
      "erefer": 5520,
      "Ġumweltschutz": 5521,
      "ĠgrÃ¼nbuch": 5522,
      "Ġstellvertreterin": 5523,
      "presse": 5524,
      "frika": 5525,
      "km": 5526,
      "Ġechte": 5527,
      "Ġnet": 5528,
      "Ġpad": 5529,
      "esc": 5530,
      "ĠschÃ¤": 5531,
      "igte": 5532,
      "spartner": 5533,
      "wechs": 5534,
      "Ġgrundlage": 5535,
      "Ġtraum": 5536,
      "ĠvollstÃ¤ndige": 5537,
      "Ġpolitisch": 5538,
      "Ġoffensichtlich": 5539,
      "ĠschluÃŁfolgerungen": 5540,
      "Ġmodernis": 5541,
      "cd": 5542,
      "lig": 5543,
      "Ġord": 5544,
      "Ġilleg": 5545,
      "Ġerinner": 5546,
      "ament": 5547,
      "Ġlebt": 5548,
      "ski": 5549,
      "ĠgrÃ¶ÃŁten": 5550,
      "freiheit": 5551,
      "ĠbefÃ¼rwor": 5552,
      "Ġgeorgieva": 5553,
      "dis": 5554,
      "tell": 5555,
      "schrift": 5556,
      "schrÃ¤n": 5557,
      "eits": 5558,
      "anner": 5559,
      "Ġauszu": 5560,
      "Ġzeitplan": 5561,
      "Ġdurchaus": 5562,
      "Ġkeines": 5563,
      "Ġdatenbank": 5564,
      "fordert": 5565,
      "ĠflÃ¼cht": 5566,
      "79": 5567,
      "ace": 5568,
      "mt": 5569,
      "gegeben": 5570,
      "Ġhaltung": 5571,
      "Ġeinver": 5572,
      "Ġzuvor": 5573,
      "Ġrie": 5574,
      "verordnung": 5575,
      "ĠenttÃ¤u": 5576,
      "Ġgran": 5577,
      "Ã¤mpfen": 5578,
      "ĠverlÃ¤nger": 5579,
      "Ġkapitel": 5580,
      "Ġmotor": 5581,
      "vier": 5582,
      "Ġorgan": 5583,
      "instrum": 5584,
      "Ġborg": 5585,
      "Ġzeiten": 5586,
      "Ġbez": 5587,
      "Ġjur": 5588,
      "rÃ¤ume": 5589,
      "Ġdeutschen": 5590,
      "Ġflash": 5591,
      "fÃ¼hrer": 5592,
      "ĠnÃ¤chster": 5593,
      "Ġentscheidungen": 5594,
      "Ġfehlen": 5595,
      "Ġkulture": 5596,
      "ileo": 5597,
      "right": 5598,
      "Ġverfolgen": 5599,
      "63": 5600,
      "kur": 5601,
      "Ġkol": 5602,
      "Ġped": 5603,
      "Ġdenen": 5604,
      "lastung": 5605,
      "Ġmak": 5606,
      "Ġ150": 5607,
      "Ġstudie": 5608,
      "zÃ¼g": 5609,
      "Ġerfordert": 5610,
      "Ġbusiness": 5611,
      "Ġwesentlichen": 5612,
      "Ġtiere": 5613,
      "Ġdigitalen": 5614,
      "Ġalbanien": 5615,
      "Ġeingerichtet": 5616,
      "ras": 5617,
      "Ġgeschen": 5618,
      "Ġanna": 5619,
      "Ġredu": 5620,
      "anne": 5621,
      "Ġrh": 5622,
      "vern": 5623,
      "Ġfrien": 5624,
      "Ġgeschrieben": 5625,
      "Ġstraf": 5626,
      "Ġlizenz": 5627,
      "troffen": 5628,
      "Ġbreakfast": 5629,
      "59": 5630,
      "krise": 5631,
      "pol": 5632,
      "Ġfab": 5633,
      "itze": 5634,
      "Ġerzeugnisse": 5635,
      "Ġschre": 5636,
      "Ġemission": 5637,
      "Ġpraktische": 5638,
      "Ġvereinbarung": 5639,
      "ĠvernÃ¼nf": 5640,
      "Ġpapier": 5641,
      "ĠflexibilitÃ¤t": 5642,
      "Ġhoffnung": 5643,
      "Ġverabschie": 5644,
      "bro": 5645,
      "sc": 5646,
      "Ġbist": 5647,
      "Ġverdient": 5648,
      "ĠschÃ¼tzen": 5649,
      "Ġci": 5650,
      "Ġumgesetzt": 5651,
      "Ġentwurf": 5652,
      "Ġradio": 5653,
      "olitische": 5654,
      "Ġforen": 5655,
      "utzung": 5656,
      "Ġworten": 5657,
      "Ġinteressen": 5658,
      "Ġmedizin": 5659,
      "Ġspezielle": 5660,
      "Ġgelegenheit": 5661,
      "Ġanerkennung": 5662,
      "Ġsanktionen": 5663,
      "bi": 5664,
      "brÃ¼": 5665,
      "gub": 5666,
      "hung": 5667,
      "Ġsing": 5668,
      "stern": 5669,
      "Ġven": 5670,
      "ĠkÃ¼nst": 5671,
      "Ġrezeption": 5672,
      "rÃ¤fte": 5673,
      "Ġnachrichten": 5674,
      "gere": 5675,
      "gerung": 5676,
      "zeg": 5677,
      "Ġextra": 5678,
      "Ġmonaten": 5679,
      "ĠgefÃ¶r": 5680,
      "Ġinternational": 5681,
      "Ġtextil": 5682,
      "spunkt": 5683,
      "Ġbemer": 5684,
      "Ã¼bereinkommen": 5685,
      "Ġweder": 5686,
      "Ġgrunde": 5687,
      "Ġmehrwert": 5688,
      "Ġdient": 5689,
      "ĠdurchgefÃ¼hrt": 5690,
      "Ġnorm": 5691,
      "Ġweshalb": 5692,
      "Ġgold": 5693,
      "Ġkompliz": 5694,
      "Ġschlecht": 5695,
      "ates": 5696,
      "ea": 5697,
      "Ġeinigung": 5698,
      "Ġausnahme": 5699,
      "Ġamtieren": 5700,
      "Ġmehrheit": 5701,
      "Ġfordert": 5702,
      "2009": 5703,
      "Ġformular": 5704,
      "ĠschlieÃŁen": 5705,
      "Ġfortschritt": 5706,
      "Ġdemokratische": 5707,
      "Ġgerecht": 5708,
      "Ġgalileo": 5709,
      "Ġextrem": 5710,
      "ĠÃ¼": 5711,
      "Ġdol": 5712,
      "Ġzerst": 5713,
      "ĠÃ¼bernahme": 5714,
      "Ġumgebung": 5715,
      "okko": 5716,
      "prozess": 5717,
      "Ġ1994": 5718,
      "ĠbeitrÃ¤ge": 5719,
      "Ġverlieren": 5720,
      "wohner": 5721,
      "Ġkollege": 5722,
      "ausschusses": 5723,
      "Ġregionalpolitik": 5724,
      "Ġalternative": 5725,
      "Ġanpassung": 5726,
      "stieg": 5727,
      "edienst": 5728,
      "park": 5729,
      "Ġschule": 5730,
      "Ġprofe": 5731,
      "Ġhinweise": 5732,
      "Ġmehreren": 5733,
      "Ġniemals": 5734,
      "Ġsolch": 5735,
      "Ġsubsidi": 5736,
      "ĠbeschÃ¤ftigungs": 5737,
      "Ġbrasilien": 5738,
      "Ġdyn": 5739,
      "Ġmic": 5740,
      "Ġfla": 5741,
      "ike": 5742,
      "Ġhilft": 5743,
      "Ġrelativ": 5744,
      "Ġinstrumente": 5745,
      "Ġchinas": 5746,
      "Ġkolleg": 5747,
      "kop": 5748,
      "zone": 5749,
      "Ġderartige": 5750,
      "Ġinhalte": 5751,
      "ley": 5752,
      "Ġdiam": 5753,
      "ĠfÃ¼llen": 5754,
      "Ġehrgei": 5755,
      "lehnt": 5756,
      "Ġdringlichkeit": 5757,
      "englisch": 5758,
      "br": 5759,
      "kat": 5760,
      "nÃ¼": 5761,
      "ergie": 5762,
      "Ġdach": 5763,
      "ĠzustÃ¤ndig": 5764,
      "Ġverzeich": 5765,
      "sterdam": 5766,
      "posi": 5767,
      "Ġprivate": 5768,
      "Ġhilf": 5769,
      "produkte": 5770,
      "Ġhoriz": 5771,
      "%.": 5772,
      "bab": 5773,
      "seiten": 5774,
      "Ġdeinen": 5775,
      "Ġverfassung": 5776,
      "Ġjob": 5777,
      "Ġzweiter": 5778,
      "rief": 5779,
      "Ġheutige": 5780,
      "Ġplus": 5781,
      "Ġnational": 5782,
      "Ġrisiken": 5783,
      "Ġwelchem": 5784,
      "Ġschiffe": 5785,
      "Ġwiederaufnahme": 5786,
      "Ġabstimmungs": 5787,
      "Ġkonzentr": 5788,
      "69": 5789,
      "ql": 5790,
      "ves": 5791,
      "anw": 5792,
      "schau": 5793,
      "Ġpil": 5794,
      "Ġautor": 5795,
      "Ġlt": 5796,
      "2003": 5797,
      "fÃ¼hrungs": 5798,
      "Ġstaatliche": 5799,
      "licherweise": 5800,
      "gewiesen": 5801,
      "Ġdienste": 5802,
      "Ġshar": 5803,
      "Ġschwerpunkte": 5804,
      "schreiten": 5805,
      "78": 5806,
      "Ġkg": 5807,
      "schw": 5808,
      "Ġanliegen": 5809,
      "ohlen": 5810,
      "fragt": 5811,
      "Ġheutigen": 5812,
      "gesetz": 5813,
      "Ġadd": 5814,
      "ĠmÃ¤nner": 5815,
      "Ġsir": 5816,
      "Ġhan": 5817,
      "Ġput": 5818,
      "Ġverd": 5819,
      "Ġverur": 5820,
      "berto": 5821,
      "Ġsowohl": 5822,
      "Ġtodes": 5823,
      "ĠÃ¶ffentlicher": 5824,
      "Ġkompeten": 5825,
      "Ġbegonnen": 5826,
      "Ġtick": 5827,
      "Ġsyrien": 5828,
      "tagung": 5829,
      "Ã¼hungen": 5830,
      "Ġpflicht": 5831,
      "ĠverwaltungsbehÃ¶rde": 5832,
      "ĠgÃ¼ltig": 5833,
      "ĠÃ¤gypten": 5834,
      "664": 5835,
      "zungen": 5836,
      "eichen": 5837,
      "ĠzÃ¤hlt": 5838,
      "Ġeinig": 5839,
      "genz": 5840,
      "Ġschm": 5841,
      "Ġrefer": 5842,
      "Ġreaktion": 5843,
      "Ġabschluss": 5844,
      "Ã¤tzen": 5845,
      "Ġmanche": 5846,
      "Ġgratis": 5847,
      "Ġrechtsvorschriften": 5848,
      "Ġski": 5849,
      "Ġdiskrimin": 5850,
      "programme": 5851,
      "Ġnummer": 5852,
      "Ġabgeordneten": 5853,
      "Ġgeorgien": 5854,
      "stattung": 5855,
      "Ġlouis": 5856,
      "Ġcopyright": 5857,
      "100": 5858,
      "hop": 5859,
      "Ġsorg": 5860,
      "Ġmutter": 5861,
      "Ġgestatten": 5862,
      "grenz": 5863,
      "Ġhof": 5864,
      "Ġamsterdam": 5865,
      "Ġ44": 5866,
      "Ġleiden": 5867,
      "Ġattra": 5868,
      "Ġabgelehnt": 5869,
      "handels": 5870,
      "ĠfÃ¶rder": 5871,
      "Ġvertrags": 5872,
      "Ġcecilia": 5873,
      "xi": 5874,
      "Ġsah": 5875,
      "Ġwald": 5876,
      "Ġmcc": 5877,
      "Ġkub": 5878,
      "Ġverdien": 5879,
      "Ġjen": 5880,
      "Ġcal": 5881,
      "ienen": 5882,
      "Ġwerbung": 5883,
      "ĠÃ¼bernehmen": 5884,
      "spruch": 5885,
      "ria": 5886,
      "verein": 5887,
      "Ġrasch": 5888,
      "Ġdimit": 5889,
      "Ġentwicklungen": 5890,
      "Ġoptionen": 5891,
      "ĠgrundsÃ¤tze": 5892,
      "Ġgebiete": 5893,
      "verkehrs": 5894,
      "leistung": 5895,
      "Ġschneller": 5896,
      "Ġmilliar": 5897,
      "Ġfeld": 5898,
      "Ġgreat": 5899,
      "ĠhÃ¶chst": 5900,
      "Ġerkennen": 5901,
      "mittlung": 5902,
      "lÃ¤nd": 5903,
      "ĠzÃ¶": 5904,
      "itut": 5905,
      "Ġstunde": 5906,
      "Ġstrom": 5907,
      "Ġdennis": 5908,
      "ric": 5909,
      "attform": 5910,
      "ĠgeschÃ¼tzt": 5911,
      "Ġ85": 5912,
      "2006": 5913,
      "Ġlob": 5914,
      "Ġnahr": 5915,
      "ĠgegenwÃ¤rtig": 5916,
      "Ġferrero": 5917,
      "ĠgeprÃ¼ft": 5918,
      "ĠsubsidiaritÃ¤t": 5919,
      "Ġdist": 5920,
      "eib": 5921,
      "Ġkindern": 5922,
      "Ġankunft": 5923,
      "omen": 5924,
      "Ġkonz": 5925,
      "Ġkontext": 5926,
      "Ġvielfalt": 5927,
      "Ġquali": 5928,
      "Ġruhe": 5929,
      "Ġgestern": 5930,
      "Ġkleiner": 5931,
      "ĠgrÃ¶ÃŁere": 5932,
      "ĠprÃ¼f": 5933,
      "Ġeffek": 5934,
      "Ġavra": 5935,
      "ĠstÃ¤dte": 5936,
      "Ġstatus": 5937,
      "ĠgewÃ¼nsch": 5938,
      "bus": 5939,
      "volle": 5940,
      "Ġpier": 5941,
      "Ġanschluss": 5942,
      "Ġjung": 5943,
      "ista": 5944,
      "Ġ39": 5945,
      "quote": 5946,
      "Ġgewiss": 5947,
      "107": 5948,
      "Ġkaffe": 5949,
      "Ġsorge": 5950,
      "Ġbundesministerin": 5951,
      "Ġvinc": 5952,
      "ĠwÃ¤hrung": 5953,
      "mma": 5954,
      "Ġtritt": 5955,
      "annes": 5956,
      "Ġabs": 5957,
      "aga": 5958,
      "mack": 5959,
      "Ġwork": 5960,
      "Ġeigenes": 5961,
      "Ġ202": 5962,
      "Ġxii": 5963,
      "ĠausschuÃŁ": 5964,
      "Ġerwartete": 5965,
      "Ġvereinigten": 5966,
      "Ġglobalisierung": 5967,
      "Ġchristian": 5968,
      "Ġveranstaltungen": 5969,
      "Ġausreichend": 5970,
      "bre": 5971,
      "wel": 5972,
      "yt": 5973,
      "Ġfand": 5974,
      "Ġflie": 5975,
      "Ġgelangen": 5976,
      "Ġangen": 5977,
      "Ġverlassen": 5978,
      "ando": 5979,
      "Ġobst": 5980,
      "ella": 5981,
      "usa": 5982,
      "Ġmay": 5983,
      "Ġ400": 5984,
      "barometer": 5985,
      "Ġpunkten": 5986,
      "ichtigung": 5987,
      "Ġgegensei": 5988,
      "Ġqual": 5989,
      "ĠtÃ¤tigkeit": 5990,
      "Ġbeantwortet": 5991,
      "wachstum": 5992,
      "Ġbehinder": 5993,
      "waldner": 5994,
      "lu": 5995,
      "indest": 5996,
      "Ġsieben": 5997,
      "Ġbestellung": 5998,
      "abe": 5999,
      "2008": 6000,
      "sko": 6001,
      "Ġgrundsatz": 6002,
      "Ġolaf": 6003,
      "ĠÃ¼berprÃ¼fen": 6004,
      "ĠzugÃ¤nglich": 6005,
      "Ġresort": 6006,
      "ĠausfÃ¼hrungen": 6007,
      "Ġgeneralsekretariat": 6008,
      "Ġbaby": 6009,
      "gefÃ¼gt": 6010,
      "Ġimmobilien": 6011,
      "Ġsupport": 6012,
      "53": 6013,
      "cz": 6014,
      "una": 6015,
      "ters": 6016,
      "ierminister": 6017,
      "Ġaufgenommen": 6018,
      "reiber": 6019,
      "beauftrag": 6020,
      "Ġhow": 6021,
      "Ġzumindest": 6022,
      "Ġfreier": 6023,
      "ĠfÃ¤llt": 6024,
      "Ġgedanken": 6025,
      "Ġdigitale": 6026,
      "ĠkÃ¼nftige": 6027,
      "bedarf": 6028,
      "cor": 6029,
      "Ġball": 6030,
      "ssa": 6031,
      "Ġklass": 6032,
      "arus": 6033,
      "Ġintensi": 6034,
      "Ġauffassung": 6035,
      "istische": 6036,
      "Ġvorteil": 6037,
      "verh": 6038,
      "Ġkonnten": 6039,
      "Ġstaats": 6040,
      "Ġpatten": 6041,
      "Ġinformieren": 6042,
      "Ġinstrument": 6043,
      "Ġkommunal": 6044,
      "Ġreagieren": 6045,
      "Ġsymbol": 6046,
      "ction": 6047,
      "kam": 6048,
      "inge": 6049,
      "orgt": 6050,
      "Ġzuver": 6051,
      "Ġabbott": 6052,
      "Ġthom": 6053,
      "gebaut": 6054,
      "Ġstil": 6055,
      "ĠstraÃŁe": 6056,
      "Ġgemeinsamer": 6057,
      "Ġverstehe": 6058,
      "Ġkamp": 6059,
      "Ġjunge": 6060,
      "Ġsysteme": 6061,
      "Ġzentralbank": 6062,
      "schlÃ¼sselung": 6063,
      "fleisch": 6064,
      "tliche": 6065,
      "Ġdina": 6066,
      "Ġmas": 6067,
      "Ġderen": 6068,
      "Ġlab": 6069,
      "forschung": 6070,
      "ĠfÃ¼hlen": 6071,
      "Ġmess": 6072,
      "Ġarbeitsmarkt": 6073,
      "ĠpalÃ¤st": 6074,
      "ologische": 6075,
      "Ġeuropeaid": 6076,
      "Ġinformationsgesellschaft": 6077,
      "znei": 6078,
      "yan": 6079,
      "eigen": 6080,
      "Ġfi": 6081,
      "ork": 6082,
      "rates": 6083,
      "ĠschÃ¶": 6084,
      "ernt": 6085,
      "ĠÃ¶k": 6086,
      "Ġ65": 6087,
      "Ġphase": 6088,
      "iano": 6089,
      "Ġplayer": 6090,
      "Ġlehnt": 6091,
      "drÃ¼ck": 6092,
      "ĠlÃ¤ndlichen": 6093,
      "Ġbooking": 6094,
      "zegow": 6095,
      "pon": 6096,
      "zed": 6097,
      "enden": 6098,
      "orge": 6099,
      "Ġlim": 6100,
      "Ġanalyse": 6101,
      "ĠtÃ¶": 6102,
      "opoul": 6103,
      "Ġcen": 6104,
      "igten": 6105,
      "Ġentgegen": 6106,
      "werke": 6107,
      "Ġklick": 6108,
      "Ġ52": 6109,
      "ĠerklÃ¤ren": 6110,
      "ĠstaatssekretÃ¤rin": 6111,
      "Ġerwachsen": 6112,
      "freund": 6113,
      "Ġbrut": 6114,
      "Ġeinwanderung": 6115,
      "Ġspezial": 6116,
      "Ġferienwoh": 6117,
      "Ġarchiv": 6118,
      "ĠbemÃ¼hungen": 6119,
      "Ġdynam": 6120,
      "Ġkall": 6121,
      "Ġregen": 6122,
      "ila": 6123,
      "Ġeure": 6124,
      "Ġtool": 6125,
      "ntag": 6126,
      "Ġspielraum": 6127,
      "Ġredaktion": 6128,
      "Ġglaub": 6129,
      "Ġschaffung": 6130,
      "alerie": 6131,
      "Ġkorrig": 6132,
      "ĠprÃ¤sen": 6133,
      "ĠstÃ¤rken": 6134,
      "Ġpflanzen": 6135,
      "Ġapartments": 6136,
      "Ġleistungs": 6137,
      "Ġnavigation": 6138,
      "nes": 6139,
      "ĠhÃ¼b": 6140,
      "Ġgefallen": 6141,
      "ĠanhÃ¶r": 6142,
      "austausch": 6143,
      "Ġcro": 6144,
      "ĠÃ¼berein": 6145,
      "Ġhering": 6146,
      "gruppen": 6147,
      "Ġarmen": 6148,
      "stellte": 6149,
      "zial": 6150,
      "ĠgelÃ¶st": 6151,
      "Ġcomfort": 6152,
      "Ġwahrscheinlich": 6153,
      "1999": 6154,
      "Ġsinnvoll": 6155,
      "Ġberufliche": 6156,
      "Ġausgewogen": 6157,
      "Ġvirtu": 6158,
      "tlich": 6159,
      "Ġfang": 6160,
      "Ġtaus": 6161,
      "hton": 6162,
      "Ġ46": 6163,
      "klÃ¤rung": 6164,
      "ico": 6165,
      "Ġbilden": 6166,
      "spielt": 6167,
      "stands": 6168,
      "Ġverantwortlich": 6169,
      "Ġwesentliche": 6170,
      "Ġerkki": 6171,
      "Ġgarantiert": 6172,
      "Ġpoker": 6173,
      "zegowina": 6174,
      "ĠdrÃ¼": 6175,
      "Ġgeheim": 6176,
      "gerufen": 6177,
      "aktiv": 6178,
      "Ġfolgender": 6179,
      "Ġgemeinschaften": 6180,
      "Ġleid": 6181,
      "Ġleistung": 6182,
      "Ġreichen": 6183,
      "Ġjedenfalls": 6184,
      "Ġdeiner": 6185,
      "Ġkompon": 6186,
      "Ġerfahrungen": 6187,
      "Ġbetrachten": 6188,
      "Ġdorf": 6189,
      "meister": 6190,
      "ĠjÃ¼ng": 6191,
      "effizien": 6192,
      "Ġly": 6193,
      "Ġbeein": 6194,
      "rock": 6195,
      "reisen": 6196,
      "Ġdankbar": 6197,
      "ugh": 6198,
      "Ġgross": 6199,
      "Ġletzter": 6200,
      "Ġgerichtshofs": 6201,
      "ĠverÃ¤nderungen": 6202,
      "Ġhenn": 6203,
      "Ġpaul": 6204,
      "Ġassoziations": 6205,
      "Ġhorizont": 6206,
      "cell": 6207,
      "Ġprag": 6208,
      "Ġgeschaffen": 6209,
      "Ġschlo": 6210,
      "Ġausbau": 6211,
      "blie": 6212,
      "linge": 6213,
      "ĠgemÃ¼": 6214,
      "Ġbislang": 6215,
      "ĠdÃ¼rfte": 6216,
      "Ġschulden": 6217,
      "Ġkrimin": 6218,
      "Ġvolks": 6219,
      "Ġmerc": 6220,
      "Ġkomplett": 6221,
      "Ġhervorra": 6222,
      "metho": 6223,
      "Ġnachstehenden": 6224,
      "Ġavraam": 6225,
      "596": 6226,
      "fangen": 6227,
      "nel": 6228,
      "off": 6229,
      "part": 6230,
      "uhr": 6231,
      "uelle": 6232,
      "wunsch": 6233,
      "Ġanstr": 6234,
      "oph": 6235,
      "fordern": 6236,
      "sites": 6237,
      "user": 6238,
      "tierte": 6239,
      "Ġmontag": 6240,
      "Ġliban": 6241,
      "fÃ¤hig": 6242,
      "Ġverpflich": 6243,
      "Ġmelden": 6244,
      "Ġmaxim": 6245,
      "Ġfeier": 6246,
      "jekten": 6247,
      "ĠwallstrÃ¶m": 6248,
      "entscheidung": 6249,
      "500": 6250,
      "pra": 6251,
      "enhagen": 6252,
      "inter": 6253,
      "eisen": 6254,
      "Ġeth": 6255,
      "Ġmut": 6256,
      "Ġprin": 6257,
      "arm": 6258,
      "ĠÃ¼berw": 6259,
      "Ġok": 6260,
      "fluss": 6261,
      "Ġ282": 6262,
      "betrag": 6263,
      "Ġinstallieren": 6264,
      "Ġveranstaltung": 6265,
      "Ġperfekt": 6266,
      "jun": 6267,
      "jahre": 6268,
      "zz": 6269,
      "Ġsm": 6270,
      "iertes": 6271,
      "Ġumge": 6272,
      "faÃŁt": 6273,
      "hebung": 6274,
      "Ġmarc": 6275,
      "Ġmarg": 6276,
      "Ġanderem": 6277,
      "Ġtod": 6278,
      "Ġxiv": 6279,
      "gewicht": 6280,
      "Ġinternationaler": 6281,
      "Ġashton": 6282,
      "Ġstudio": 6283,
      "Ġvideos": 6284,
      "ĠzusÃ¤tzlich": 6285,
      "umweltkommissar": 6286,
      "Ġfriend": 6287,
      "bruch": 6288,
      "hle": 6289,
      "tele": 6290,
      "artet": 6291,
      "Ġaustausch": 6292,
      "Ġeingesetzt": 6293,
      "Ġgep": 6294,
      "Ġanwesen": 6295,
      "Ġausgabe": 6296,
      "sport": 6297,
      "anke": 6298,
      "Ġaussehen": 6299,
      "Ġ42": 6300,
      "Ġgenutzt": 6301,
      "Ġentwickeln": 6302,
      "waren": 6303,
      "Ġviii": 6304,
      "Ġskype": 6305,
      "Ġbalkon": 6306,
      "ĠhÃ¶chste": 6307,
      "Ġkatastrophen": 6308,
      "Ġderzeitige": 6309,
      "535": 6310,
      "car": 6311,
      "leit": 6312,
      "zul": 6313,
      "Ġbewegen": 6314,
      "Ġschau": 6315,
      "Ġvorange": 6316,
      "rige": 6317,
      "begriffen": 6318,
      "ots": 6319,
      "Ġleiter": 6320,
      "hafte": 6321,
      "Ġwirklichkeit": 6322,
      "Ġbedauer": 6323,
      "Ġfehl": 6324,
      "Ġpolitischer": 6325,
      "Ġbyr": 6326,
      "Ġunterbrechung": 6327,
      "Ġsimbab": 6328,
      "Ġgeorge": 6329,
      "Ġnachbarschaft": 6330,
      "lebhafter": 6331,
      "mor": 6332,
      "Ġfit": 6333,
      "Ġhi": 6334,
      "Ġgetroffen": 6335,
      "Ġversammlung": 6336,
      "neten": 6337,
      "Ġmarken": 6338,
      "ierend": 6339,
      "Ġpressestelle": 6340,
      "Ġdetail": 6341,
      "cccc": 6342,
      "zÃ¼ge": 6343,
      "ĠaktivitÃ¤ten": 6344,
      "Ġnukle": 6345,
      "Ġentsprechend": 6346,
      "Ġmoderne": 6347,
      "Ġamerika": 6348,
      "Ġakzeptiert": 6349,
      "Ġberatungen": 6350,
      "Ġagrarpolitik": 6351,
      "Ġarbeitslosigkeit": 6352,
      "Ġeinverstanden": 6353,
      "gress": 6354,
      "stig": 6355,
      "Ġfur": 6356,
      "Ġjens": 6357,
      "Ġwester": 6358,
      "dia": 6359,
      "Ġvieles": 6360,
      "ĠprÃ¤sidentschaft": 6361,
      "ices": 6362,
      "Ġsonnen": 6363,
      "Ġkombin": 6364,
      "ĠauÃŁerhalb": 6365,
      "Ġinteressiert": 6366,
      "Ġcasa": 6367,
      "gipfel": 6368,
      "Ġrechnung": 6369,
      "iner": 6370,
      "Ġbzw": 6371,
      "ĠvÃ¶l": 6372,
      "rate": 6373,
      "Ġanh": 6374,
      "Ġtari": 6375,
      "Ġcap": 6376,
      "Ġausland": 6377,
      "ielt": 6378,
      "zeÃŁ": 6379,
      "Ġmarokko": 6380,
      "Ġurspr": 6381,
      "Ġsolcher": 6382,
      "sichts": 6383,
      "Ġerneuer": 6384,
      "leistungs": 6385,
      "Ġschuld": 6386,
      "Ġrestaurants": 6387,
      "9258": 6388,
      "ĠerfÃ¼llen": 6389,
      "ĠdrittlÃ¤ndern": 6390,
      "Ġerreichbar": 6391,
      "initiative": 6392,
      "ula": 6393,
      "Ġszen": 6394,
      "lligen": 6395,
      "Ġaudi": 6396,
      "Ġtie": 6397,
      "Ġtoll": 6398,
      "indik": 6399,
      "Ġspann": 6400,
      "osa": 6401,
      "kteure": 6402,
      "Ġlegt": 6403,
      "Ġcha": 6404,
      "mittag": 6405,
      "Ġstarke": 6406,
      "ssysteme": 6407,
      "Ġmaschinen": 6408,
      "Ġverdienen": 6409,
      "59667": 6410,
      "546": 6411,
      "cam": 6412,
      "Ġeinrichtung": 6413,
      "Ġlen": 6414,
      "Ġgebur": 6415,
      "hrt": 6416,
      "Ġschu": 6417,
      "Ġauft": 6418,
      "Ġherbst": 6419,
      "ĠrÃ¤um": 6420,
      "Ġkonto": 6421,
      "haltet": 6422,
      "Ġdefizit": 6423,
      "rucken": 6424,
      "Ġleon": 6425,
      "projekt": 6426,
      "Ġfreude": 6427,
      "Ġbesteuerung": 6428,
      "Ġflor": 6429,
      "Ġbelarus": 6430,
      "Ġkarl": 6431,
      "Ġtechnik": 6432,
      "Ġgarantie": 6433,
      "Ġglas": 6434,
      "versorgung": 6435,
      "Ġewr": 6436,
      "Ġernennung": 6437,
      "Ġberichterstatterin": 6438,
      "ĠerhÃ¶ht": 6439,
      "ograf": 6440,
      "spakt": 6441,
      "Ġdvd": 6442,
      "Ġterrasse": 6443,
      "ye": 6444,
      "Ġshow": 6445,
      "Ġedu": 6446,
      "Ġmau": 6447,
      "ĠzÃ¤hlen": 6448,
      "Ġgeleistet": 6449,
      "ild": 6450,
      "ĠÃ¼bersetz": 6451,
      "Ġarznei": 6452,
      "mechan": 6453,
      "uÃŁen": 6454,
      "Ġbeschwer": 6455,
      "Ġbegann": 6456,
      "service": 6457,
      "Ġtages": 6458,
      "Ġaktuell": 6459,
      "Ġkaiser": 6460,
      "ĠÃ¤uÃŁern": 6461,
      "Ġgreen": 6462,
      "Ġkontakte": 6463,
      "Ġkanada": 6464,
      "Ġdauern": 6465,
      "Ġruhig": 6466,
      "lÃ¶sung": 6467,
      "Ġemissions": 6468,
      "59258": 6469,
      "bundes": 6470,
      "onte": 6471,
      "Ġky": 6472,
      "Ġtrin": 6473,
      "emen": 6474,
      "Ġausdruck": 6475,
      "Ġbeides": 6476,
      "Ġteilnehmen": 6477,
      "ĠgewÃ¤hlt": 6478,
      "Ġverboten": 6479,
      "Ġpreisen": 6480,
      "Ġserie": 6481,
      "Ġyork": 6482,
      "ĠbÃ¼rgern": 6483,
      "Ġempfohlen": 6484,
      "Ġgeldb": 6485,
      "dafrika": 6486,
      "ĠprioritÃ¤tsachsen": 6487,
      "Ġcheck": 6488,
      "Ġbewegung": 6489,
      "Ġlibanon": 6490,
      "pal": 6491,
      "Ġeb": 6492,
      "Ġbse": 6493,
      "schir": 6494,
      "Ġnehme": 6495,
      "andal": 6496,
      "Ġweitergehen": 6497,
      "barer": 6498,
      "Ġkompa": 6499,
      "gemein": 6500,
      "Ġadmin": 6501,
      "Ġdirektor": 6502,
      "Ġcarlo": 6503,
      "Ġparkplatz": 6504,
      "ĠverÃ¤nderung": 6505,
      "Ġentsprechende": 6506,
      "tifizierung": 6507,
      "Ġbahnhof": 6508,
      "fan": 6509,
      "mw": 6510,
      "Ġig": 6511,
      "Ġeins": 6512,
      "Ġjn": 6513,
      "verw": 6514,
      "Ġue": 6515,
      "ĠgemÃ¤ÃŁ": 6516,
      "ziellen": 6517,
      "Ġ06": 6518,
      "Ġpack": 6519,
      "Ġzusammenfassung": 6520,
      "Ġpower": 6521,
      "Ġelement": 6522,
      "Ġverheugen": 6523,
      "region": 6524,
      "Ġdefiniert": 6525,
      "ĠbemÃ¼": 6526,
      "Ġdiskutieren": 6527,
      "Ġspreche": 6528,
      "ĠbehÃ¶rden": 6529,
      "bad": 6530,
      "nÃ¶": 6531,
      "pc": 6532,
      "ssicherheit": 6533,
      "Ġkna": 6534,
      "Ġpi": 6535,
      "Ġeintrag": 6536,
      "Ġgot": 6537,
      "alte": 6538,
      "Ġanlagen": 6539,
      "ĠanschlieÃŁen": 6540,
      "Ġerleich": 6541,
      "rian": 6542,
      "akter": 6543,
      "Ġjust": 6544,
      "apier": 6545,
      "Ġrufen": 6546,
      "Ġfreien": 6547,
      "Ġvorschlags": 6548,
      "Ġinvestition": 6549,
      "Ġkreativ": 6550,
      "azitÃ¤t": 6551,
      "Ġwachstums": 6552,
      "ĠglÃ¼ckwunsch": 6553,
      "Ġwesentlich": 6554,
      "ĠbestÃ¤tigt": 6555,
      "Ġtotal": 6556,
      "Ġmethode": 6557,
      "fÃ¤ltig": 6558,
      "Ġsimbabwe": 6559,
      "ns": 6560,
      "Ġsau": 6561,
      "Ġsant": 6562,
      "Ġef": 6563,
      "Ġnett": 6564,
      "Ġinfo": 6565,
      "Ġlan": 6566,
      "Ġerde": 6567,
      "Ġcook": 6568,
      "Ġausschlie": 6569,
      "Ġformat": 6570,
      "ĠweiÃŁbuch": 6571,
      "organisation": 6572,
      "Ġvision": 6573,
      "ĠspÃ¤teren": 6574,
      "Ġkonflikt": 6575,
      "Ġmilliarden": 6576,
      "kult": 6577,
      "Ġbran": 6578,
      "Ġniel": 6579,
      "ata": 6580,
      "Ã¤ngt": 6581,
      "annis": 6582,
      "rikan": 6583,
      "log": 6584,
      "grammen": 6585,
      "kenn": 6586,
      "Ġwoher": 6587,
      "Ġschaf": 6588,
      "Ġfahrt": 6589,
      "Ġinstallation": 6590,
      "Ġpraktisch": 6591,
      "Ġschwarz": 6592,
      "Ġhaupts": 6593,
      "ĠbegrÃ¼ÃŁung": 6594,
      "Ġjacques": 6595,
      "Ġhennon": 6596,
      "Ġeas": 6597,
      "Ġbor": 6598,
      "Ġzustand": 6599,
      "Ġheran": 6600,
      "Ġberaten": 6601,
      "ungsmittel": 6602,
      "aktionen": 6603,
      "Ġbesorg": 6604,
      "Ġluc": 6605,
      "Ġmesse": 6606,
      "gewÃ¶hn": 6607,
      "Ġdaniel": 6608,
      "Ġkopenhagen": 6609,
      "Ġairport": 6610,
      "Ġkeinerlei": 6611,
      "dorf": 6612,
      "ĠungefÃ¤hr": 6613,
      "Ġalexand": 6614,
      "Ġbetrugs": 6615,
      "Ġwechsel": 6616,
      "Ġinfos": 6617,
      "53593": 6618,
      "ack": 6619,
      "eesc": 6620,
      "machen": 6621,
      "Ġwitt": 6622,
      "Ġiia": 6623,
      "Ġmite": 6624,
      "teste": 6625,
      "Ã¤ck": 6626,
      "ori": 6627,
      "Ġinbegriffen": 6628,
      "teneg": 6629,
      "Ġhouse": 6630,
      "Ġ38": 6631,
      "bli": 6632,
      "Ġone": 6633,
      "Ġpriva": 6634,
      "Ġsitzungen": 6635,
      "Ġvoller": 6636,
      "Ġnationen": 6637,
      "Ġpassieren": 6638,
      "Ġbestimmten": 6639,
      "wiesen": 6640,
      "hel": 6641,
      "ua": 6642,
      "ĠhÃ¤l": 6643,
      "Ġpension": 6644,
      "Ġeinstellung": 6645,
      "Ã¶konom": 6646,
      "Ġbeschlossen": 6647,
      "Ġtru": 6648,
      "Ġ250": 6649,
      "Ġjour": 6650,
      "ĠÃ¼bersetzung": 6651,
      "Ġausstellung": 6652,
      "etzungen": 6653,
      "ressourcen": 6654,
      "ohne": 6655,
      "fest": 6656,
      "ierende": 6657,
      "Ġgerech": 6658,
      "Ġregierungen": 6659,
      "Ġeis": 6660,
      "Ġsonntag": 6661,
      "Ġdienen": 6662,
      "Ġrevolution": 6663,
      "Ġbetreffend": 6664,
      "Ġlehren": 6665,
      "Ġcecaf": 6666,
      "58": 6667,
      "stÃ¤": 6668,
      "ĠlÃ¤": 6669,
      "Ġversp": 6670,
      "001": 6671,
      "Ġrelig": 6672,
      "andid": 6673,
      "Ġour": 6674,
      "formular": 6675,
      "Ġzurzeit": 6676,
      "ektion": 6677,
      "Ġ58": 6678,
      "Ġmarke": 6679,
      "Ġgemisch": 6680,
      "Ġgeschmack": 6681,
      "inea": 6682,
      "Ġverbot": 6683,
      "zeugung": 6684,
      "ĠprÃ¤z": 6685,
      "azza": 6686,
      "Ġfarb": 6687,
      "Ġfalsche": 6688,
      "Ġtatsache": 6689,
      "Ġ753": 6690,
      "aturen": 6691,
      "Ġbetrug": 6692,
      "Ġantonio": 6693,
      "ĠgemÃ¼se": 6694,
      "san": 6695,
      "Ġfeuer": 6696,
      "dessen": 6697,
      "Ġunterschei": 6698,
      "masch": 6699,
      "Ġfreit": 6700,
      "Ġeiniges": 6701,
      "Ġfreiwill": 6702,
      "stral": 6703,
      "Ġstrukturfonds": 6704,
      "sprÃ¼n": 6705,
      "finanzierung": 6706,
      "Ġbeinhaltet": 6707,
      "Ġklasse": 6708,
      "Ġpremierminister": 6709,
      "gast": 6710,
      "kw": 6711,
      "zin": 6712,
      "infrastruktur": 6713,
      "Ġhell": 6714,
      "Ġlager": 6715,
      "Ġgefragt": 6716,
      "Ġbetrag": 6717,
      "Ġcu": 6718,
      "forts": 6719,
      "lassung": 6720,
      "Ġtesten": 6721,
      "Ġmari": 6722,
      "Ġfron": 6723,
      "Ġforsten": 6724,
      "Ġandris": 6725,
      "Ġquoten": 6726,
      "alender": 6727,
      "Ġbesonderen": 6728,
      "Ġbeispielsweise": 6729,
      "Ġback": 6730,
      "Ġausschusses": 6731,
      "Ġintelligen": 6732,
      "Ġbuchung": 6733,
      "Ġkommissionsmitglied": 6734,
      "ĠberÃ¼cksichtigen": 6735,
      "amerika": 6736,
      "Ġmodernisierung": 6737,
      "ych": 6738,
      "Ġerz": 6739,
      "lichung": 6740,
      "Ġjose": 6741,
      "ĠÃ¼berzeugt": 6742,
      "Ġweist": 6743,
      "Ġmanagement": 6744,
      "Ġstay": 6745,
      "laut": 6746,
      "Ġ600": 6747,
      "vii": 6748,
      "Ġkostenfrei": 6749,
      "Ġplug": 6750,
      "Ġsystems": 6751,
      "Ġverkaufen": 6752,
      "Ġnationaler": 6753,
      "Ġkontrollen": 6754,
      "Ġostsee": 6755,
      "Ġfinanziellen": 6756,
      "dokum": 6757,
      "Ġhigh": 6758,
      "dau": 6759,
      "krie": 6760,
      "Ġsatz": 6761,
      "Ġwetter": 6762,
      "Ġht": 6763,
      "itten": 6764,
      "Ġrec": 6765,
      "Ġherzegowina": 6766,
      "spar": 6767,
      "tagen": 6768,
      "Ġjav": 6769,
      "Ġgene": 6770,
      "Ġformen": 6771,
      "Ġteilweise": 6772,
      "Ġgrad": 6773,
      "mittelmeer": 6774,
      "ĠbedÃ¼r": 6775,
      "handelt": 6776,
      "Ġvermeiden": 6777,
      "Ġschwierigkeiten": 6778,
      "Ġbonus": 6779,
      "Ġkommentar": 6780,
      "ĠÃ¤hnlich": 6781,
      "Ġpakete": 6782,
      "Ġvergangenheit": 6783,
      "Ġarab": 6784,
      "Ġkonvergenz": 6785,
      "Ġanstreng": 6786,
      "Ġmitein": 6787,
      "eral": 6788,
      "Ġsar": 6789,
      "Ġmc": 6790,
      "aru": 6791,
      "ĠÃ¼bersch": 6792,
      "sia": 6793,
      "Ġmart": 6794,
      "wenden": 6795,
      "Ġbesucht": 6796,
      "veau": 6797,
      "Ġproblema": 6798,
      "Ġworin": 6799,
      "ĠursprÃ¼n": 6800,
      "Ġmini": 6801,
      "ated": 6802,
      "Ġzimmerbeschreibung": 6803,
      "Ġstoffe": 6804,
      "Ġlamy": 6805,
      "zunehmen": 6806,
      "ebene": 6807,
      "Ġoriginal": 6808,
      "Ġmexiko": 6809,
      "Ġfriendly": 6810,
      "kla": 6811,
      "pre": 6812,
      "Ġwal": 6813,
      "Ġill": 6814,
      "Ġkunde": 6815,
      "Ġunmittel": 6816,
      "aria": 6817,
      "asen": 6818,
      "Ġbeur": 6819,
      "rochen": 6820,
      "Ġ(%": 6821,
      "Ġaufzu": 6822,
      "amen": 6823,
      "ellos": 6824,
      "Ã¤rm": 6825,
      "Ġamts": 6826,
      "Ġroh": 6827,
      "ĠgemÃ¼t": 6828,
      "Ġgrundrechte": 6829,
      "Ġatmo": 6830,
      "Ġwirtschaftsraum": 6831,
      "Ġnetzwerk": 6832,
      "Ġengagement": 6833,
      "Ġberufs": 6834,
      "Ġerkennt": 6835,
      "Ġchines": 6836,
      "Ġcamping": 6837,
      "kohol": 6838,
      "ĠgrundsÃ¤tzlich": 6839,
      "far": 6840,
      "vp": 6841,
      "Ġwho": 6842,
      "Ġnik": 6843,
      "Ġgelin": 6844,
      "Ġjungen": 6845,
      "last": 6846,
      "Ġmazed": 6847,
      "Ġwebsites": 6848,
      "Ġsaal": 6849,
      "Ġmessen": 6850,
      "Ġgemeinsames": 6851,
      "Ġerwart": 6852,
      "Ġideale": 6853,
      "Ġprofil": 6854,
      "Ġfirmen": 6855,
      "Ġhervorheben": 6856,
      "Ġabgeordnete": 6857,
      "Ġvorsitzender": 6858,
      "drÃ¼cklich": 6859,
      "kas": 6860,
      "sal": 6861,
      "Ġkas": 6862,
      "Ġversprechen": 6863,
      "bergen": 6864,
      "Ġschlagen": 6865,
      "ames": 6866,
      "Ġabonn": 6867,
      "Ġkonfig": 6868,
      "Ġ05": 6869,
      "ida": 6870,
      "Ġpati": 6871,
      "Ã¤ufer": 6872,
      "Ġmonica": 6873,
      "Ġgebracht": 6874,
      "zahlungen": 6875,
      "Ġsozialausschuss": 6876,
      "ĠstÃ¤rker": 6877,
      "ĠÃ¤uÃŁer": 6878,
      "Ġinteressant": 6879,
      "Ġunterschiede": 6880,
      "Ġorganisation": 6881,
      "Ġjahresbericht": 6882,
      "ĠuniversitÃ¤t": 6883,
      "Ġabstimmungsstunde": 6884,
      "band": 6885,
      "chtet": 6886,
      "Ġanca": 6887,
      "Ġerh": 6888,
      "berge": 6889,
      "Ġ--": 6890,
      "vert": 6891,
      "blatt": 6892,
      "Ġgenaus": 6893,
      "Ġdiffer": 6894,
      "fraktion": 6895,
      "Ġgewinn": 6896,
      "Ġ800": 6897,
      "mark": 6898,
      "Ġinseln": 6899,
      "kestein": 6900,
      "ĠgebÃ¼hr": 6901,
      "Ġenergien": 6902,
      "ĠbegrÃ¼ndet": 6903,
      "Ġkorru": 6904,
      "Ġwachsen": 6905,
      "379": 6906,
      "ĠpersÃ¶nlichen": 6907,
      "Ġehrlich": 6908,
      "Ġanmelden": 6909,
      "Ġdiskutiert": 6910,
      "ĠkohÃ¤sionspolitik": 6911,
      "Ġgrundlegende": 6912,
      "Ġkonkret": 6913,
      "Ġbolkestein": 6914,
      "Ġgeneraldirektion": 6915,
      "Ġbesorgnis": 6916,
      "ĠhÃ¤lfte": 6917,
      "fortsetzung": 6918,
      "hy": 6919,
      "Ġwik": 6920,
      "Ġib": 6921,
      "Ġfas": 6922,
      "sso": 6923,
      "urd": 6924,
      "Ġeinwohner": 6925,
      "Ġlind": 6926,
      "Ġbege": 6927,
      "Ġbezieht": 6928,
      "ĠÃ¼bertrag": 6929,
      "Ġspie": 6930,
      "dium": 6931,
      "Ġparame": 6932,
      "Ġroma": 6933,
      "ĠÃ¤ndert": 6934,
      "Ġzimmern": 6935,
      "Ġgelungen": 6936,
      "Ġbegriff": 6937,
      "Ġvolle": 6938,
      "phone": 6939,
      "Ġdirekte": 6940,
      "Ġtexte": 6941,
      "Ġbay": 6942,
      "Ġverbesserungen": 6943,
      "ĠhinzufÃ¼gen": 6944,
      "Ġautom": 6945,
      "athan": 6946,
      "ĠpersÃ¶nliche": 6947,
      "Ġentscheidend": 6948,
      "ascript": 6949,
      "ĠendgÃ¼ltigen": 6950,
      "ĠverstÃ¤ndnis": 6951,
      "Ġmuseum": 6952,
      "ĠanhÃ¶rung": 6953,
      "Ġjavascript": 6954,
      "**": 6955,
      "gy": 6956,
      "ufel": 6957,
      "Ġzeich": 6958,
      "Ġvertre": 6959,
      "Ġabende": 6960,
      "Ġfassen": 6961,
      "Ġgering": 6962,
      "Ġdurchschnitt": 6963,
      "ffentlich": 6964,
      "Ġfesti": 6965,
      "Ġhave": 6966,
      "Ġumweltkommissar": 6967,
      "Ġgetrei": 6968,
      "botschafter": 6969,
      "Ġerleb": 6970,
      "Ġrenov": 6971,
      "Ġmaximal": 6972,
      "Ġgeist": 6973,
      "Ġpakistan": 6974,
      "Ġmaterial": 6975,
      "modell": 6976,
      "Ġprofession": 6977,
      "Ġaqu": 6978,
      "Ġker": 6979,
      "schm": 6980,
      "orte": 6981,
      "Ã¤ngen": 6982,
      "Ġabsicht": 6983,
      "Ġentlastung": 6984,
      "rÃ¼stung": 6985,
      "Ġlatein": 6986,
      "ritann": 6987,
      "Ġtha": 6988,
      "Ġthat": 6989,
      "ĠgerÃ¤t": 6990,
      "Ġwirtschaftspolitik": 6991,
      "Ġverbin": 6992,
      "2004": 6993,
      "Ġversuch": 6994,
      "Ġversucht": 6995,
      "Ġungleich": 6996,
      "acio": 6997,
      "schafft": 6998,
      "ĠfrÃ¼hstÃ¼cksb": 6999,
      "Ġnull": 7000,
      "Ġinformiert": 7001,
      "Ġargument": 7002,
      "effizienz": 7003,
      "tenegro": 7004,
      "Ġgenauso": 7005,
      "ites": 7006,
      "sl": 7007,
      "aner": 7008,
      "Ġhyp": 7009,
      "Ġkil": 7010,
      "Ġpuer": 7011,
      "Ġschicken": 7012,
      "Ġcy": 7013,
      "stige": 7014,
      "Ġhoffentlich": 7015,
      "Ġwenigen": 7016,
      "rina": 7017,
      "Ġnaher": 7018,
      "Ġmittelpunkt": 7019,
      "straÃŁe": 7020,
      "Ġhelpf": 7021,
      "Ġeingegangen": 7022,
      "Ã¤ndler": 7023,
      "Ġnetze": 7024,
      "Ġanmerkung": 7025,
      "ĠfranzÃ¶sisch": 7026,
      "Ġparteien": 7027,
      "Ġthomas": 7028,
      "Ġmiteinander": 7029,
      "Ġmazedonien": 7030,
      "bon": 7031,
      "brauch": 7032,
      "gier": 7033,
      "jau": 7034,
      "arische": 7035,
      "its": 7036,
      "Ġlar": 7037,
      "Ġgefordert": 7038,
      "Ġanb": 7039,
      "Ġbetre": 7040,
      "entwurf": 7041,
      "reiten": 7042,
      "Ġabstimmen": 7043,
      "Ġentschul": 7044,
      "ĠkommissionsprÃ¤sident": 7045,
      "aka": 7046,
      "Ġleb": 7047,
      "sens": 7048,
      "Ġlandwir": 7049,
      "uble": 7050,
      "ĠgebÃ¼hren": 7051,
      "ĠbeglÃ¼ck": 7052,
      "Ġausgezeich": 7053,
      "tisierung": 7054,
      "Ġzunehmen": 7055,
      "Ġmomentan": 7056,
      "ĠlÃ¤ndliche": 7057,
      "Ġmodul": 7058,
      "Ġinstitutionelle": 7059,
      "ĠbeglÃ¼ckwÃ¼n": 7060,
      "card": 7061,
      "Ġeffe": 7062,
      "Ġhimm": 7063,
      "itte": 7064,
      "Ġgri": 7065,
      "Ġlov": 7066,
      "Ġanne": 7067,
      "Ġanforderungen": 7068,
      "Ġcard": 7069,
      "Ġrss": 7070,
      "uta": 7071,
      "format": 7072,
      "Ġ53": 7073,
      "Ġfinanzdienstleistungen": 7074,
      "projekte": 7075,
      "Ġfeed": 7076,
      "Ġoper": 7077,
      "Ġ1992": 7078,
      "Ġ1993": 7079,
      "Ġsicherheitspolitik": 7080,
      "517": 7081,
      "person": 7082,
      "Ġphot": 7083,
      "ĠeingefÃ¼hrt": 7084,
      "Ġcarl": 7085,
      "Ġoliven": 7086,
      "ĠsÃ¼dafrika": 7087,
      "Ġsyn": 7088,
      "Ġeigentum": 7089,
      "Ġregistrieren": 7090,
      "Ġsteigen": 7091,
      "Ġjeweils": 7092,
      "Ġtechnologien": 7093,
      "Ġsolches": 7094,
      "Ġkommunalvertreter": 7095,
      "Ġwittling": 7096,
      "ham": 7097,
      "wagen": 7098,
      "ĠsÃ¤m": 7099,
      "Ġkrist": 7100,
      "Ġgir": 7101,
      "Ġverurs": 7102,
      "Ġresiden": 7103,
      "Ġrespek": 7104,
      "ĠÃ¼bernommen": 7105,
      "Ġgewonnen": 7106,
      "ics": 7107,
      "Ġgroup": 7108,
      "Ġeurobarometer": 7109,
      "Ġlaut": 7110,
      "ĠfÃ¼hrte": 7111,
      "abilitÃ¤t": 7112,
      "Ġwestliche": 7113,
      "zureichen": 7114,
      "ĠberÃ¼cksichtigt": 7115,
      "ĠkÃ¼nstler": 7116,
      "telefon": 7117,
      "ĠvÃ¶lker": 7118,
      "iw": 7119,
      "nie": 7120,
      "ox": 7121,
      "reitung": 7122,
      "Ġale": 7123,
      "Ġwem": 7124,
      "Ġbmw": 7125,
      "Ġhard": 7126,
      "ĠunmÃ¶glich": 7127,
      "Ġunzureichen": 7128,
      "eting": 7129,
      "Ġschmer": 7130,
      "Ġsound": 7131,
      "Ġalp": 7132,
      "Ġregierungs": 7133,
      "Ġmonti": 7134,
      "Ġeinfacher": 7135,
      "ĠverkÃ¼ndet": 7136,
      "Ġentspannen": 7137,
      "Ġergreifen": 7138,
      "Ġpubl": 7139,
      "Ġinflation": 7140,
      "Ġkallas": 7141,
      "()": 7142,
      "kore": 7143,
      "uds": 7144,
      "Ġmp": 7145,
      "Ġms": 7146,
      "Ġeinla": 7147,
      "ĠaufschlÃ¼sselung": 7148,
      "ĠÃ¼bersicht": 7149,
      "Ġherrscht": 7150,
      "Ġ47": 7151,
      "fertigt": 7152,
      "ido": 7153,
      "Ġbesei": 7154,
      "Ġbedroh": 7155,
      "403": 7156,
      "Ġfunktionen": 7157,
      "back": 7158,
      "ĠstÃ¤rk": 7159,
      "Ġerscheinen": 7160,
      "Ġkategorien": 7161,
      "Ġanmeldung": 7162,
      "ĠergÃ¤nzen": 7163,
      "ĠerlÃ¤uter": 7164,
      "Ġkonstru": 7165,
      "mine": 7166,
      "nommen": 7167,
      "Ġbanner": 7168,
      "Ġmission": 7169,
      "teten": 7170,
      "ory": 7171,
      "Ġple": 7172,
      "deb": 7173,
      "Ġaufnahme": 7174,
      "lege": 7175,
      "Ġspam": 7176,
      "grÃ¼n": 7177,
      "Ġtemp": 7178,
      "Ġ49": 7179,
      "Ġdid": 7180,
      "Ġfinanzmittel": 7181,
      "vassiliou": 7182,
      "ĠauÃŁerorden": 7183,
      "Ġhauptstadt": 7184,
      "Ġgestrigen": 7185,
      "Ġrooms": 7186,
      "ĠstabilitÃ¤ts": 7187,
      "entwicklungs": 7188,
      "Ġjonathan": 7189,
      "deutschland": 7190,
      "Ġzweifellos": 7191,
      "Ġfreitag": 7192,
      "vassilioueu": 7193,
      "dr": 7194,
      "ĠwÃ¤h": 7195,
      "ĠbÃ¶": 7196,
      "Ġpen": 7197,
      "regel": 7198,
      "Ġaustral": 7199,
      "Ġeingeb": 7200,
      "Ġzul": 7201,
      "Ġrab": 7202,
      "leichen": 7203,
      "werbe": 7204,
      "mall": 7205,
      "Ġsonne": 7206,
      "Ġsudan": 7207,
      "day": 7208,
      "fÃ¤llen": 7209,
      "ĠfÃ¼hrung": 7210,
      "ĠauÃŁenhandel": 7211,
      "Ġfreundlich": 7212,
      "Ġalbum": 7213,
      "Ġstatistik": 7214,
      "Ġexistiert": 7215,
      "Ġlegislative": 7216,
      "sprach": 7217,
      "Ġgeschenk": 7218,
      "Ġdimitri": 7219,
      "wf": 7220,
      "uraru": 7221,
      "Ġgvo": 7222,
      "Ã¶t": 7223,
      "Ġtar": 7224,
      "Ġtol": 7225,
      "Ġermu": 7226,
      "oper": 7227,
      "Ġomb": 7228,
      "Ġableh": 7229,
      "ochen": 7230,
      "Ġentstehen": 7231,
      "ille": 7232,
      "Ġsaison": 7233,
      "Ġmechan": 7234,
      "Ġwozu": 7235,
      "Ġtechnischen": 7236,
      "strafe": 7237,
      "ĠzurÃ¼ckge": 7238,
      "Ġeltern": 7239,
      "ĠrÃ¼ckkehr": 7240,
      "Ġblock": 7241,
      "systeme": 7242,
      "angebote": 7243,
      "Ġwiederholen": 7244,
      "Ġ0475": 7245,
      "kontrolle": 7246,
      "liefert": 7247,
      "bliothe": 7248,
      "Ġgetreide": 7249,
      "ritannien": 7250,
      "britannien": 7251,
      "haben": 7252,
      "ive": 7253,
      "mot": 7254,
      "tran": 7255,
      "Ġdur": 7256,
      "Ġec": 7257,
      "orien": 7258,
      "Ġanlass": 7259,
      "amb": 7260,
      "elli": 7261,
      "Ġalkohol": 7262,
      "Ġhinweisen": 7263,
      "Ġfolglich": 7264,
      "Ġfrist": 7265,
      "Ġdipl": 7266,
      "ktionen": 7267,
      "Ġexp": 7268,
      "Ġzahlung": 7269,
      "alisiert": 7270,
      "Ġsozialer": 7271,
      "solid": 7272,
      "Ġpedro": 7273,
      "Ġkaffee": 7274,
      "bundesminister": 7275,
      "574": 7276,
      "su": 7277,
      "uffet": 7278,
      "Ġever": 7279,
      "team": 7280,
      "raten": 7281,
      "Ġgehalten": 7282,
      "Ġanreg": 7283,
      "ela": 7284,
      "achs": 7285,
      "Ġsohn": 7286,
      "ĠabhÃ¤ng": 7287,
      "ĠberÃ¼h": 7288,
      "Ġmangel": 7289,
      "Ġfinanziert": 7290,
      "vorschlÃ¤ge": 7291,
      "ĠplÃ¤ne": 7292,
      "ĠgetrÃ¤n": 7293,
      "Ġverkauft": 7294,
      "Ġbildungs": 7295,
      "pressedienst": 7296,
      "Ġdefinition": 7297,
      "Ġrelated": 7298,
      "Ġbirma": 7299,
      "Ġpaduraru": 7300,
      "Ġltd": 7301,
      "Ġcenter": 7302,
      "Ġombuds": 7303,
      "aden": 7304,
      "cis": 7305,
      "har": 7306,
      "leiten": 7307,
      "Ġwander": 7308,
      "icherung": 7309,
      "Ġnick": 7310,
      "ĠnÃ¶r": 7311,
      "Ġinc": 7312,
      "esa": 7313,
      "Ġanson": 7314,
      "Ġverlangt": 7315,
      "ions": 7316,
      "ikanen": 7317,
      "tiges": 7318,
      "link": 7319,
      "Ġsatell": 7320,
      "Ġeinzig": 7321,
      "ĠgrÃ¼ne": 7322,
      "Ġoffene": 7323,
      "Ġwordpress": 7324,
      "Ġtorres": 7325,
      "Ġoffizielle": 7326,
      "918": 7327,
      "iÃŁ": 7328,
      "ple": 7329,
      "Ġmys": 7330,
      "Ġauge": 7331,
      "Ġzusch": 7332,
      "Ġerfre": 7333,
      "bereit": 7334,
      "Ġschne": 7335,
      "Ġstano": 7336,
      "ione": 7337,
      "ĠruÃŁ": 7338,
      "Ġangeb": 7339,
      "maÃŁ": 7340,
      "Ġthere": 7341,
      "Ġmob": 7342,
      "Ġseitdem": 7343,
      "Ġverstanden": 7344,
      "ĠfrÃ¼hjahr": 7345,
      "Ġerstes": 7346,
      "Ġmeist": 7347,
      "wegische": 7348,
      "Ġsalz": 7349,
      "Ġaugenblick": 7350,
      "ĠbestÃ¤tigen": 7351,
      "Ġgipfeltreffen": 7352,
      "Ġmoldau": 7353,
      "Ġkirche": 7354,
      "klusive": 7355,
      "Ġwolf": 7356,
      "evy": 7357,
      "Ġabendessen": 7358,
      "app": 7359,
      "med": 7360,
      "oss": 7361,
      "strÃ¤ger": 7362,
      "Ġfire": 7363,
      "Ã¤gen": 7364,
      "tist": 7365,
      "Ġgucht": 7366,
      "Ġcast": 7367,
      "Ġface": 7368,
      "Ġlieber": 7369,
      "Ġseg": 7370,
      "Ġ62": 7371,
      "izza": 7372,
      "Ġprodukten": 7373,
      "fahrzeuge": 7374,
      "Ġvater": 7375,
      "Ġprivaten": 7376,
      "ĠerwÃ¤hnen": 7377,
      "Ġstandards": 7378,
      "Ġinstalliert": 7379,
      "ĠgÃ¼nther": 7380,
      "ograph": 7381,
      "Ġbeobach": 7382,
      "Ġhelpful": 7383,
      "Ġansonsten": 7384,
      "Ġwahre": 7385,
      "Ġkron": 7386,
      "Ġpia": 7387,
      "reevy": 7388,
      "uri": 7389,
      "Ġgespielt": 7390,
      "Ġbewe": 7391,
      "Ġabschnitt": 7392,
      "Ġhinder": 7393,
      "lieb": 7394,
      "Ġview": 7395,
      "glichen": 7396,
      "Ġmont": 7397,
      "Ġreihen": 7398,
      "Ġliby": 7399,
      "wahr": 7400,
      "waffen": 7401,
      "752": 7402,
      "Ġbreit": 7403,
      "Ġhaushaltsplan": 7404,
      "Ġcentre": 7405,
      "Ġspeicher": 7406,
      "Ġdollar": 7407,
      "Ġerholung": 7408,
      "Ġwesteren": 7409,
      "mission": 7410,
      "sein": 7411,
      "wind": 7412,
      "wissen": 7413,
      "Ġif": 7414,
      "Ġmb": 7415,
      "denk": 7416,
      "abgabe": 7417,
      "Ġstad": 7418,
      "Ġumgehend": 7419,
      "fass": 7420,
      "anzler": 7421,
      "Ġargen": 7422,
      "blei": 7423,
      "Ġleer": 7424,
      "Ġ92": 7425,
      "Ġexport": 7426,
      "Ġliikanen": 7427,
      "Ġhandy": 7428,
      "Ġkleines": 7429,
      "Ġsamstag": 7430,
      "Ġkorrekt": 7431,
      "Ġecho": 7432,
      "Ġkabeljau": 7433,
      "zÃ¼gigkeit": 7434,
      "Ġanstrengungen": 7435,
      "nl": 7436,
      "ool": 7437,
      "Ġsara": 7438,
      "Ġfund": 7439,
      "testen": 7440,
      "Ġbezeichnet": 7441,
      "Ġscholle": 7442,
      "sik": 7443,
      "stechn": 7444,
      "stellungs": 7445,
      "Ġaussicht": 7446,
      "akis": 7447,
      "ssektor": 7448,
      "haber": 7449,
      "Ġbarbar": 7450,
      "Ġkamen": 7451,
      "Ġvorgesch": 7452,
      "ures": 7453,
      "Ġformul": 7454,
      "Ġkostenlose": 7455,
      "Ġgespeich": 7456,
      "ĠgÃ¼nter": 7457,
      "Ġmassnahmen": 7458,
      "Ġleistungen": 7459,
      "Ġexterne": 7460,
      "Ġschlafzimmer": 7461,
      "Ġmccreevy": 7462,
      "ĠzuverlÃ¤ss": 7463,
      "Ġschloss": 7464,
      "Ġignor": 7465,
      "Ġzuletzt": 7466,
      "ĠruÃŁland": 7467,
      "689": 7468,
      "cer": 7469,
      "dar": 7470,
      "nal": 7471,
      "Ġ;": 7472,
      "onom": 7473,
      "Ġvla": 7474,
      "Ã¤sche": 7475,
      "Ã¤uÃŁ": 7476,
      "Ġbef": 7477,
      "stigen": 7478,
      "bew": 7479,
      "Ġbegei": 7480,
      "ĠnÃ¤chstes": 7481,
      "Ġunglaub": 7482,
      "server": 7483,
      "Ġlauten": 7484,
      "way": 7485,
      "weisungen": 7486,
      "Ġstudien": 7487,
      "tini": 7488,
      "Ġaktiviert": 7489,
      "Ġevent": 7490,
      "ĠmÃ¼nchen": 7491,
      "ĠlÃ¶schen": 7492,
      "ĠausgewÃ¤hl": 7493,
      "technologie": 7494,
      "bÃ¼rger": 7495,
      "Ġbesitzt": 7496,
      "Ġfremden": 7497,
      "schirm": 7498,
      "Ġeasy": 7499,
      "ĠfrÃ¼hstÃ¼cksbuffet": 7500,
      "sv": 7501,
      "utes": 7502,
      "Ġeleg": 7503,
      "Ġbauen": 7504,
      "Ġhung": 7505,
      "Ġeinfuhr": 7506,
      "Ġbeziehen": 7507,
      "Ġverord": 7508,
      "Ġschatz": 7509,
      "Ġcr": 7510,
      "ahnen": 7511,
      "Ġvorzu": 7512,
      "ĠvorlÃ¤u": 7513,
      "forum": 7514,
      "Ġmain": 7515,
      "Ġjack": 7516,
      "Ġ700": 7517,
      "Ġtodd": 7518,
      "Ġproblems": 7519,
      "Ġgesicht": 7520,
      "Ġneun": 7521,
      "ĠstraÃŁburg": 7522,
      "stÃ¤ndigen": 7523,
      "Ġschwach": 7524,
      "Ġhochschul": 7525,
      "pool": 7526,
      "Ġnovak": 7527,
      "Ġ2734": 7528,
      "betten": 7529,
      "Ġvisa": 7530,
      "Ġinteressante": 7531,
      "Ġbeteiligt": 7532,
      "Ġdoppelzimmer": 7533,
      "Ġbrian": 7534,
      "schÃ¤tzung": 7535,
      "Ġmandat": 7536,
      "ĠverhÃ¤ltnis": 7537,
      "Ġmakro": 7538,
      "tÃ¤": 7539,
      "zel": 7540,
      "Ġsun": 7541,
      "unru": 7542,
      "Ġachten": 7543,
      "ito": 7544,
      "Ġletzt": 7545,
      "Ġlangen": 7546,
      "alo": 7547,
      "Ġans": 7548,
      "ÃŁte": 7549,
      "uth": 7550,
      "rÃ¤f": 7551,
      "usse": 7552,
      "Ġvielmehr": 7553,
      "ferenzen": 7554,
      "zeuger": 7555,
      "Ġzeile": 7556,
      "fÃ¤llig": 7557,
      "Ġlokale": 7558,
      "nehmbar": 7559,
      "Ġgratulieren": 7560,
      "ĠglaubwÃ¼rdig": 7561,
      "bas": 7562,
      "immer": 7563,
      "erlei": 7564,
      "Ġdick": 7565,
      "Ġirina": 7566,
      "ĠhÃ¼": 7567,
      "Ġkra": 7568,
      "Ġgefahren": 7569,
      "elia": 7570,
      "Ġcer": 7571,
      "indlich": 7572,
      "euern": 7573,
      "ĠÃ¼bergangs": 7574,
      "Ġot": 7575,
      "menÃ¼": 7576,
      "gerÃ¤te": 7577,
      "leiter": 7578,
      "maÃŁen": 7579,
      "Ġfalle": 7580,
      "Ġ51": 7581,
      "Ġbett": 7582,
      "Ġstill": 7583,
      "Ġwortlaut": 7584,
      "Ġglobal": 7585,
      "Ġglobalen": 7586,
      "Ġbasiert": 7587,
      "sbÃ¼r": 7588,
      "ĠgefÃ¤hrlich": 7589,
      "Ġtransfer": 7590,
      "ĠverstÃ¤rkt": 7591,
      "Ġspeichern": 7592,
      "Ġrubrik": 7593,
      "Ġbegrenzt": 7594,
      "Ġjugoslawien": 7595,
      "Ġbyrne": 7596,
      "kau": 7597,
      "nik": 7598,
      "Ġdoma": 7599,
      "Ġset": 7600,
      "unge": 7601,
      "steht": 7602,
      "Ġfri": 7603,
      "Ġvb": 7604,
      "Ġkreis": 7605,
      "republik": 7606,
      "ĠzÃ¼": 7607,
      "Ġjer": 7608,
      "Ġaufforderung": 7609,
      "aminister": 7610,
      "Ġentschlossen": 7611,
      "ago": 7612,
      "ney": 7613,
      "Ġ41": 7614,
      "Ġbildet": 7615,
      "Ġnunmehr": 7616,
      "Ġexcell": 7617,
      "ĠgefÃ¤": 7618,
      "Ġatlan": 7619,
      "Ġorien": 7620,
      "Ġspeziell": 7621,
      "Ġstufe": 7622,
      "frank": 7623,
      "Ġnordsee": 7624,
      "ĠnÃ¼tzlich": 7625,
      "view": 7626,
      "66430": 7627,
      "Ġbrutto": 7628,
      "ĠhÃ¼bner": 7629,
      "Ġparameter": 7630,
      "ku": 7631,
      "kurs": 7632,
      "star": 7633,
      "Ġkart": 7634,
      "Ġpasst": 7635,
      "ask": 7636,
      "Ġgeehrte": 7637,
      "Ġbezeichnung": 7638,
      "Ġerf": 7639,
      "Ġschick": 7640,
      "Ġaufgrund": 7641,
      "rip": 7642,
      "ulta": 7643,
      "Ġfinanzierungs": 7644,
      "ĠgroÃŁbritannien": 7645,
      "Ġgerichtshofes": 7646,
      "Ġautobahn": 7647,
      "Ġjohannes": 7648,
      "dateien": 7649,
      "Ġargumente": 7650,
      "uropÃ¤ische": 7651,
      "ĠgrenzÃ¼berschreiten": 7652,
      "Ġminderheiten": 7653,
      "lÃ¤ndische": 7654,
      "Ġexcellent": 7655,
      "dra": 7656,
      "Ġio": 7657,
      "Ġiphone": 7658,
      "oni": 7659,
      "Ġpasc": 7660,
      "ĠlÃ¤ch": 7661,
      "Ġbefassen": 7662,
      "Ġaufnehmen": 7663,
      "Ġrehn": 7664,
      "Ġsomal": 7665,
      "gran": 7666,
      "Ġfrat": 7667,
      "Ġlied": 7668,
      "Ã¤hrt": 7669,
      "Ġhallo": 7670,
      "bour": 7671,
      "strich": 7672,
      "Ġnutzer": 7673,
      "Ġcharlie": 7674,
      "94107": 7675,
      "Ġ....": 7676,
      "Ġmusste": 7677,
      "Ġrichten": 7678,
      "Ġrichard": 7679,
      "namen": 7680,
      "Ġjahrhundert": 7681,
      "Ġmehrwertsteuer": 7682,
      "Ġdiskriminierung": 7683,
      "verhandlungen": 7684,
      "Ġschafft": 7685,
      "Ġerwartungen": 7686,
      "fischer": 7687,
      "prinzip": 7688,
      "zb": 7689,
      "Ġmaus": 7690,
      "Ġfanden": 7691,
      "Ġgn": 7692,
      "alu": 7693,
      "Ġerwerb": 7694,
      "Ġstich": 7695,
      "reib": 7696,
      "Ġhergestellt": 7697,
      "Ġkongo": 7698,
      "rufen": 7699,
      "zeichnen": 7700,
      "865": 7701,
      "spekt": 7702,
      "ĠverÃ¤ndern": 7703,
      "zusetzen": 7704,
      "Ġfranco": 7705,
      "Ġhilfs": 7706,
      "Ġpatri": 7707,
      "ĠausgewÃ¤hlt": 7708,
      "ĠschÃ¶nen": 7709,
      "Ġverpflichtet": 7710,
      "ĠatmosphÃ¤re": 7711,
      "Ġpuerto": 7712,
      "906": 7713,
      "hand": 7714,
      "inos": 7715,
      "Ġzo": 7716,
      "Ġgaz": 7717,
      "Ġgezeigt": 7718,
      "iga": 7719,
      "gert": 7720,
      "Ġgrenze": 7721,
      "grundlage": 7722,
      "Ġinterne": 7723,
      "Ġproblemen": 7724,
      "Ġmoral": 7725,
      "Ġmontenegro": 7726,
      "Ġtimes": 7727,
      "ĠheiÃŁen": 7728,
      "meldung": 7729,
      "sichten": 7730,
      "Ġautos": 7731,
      "Ġjugendher": 7732,
      "Ġdienstleistungs": 7733,
      "Ġcharta": 7734,
      "Ġarchite": 7735,
      "Ġanzeigen": 7736,
      "Ġgratuliere": 7737,
      "ĠgefÃ¶rdert": 7738,
      "Ġintensiv": 7739,
      "ĠdrÃ¼cken": 7740,
      "blieben": 7741,
      "57484": 7742,
      "Ġfrattini": 7743,
      ".,": 7744,
      "gro": 7745,
      "pri": 7746,
      "ube": 7747,
      "ink": 7748,
      "Ġiwf": 7749,
      "Ġfroh": 7750,
      "Ġpek": 7751,
      "Ġpfer": 7752,
      "urlaub": 7753,
      "Ġindon": 7754,
      "Ġover": 7755,
      "Ġneuigkeiten": 7756,
      "dim": 7757,
      "ĠmÃ¼s": 7758,
      "Ġteuer": 7759,
      "Ġroy": 7760,
      "Ġandern": 7761,
      "Ġ95": 7762,
      "Ġwohin": 7763,
      "Ġbezahlt": 7764,
      "Ġreservierung": 7765,
      "ĠÃ¼brigens": 7766,
      "tifiziert": 7767,
      "Ġcommun": 7768,
      "Ġamtierender": 7769,
      "Ġtodesstrafe": 7770,
      "kanzler": 7771,
      "mien": 7772,
      "mÃ¤ss": 7773,
      "passt": 7774,
      "Ġstern": 7775,
      "schÃ¶n": 7776,
      "dennis": 7777,
      "Ã¶der": 7778,
      "Ġ(*": 7779,
      "abbott": 7780,
      "Ġweihn": 7781,
      "agn": 7782,
      "ador": 7783,
      "pfung": 7784,
      "Ġschlimm": 7785,
      "schlieÃŁlich": 7786,
      "Ġhandlungs": 7787,
      "Ġmuster": 7788,
      "ĠregelmÃ¤ÃŁig": 7789,
      "shop": 7790,
      "ĠjÃ¤hrlich": 7791,
      "titÃ¤t": 7792,
      "Ġkrankheiten": 7793,
      "Ġehemalige": 7794,
      "Ġpierre": 7795,
      "Ġkorruption": 7796,
      "Ġnovakova": 7797,
      "dennisabbott": 7798,
      "ibt": 7799,
      "lÃ¶": 7800,
      "Ġast": 7801,
      "Ġtak": 7802,
      "ĠzulÃ¤ss": 7803,
      "ĠvergrÃ¶": 7804,
      "Ġolli": 7805,
      "Ġrand": 7806,
      "Ġhot": 7807,
      "Ġlieben": 7808,
      "Ġquellen": 7809,
      "Ġakzeptabel": 7810,
      "mittelt": 7811,
      "Ġbox": 7812,
      "ĠnÃ¤chte": 7813,
      "Ġbeitragen": 7814,
      "Ġkamera": 7815,
      "Ġverlu": 7816,
      "ĠprÃ¤sent": 7817,
      "ĠÃ¤hnliche": 7818,
      "Ġandreas": 7819,
      "angebot": 7820,
      "Ġexperten": 7821,
      "Ġheimat": 7822,
      "Ġkonzentrieren": 7823,
      "Ġsharrock": 7824,
      "Ġferienwohnung": 7825,
      "ĠolivenÃ¶l": 7826,
      "kÃ¼r": 7827,
      "kannt": 7828,
      "ny": 7829,
      "xt": 7830,
      "Ġeds": 7831,
      "Ġmieten": 7832,
      "ani": 7833,
      "lly": 7834,
      "Ġeindruck": 7835,
      "dent": 7836,
      "oli": 7837,
      "Ġmittag": 7838,
      "ckte": 7839,
      "Ġom": 7840,
      "verfol": 7841,
      "bewertung": 7842,
      "oha": 7843,
      "Ġmache": 7844,
      "Ġnega": 7845,
      "Ġpoln": 7846,
      "Ġeinzigar": 7847,
      "Ġ!!": 7848,
      "Ġoffenbar": 7849,
      "behandlung": 7850,
      "ĠschÃ¶nes": 7851,
      "Ġseezun": 7852,
      "ĠzusÃ¤tz": 7853,
      "Ġwiderspruch": 7854,
      "Ġwellness": 7855,
      "Ġverzeichnis": 7856,
      "position": 7857,
      "bÃ¼": 7858,
      "ois": 7859,
      "sbericht": 7860,
      "wi": 7861,
      "Ġ),": 7862,
      "ergeb": 7863,
      "Ġaw": 7864,
      "eitet": 7865,
      "Ġbiss": 7866,
      "ĠlÃ¤nge": 7867,
      "ded": 7868,
      "Ġbeunru": 7869,
      "Ġcrist": 7870,
      "Ġalm": 7871,
      "Ġunternommen": 7872,
      "Ġendet": 7873,
      "ausgaben": 7874,
      "quin": 7875,
      "ovis": 7876,
      "Ġ120": 7877,
      "Ġwirtschaftlichen": 7878,
      "Ġgeboten": 7879,
      "Ġvertreterin": 7880,
      "Ġtime": 7881,
      "ĠfreizÃ¼gigkeit": 7882,
      "Ġschriftlichen": 7883,
      "Ġverhindern": 7884,
      "holm": 7885,
      "Ġpalace": 7886,
      "Ġfernseh": 7887,
      "Ġvorbereitet": 7888,
      "Ġwestern": 7889,
      "Ġbotschafter": 7890,
      "Ġlieferung": 7891,
      "ĠvertrÃ¤ge": 7892,
      "Ġdrama": 7893,
      "Ġtrend": 7894,
      "ĠverzÃ¶": 7895,
      "Ġeffizienz": 7896,
      "vorsitz": 7897,
      "Ġstrategische": 7898,
      "investitionen": 7899,
      "ĠverlÃ¤ngerung": 7900,
      "korea": 7901,
      "if": 7902,
      "obe": 7903,
      "var": 7904,
      "Ġww": 7905,
      "Ġwlan": 7906,
      "ario": 7907,
      "Ġgrei": 7908,
      "Ġannehmen": 7909,
      "Ġverlangen": 7910,
      "Ġrechten": 7911,
      "Ġimage": 7912,
      "Ġhersteller": 7913,
      "Ġvorn": 7914,
      "Ġdemo": 7915,
      "iken": 7916,
      "Ġparti": 7917,
      "Ġrobert": 7918,
      "Ġpour": 7919,
      "Ġ1990": 7920,
      "hÃ¶rt": 7921,
      "Ġluxus": 7922,
      "pass": 7923,
      "innern": 7924,
      "Ġbeenden": 7925,
      "Ġentscheidende": 7926,
      "Ġliefert": 7927,
      "gangenen": 7928,
      "ĠerhÃ¶hen": 7929,
      "oslav": 7930,
      "Ġmikro": 7931,
      "wechsel": 7932,
      "Ġmargot": 7933,
      "Ġarzneimittel": 7934,
      "Ġeinladung": 7935,
      "Ġpascal": 7936,
      "cic": 7937,
      "eten": 7938,
      "kÃ¼n": 7939,
      "ĠermÃ¶": 7940,
      "Ġerteilt": 7941,
      "Ġerinnern": 7942,
      "Ġdiesmal": 7943,
      "Ġamelia": 7944,
      "Ġfried": 7945,
      "Ġ98": 7946,
      "marktes": 7947,
      "Ġtipp": 7948,
      "ĠgrÃ¼nen": 7949,
      "glicht": 7950,
      "2012": 7951,
      "Ġsanta": 7952,
      "Ġregistrierung": 7953,
      "Ġperfekte": 7954,
      "Ġaktualisiert": 7955,
      "Ġbreite": 7956,
      "ĠgefÃ¼hl": 7957,
      "Ġkonzert": 7958,
      "Ġkompati": 7959,
      "ĠausschlieÃŁlich": 7960,
      "91830": 7961,
      "Ġmobile": 7962,
      "Ġlibyen": 7963,
      "Ġedsb": 7964,
      "jen": 7965,
      "russ": 7966,
      "Ġsmall": 7967,
      "Ġfutter": 7968,
      "Ġpg": 7969,
      "ders": 7970,
      "Ġjes": 7971,
      "Ġstation": 7972,
      "Ġstard": 7973,
      "Ġimp": 7974,
      "Ġausnahmen": 7975,
      "Ġhoher": 7976,
      "blin": 7977,
      "Ġparad": 7978,
      "riebe": 7979,
      "ids": 7980,
      "Ġ64": 7981,
      "Ġ79": 7982,
      "geld": 7983,
      "Ġwollten": 7984,
      "Ġiso": 7985,
      "Ġmobiltelefon": 7986,
      "Ġschulen": 7987,
      "Ġsterne": 7988,
      "Ġbernard": 7989,
      "villa": 7990,
      "Ġvincent": 7991,
      "Ġkampagne": 7992,
      "ĠermÃ¶glicht": 7993,
      "Ġsho": 7994,
      "ĠwÃ¤chst": 7995,
      "Ġbig": 7996,
      "Ġmang": 7997,
      "Ġvene": 7998,
      "Ġkandid": 7999,
      "tifik": 8000,
      "Ġgestellte": 8001,
      "Ġbewir": 8002,
      "Ġeurora": 8003,
      "aming": 8004,
      "Ġsichern": 8005,
      "Ġrauchen": 8006,
      "Ġwende": 8007,
      "senden": 8008,
      "Ġ87": 8009,
      "Ġbilater": 8010,
      "Ġguinea": 8011,
      "Ġgelernt": 8012,
      "Ġurban": 8013,
      "Ġversionen": 8014,
      "Ġhaftung": 8015,
      "Ġnahost": 8016,
      "ĠkÃ¼mmern": 8017,
      "876": 8018,
      "Ġspezifische": 8019,
      "ĠÃ¶ffnet": 8020,
      "ĠkÃ¼nftigen": 8021,
      "Ġumfassende": 8022,
      "Ġbalkanstaaten": 8023,
      "Ġniedrig": 8024,
      "Ġkulturelle": 8025,
      "Ġstardoll": 8026,
      "gten": 8027,
      "rung": 8028,
      "eien": 8029,
      "Ġfrit": 8030,
      "Ã¤ki": 8031,
      "Ġhad": 8032,
      "orben": 8033,
      "Ġtsch": 8034,
      "Ġzut": 8035,
      "Ġverlie": 8036,
      "Ġberichten": 8037,
      "ĠmÃ¶gliche": 8038,
      "ĠgerÃ¤um": 8039,
      "arbeits": 8040,
      "Ġtranse": 8041,
      "Ġfortgesetzt": 8042,
      "Ġuser": 8043,
      "mÃ¤ÃŁigung": 8044,
      "netze": 8045,
      "Ġsteigt": 8046,
      "Ġintegrierte": 8047,
      "Ġachtung": 8048,
      "fehl": 8049,
      "ĠwÃ¤hrungsunion": 8050,
      "Ġknapp": 8051,
      "Ġhimmel": 8052,
      "ĠsÃ¤mtliche": 8053,
      "dro": 8054,
      "dlichen": 8055,
      "une": 8056,
      "Ġeinstellungen": 8057,
      "ĠgÃ¼ter": 8058,
      "Ġ296": 8059,
      "anni": 8060,
      "Ġwarm": 8061,
      "Ġchat": 8062,
      "Ġschlag": 8063,
      "Ġrechtsetzung": 8064,
      "Ġfreunden": 8065,
      "Ġfluss": 8066,
      "Ġmore": 8067,
      "Ġwohnen": 8068,
      "Ġpeti": 8069,
      "Ġabkommens": 8070,
      "Ġempfehle": 8071,
      "fÃ¤hige": 8072,
      "Ġgolden": 8073,
      "Ġbeantra": 8074,
      "Ġfraktionen": 8075,
      "wÃ¤rts": 8076,
      "Ġtests": 8077,
      "ĠtÃ¤tigkeiten": 8078,
      "Ġsignal": 8079,
      "Ġsemin": 8080,
      "Ġbekomme": 8081,
      "ĠfÃ¤higkeiten": 8082,
      "Ġvorangegangenen": 8083,
      "54629": 8084,
      "ĠlÃ¤ÃŁt": 8085,
      "ble": 8086,
      "las": 8087,
      "nio": 8088,
      "Ġsat": 8089,
      "Ġits": 8090,
      "Ġbj": 8091,
      "Ġvot": 8092,
      "terkeit": 8093,
      "Ġschande": 8094,
      "Ġeuros": 8095,
      "leun": 8096,
      "reitet": 8097,
      "Ġkonvent": 8098,
      "Ġhingewiesen": 8099,
      "Ġware": 8100,
      "Ġliefern": 8101,
      "Ã¼tung": 8102,
      "Ġselber": 8103,
      "Ġandr": 8104,
      "Ġurmas": 8105,
      "Ġ1991": 8106,
      "ally": 8107,
      "Ġenergieeffizienz": 8108,
      "ĠbegrÃ¼n": 8109,
      "Ġsuite": 8110,
      "weiterung": 8111,
      "ĠâĤ¬)": 8112,
      "Ġskandal": 8113,
      "Ġerweitert": 8114,
      "Ġinstitut": 8115,
      "Ġsensi": 8116,
      "Ġvermieten": 8117,
      "ĠmiÃŁ": 8118,
      "Ġtuom": 8119,
      "Ġhamburg": 8120,
      "bieter": 8121,
      "Ġgespeichert": 8122,
      "frankreich": 8123,
      "215": 8124,
      "300": 8125,
      "kn": 8126,
      "nicht": 8127,
      "zwe": 8128,
      "Ġflo": 8129,
      "ssp": 8130,
      "Ġeinfluss": 8131,
      "Ġvermitt": 8132,
      "bern": 8133,
      "Ġoc": 8134,
      "Ġring": 8135,
      "Ġunterzeichnet": 8136,
      "angs": 8137,
      "Ġ54": 8138,
      "Ġroger": 8139,
      "Ġpaet": 8140,
      "Ġ88": 8141,
      "Ġlinken": 8142,
      "407": 8143,
      "Ġcons": 8144,
      "Ġplaza": 8145,
      "Ġgedacht": 8146,
      "Ġcharakter": 8147,
      "Ġmiguel": 8148,
      "Ġbeobachten": 8149,
      "Ġmittelmeerraum": 8150,
      "Ġlohnt": 8151,
      "Ġverringerung": 8152,
      "Ġkuba": 8153,
      "Ġlobby": 8154,
      "ĠbetrugsbekÃ¤mpfung": 8155,
      "Ġdifferenz": 8156,
      "Ġfacebook": 8157,
      "Ġtuomio": 8158,
      "Ã¤g": 8159,
      "ĠkÃ¤mpfen": 8160,
      "Ġunein": 8161,
      "Ġnichtig": 8162,
      "Ġgent": 8163,
      "Ġbelo": 8164,
      "Ġbehalten": 8165,
      "isiert": 8166,
      "Ġcra": 8167,
      "Ġumstruktur": 8168,
      "tain": 8169,
      "gericht": 8170,
      "Ġwesten": 8171,
      "Ġfaktor": 8172,
      "ads": 8173,
      "Ġros": 8174,
      "Ġbilanz": 8175,
      "Ġexpl": 8176,
      "Ġwillen": 8177,
      "Ġblut": 8178,
      "Ġstadtzentrum": 8179,
      "Ġfahrzeug": 8180,
      "chtenstein": 8181,
      "haup": 8182,
      "Ġersetzt": 8183,
      "Ġvorgeschlagene": 8184,
      "Ġalexander": 8185,
      "ĠgeneralsekretÃ¤r": 8186,
      "korb": 8187,
      "Ġpopul": 8188,
      "Ġromano": 8189,
      "ĠbÃ¼cher": 8190,
      "ĠgesprÃ¤che": 8191,
      "Ġombudsmann": 8192,
      "ous": 8193,
      "sis": 8194,
      "yth": 8195,
      "inne": 8196,
      "Ġezb": 8197,
      "Ġbord": 8198,
      "Ġmandel": 8199,
      "ĠzÃ¼r": 8200,
      "Ġanal": 8201,
      "Ġsieg": 8202,
      "Ġjar": 8203,
      "iland": 8204,
      "Ġausger": 8205,
      "Ġprote": 8206,
      "Ġangel": 8207,
      "Ġdiver": 8208,
      "Ġforderung": 8209,
      "ovi": 8210,
      "Ġdusche": 8211,
      "wski": 8212,
      "bilanz": 8213,
      "Ġtunesien": 8214,
      "wirtschaftung": 8215,
      "Ġworauf": 8216,
      "Ġwissens": 8217,
      "hÃ¤fen": 8218,
      "Ġusd": 8219,
      "Ã¤fte": 8220,
      "Ġplay": 8221,
      "Ġstring": 8222,
      "1998": 8223,
      "Ġpanor": 8224,
      "Ġbestandteil": 8225,
      "Ġkompliziert": 8226,
      "Ġbarbara": 8227,
      "ĠsÃ¤": 8228,
      "Ġfleisch": 8229,
      "Ġvic": 8230,
      "Ġpur": 8231,
      "Ã¼ren": 8232,
      "Ġbetragen": 8233,
      "Ġerzeugt": 8234,
      "Ġvorb": 8235,
      "Ġabreise": 8236,
      "Ġprovin": 8237,
      "omer": 8238,
      "Ġnachmittag": 8239,
      "zugang": 8240,
      "Ġdesto": 8241,
      "Ġliechtenstein": 8242,
      "Ġgewicht": 8243,
      "sselt": 8244,
      "Ġbetten": 8245,
      "tiere": 8246,
      "Ġarbeitsplan": 8247,
      "antas": 8248,
      "Ġirgende": 8249,
      "Ġstandort": 8250,
      "ĠbÃ¼rok": 8251,
      "Ġhandlung": 8252,
      "Ġstartet": 8253,
      "innenmarkt": 8254,
      "Ġregelungen": 8255,
      "Ġzugelassen": 8256,
      "rosoft": 8257,
      "Ġverpflichtung": 8258,
      "ĠgewÃ¤hrt": 8259,
      "Ġanzeige": 8260,
      "Ġkonsequenzen": 8261,
      "Ġputin": 8262,
      "68909": 8263,
      "Ġsomalia": 8264,
      "granat": 8265,
      "Ġindonesien": 8266,
      "politische": 8267,
      "zieren": 8268,
      "Ġemer": 8269,
      "ong": 8270,
      "Ġhahn": 8271,
      "Ġklei": 8272,
      "tiken": 8273,
      "Ġeinkommen": 8274,
      "alia": 8275,
      "Ġersta": 8276,
      "Ġreferenz": 8277,
      "Ġberichtig": 8278,
      "ungsk": 8279,
      "Ġmaja": 8280,
      "mass": 8281,
      "klÃ¤rt": 8282,
      "Ġlieb": 8283,
      "Ġseel": 8284,
      "Ġviet": 8285,
      "tika": 8286,
      "Ġverbrechen": 8287,
      "ĠÃ¶ffentlich": 8288,
      "Ġemissionen": 8289,
      "Ġwiederum": 8290,
      "Ġhaust": 8291,
      "ĠerÃ¶rtert": 8292,
      "Ġgenaue": 8293,
      "Ġdetaill": 8294,
      "Ġkatalog": 8295,
      "Ġunterschiedliche": 8296,
      "Ġamerikas": 8297,
      "Ġeuropean": 8298,
      "Ġkreditkarte": 8299,
      "Ġbaumw": 8300,
      "Ġmicrosoft": 8301,
      "Ġgeburt": 8302,
      "Ġnielson": 8303,
      "ĠbedÃ¼rf": 8304,
      "dauer": 8305,
      "pm": 8306,
      "setzt": 8307,
      "ymp": 8308,
      "Ġsetz": 8309,
      "Ġwat": 8310,
      "ĠkÃ¤": 8311,
      "orca": 8312,
      "Ġniger": 8313,
      "terie": 8314,
      "Ġangriff": 8315,
      "emissionen": 8316,
      "ierer": 8317,
      "Ġdenk": 8318,
      "Ġvorstellung": 8319,
      "Ġalleine": 8320,
      "agung": 8321,
      "zustellen": 8322,
      "Ġbesitzen": 8323,
      "Ġzusammenhalt": 8324,
      "102": 8325,
      "Ġislam": 8326,
      "ĠzurÃ¼ckkommen": 8327,
      "Ġfischereipolitik": 8328,
      "aldo": 8329,
      "stoffen": 8330,
      "ĠschÃ¶nsten": 8331,
      "sprogramme": 8332,
      "Ġegf": 8333,
      "Ġgriech": 8334,
      "Ġtatsachen": 8335,
      "Ġmusic": 8336,
      "Ġlogo": 8337,
      "Ġlaufenden": 8338,
      "Ġswiss": 8339,
      "Ġreagiert": 8340,
      "Ġbewertet": 8341,
      "Ġvorliegenden": 8342,
      "Ġursachen": 8343,
      "Ġbekommt": 8344,
      "Ġabsurd": 8345,
      "Ġjournal": 8346,
      "russland": 8347,
      "bb": 8348,
      "bast": 8349,
      "Ã¼re": 8350,
      "Ġlern": 8351,
      "Ġwirkt": 8352,
      "Ġbeweis": 8353,
      "Ġergeben": 8354,
      "leger": 8355,
      "formationen": 8356,
      "Ġpresserefer": 8357,
      "Ġsteckt": 8358,
      "Ġmall": 8359,
      "Ã¤nderung": 8360,
      "Ġfaktoren": 8361,
      "Ġsichere": 8362,
      "vizeprÃ¤sident": 8363,
      "Ġgebaut": 8364,
      "Ġ1989": 8365,
      "Ġregionalen": 8366,
      "Ġisol": 8367,
      "Ġfreihandel": 8368,
      "Ġbekannte": 8369,
      "Ġletztes": 8370,
      "Ġschnelle": 8371,
      "Ġkurzfrist": 8372,
      "Ġgetren": 8373,
      "Ġliter": 8374,
      "cial": 8375,
      "Ġpolitiker": 8376,
      "Ġgestalten": 8377,
      "Ġafrikan": 8378,
      "ĠprÃ¤vention": 8379,
      "freie": 8380,
      "Ġinstanz": 8381,
      "Ġstreit": 8382,
      "ĠhinzugefÃ¼gt": 8383,
      "Ġcorazza": 8384,
      "ĠkohÃ¤r": 8385,
      "Ġorganisieren": 8386,
      "Ġbibliothe": 8387,
      "Ġbillige": 8388,
      "Ġerdbe": 8389,
      "Ġrealistisch": 8390,
      "ĠÃ¤lter": 8391,
      "Ġtemper": 8392,
      "Ġordner": 8393,
      "Ġcomfortable": 8394,
      "verwaltung": 8395,
      "Ġfestival": 8396,
      "Ġlandwirte": 8397,
      "Ġsatelliten": 8398,
      "Ġbegeister": 8399,
      "Ġeuroraum": 8400,
      "Ġaro": 8401,
      "Ġza": 8402,
      "acher": 8403,
      "ĠÃ¼bertragen": 8404,
      "weiten": 8405,
      "ĠkÃ¶nnt": 8406,
      "Ġparall": 8407,
      "Ġjava": 8408,
      "quelle": 8409,
      "klar": 8410,
      "laude": 8411,
      "Ġ96": 8412,
      "Ġbeschleun": 8413,
      "Ġbedro": 8414,
      "Ġkommenden": 8415,
      "zahlen": 8416,
      "ĠausschÃ¼sse": 8417,
      "ĠbeschÃ¤ftigt": 8418,
      "tisches": 8419,
      "ited": 8420,
      "Ġzieht": 8421,
      "Ġkernel": 8422,
      "Ġservices": 8423,
      "ĠverstÃ¤rkte": 8424,
      "jÃ¤hrige": 8425,
      "Ġstrategien": 8426,
      "Ġbadezimmer": 8427,
      "Ġforderungen": 8428,
      "institu": 8429,
      "Ġnahrungsmittel": 8430,
      "Ġdistri": 8431,
      "Ġkatastrophenschutz": 8432,
      "Ġermutigen": 8433,
      "Ġbewegt": 8434,
      "Ġargentin": 8435,
      "ĠgefÃ¤llt": 8436,
      "Ġ(*)": 8437,
      "ef": 8438,
      "steuerung": 8439,
      "Ġpath": 8440,
      "Ġeinsetzen": 8441,
      "Ġgalerie": 8442,
      "denz": 8443,
      "Ġanony": 8444,
      "Ġherum": 8445,
      "riz": 8446,
      "Ġspar": 8447,
      "weder": 8448,
      "Ġ63": 8449,
      "Ġpapa": 8450,
      "ĠfÃ¼gen": 8451,
      "Ġopti": 8452,
      "Ġaktien": 8453,
      "indert": 8454,
      "Ġvorsichtig": 8455,
      "ĠstÃ¤rke": 8456,
      "bahnhof": 8457,
      "Ġentsprechenden": 8458,
      "produktion": 8459,
      "57517": 8460,
      "Ġrechnen": 8461,
      "Ġelektronische": 8462,
      "Ġpatent": 8463,
      "Ġkranken": 8464,
      "fikationen": 8465,
      "Ġfitness": 8466,
      "Ġpatienten": 8467,
      "Ġvietnam": 8468,
      "kil": 8469,
      "neu": 8470,
      "ĠwÃ¼": 8471,
      "Ġeck": 8472,
      "Ġbier": 8473,
      "Ġmund": 8474,
      "Ġvista": 8475,
      "deten": 8476,
      "Ġbehaup": 8477,
      "lichten": 8478,
      "abl": 8479,
      "Ġvorab": 8480,
      "heber": 8481,
      "Ġnachfrage": 8482,
      "Ġmassen": 8483,
      "Ġausser": 8484,
      "klaus": 8485,
      "Ġmargar": 8486,
      "Ġgewinnt": 8487,
      "Ġwebseiten": 8488,
      "Ġgebieten": 8489,
      "Ġtrat": 8490,
      "Ġausgeschlossen": 8491,
      "Ġusw": 8492,
      "Ġfahrzeuge": 8493,
      "legungen": 8494,
      "Ġtrocken": 8495,
      "Ġaccess": 8496,
      "Ġbuchst": 8497,
      "Ġschwierige": 8498,
      "Ġevalu": 8499,
      "ĠbewÃ¤l": 8500,
      "Ġsimon": 8501,
      "Ġerhebt": 8502,
      "ĠkÃ¼nftig": 8503,
      "Ġkennzeichnung": 8504,
      "reformen": 8505,
      "haushaltsplan": 8506,
      "Ġhong": 8507,
      "Ġblack": 8508,
      "Ġindik": 8509,
      "ĠsorgfÃ¤ltig": 8510,
      "skodex": 8511,
      "Ġnachbarschaftspolitik": 8512,
      "Ġaudiovis": 8513,
      "Ġkaisergranat": 8514,
      "zellen": 8515,
      "iegen": 8516,
      "Ġvitor": 8517,
      "Ġkyp": 8518,
      "schÃ¤": 8519,
      "Ġpas": 8520,
      "Ġaudio": 8521,
      "Ġeinbe": 8522,
      "Ġgall": 8523,
      "Ġscheinen": 8524,
      "ĠstÃ¶": 8525,
      "Ġmitten": 8526,
      "Ġrunde": 8527,
      "grenze": 8528,
      "Ġwartet": 8529,
      "Ġmaster": 8530,
      "andem": 8531,
      "Ġseines": 8532,
      "fenster": 8533,
      "Ġdarlehen": 8534,
      "schend": 8535,
      "Ġgewisse": 8536,
      "Ġsap": 8537,
      "kehrt": 8538,
      "Ġgelesen": 8539,
      "Ġbedien": 8540,
      "Ġbou": 8541,
      "Ġvollen": 8542,
      "roni": 8543,
      "fÃ¤llt": 8544,
      "Ġmeister": 8545,
      "systems": 8546,
      "Ġschlechte": 8547,
      "Ġeingereicht": 8548,
      "Ġausgangspunkt": 8549,
      "Ġverabschiedet": 8550,
      "Ġbegeg": 8551,
      "sbÃ¼rger": 8552,
      "Ġandernfalls": 8553,
      "bald": 8554,
      "izi": 8555,
      "vol": 8556,
      "yi": 8557,
      "Ġhein": 8558,
      "orah": 8559,
      "ray": 8560,
      "Ġaust": 8561,
      "italien": 8562,
      "Ġansch": 8563,
      "Ġtrum": 8564,
      "Ġzuges": 8565,
      "ĠschÃ¤t": 8566,
      "ision": 8567,
      "Ġausfuhr": 8568,
      "Ġoh": 8569,
      "Ġvorder": 8570,
      "Ġkonsens": 8571,
      "stimmungen": 8572,
      "Ġ59": 8573,
      "sendet": 8574,
      "Ġseele": 8575,
      "Ġgewal": 8576,
      "Ġsaint": 8577,
      "ardo": 8578,
      "Ġnato": 8579,
      "Ġzielen": 8580,
      "Ġadobe": 8581,
      "Ġzweit": 8582,
      "Ġnormen": 8583,
      "Ġbrand": 8584,
      "ĠkÃ¼ste": 8585,
      "Ġbeteiligten": 8586,
      "Ġdigital": 8587,
      "Ġvertrieb": 8588,
      "Ġgeniessen": 8589,
      "verbrauch": 8590,
      "Ġfeiern": 8591,
      "Ġdiamant": 8592,
      "Ġaustralien": 8593,
      "bleiben": 8594,
      "iver": 8595,
      "lit": 8596,
      "ual": 8597,
      "vb": 8598,
      "yle": 8599,
      "station": 8600,
      "Ġwid": 8601,
      "ĠbÃ¶r": 8602,
      "Ġmie": 8603,
      "Ġfett": 8604,
      "Ġkab": 8605,
      "Ġnon": 8606,
      "Ġindem": 8607,
      "Ġgang": 8608,
      "Ġgehe": 8609,
      "Ġzulassen": 8610,
      "Ġrenten": 8611,
      "Ġspec": 8612,
      "Ġarme": 8613,
      "Ġfinanzrahmen": 8614,
      "Ġstellte": 8615,
      "Ġfreut": 8616,
      "Ġlod": 8617,
      "Ġobjekt": 8618,
      "endo": 8619,
      "Ġdeborah": 8620,
      "Ġstimmabgabe": 8621,
      "Ġpolitikbereiche": 8622,
      "Ġfahrer": 8623,
      "ĠauÃŁenpolitik": 8624,
      "ĠparkplÃ¤tze": 8625,
      "Ġnotwendigkeit": 8626,
      "Ġengag": 8627,
      "Ġelektro": 8628,
      "Ġlehnen": 8629,
      "Ġaltstadt": 8630,
      "Ġsichtbar": 8631,
      "Ġsterben": 8632,
      "Ġwiederaufbau": 8633,
      "Ġmaximale": 8634,
      "Ġbedauerlich": 8635,
      "Ġueber": 8636,
      "Ġerlebnis": 8637,
      "debatte": 8638,
      "Ġbisschen": 8639,
      "agenda": 8640,
      "gir": 8641,
      "gner": 8642,
      "tv": 8643,
      "Ġacc": 8644,
      "Ġvierte": 8645,
      "Ġking": 8646,
      "ĠlÃ¼ck": 8647,
      "Ġgegangen": 8648,
      "denten": 8649,
      "Ġ110": 8650,
      "Ġschie": 8651,
      "Ġcir": 8652,
      "Ġcall": 8653,
      "sprache": 8654,
      "Ġalpen": 8655,
      "iker": 8656,
      "Ġnachdenken": 8657,
      "gerien": 8658,
      "Ġvielzahl": 8659,
      "Ġ91": 8660,
      "hai": 8661,
      "Ġminim": 8662,
      "ips": 8663,
      "Ġblu": 8664,
      "minuten": 8665,
      "Ġnorden": 8666,
      "Ġkorea": 8667,
      "ĠantrÃ¤ge": 8668,
      "Ġrio": 8669,
      "Ġsubmit": 8670,
      "Ġentdecke": 8671,
      "Ġzugestimmt": 8672,
      "Ġpublik": 8673,
      "Ġwochenende": 8674,
      "Ġkolleginnen": 8675,
      "krieg": 8676,
      "Ġlateinamerika": 8677,
      "ĠzÃ¼rich": 8678,
      "101": 8679,
      "ao": 8680,
      "Ġsd": 8681,
      "Ġbrief": 8682,
      "Ġunann": 8683,
      "Ġerhaltung": 8684,
      "andlungs": 8685,
      "ĠausdrÃ¼cklich": 8686,
      "ĠrÃ¶": 8687,
      "Ġentweder": 8688,
      "fad": 8689,
      "steuropa": 8690,
      "mater": 8691,
      "Ġpara": 8692,
      "Ġ57": 8693,
      "gebÃ¼hren": 8694,
      "ici": 8695,
      "ska": 8696,
      "Ġhauses": 8697,
      "Ġreda": 8698,
      "51752": 8699,
      "ĠnatÃ¼rliche": 8700,
      "Ġbesseren": 8701,
      "Ġoffenen": 8702,
      "dates": 8703,
      "cijan": 8704,
      "tisiert": 8705,
      "Ġold": 8706,
      "Ġolymp": 8707,
      "schreiben": 8708,
      "ĠschlieÃŁt": 8709,
      "ologien": 8710,
      "ights": 8711,
      "Ġmodelle": 8712,
      "normen": 8713,
      "90403": 8714,
      "Ġzivilgesellschaft": 8715,
      "Ġwild": 8716,
      "Ġinvestieren": 8717,
      "Ġleichte": 8718,
      "funk": 8719,
      "Ġretten": 8720,
      "Ġcookies": 8721,
      "Ġunannehm": 8722,
      "cijancic": 8723,
      "810": 8724,
      "bor": 8725,
      "gÃ¤": 8726,
      "kal": 8727,
      "mi": 8728,
      "ofern": 8729,
      "rand": 8730,
      "ton": 8731,
      "xx": 8732,
      "erweiterung": 8733,
      "Ġsitzen": 8734,
      "Ġedit": 8735,
      "Ġml": 8736,
      "Ġmur": 8737,
      "anlagen": 8738,
      "Ġfat": 8739,
      "Ġfig": 8740,
      "Ġkinn": 8741,
      "Ġner": 8742,
      "red": 8743,
      "Ġzigar": 8744,
      "ason": 8745,
      "Ġeinrichtungen": 8746,
      "Ġzugriff": 8747,
      "Ġclose": 8748,
      "rÃ¤glich": 8749,
      "Ġhoh": 8750,
      "Ġ56": 8751,
      "Ġintervention": 8752,
      "Ġthun": 8753,
      "Ġsech": 8754,
      "Ġstammt": 8755,
      "Ġgewissen": 8756,
      "Ġgemeinde": 8757,
      "Ġkocijancic": 8758,
      "Ġinsofern": 8759,
      "Ġonly": 8760,
      "Ġproduziert": 8761,
      "Ġlanger": 8762,
      "Ġhalle": 8763,
      "Ġvogel": 8764,
      "weitere": 8765,
      "Ġrechtsstaat": 8766,
      "Ã¤dchen": 8767,
      "883": 8768,
      "Ġhandelsbeziehungen": 8769,
      "Ġkomplette": 8770,
      "Ġfriedensprozess": 8771,
      "Ġbilligt": 8772,
      "Ġfanta": 8773,
      "----": 8774,
      "Ġreservieren": 8775,
      "Ġhamer": 8776,
      "Ġhistorische": 8777,
      "winden": 8778,
      "Ġmaschine": 8779,
      "kontrollen": 8780,
      "selben": 8781,
      "ĠkriminalitÃ¤t": 8782,
      "Ġerneuerbare": 8783,
      "ĠgetrÃ¤nke": 8784,
      "Ġvorgeschichte": 8785,
      "Ġbeantragt": 8786,
      "cn": 8787,
      "fischen": 8788,
      "oder": 8789,
      "uft": 8790,
      "ved": 8791,
      "via": 8792,
      "Ġut": 8793,
      "char": 8794,
      "Ġdoha": 8795,
      "Ġsis": 8796,
      "gest": 8797,
      "Ġfuss": 8798,
      "Ġvit": 8799,
      "ichert": 8800,
      "Ġanreise": 8801,
      "Ġansehen": 8802,
      "Ġerb": 8803,
      "Ġerwei": 8804,
      "ĠermÃ¤ÃŁigung": 8805,
      "anno": 8806,
      "Ġvorstellen": 8807,
      "ĠabfÃ¤lle": 8808,
      "Ġklaus": 8809,
      "eku": 8810,
      "ĠÃ¶st": 8811,
      "Ġmoel": 8812,
      "Ġwebcam": 8813,
      "Ġplat": 8814,
      "Ġplattform": 8815,
      "Ġapost": 8816,
      "zahlung": 8817,
      "Ġstufen": 8818,
      "ĠfÃ¼hrer": 8819,
      "Ġtaxi": 8820,
      "Ġergibt": 8821,
      "Ġdritter": 8822,
      "Ġraums": 8823,
      "fristen": 8824,
      "sektors": 8825,
      "Ġalternativen": 8826,
      "Ġkooperations": 8827,
      "Ġwechseln": 8828,
      "ĠjÃ¤hrliche": 8829,
      "ĠidentitÃ¤t": 8830,
      "Ġschreyer": 8831,
      "Ġhilfreich": 8832,
      "Ġbedrohung": 8833,
      "Ġanregungen": 8834,
      "furt": 8835,
      "oc": 8836,
      "of": 8837,
      "otel": 8838,
      "prechen": 8839,
      "typ": 8840,
      "von": 8841,
      "eiger": 8842,
      "tek": 8843,
      "Ġzin": 8844,
      "Ġgy": 8845,
      "ĠzukÃ¼nf": 8846,
      "ĠÃ¼bergang": 8847,
      "Ġday": 8848,
      "Ġunsinn": 8849,
      "Ġprop": 8850,
      "Ġhingegen": 8851,
      "Ġhinblick": 8852,
      "Ġfaq": 8853,
      "statisti": 8854,
      "Ġstatist": 8855,
      "ĠgerÃ¤te": 8856,
      "Ġverbindungen": 8857,
      "Ġurheber": 8858,
      "Ġtit": 8859,
      "fahrer": 8860,
      "Ġebenen": 8861,
      "Ġsuites": 8862,
      "felder": 8863,
      "Ġgovern": 8864,
      "ĠsÃ¼den": 8865,
      "Ġinnovative": 8866,
      "presserefer": 8867,
      "Ġpalacio": 8868,
      "Ġbased": 8869,
      "Ġantnio": 8870,
      "Ġivan": 8871,
      "Ġsepar": 8872,
      "Ġkonsum": 8873,
      "Ġerlebt": 8874,
      "Ġdownloaden": 8875,
      "Ġgesetze": 8876,
      "ĠgefÃ¤hrliche": 8877,
      "ĠunabhÃ¤ngigkeit": 8878,
      "Ġjeweiligen": 8879,
      "ĠbeschrÃ¤nkt": 8880,
      "bezogene": 8881,
      "Ġkeineswegs": 8882,
      "instrumente": 8883,
      "Ġanwesend": 8884,
      "gemeinschaft": 8885,
      "Ġmysql": 8886,
      "Ġmandelson": 8887,
      "780": 8888,
      "kul": 8889,
      "papier": 8890,
      "zut": 8891,
      "ĠÃ¤t": 8892,
      "Ġstig": 8893,
      "Ġecht": 8894,
      "Ġnizza": 8895,
      "alts": 8896,
      "iso": 8897,
      "euert": 8898,
      "Ġvoraussch": 8899,
      "ehrt": 8900,
      "Ġprojekten": 8901,
      "ĠrÃ¼": 8902,
      "Ġwieso": 8903,
      "ĠministerprÃ¤sident": 8904,
      "Ġangewand": 8905,
      "ĠÃ¶konom": 8906,
      "gebracht": 8907,
      "Ġneuesten": 8908,
      "Ġfeat": 8909,
      "Ġnatas": 8910,
      "ventionen": 8911,
      "Ġaktualisierung": 8912,
      "richtet": 8913,
      "Ġhelene": 8914,
      "ĠĠĠ": 8915,
      "Ġkrebs": 8916,
      "gute": 8917,
      "Ġwohlstand": 8918,
      "Ã¤dt": 8919,
      "Ġappell": 8920,
      "gleichheit": 8921,
      "Ġabstimmungen": 8922,
      "ĠÃ¼berrascht": 8923,
      "Ġlangfristige": 8924,
      "Ġkolum": 8925,
      "Ġangenehm": 8926,
      "Ġhervorragend": 8927,
      "prachen": 8928,
      "Ġkyoto": 8929,
      "ĠgeldbuÃŁen": 8930,
      "Ġgottes": 8931,
      "ĠauÃŁerordentlich": 8932,
      "tum": 8933,
      "yr": 8934,
      "Ġdos": 8935,
      "Ġetik": 8936,
      "Ġecon": 8937,
      "Ġvel": 8938,
      "tif": 8939,
      "rea": 8940,
      "urce": 8941,
      "Ġinsp": 8942,
      "Ġeinfuhren": 8943,
      "ĠeinschrÃ¤n": 8944,
      "hro": 8945,
      "Ġerwer": 8946,
      "uminister": 8947,
      "Ġcoll": 8948,
      "ĠÃ¼berzeugen": 8949,
      "besch": 8950,
      "rÃ¤umen": 8951,
      "Ġrauch": 8952,
      "schaffung": 8953,
      "Ã¤nderungen": 8954,
      "Ġaussage": 8955,
      "Ġgenannten": 8956,
      "Ġ2016": 8957,
      "gesundheit": 8958,
      "Ġvivi": 8959,
      "Ġurteile": 8960,
      "Ġdahin": 8961,
      "Ġhaar": 8962,
      "schieben": 8963,
      "stÃ¤nden": 8964,
      "peri": 8965,
      "Ġfortsetzen": 8966,
      "Ġeinzelne": 8967,
      "Ġrechtsgrundlage": 8968,
      "ĠkapazitÃ¤t": 8969,
      "Ġinnovations": 8970,
      "Ġgeneralanw": 8971,
      "Ġspass": 8972,
      "ible": 8973,
      "mitgliedstaaten": 8974,
      "texte": 8975,
      "Ġhumanressourcen": 8976,
      "Ġkonkreten": 8977,
      "Ġsektoren": 8978,
      "Ġerdgas": 8979,
      "mlaga": 8980,
      "Ġnormalerweise": 8981,
[...]
