{"[PAD]": 0, "[BOS]": 1, "[EOS]": 2, "[UNK]": 3, "!": 4, "#": 5, "$": 6, "%": 7, "&": 8, "(": 9, ")": 10, "*": 11, "+": 12, ",": 13, "-": 14, ".": 15, "/": 16, "0": 17, "1": 18, "2": 19, "3": 20, "4": 21, "5": 22, "6": 23, "7": 24, "8": 25, "9": 26, ":": 27, ";": 28, "?": 29, "@": 30, "[": 31, "\\": 32, "]": 33, "_": 34, "a": 35, "b": 36, "c": 37, "d": 38, "e": 39, "f": 40, "g": 41, "h": 42, "i": 43, "j": 44, "k": 45, "l": 46, "m": 47, "n": 48, "o": 49, "p": 50, "q": 51, "r": 52, "s": 53, "t": 54, "u": 55, "v": 56, "w": 57, "x": 58, "y": 59, "z": 60, "{": 61, "|": 62, "}": 63, "\u00a3": 64, "\u00a4": 65, "\u00a5": 66, "\u00ac": 67, "\u00b6": 68, "\u00bc": 69, "\u00c2": 70, "\u00c3": 71, "\u00e2": 72, "\u0120": 73, "\u0124": 74, "\u0141": 75, "en": 76, "er": 77, "ch": 78, "\u0120d": 79, "in": 80, "ie": 81, "\u0120s": 82, "un": 83, "\u0120a": 84, "st": 85, "\u0120w": 86, "ei": 87, "\u0120e": 88, "\u0120i": 89, "\u0120b": 90, "\u0120m": 91, "an": 92, "on": 93, "ge": 94, "\u0120f": 95, "\u00c3\u00bc": 96, "\u0120die": 97, "te": 98, "\u0120v": 99, "\u00c3\u00a4": 100, "ung": 101, "\u0120h": 102, "ss": 103, "ich": 104, "\u0120k": 105, "sch": 106, "\u0120un": 107, "or": 108, "ti": 109, "\u0120n": 110, "\u0120p": 111, "ar": 112, "re": 113, "\u0120der": 114, "\u0120z": 115, "ll": 116, "ra": 117, "ur": 118, "\u0120in": 119, "as": 120, "\u0120au": 121, "\u0120ein": 122, "it": 123, "ter": 124, "ten": 125, "\u0120g": 126, "es": 127, "mm": 128, "ir": 129, "\u0120l": 130, "al": 131, "\u0120ge": 132, "gen": 133, "den": 134, "\u0120ist": 135, "\u0120und": 136, "\u00c3\u00bcr": 137, "\u0120an": 138, "de": 139, "\u00c3\u00b6": 140, "\u0120wir": 141, "hr": 142, "\u0120sie": 143, "\u0120be": 144, "\u0120t": 145, "\u0120das": 146, "em": 147, "\u0120zu": 148, "der": 149, "\u0120ver": 150, "\u0120er": 151, "ro": 152, "at": 153, "\u0120f\u00c3\u00bcr": 154, "ein": 155, "el": 156, "icht": 157, "ber": 158, "\u0120dies": 159, "um": 160, "eit": 161, "ol": 162, "lich": 163, "tion": 164, "isch": 165, "\u01202": 166, "ent": 167, "omm": 168, "\u0120(": 169, "au": 170, "ier": 171, "\u0120j": 172, "op": 173, "et": 174, "ach": 175, "\u01201": 176, "\u0120sch": 177, "\u0120ich": 178, "ab": 179, "\u0120st": 180, "00": 181, "ion": 182, "\u0120von": 183, "\u0120auf": 184, "\u0120re": 185, "\u00c3\u0141": 186, "\u0120eur": 187, "is": 188, "iss": 189, "le": 190, "\u0120es": 191, "am": 192, "and": 193, "\u0120den": 194, "\u0120mit": 195, "il": 196, "ck": 197, "\u0120nicht": 198, "\u0120c": 199, "ig": 200, "ft": 201, "\u0120des": 202, "kt": 203, "\u00c3\u00bcber": 204, "rei": 205, "\u0120europ": 206, "ation": 207, "\u0120im": 208, "ungen": 209, "\u0120-": 210, "ien": 211, "\u0120komm": 212, "ind": 213, "eu": 214, "eh": 215, "\u0120wer": 216, "\u00c3\u00a4n": 217, "ah": 218, "\u0120\u00c3\u00bcber": 219, "ann": 220, "ist": 221, "nen": 222, "\u0120aus": 223, "\u0120her": 224, "sp": 225, "\u0120o": 226, "\u0120eine": 227, "ssen": 228, "\u0120da": 229, "\u0120vor": 230, "for": 231, "\u0120so": 232, "\u0120sind": 233, "ff": 234, "eil": 235, "\u0120uns": 236, "\u0120ab": 237, "ehr": 238, "..": 239, "\u0120pro": 240, "ri": 241, "\u0120kommiss": 242, "\u0120europ\u00c3\u00a4": 243, "\u0120europ\u00c3\u00a4isch": 244, "om": 245, "\u0120sich": 246, "\u0120um": 247, "ell": 248, "\u0120r": 249, "\u00c3\u00a4r": 250, "\u0120werden": 251, "iel": 252, "ut": 253, "och": 254, "sti": 255, "und": 256, "\u0120wei": 257, "\u0120fin": 258, "ben": 259, "si": 260, "schl": 261, "\u0120all": 262, "\u0120herr": 263, "gt": 264, "tel": 265, "\u0120ber": 266, "form": 267, "\u0120hab": 268, "\u0120sp": 269, "ver": 270, "\u0120al": 271, "\u0120ent": 272, "fa": 273, "uch": 274, "\u0120kommission": 275, "\u0120wird": 276, "\u0120unter": 277, "be": 278, "\u0120auch": 279, "r\u00c3\u00a4": 280, "\u0120ih": 281, "etz": 282, "\u0120ra": 283, "\u0120wie": 284, "\u0120bei": 285, "ag": 286, "ister": 287, "gr": 288, "\u0120weiter": 289, "inister": 290, "ort": 291, "scha": 292, "us": 293, "ress": 294, "\u0120ho": 295, "\u0120m\u00c3\u00b6": 296, "che": 297, "uss": 298, "wei": 299, "\u0120fra": 300, "ungs": 301, "ank": 302, "\u0120kon": 303, "he": 304, "teil": 305, "formation": 306, "\u0120diese": 307, "la": 308, "ern": 309, "\u0120hin": 310, "eine": 311, "tig": 312, "men": 313, "hal": 314, "sten": 315, "\u00c3\u00b6n": 316, "\u0120dem": 317, "anz": 318, "ul": 319, "\u0120information": 320, "\u0120hat": 321, "schaft": 322, "\u0120was": 323, "os": 324, "\u0120ar": 325, "oll": 326, "\u0120hier": 327, "\u0120war": 328, "\u0120press": 329, "ik": 330, "\u0120haben": 331, "r\u00c3\u00bc": 332, "\u0120200": 333, "cht": 334, "hren": 335, "\u01203": 336, "\u00c3\u00a4t": 337, "\u0120europ\u00c3\u00a4ische": 338, "chen": 339, "ing": 340, "\u0120eu": 341, "\u0120zur": 342, "\u0120ste": 343, "\u0120als": 344, "ta": 345, "\u0120unser": 346, "\u0120m\u00c3\u00b6ch": 347, "\u0120nach": 348, "\u0120k\u00c3\u00b6n": 349, "ang": 350, "bt": 351, "ed": 352, "kte": 353, "\u0120weitere": 354, "eiten": 355, "\u0120minister": 356, "ot": 357, "se": 358, "stimm": 359, "\u0120informationen": 360, "ger": 361, "ok": 362, "ommen": 363, "\u0120ma": 364, "ht": 365, "zu": 366, "ste": 367, "iti": 368, "ick": 369, "bl": 370, "\u0120neu": 371, "siden": 372, "land": 373, "liche": 374, "\u0120de": 375, "\u0120kann": 376, "\u0120en": 377, "lie": 378, "r\u00c3\u00a4siden": 379, "ande": 380, "\u0120we": 381, "\u0120am": 382, "\u00c3\u00b6r": 383, "tw": 384, "\u0120ange": 385, "\u0120gr": 386, "\u0120hinter": 387, "lei": 388, "grund": 389, "...": 390, "tes": 391, "\u0120gi": 392, "di": 393, "ze": 394, "\u0120sein": 395, "fen": 396, "\u0120viel": 397, "\u0120la": 398, "tra": 399, "r\u00c3\u00a4sident": 400, "wer": 401, "aus": 402, "det": 403, "ne": 404, "\u0120ihre": 405, "stell": 406, "teilung": 407, "\u0120hintergrund": 408, "ma": 409, "\u0120par": 410, "hen": 411, "ner": 412, "01": 413, "f\u00c3\u00bc": 414, "\u0120mehr": 415, "\u00c3\u00a4nder": 416, "\u0120fa": 417, "\u0120auss": 418, "\u0120ja": 419, "tige": 420, "\u0120zum": 421, "32": 422, "\u0120m\u00c3\u00bc": 423, "\u0120te": 424, "heit": 425, "tet": 426, "beit": 427, "\u01204": 428, "\u0120noch": 429, "bar": 430, "\u0120aber": 431, "\u0120wur": 432, "sa": 433, "\u0120k\u00c3\u00b6nnen": 434, "\u0120u": 435, "qu": 436, "emit": 437, "\u0120pressemit": 438, "\u0120kl": 439, "\u0120gibt": 440, "keit": 441, "zi": 442, "\u0120.": 443, "\u0120dank": 444, "sam": 445, "ad": 446, "\u0120hotel": 447, "\u0120gen": 448, "kl": 449, "\u0120rat": 450, "\u0120wen": 451, "ische": 452, "oliti": 453, "\u0120dar": 454, "mmer": 455, "\u0120man": 456, "tre": 457, "\u0120nur": 458, "tiv": 459, "fol": 460, "ill": 461, "ek": 462, "ru": 463, "tschaft": 464, "zen": 465, "\u0120pressemitteilung": 466, "\u0120wel": 467, "\u0120dieser": 468, "iert": 469, "\u0120soll": 470, "ahl": 471, "\u01205": 472, "lo": 473, "neh": 474, "\u0120sehr": 475, "\u0120\u00c3\u00b6": 476, "gra": 477, "\u0120mar": 478, "\u0120pr\u00c3\u00a4sident": 479, "\u0120m\u00c3\u00bcssen": 480, "rit": 481, "\u0120oder": 482, "\u00c3\u00bcn": 483, "ord": 484, "we": 485, "\u012022": 486, "nah": 487, "\u0120inter": 488, "\u0120pun": 489, "ak": 490, "\u0120zwei": 491, "\u0120le": 492, "\u0120fol": 493, "\u0120einen": 494, "me": 495, "\u0120alle": 496, "andel": 497, "mer": 498, "sta": 499, "lin": 500, "rache": 501, "\u0120ch": 502, "ige": 503, "\u0120per": 504, "pf": 505, "it\u00c3\u00a4t": 506, "\u00c3\u00a4h": 507, "takt": 508, "\u0120ro": 509, "age": 510, "\u0120europ\u00c3\u00a4ischen": 511, "ce": 512, "ehen": 513, "fall": 514, "99": 515, "\u00c3\u00bcck": 516, "ster": 517, "etzt": 518, "\u0120bericht": 519, "stimmung": 520, "\u0120fr": 521, "\u0120gem": 522, "sen": 523, "ffen": 524, "achten": 525, "\u0120m\u00c3\u00b6chten": 526, "kl\u00c3\u00a4r": 527, "kommen": 528, "legen": 529, "schen": 530, "\u0120(+": 531, "oh": 532, "\u0120ander": 533, "\u0120di": 534, "fe": 535, "\u0120for": 536, "att": 537, "reich": 538, "ho": 539, "\u0120bis": 540, "sser": 541, "mmen": 542, "ieren": 543, "ossen": 544, "ichtig": 545, "prache": 546, "\u0120schl": 547, "\u0120keine": 548, "ischen": 549, "\u0120je": 550, "\u0120finanz": 551, "urch": 552, "schlossen": 553, "\u0120dass": 554, "\u0120frau": 555, "lle": 556, "zie": 557, "pp": 558, "glie": 559, "\u0120wann": 560, "lung": 561, "utz": 562, "\u0120ihr": 563, "\u0120lie": 564, "du": 565, "\u0120th": 566, "nung": 567, "olitik": 568, "\u00c3\u00bct": 569, "ale": 570, "sche": 571, "\u0120se": 572, "\u0120229": 573, "\u0120mo": 574, "geb": 575, "bei": 576, "trag": 577, "ia": 578, "\u01200": 579, "\u0120erkl\u00c3\u00a4r": 580, "\u0120wurde": 581, "heiten": 582, "fra": 583, "mit": 584, "\u0120aussprache": 585, "\u0120abstimmung": 586, "\u0120sta": 587, "\u0120\u00c3\u00bcbern": 588, "\u0120vie": 589, "wen": 590, "aten": 591, "gramm": 592, "\u0120union": 593, "glich": 594, "\u0120europa": 595, "gie": 596, "\u0120ihnen": 597, "ts": 598, "io": 599, "\u0120teil": 600, "\u0120kontakt": 601, "rie": 602, "dig": 603, "\u0120folgen": 604, "dung": 605, "ov": 606, "\u0120finden": 607, "u\u00c3\u0141": 608, "\u0120zeit": 609, "eich": 610, "\u0120gew": 611, "\u0120mein": 612, "\u0120ausw": 613, "ktion": 614, "fer": 615, "id": 616, "ken": 617, "\u0120muss": 618, "\u0120ger": 619, "\u0120durch": 620, "\u0120reg": 621, "ssel": 622, "\u0120\u00c3\u00bcbernachten": 623, "\u0120m\u00c3\u00b6chte": 624, "lan": 625, "wick": 626, "\u0120bet": 627, "lau": 628, "\u0120...": 629, "\u0120du": 630, "ierung": 631, "net": 632, "\u0120geschlossen": 633, "\u0120recht": 634, "glied": 635, "\u0120land": 636, "tier": 637, "\u0120bes": 638, "\u01206": 639, "\u0120uhr": 640, "\u00c3\u0141en": 641, "\u0120unsere": 642, "rauch": 643, "ug": 644, "\u0120vielen": 645, "\u0120mich": 646, "\u0120web": 647, "itz": 648, "\u0120dieses": 649, "\u0120einer": 650, "\u01207": 651, "\u0120gegen": 652, "her": 653, "\u0120neue": 654, "\u0120ei": 655, "\u0120diesem": 656, "ws": 657, "fahren": 658, "\u0120sa": 659, "\u0120statt": 660, "ic": 661, "\u0120bit": 662, "\u0120201": 663, "\u0120arbeit": 664, "\u0120punkte": 665, "\u0120angelegen": 666, "\u0120habe": 667, "\u0120gro": 668, "\u0120the": 669, "\u0120lu": 670, "art": 671, "\u0120heu": 672, "atz": 673, "\u0120pa": 674, "\u0120gesch": 675, "blem": 676, "\u0120|": 677, "\u0120kein": 678, "ffent": 679, "lt": 680, "ett": 681, "treter": 682, "\u0120gemein": 683, "enz": 684, "\u01209": 685, "\u0120entwick": 686, "\u012012": 687, "\u0120stell": 688, "\u0120ko": 689, "auf": 690, "lam": 691, "ve": 692, "\u0120wenn": 693, "\u0120angelegenheiten": 694, "\u0120to": 695, "\u0120ben": 696, "\u0120wirtschaft": 697, "\u01208": 698, "\u0120findet": 699, "\u0120zusa": 700, "wir": 701, "\u0120wichtig": 702, "mal": 703, "\u0120frage": 704, "ub": 705, "\u0120nie": 706, "to": 707, "\u0120jetzt": 708, "\u0120sicher": 709, "og": 710, "lichen": 711, "\u0120problem": 712, "elt": 713, "\u0120ganz": 714, "\u0120bitte": 715, "\u00c3\u00a4ch": 716, "eut": 717, "\u0120bil": 718, "\u0120zusammen": 719, "kehr": 720, "\u0120son": 721, "\u0120einem": 722, "\u0120mitglied": 723, "\u0120gu": 724, "\u0120kommissar": 725, "\u0120bin": 726, "\u0120ju": 727, "\u0120diesen": 728, "30": 729, "\u0120nun": 730, "vor": 731, "nahmen": 732, "\u0120mach": 733, "\u0120men": 734, "\u0120parlam": 735, "\u0120ges": 736, "halt": 737, "\u0120br\u00c3\u00bc": 738, "sse": 739, "\u0120handel": 740, "pro": 741, "iz": 742, "\u0120dam": 743, "ine": 744, "\u0120parlament": 745, "gel": 746, "nis": 747, "\u0120heute": 748, "\u0120ne": 749, "minister": 750, "ard": 751, "\u0120\u00c3\u00a4nder": 752, "\u0120ausw\u00c3\u00a4r": 753, "len": 754, "\u0120sti": 755, "\u0120po": 756, "fach": 757, "pt": 758, "bil": 759, "nehmen": 760, "tik": 761, "10": 762, "\u0120wa": 763, "\u0120sel": 764, "mar": 765, "\u0120verb": 766, "\u0120br\u00c3\u00bcssel": 767, "rif": 768, "ran": 769, "\u0120deut": 770, "st\u00c3\u00bct": 771, "\u0120and": 772, "\u0120fre": 773, "\u0120best": 774, "\u0120lei": 775, "ges": 776, "\u0120jed": 777, "\u0120qu": 778, "200": 779, "\u012010": 780, "alt": 781, "\u0120\u00c3\u00b6ffent": 782, "ret": 783, "ap": 784, "\u0120tun": 785, "genommen": 786, "\u0120ex": 787, "ler": 788, "tigen": 789, "\u0120ausw\u00c3\u00a4rtige": 790, "\u0120etw": 791, "\u0120fl": 792, "site": 793, "halten": 794, "war": 795, "folger": 796, "\u0120unterst\u00c3\u00bct": 797, "\u0120vi": 798, "\u0120ins": 799, "rin": 800, "yst": 801, "\u0120f\u00c3\u00bc": 802, "\u0120geht": 803, "issen": 804, "\u0120dazu": 805, "gab": 806, "\u0120fe": 807, "\u0120nat": 808, "\u0120it": 809, "nt": 810, ".)": 811, "\u0120%": 812, "\u0120schluss": 813, "ke": 814, "ant": 815, "dem": 816, "son": 817, "\u0120will": 818, "\u0120on": 819, "\u0120meine": 820, "chn": 821, "\u0120also": 822, "isse": 823, "eite": 824, "f\u00c3\u00bcr": 825, "\u0120dann": 826, "\u0120zi": 827, "\u0120+": 828, "org": 829, "\u0120gel": 830, "fin": 831, "\u0120euro": 832, "\u0120kom": 833, "\u0120vom": 834, "unden": 835, "arbeit": 836, "\u0120besch": 837, "\u0120siehe": 838, "\u0120op": 839, "bur": 840, "\u0120com": 841, "\u0120programm": 842, "\u00c3\u0141nahmen": 843, "ystem": 844, "sk": 845, "yp": 846, "\u00c3\u00a4hr": 847, "wirtschaft": 848, "\u0120jahr": 849, "halb": 850, "\u0120mor": 851, "ischer": 852, "\u0120website": 853, "\u0120immer": 854, "els": 855, "\u0120grund": 856, "\u0120pri": 857, "\u00c3\u00a4u": 858, "\u0120gro\u00c3\u0141": 859, "f\u00c3\u00bchr": 860, "ere": 861, "\u0120ir": 862, "\u0120mon": 863, "000": 864, "\u0120em": 865, "gend": 866, "zieh": 867, "fl": 868, "\u0120einfach": 869, "welt": 870, "ha": 871, "vi": 872, "nehmer": 873, "\u0120geb": 874, "\u0120wor": 875, "\u0120ur": 876, "folgerungen": 877, "twort": 878, "pl": 879, "alien": 880, "nisse": 881, "\u0120min": 882, "\u0120sol": 883, "je": 884, "\u0120stra": 885, "\u0120wieder": 886, "\u0120fragen": 887, "\u012019": 888, "\u0120co": 889, "setz": 890, "\u0120einige": 891, "\u0120jedoch": 892, "\u012011": 893, "\u0120angenommen": 894, "ina": 895, "\u0120doch": 896, ").": 897, "beifall": 898, "\u0120me": 899, "\u0120verf\u00c3\u00bc": 900, "\u0120sozi": 901, "\u0120prei": 902, "elle": 903, "\u0120spiel": 904, "ark": 905, "\u0120wirk": 906, "burg": 907, "anien": 908, "\u0120st\u00c3\u00a4n": 909, "\u0120woll": 910, "ahre": 911, "spro": 912, "\u0120rei": 913, "\u0120region": 914, "ult": 915, "\u0120leben": 916, "\u0120sitz": 917, "\u0120m\u00c3\u00b6glich": 918, "im": 919, "\u012014": 920, "zeu": 921, "\u0120gut": 922, "\u0120zahl": 923, "lichkeit": 924, "pu": 925, "tive": 926, "\u0120fall": 927, "bst": 928, "\u0120kur": 929, "richt": 930, "\u0120eigen": 931, "\u00c3\u00a4re": 932, "\u0120staat": 933, "\u0120bereit": 934, "\u0120vertreter": 935, "\u0120schlussfolgerungen": 936, "\u0120brauch": 937, "\u0120welt": 938, "\u0120ak": 939, "\u0120vorschl": 940, "\u0120etwas": 941, "ucht": 942, "\u0120dah": 943, "\u0120produ": 944, "leich": 945, "hne": 946, "nahme": 947, "\u0120rates": 948, "\u0120richt": 949, "\u0120tra": 950, "frage": 951, "igen": 952, "\u0120199": 953, "rechen": 954, "\u0120gra": 955, "\u0120lang": 956, "mail": 957, "\u0120lin": 958, "\u0120vers": 959, "\u0120gemeinsam": 960, "\u0120haus": 961, "fon": 962, "\u0120bel": 963, "ziehungen": 964, "\u0120entwicklung": 965, "\u0120erfol": 966, "schlie": 967, "\u0120warum": 968, "\u0120ha": 969, "\u0120mir": 970, "\u0120beg": 971, "zeit": 972, "\u0120drei": 973, "schie": 974, "ffe": 975, "gang": 976, "\u0120wo": 977, "\u0120ser": 978, "lage": 979, "ilfe": 980, "\u0120host": 981, "\u0120italien": 982, "ordnung": 983, "bo": 984, "\u0120menschen": 985, "ate": 986, "mittel": 987, "\u012020": 988, "ec": 989, "35": 990, "chte": 991, "\u0120wissen": 992, "\u0120ru": 993, "\u012015": 994, "\u0120bed": 995, "\u0120finanzen": 996, "\u0120umwelt": 997, "stat": 998, "\u0120ener": 999, "dern": 1000, "gien": 1001, "\u0120ti": 1002, "\u0120landwirtschaft": 1003, "\u0120y": 1004, "\u0120ausge": 1005, "\u0120daher": 1006, "\u0120li": 1007, "\u0120bo": 1008, "\u0120damit": 1009, "schei": 1010, "komm": 1011, ".:": 1012, "\u0120them": 1013, "\u0120daf\u00c3\u00bcr": 1014, "\u0120sollte": 1015, "ds": 1016, "\u0120pol": 1017, "tok": 1018, "ret\u00c3\u00a4r": 1019, "h\u00c3\u00b6r": 1020, "kun": 1021, "gem": 1022, "25": 1023, "los": 1024, "\u0120morgen": 1025, "satz": 1026, "stellt": 1027, "ritt": 1028, "\u0120alles": 1029, "\u0120jahre": 1030, "11": 1031, "\u0120vo": 1032, "\u0120:": 1033, "onder": 1034, "tionen": 1035, "\u0120ohne": 1036, "\u0120dok": 1037, "\u0120is": 1038, "\u0120slo": 1039, "\u00c3\u00b6s": 1040, "\u0120ergeb": 1041, "\u0120bar": 1042, "tro": 1043, "tokoll": 1044, "pun": 1045, "\u0120red": 1046, "st\u00c3\u00a4n": 1047, "\u0120hau": 1048, "gar": 1049, "\u0120nr": 1050, "\u0120liegt": 1051, "\u0120viele": 1052, "alen": 1053, "\u0120frei": 1054, "stiz": 1055, "\u0120wurden": 1056, "\u0120wort": 1057, "\u0120hostels": 1058, "uchen": 1059, "\u0120ma\u00c3\u0141nahmen": 1060, "\u0120tel": 1061, "\u0120teilnehmer": 1062, "schland": 1063, "\u0120sollten": 1064, "\u0120lux": 1065, "auen": 1066, "mus": 1067, "\u0120spanien": 1068, "derung": 1069, "\u0120andere": 1070, "\u0120voll": 1071, "esen": 1072, "\u0120welche": 1073, "tikel": 1074, "rift": 1075, "kunft": 1076, "samt": 1077, "all": 1078, "str": 1079, "\u0120sitzung": 1080, "\u0120unternehmen": 1081, "\u0120verein": 1082, "hof": 1083, "ssek": 1084, "\u0120erkl\u00c3\u00a4rte": 1085, "linie": 1086, "\u0120sicherheit": 1087, "h\u00c3\u00a4": 1088, "ktor": 1089, "\u0120protokoll": 1090, "tei": 1091, "eg": 1092, "\u0120woh": 1093, "gehen": 1094, "werb": 1095, "upp": 1096, "itu": 1097, "\u0120inn": 1098, "ssekret\u00c3\u00a4r": 1099, "51": 1100, "kon": 1101, "\u0120justiz": 1102, "\u0120ziel": 1103, "co": 1104, "tigt": 1105, "spiel": 1106, "\u0120zimmer": 1107, "\u0120wollen": 1108, "\u0120x": 1109, "per": 1110, "fahr": 1111, "\u0120nat\u00c3\u00bcr": 1112, "\u0120energie": 1113, "rifft": 1114, "des": 1115, "geben": 1116, "\u0120nieder": 1117, "\u0120begr": 1118, "\u0120dokum": 1119, "staaten": 1120, "\u0120unterst\u00c3\u00bctz": 1121, "\u0120deshalb": 1122, "\u0120ad": 1123, "\u0120zw": 1124, "\u00c3\u00bcnf": 1125, "merk": 1126, "\u0120deutschland": 1127, "\u0120kosten": 1128, "llen": 1129, "\u0120einz": 1130, "spolitik": 1131, "blik": 1132, "\u0120tag": 1133, "unde": 1134, "\u0120bie": 1135, "cken": 1136, "\u0120machen": 1137, "\u0120selbst": 1138, "politik": 1139, "\u0120tran": 1140, "):": 1141, "\u0120pl": 1142, "\u0120/": 1143, "\u0120daten": 1144, "stimmt": 1145, "pa": 1146, "zei": 1147, "\u0120ihren": 1148, "\u0120hal": 1149, "\u0120danke": 1150, "\u0120dab": 1151, "\u0120mal": 1152, "\u0120verf\u00c3\u00bcg": 1153, "markt": 1154, "sicht": 1155, "\u0120eben": 1156, "iele": 1157, "mmt": 1158, "\u0120internet": 1159, "\u0120dabei": 1160, "stag": 1161, "\u0120lage": 1162, "\u0120werde": 1163, "\u0120schon": 1164, "\u0120kar": 1165, "\u01202009": 1166, "adt": 1167, "sterreich": 1168, "wert": 1169, "ow": 1170, "\u0120sehen": 1171, "ks": 1172, "\u00c3\u00b6rter": 1173, "\u0120schrift": 1174, "\u0120kommen": 1175, "publik": 1176, "zep": 1177, "\u0120lassen": 1178, "\u0120gr\u00c3\u00bc": 1179, "ache": 1180, "\u0120tele": 1181, "\u0120luxem": 1182, "\u0120ap": 1183, "\u0120n\u00c3\u00a4ch": 1184, "agen": 1185, "\u0120steht": 1186, "\u0120person": 1187, "ris": 1188, "acht": 1189, "\u0120folgende": 1190, "12": 1191, "\u0120blei": 1192, "\u00c3\u0141er": 1193, "40": 1194, "\u0120bede": 1195, "ph": 1196, "ilt": 1197, "\u0120nat\u00c3\u00bcrlich": 1198, "\u0120verkehr": 1199, "\u0120entschei": 1200, "\u0120schw": 1201, "inder": 1202, "gl": 1203, "\u0120stand": 1204, "ert": 1205, "\u0120punkt": 1206, "ment": 1207, "\u0120luxemburg": 1208, "igkeit": 1209, "\u0120\u00c3\u00b6sterreich": 1210, "digen": 1211, "\u00c3\u00a4m": 1212, "\u0120fun": 1213, "\u0120belgien": 1214, "\u0120w\u00c3\u00bcr": 1215, "\u0120fort": 1216, "\u0120anfrage": 1217, "\u0120lo": 1218, "ven": 1219, "rat": 1220, "ast": 1221, "issar": 1222, "ren": 1223, "\u0120ph": 1224, "ktur": 1225, "\u0120fr\u00c3\u00bc": 1226, "\u0120ii": 1227, "iger": 1228, "\u0120techn": 1229, "20": 1230, "\u0120us": 1231, "\u0120ung": 1232, "\u0120brauchen": 1233, "\u0120gef": 1234, "\u0120b\u00c3\u00bcr": 1235, "ungsan": 1236, "\u0120irland": 1237, "\u0120nah": 1238, "\u0120aller": 1239, "ettbe": 1240, "zahl": 1241, "\u0120sonsti": 1242, "\u0120,": 1243, "alit\u00c3\u00a4t": 1244, "\u0120waren": 1245, "\u0120er\u00c3\u00b6rter": 1246, "\u0120seit": 1247, "\u0120schwe": 1248, "\u0120ern": 1249, "\u0120nichts": 1250, "tern": 1251, "\u0120republik": 1252, "\u0120mittel": 1253, "\u0120dav": 1254, "rag": 1255, "\u0120geben": 1256, "verfahren": 1257, "\u0120gilt": 1258, "\u0120besten": 1259, "\u00c3\u00a4f": 1260, "ettbewerb": 1261, "\u0120klar": 1262, "\u0120aussch": 1263, "dien": 1264, "\u0120sagen": 1265, "\u0120fest": 1266, "\u0120at": 1267, "\u0120antwort": 1268, "ser": 1269, "\u0120zusammenarbeit": 1270, "\u0120\u00c3\u00b6ffentlichkeit": 1271, "\u0120abge": 1272, "\u0120empf": 1273, "\u0120ni": 1274, "inn": 1275, "\u0120ip": 1276, "handel": 1277, "\u012018": 1278, "\u0120betrifft": 1279, "\u012016": 1280, "h\u00c3\u00a4lt": 1281, "\u0120eines": 1282, "setzung": 1283, "\u0120niederl": 1284, "ente": 1285, "\u0120bek": 1286, "\u0120gar": 1287, "\u0120seite": 1288, "alis": 1289, "\u0120erste": 1290, "\u0120bereits": 1291, "\u0120finn": 1292, "\u0120proje": 1293, "schlie\u00c3\u0141": 1294, "\u00c3\u0141e": 1295, "line": 1296, "ip": 1297, "licher": 1298, "\u0120beit": 1299, "ichtige": 1300, "\u01202007": 1301, "\u0120neuen": 1302, "stellung": 1303, "ac": 1304, "icken": 1305, "\u0120ken": 1306, "\u0120d\u00c3\u00a4n": 1307, "emark": 1308, "tieren": 1309, "\u0120funktion": 1310, "uen": 1311, "\u0120sozial": 1312, "\u0120fischer": 1313, "\u0120schweden": 1314, "ka": 1315, "weise": 1316, "bung": 1317, "man": 1318, "stra": 1319, "\u012017": 1320, "\u0120seine": 1321, "va": 1322, "\u0120zur\u00c3\u00bcck": 1323, "uer": 1324, "zeich": 1325, "ange": 1326, "\u0120glau": 1327, "\u0120bl": 1328, "ionen": 1329, "ktu": 1330, "\u0120dire": 1331, "\u0120el": 1332, "\u0120views": 1333, "\u0120letz": 1334, "\u0120intern": 1335, "forder": 1336, "cl": 1337, "\u0120niederlande": 1338, "rist": 1339, "\u012013": 1340, "\u0120unserer": 1341, "ungsantrag": 1342, "\u0120anderen": 1343, "\u0120finnland": 1344, "\u0120schn": 1345, "\u0120zei": 1346, "\u0120ihrer": 1347, "\u0120herrn": 1348, "\u0120thema": 1349, "die": 1350, "ichte": 1351, "\u0120weg": 1352, "\u0120genau": 1353, "\u0120w\u00c3\u00a4re": 1354, "\u0120vorschlag": 1355, "\u0120kurz": 1356, "\u0120angenommene": 1357, "\u0120nam": 1358, "\u0120denn": 1359, "ium": 1360, "\u0120besser": 1361, "stellen": 1362, "\u0120presse": 1363, "\u0120ministerin": 1364, "\u0120\u00c3\u00a4": 1365, "keiten": 1366, "schutz": 1367, "\u0120d\u00c3\u00a4nemark": 1368, "\u0120er\u00c3\u00b6rterte": 1369, "\u0120verfahren": 1370, "ehmen": 1371, "\u0120verst": 1372, "das": 1373, "\u0120su": 1374, "punkt": 1375, "\u00c3\u0141t": 1376, "\u0120intere": 1377, "\u0120of": 1378, "so": 1379, "tigung": 1380, "\u0120errei": 1381, "\u0120frank": 1382, "nte": 1383, "\u0120ter": 1384, "\u0120mu\u00c3\u0141": 1385, "\u0120hei": 1386, "ding": 1387, "\u0120wirklich": 1388, "\u0120tw": 1389, "gabe": 1390, "\u0120gr\u00c3\u00b6": 1391, "ja": 1392, "\u0120einzel": 1393, "hang": 1394, "\u0120inner": 1395, "\u0120dis": 1396, "angen": 1397, "\u0120zwischen": 1398, "\u0120get": 1399, "\u0120mitgliedstaaten": 1400, "stand": 1401, "\u0120zukunft": 1402, "\u0120allgem": 1403, "ca": 1404, "\u0120richtlinie": 1405, "gew": 1406, "\u0120tage": 1407, "\u0120gr\u00c3\u00bcn": 1408, "\u0120staatssekret\u00c3\u00a4r": 1409, "\u0120feh": 1410, "itter": 1411, "\u0120erfolg": 1412, "\u0120gestimmt": 1413, "\u01202010": 1414, "\u0120internation": 1415, "auss": 1416, "\u0120aktu": 1417, "ruktur": 1418, "fern": 1419, "rich": 1420, "\u0120online": 1421, "\u0120stehen": 1422, "\u0120da\u00c3\u0141": 1423, "\u0120veran": 1424, "\u00e2\u0124": 1425, "\u0120kult": 1426, "\u00e2\u0124\u00ac": 1427, "\u0120besch\u00c3\u00a4f": 1428, "\u0120prior": 1429, "\u0120besonder": 1430, "arn": 1431, "ritte": 1432, "vertreter": 1433, "\u0120kam": 1434, "\u0120ersten": 1435, "\u0120fischerei": 1436, "tisch": 1437, "\u01202008": 1438, "gaben": 1439, "\u0120begr\u00c3\u00bc": 1440, "\u0120not": 1441, "min": 1442, "\u0120jan": 1443, "weiter": 1444, "\u0120jun": 1445, "\u0120inve": 1446, "\u0120con": 1447, "\u0120gericht": 1448, "ahn": 1449, "\u0120dien": 1450, "46": 1451, "50": 1452, "\u0120port": 1453, "\u0120*": 1454, "\u0120gern": 1455, "\u0120sonstige": 1456, "\u0120est": 1457, "\u0120l\u00c3\u00a4nder": 1458, "iste": 1459, "\u0120binnen": 1460, "\u0120politi": 1461, "ald": 1462, "\u0120rechts": 1463, "\u0120verw": 1464, "\u0120h\u00c3\u00b6": 1465, "\u0120jeder": 1466, "\u0120hilfe": 1467, "ade": 1468, "s\u00c3\u00a4t": 1469, "od": 1470, "ellen": 1471, "\u0120ende": 1472, "ekon": 1473, "ou": 1474, "\u0120au\u00c3\u0141er": 1475, "oren": 1476, "\u0120entschlie\u00c3\u0141": 1477, "96": 1478, "\u0120beim": 1479, "\u0120gleich": 1480, "\u0120preis": 1481, "\u0120gute": 1482, "\u0120system": 1483, "eht": 1484, "\u0120einmal": 1485, "\u0120lau": 1486, "ember": 1487, "\u0120pressekon": 1488, "\u0120or": 1489, "\u0120verwen": 1490, "igung": 1491, "annt": 1492, "ismus": 1493, "\u0120tre": 1494, "\u0120[": 1495, "verkehr": 1496, "eta": 1497, "bau": 1498, "beiten": 1499, "ite": 1500, "\u0120gl": 1501, "\u0120geld": 1502, "\u0120med": 1503, "\u0120mio": 1504, "\u0120ob": 1505, "\u0120beispiel": 1506, "\u0120zent": 1507, "tegie": 1508, "\u0120hand": 1509, "r\u00c3\u00a4ge": 1510, "\u0120erw": 1511, "\u0120twitter": 1512, "ian": 1513, "\u0120geh\u00c3\u00b6r": 1514, "ko": 1515, "\u0120fer": 1516, "\u0120f\u00c3\u00b6r": 1517, "\u0120star": 1518, "\u0120ca": 1519, "\u0120kinder": 1520, "uten": 1521, "ase": 1522, "\u0120tex": 1523, "\u0120verl": 1524, "eln": 1525, "\u0120befin": 1526, "\u0120!": 1527, "\u0120inhalt": 1528, "\u0120offen": 1529, "sto": 1530, "ierte": 1531, "\u0120l\u00c3\u00b6s": 1532, "\u0120wettbewerb": 1533, "\u0120ergebnisse": 1534, "lungen": 1535, "\u0120vertrag": 1536, "\u0120ka": 1537, "\u0120polen": 1538, "wa": 1539, "\u0120nor": 1540, "unter": 1541, "hmen": 1542, "\u0120hel": 1543, "fragen": 1544, "\u0120telefon": 1545, "\u0120part": 1546, "\u0120verh": 1547, "zeug": 1548, "vers": 1549, "lungs": 1550, "ikation": 1551, "asst": 1552, "\u0120lit": 1553, "\u0120art": 1554, "twor": 1555, "\u0120bu": 1556, "\u00c3\u00b6ff": 1557, "our": 1558, "lex": 1559, "dlich": 1560, "\u0120verk": 1561, "\u0120\u00e2\u0124\u00ac": 1562, "raum": 1563, "utzen": 1564, "\u0120forsch": 1565, "ssung": 1566, "eitung": 1567, "innen": 1568, "\u0120darauf": 1569, "undheit": 1570, "riften": 1571, "\u00c3\u00a4ten": 1572, "\u0120hoch": 1573, "einen": 1574, "staat": 1575, "tor": 1576, "15": 1577, "\u0120pe": 1578, "\u012030": 1579, "\u0120davon": 1580, "\u0120verbrauch": 1581, "\u0120dat": 1582, "da": 1583, "\u0120allen": 1584, "98": 1585, "schieden": 1586, "\u0120verbe": 1587, "tiven": 1588, "\u0120spe": 1589, "\u0120st\u00c3\u00a4ndig": 1590, "ehm": 1591, "\u0120frankreich": 1592, "bot": 1593, "\u0120nation": 1594, "\u0120kommt": 1595, "\u0120by": 1596, "\u0120einge": 1597, "schriften": 1598, "strie": 1599, "\u0120stadt": 1600, "erung": 1601, "\u0120kro": 1602, "\u0120ide": 1603, "falls": 1604, "fel": 1605, "\u0120kultur": 1606, "\u0120bild": 1607, "\u0120sk": 1608, "\u0120km": 1609, "rak": 1610, "74": 1611, "tische": 1612, "\u0120gener": 1613, "\u0120dokument": 1614, "\u0120d\u00c3\u00bcr": 1615, "\u0120pass": 1616, "\u0120st\u00c3\u00a4ndigen": 1617, "\u0120transp": 1618, "\u0120klicken": 1619, "\u0120erkl\u00c3\u00a4rungen": 1620, "ci": 1621, "\u0120votes": 1622, "\u0120vier": 1623, "tiert": 1624, "recht": 1625, "anden": 1626, "\u0120scha": 1627, "\u0120nehmen": 1628, "beziehungen": 1629, "\u0120mobil": 1630, "raft": 1631, "kommissar": 1632, "end": 1633, "\u0120w\u00c3\u00bcrde": 1634, "\u0120zyp": 1635, "16": 1636, "\u0120europ\u00c3\u00a4ischer": 1637, "olle": 1638, "\u0120macht": 1639, "zlich": 1640, "\u0120demok": 1641, "\u0120deb": 1642, "\u0120this": 1643, "ue": 1644, "\u0120gemeinsame": 1645, "\u0120reform": 1646, "\u0120dar\u00c3\u00bcber": 1647, "organ": 1648, "ima": 1649, "\u0120gerichts": 1650, "\u0120vertreters": 1651, "schaf": 1652, "weis": 1653, "ferenz": 1654, "09": 1655, "\u0120beziehungen": 1656, "hol": 1657, "\u0120willkommen": 1658, "ituation": 1659, "\u0120nimmt": 1660, "\u0120gehen": 1661, "\u012025": 1662, "ens": 1663, "\u0120darf": 1664, "\u0120binnenmarkt": 1665, "\u0120gesundheit": 1666, "\u0120langu": 1667, "\u0120unterst\u00c3\u00bctzung": 1668, "\u0120fr\u00c3\u00bch": 1669, "02": 1670, "03": 1671, "ron": 1672, "\u0120vorge": 1673, "\u0120as": 1674, "are": 1675, "13": 1676, "\u0120erkl\u00c3\u00a4rung": 1677, "bank": 1678, "\u0120stu": 1679, "\u0120na": 1680, "aler": 1681, "\u0120bereich": 1682, "\u0120erweiter": 1683, "leist": 1684, "\u00c3\u00a4hlen": 1685, "\u0120haupt": 1686, "\u0120tat": 1687, "\u0120b\u00c3\u00bcrger": 1688, "\u0120language": 1689, "tis": 1690, "ure": 1691, "\u0120stimm": 1692, "na": 1693, "\u0120politik": 1694, "\u0120gest": 1695, "\u012028": 1696, "\u0120ungarn": 1697, "treten": 1698, "plan": 1699, "\u0120kor": 1700, "\u0120jul": 1701, "\u0120erhalten": 1702, "\u0120artikel": 1703, "\u0120zypern": 1704, "club": 1705, "\u0120heraus": 1706, "ative": 1707, "gesamt": 1708, "ari": 1709, "\u0120vors": 1710, "45": 1711, "\u0120markt": 1712, "it\u00c3\u00a4ten": 1713, "\u0120schnell": 1714, "\u0120aktion": 1715, "\u0120mu": 1716, "\u0120investi": 1717, "\u0120entsp": 1718, "\u0120jahren": 1719, "\u0120mill": 1720, "\u0120anhang": 1721, "\u0120bucht": 1722, "\u0120stellen": 1723, "beh": 1724, "\u0120folgenden": 1725, "\u0120\u0120": 1726, "zess": 1727, "\u0120del": 1728, "\u0120wach": 1729, "po": 1730, "\u0120r\u00c3\u00bcck": 1731, "\u0120form": 1732, "\u0120sh": 1733, "schech": 1734, "\u0120wirtschafts": 1735, "f\u00c3\u00a4": 1736, "\u0120ba": 1737, "undes": 1738, "\u0120mag": 1739, "tem": 1740, "\u0120verf\u00c3\u00bcgbar": 1741, "gs": 1742, "\u0120car": 1743, "\u0120redner": 1744, "\u0120rum": 1745, "hin": 1746, "cher": 1747, "altung": 1748, "75": 1749, "86": 1750, "\u0120schwer": 1751, "352": 1752, "\u0120sch\u00c3\u00b6n": 1753, "\u0120arbeits": 1754, "\u0120disk": 1755, "iv": 1756, "\u0120din": 1757, "\u0120ihrem": 1758, "\u0120posi": 1759, "\u0120slowen": 1760, "rum": 1761, "zent": 1762, "\u0120regel": 1763, "ruck": 1764, "fort": 1765, "\u0120tschech": 1766, "\u0120erwar": 1767, "\u0120schutz": 1768, "\u0120kommissarin": 1769, "\u0120m\u00c3\u00a4r": 1770, "\u0120flug": 1771, "\u0120t\u00c3\u00bcr": 1772, "uppe": 1773, "\u0120pr\u00c3\u00a4sidentin": 1774, "97": 1775, "sagt": 1776, "\u0120insgesamt": 1777, "df": 1778, "\u0120go": 1779, "\u0120probleme": 1780, "spe": 1781, "\u00c3\u00b6l": 1782, "enten": 1783, "\u0120situation": 1784, "ys": 1785, "pr\u00c3\u00bc": 1786, "\u0120deta": 1787, "\u0120glaube": 1788, "\u0120slowenien": 1789, "\u0120hostelsclub": 1790, "\u0120abkommen": 1791, "\u0120partner": 1792, "\u0120benutz": 1793, "\u0120gro\u00c3\u0141e": 1794, "\u0120indu": 1795, "\u0120besteht": 1796, "\u0120lebens": 1797, "\u0120st\u00c3\u00a4ndiger": 1798, "\u0120gerichtshof": 1799, "\u0120bul": 1800, "r\u00c3\u00a4n": 1801, "\u0120000": 1802, "olo": 1803, "st\u00c3\u00bcck": 1804, "\u0120fahr": 1805, "\u0120k\u00c3\u00b6nig": 1806, "\u0120t\u00c3\u00a4": 1807, "33": 1808, "ob": 1809, "wak": 1810, "\u00c3\u00a4\u00c3\u0141": 1811, "\u0120ausschuss": 1812, "licht": 1813, "ome": 1814, "tin": 1815, "\u0120f\u00c3\u00bchr": 1816, "\u00c3\u00a4ft": 1817, "ign": 1818, "\u0120sag": 1819, "22": 1820, "\u0120gemeinschaft": 1821, "atte": 1822, "\u0120wei\u00c3\u0141": 1823, "\u0120jeden": 1824, "alog": 1825, "\u0120ol": 1826, "\u00c3\u00a4sser": 1827, "\u0120stellvertreter": 1828, "stum": 1829, "\u0120he": 1830, "\u0120estland": 1831, "ettland": 1832, "ity": 1833, "\u0120links": 1834, "\u0120empfeh": 1835, "digung": 1836, "\u0120bietet": 1837, "\u0120hierzu": 1838, "erst": 1839, "\u0120unseren": 1840, "tens": 1841, "\u0120verbesser": 1842, "\u0120dort": 1843, "\u0120s\u00c3\u00bc": 1844, "igt": 1845, "\u0120schriftliche": 1846, "\u0120wahr": 1847, "\u0120slowak": 1848, "\u0120innov": 1849, "\u0120erst": 1850, "\u0120rum\u00c3\u00a4n": 1851, "mo": 1852, "\u012023": 1853, "\u0120inte": 1854, "\u0120leider": 1855, "\u0120besch\u00c3\u00a4ftigung": 1856, "fang": 1857, "enzen": 1858, "one": 1859, "\u0120kre": 1860, "\u0120pressekontakt": 1861, "\u0120litauen": 1862, "kten": 1863, "\u0120lettland": 1864, "amil": 1865, "gu": 1866, "\u00c3\u00a4ng": 1867, "\u00c3\u00bcb": 1868, "leg": 1869, "\u0120cl": 1870, "\u0120besuch": 1871, "\u0120tro": 1872, "cc": 1873, "cess": 1874, "\u0120w\u00c3\u00bcn": 1875, "\u0120bulgar": 1876, "iet": 1877, "bes": 1878, "\u0120verbraucher": 1879, "programm": 1880, "ogen": 1881, "\u0120wichtige": 1882, "unikation": 1883, "schrei": 1884, "sordnung": 1885, "\u0120sy": 1886, "95": 1887, "\u0120bildung": 1888, "\u0120wahl": 1889, "\u00c3\u00a4ge": 1890, "dings": 1891, "lagen": 1892, "tag": 1893, "\u0120mei": 1894, "lassen": 1895, "schluss": 1896, "abil": 1897, "\u0120af": 1898, "\u0120\u00c3\u00a4nderungsantrag": 1899, "ander": 1900, "\u0120entfern": 1901, "wertung": 1902, "\u0120direkt": 1903, "\u0120allerdings": 1904, "\u012024": 1905, "\u0120keinen": 1906, "\u0120rum\u00c3\u00a4nien": 1907, "),": 1908, "\u0120gerne": 1909, "\u012021": 1910, "th": 1911, "ied": 1912, "\u0120mai": 1913, "ans": 1914, "\u0120ta": 1915, "press": 1916, "\u0120pr\u00c3\u00a4": 1917, "ban": 1918, "\u0120n\u00c3\u00a4h": 1919, "\u0120meiner": 1920, "achen": 1921, "\u0120industrie": 1922, "\u0120erstellt": 1923, "\u00c3\u00a4mpf": 1924, "ckt": 1925, "201": 1926, "eration": 1927, "\u0120bulgarien": 1928, "\u0120klima": 1929, "az": 1930, "ils": 1931, "legt": 1932, "\u0120ew": 1933, "\u0120pla": 1934, "\u0120word": 1935, "gegen": 1936, "gri": 1937, "sver": 1938, "pe": 1939, "\u0120luft": 1940, "\u0120wichtigste": 1941, "\u0120g\u00c3\u00a4": 1942, "\u0120china": 1943, "mb": 1944, "\u0120ort": 1945, "tworten": 1946, "\u0120pdf": 1947, "\u0120tschechische": 1948, "\u0120mem": 1949, "\u0120fot": 1950, "\u0120europas": 1951, "\u0120?": 1952, "\u0120woch": 1953, "\u0120gesch\u00c3\u00a4ft": 1954, "cen": 1955, "splan": 1956, "\u0120verschieden": 1957, "\u0120glo": 1958, "schl\u00c3\u00bc": 1959, "f\u00c3\u00a4h": 1960, "\u0120sl": 1961, "\u00c3\u00a4nger": 1962, "mel": 1963, "fiz": 1964, "l\u00c3\u00a4nder": 1965, "\u0120san": 1966, "abel": 1967, "\u0120k\u00c3\u00b6nnte": 1968, "\u0120no": 1969, "\u0120au\u00c3\u0141en": 1970, "\u0120wasser": 1971, "\u0120inneres": 1972, "fre": 1973, "\u0120weit": 1974, "artikel": 1975, "\u0120zugang": 1976, "18": 1977, "\u0120ziele": 1978, "hilfe": 1979, "\u0120personen": 1980, "\u0120famil": 1981, "\u0120br": 1982, "\u0120genehm": 1983, "\u0120d\u00c3\u00bcrfen": 1984, "\u0120zweite": 1985, "\u0120aussen": 1986, "14": 1987, "chten": 1988, "ringen": 1989, "\u0120page": 1990, "\u0120projekt": 1991, "\u0120klein": 1992, "ruf": 1993, "\u0120vertei": 1994, "\u0120gesagt": 1995, "\u0120sprechen": 1996, "\u0120bleibt": 1997, "\u0120schlie": 1998, "haus": 1999, "\u0120nov": 2000, "\u0120eigent": 2001, "under": 2002, "\u012050": 2003, "\u0120denke": 2004, "f\u00c3\u00bchrt": 2005, "kan": 2006, "\u0120slowakei": 2007, "zt": 2008, "nungen": 2009, "\u0120gesamt": 2010, "z\u00c3\u00bc": 2011, "fasst": 2012, "\u0120russ": 2013, "zepr\u00c3\u00a4sident": 2014, "\u0120ansp": 2015, "\u0120mil": 2016, "urop": 2017, "\u0120liste": 2018, "\u0120l\u00c3\u00b6sung": 2019, "\u0120transpar": 2020, "organis": 2021, "abkommen": 2022, "\u0120ihn": 2023, "\u0120kontro": 2024, "opp": 2025, "\u0120produkte": 2026, "fte": 2027, "cker": 2028, "\u0120hotels": 2029, "\u0120zentra": 2030, "\u0120@": 2031, "\u0120bundes": 2032, "rise": 2033, "\u0120verantwort": 2034, "\u0120regionen": 2035, "\u0120juni": 2036, "bericht": 2037, "\u0120forschung": 2038, "\u0120pal": 2039, "ichter": 2040, "\u0120bestimm": 2041, "wie": 2042, "sol": 2043, "tions": 2044, "\u0120dan": 2045, "\u0120entscheidung": 2046, "chs": 2047, "\u0120100": 2048, "\u0120schul": 2049, "ugal": 2050, "\u0120inst": 2051, "woh": 2052, "\u0120lange": 2053, "\u012027": 2054, "ba": 2055, "\u0120sen": 2056, "\u0120rolle": 2057, "sich": 2058, "\u0120kap": 2059, "\u0120vereinig": 2060, "llig": 2061, "ril": 2062, "\u0120va": 2063, "\u0120k\u00c3\u00b6nigreich": 2064, "\u0120str": 2065, "\u0120hoffe": 2066, "\u0120st\u00c3\u00a4r": 2067, "reis": 2068, "\u0120sagte": 2069, "\u0120glob": 2070, "eicht": 2071, "\u01202000": 2072, "\u0120notwen": 2073, "\u0120k\u00c3\u00bc": 2074, "\u0120arbeiten": 2075, "\u0120hinzu": 2076, "sprochen": 2077, "reg": 2078, "olog": 2079, "wegen": 2080, "eig": 2081, "\u0120strategie": 2082, "ile": 2083, "\u0120sor": 2084, "\u0120frauen": 2085, "\u0120urteil": 2086, "vice": 2087, "\u0120wenden": 2088, "weg": 2089, "bet": 2090, "\u0120telefonisch": 2091, "\u0120wes": 2092, "eren": 2093, "\u0120unterst\u00c3\u00bctzen": 2094, "\u0120erweiterung": 2095, "\u0120memo": 2096, "ware": 2097, "seite": 2098, "\u0120bleiben": 2099, "\u0120dinge": 2100, "\u0120do": 2101, "stagung": 2102, "f\u00c3\u00bchrung": 2103, "\u00c3\u00a4s": 2104, "\u0120aut": 2105, "\u0120verm": 2106, "auer": 2107, "ides": 2108, "\u0120n\u00c3\u00a4chsten": 2109, "zept": 2110, "kar": 2111, "sprogramm": 2112, "\u0120priorit\u00c3\u00a4t": 2113, "\u0120&": 2114, "\u0120rechtss": 2115, "04": 2116, "\u0120wert": 2117, "\u0120tour": 2118, "\u0120worden": 2119, "\u0120verg": 2120, "\u0120erreichen": 2121, "\u0120last": 2122, "\u0120portugal": 2123, "\u01202006": 2124, "\u0120wachstum": 2125, "\u0120zie": 2126, "cke": 2127, "struktur": 2128, "eint": 2129, "\u0120fil": 2130, "\u0120rahmen": 2131, "\u0120ben\u00c3\u00b6": 2132, "\u0120kat": 2133, "\u0120park": 2134, "\u0120wohl": 2135, "05": 2136, "do": 2137, "\u0120preise": 2138, "ratie": 2139, "\u0120stimme": 2140, "llt": 2141, "\u0120ver\u00c3\u00a4nder": 2142, "\u0120benach": 2143, "\u0120eg": 2144, "\u0120don": 2145, "\u0120befindet": 2146, "cessed": 2147, "itt": 2148, "bel": 2149, "\u0120wi": 2150, "\u0120entfernt": 2151, "alten": 2152, "\u0120bas": 2153, "\u0120sieht": 2154, "\u0120ant": 2155, "21": 2156, "erik": 2157, "\u0120bal": 2158, "06": 2159, "\u00c3\u00a4d": 2160, "\u00c3\u00a4nd": 2161, "\u0120t\u00c3\u00bcrk": 2162, "r\u00c3\u00a4gt": 2163, "\u0120gr\u00c3\u00b6\u00c3\u0141": 2164, "\u0120aktiv": 2165, "ission": 2166, "laub": 2167, "\u0120\u00c3\u00a4ndern": 2168, "h\u00c3\u00b6": 2169, "\u0120unterb": 2170, "ino": 2171, "\u0120richtig": 2172, "vorschriften": 2173, "\u0120verf\u00c3\u00bcgung": 2174, "\u00c3\u00a4mpfung": 2175, "\u0120zun": 2176, "\u0120zahlen": 2177, "arbei": 2178, "\u0120\u00c3\u00a4u\u00c3\u0141": 2179, "\u0120fehler": 2180, "utet": 2181, "\u0120herren": 2182, "rom": 2183, "\u0120pr\u00c3\u00bc": 2184, "fonds": 2185, "ies": 2186, "\u0120w\u00c3\u00a4hlen": 2187, "303": 2188, "\u0120far": 2189, "rechte": 2190, "\u0120stimmen": 2191, "\u0120namen": 2192, "up": 2193, "\u0120juli": 2194, "\u0120ac": 2195, "\u0120nutzen": 2196, "\u0120text": 2197, "hau": 2198, "\u00c3\u00b6ffnet": 2199, "ga": 2200, "\u0120bieten": 2201, "uf": 2202, "\u0120buch": 2203, "\u0120see": 2204, "\u0120graph": 2205, "anken": 2206, "24": 2207, "\u0120f\u00c3\u00a4": 2208, "\u0120innovation": 2209, "ii": 2210, "\u0120been": 2211, "\u0120damen": 2212, "\u0120fortsch": 2213, "\u0120pers": 2214, "ance": 2215, "rech": 2216, "amp": 2217, "tien": 2218, "34": 2219, "\u0120nahm": 2220, "yn": 2221, "\u0120datei": 2222, "hn": 2223, "\u0120folgt": 2224, "\u0120vizepr\u00c3\u00a4sident": 2225, "\u0120gl\u00c3\u00bcck": 2226, "\u0120erforder": 2227, "\u0120jugend": 2228, "mut": 2229, "\u0120fal": 2230, "isten": 2231, "buch": 2232, "liches": 2233, "daten": 2234, "\u0120nachhal": 2235, "\u0120dienst": 2236, "information": 2237, "\u0120end": 2238, "\u0120selec": 2239, "\u0120darum": 2240, "aket": 2241, "zieht": 2242, "\u0120general": 2243, "\u0120g\u00c3\u00a4ste": 2244, "\u0120kostenlos": 2245, "ore": 2246, "halts": 2247, "\u0120fern": 2248, "\u0120vorber": 2249, "m\u00c3\u00b6": 2250, "\u0120bra": 2251, "\u0120ratstagung": 2252, "\u0120details": 2253, "teile": 2254, "\u0120bedeutet": 2255, "com": 2256, "\u0120tab": 2257, "ker": 2258, "oten": 2259, "treffen": 2260, "hows": 2261, "\u0120kunden": 2262, "kre": 2263, "\u0120v\u00c3\u00b6": 2264, "ana": 2265, "\u0120anwen": 2266, "\u0120unserem": 2267, "\u0120vide": 2268, "\u0120solche": 2269, "\u0120kri": 2270, "\u0120f\u00c3\u00bcnf": 2271, "gor": 2272, "\u0120ost": 2273, "\u0120bus": 2274, "\u0120ergebnis": 2275, "\u0120graphik": 2276, "\u0120sei": 2277, "toine": 2278, "\u0120\u00c3\u00b6ffentliche": 2279, "\u0120bro": 2280, "res": 2281, "\u0120modi": 2282, "\u0120rue": 2283, "\u0120ebenfalls": 2284, "\u0120fr\u00c3\u00bchst\u00c3\u00bcck": 2285, "\u01202001": 2286, "\u0120ri": 2287, "\u0120plan": 2288, "ellschaft": 2289, "rig": 2290, "\u0120gol": 2291, "70": 2292, "\u01204303": 2293, "\u0120qualit\u00c3\u00a4t": 2294, "\u0120m\u00c3\u00a4rz": 2295, "bahn": 2296, "\u0120glei": 2297, "\u0120up": 2298, "own": 2299, "\u0120hatte": 2300, "\u0120getan": 2301, "\u0120iv": 2302, "\u0120freuen": 2303, "\u0120geh\u00c3\u00b6rt": 2304, "uar": 2305, "\u0120bewertung": 2306, "\u0120van": 2307, "\u0120benachrich": 2308, "voll": 2309, "\u0120netz": 2310, "\u0120anlage": 2311, "\u0120spra": 2312, "zug": 2313, "\u0120slides": 2314, "als": 2315, "\u0120jo": 2316, "\u0120notwendig": 2317, "port": 2318, "\u0120app": 2319, "\u0120schwier": 2320, "\u0120au\u00c3\u0141erdem": 2321, "frie": 2322, "\u0120processed": 2323, "\u0120dialog": 2324, "\u0120eurostat": 2325, "\u0120transparenz": 2326, "ute": 2327, "\u0120)": 2328, "\u0120erh\u00c3\u00a4lt": 2329, "\u0120col": 2330, "\u0120neues": 2331, "artner": 2332, "\u0120steuer": 2333, "ki": 2334, "\u012032": 2335, "blick": 2336, "ma\u00c3\u0141nahmen": 2337, "\u0120entwicklungs": 2338, "\u0120besonders": 2339, "m\u00c3\u00a4\u00c3\u0141": 2340, "\u0120entschlie\u00c3\u0141ung": 2341, "\u0120met": 2342, "\u0120lesen": 2343, "\u0120benachrichtigt": 2344, "euer": 2345, "mon": 2346, "\u00c3\u00a4chst": 2347, "ffer": 2348, "\u0120april": 2349, "frei": 2350, "\u0120t\u00c3\u00bcrkei": 2351, "\u00c3\u00a4l": 2352, "\u0120allgemeine": 2353, "fo": 2354, "\u00c3\u00bcl": 2355, "lass": 2356, "\u0120unterst\u00c3\u00bctzt": 2357, "ernen": 2358, "\u0120wind": 2359, "\u0120spa": 2360, "teilt": 2361, "\u0120version": 2362, "\u0120h\u00c3\u00a4t": 2363, "\u0120sep": 2364, "aussch": 2365, "\u0120slideshows": 2366, "\u0120schritt": 2367, "tz": 2368, "zus": 2369, "\u0120vol": 2370, "lleicht": 2371, "\u012026": 2372, "\u0120wenig": 2373, "\u0120vielleicht": 2374, "\u0120nein": 2375, "\u0120aussenbeziehungen": 2376, "\u01202005": 2377, "\u0120mer": 2378, "\u0120beide": 2379, "\u0120blo": 2380, "\u0120bemerk": 2381, "oma": 2382, "\u01202003": 2383, "ech": 2384, "\u0120\u00c3\u00bcb": 2385, "bereich": 2386, "\u0120daran": 2387, "\u0120f\u00c3\u00b6rderung": 2388, "88": 2389, "lli": 2390, "\u0120verteidigung": 2391, "ette": 2392, "37": 2393, "\u0120seiten": 2394, "\u0120modif": 2395, "\u0120bau": 2396, "\u0120letzten": 2397, "nten": 2398, "system": 2399, "\u0120ersch": 2400, "con": 2401, "\u0120les": 2402, "\u0120ged": 2403, "reifen": 2404, "\u0120hum": 2405, "elie": 2406, "schaften": 2407, "hl": 2408, "\u0120unver": 2409, "\u0120nutz": 2410, "\u0120unbe": 2411, "\u0120derzeit": 2412, "\u0120erg": 2413, "\u0120eib": 2414, "\u0120vis": 2415, "etzen": 2416, "\u0120demokratie": 2417, "\u0120kop": 2418, "\u0120ris": 2419, "zember": 2420, "fassung": 2421, "\u0120selector": 2422, "ror": 2423, "\u0120beiden": 2424, "\u0120aspe": 2425, "\u00c3\u00a4ss": 2426, "\u0120priv": 2427, "\u0120minuten": 2428, "17": 2429, "ierungs": 2430, "\u00c3\u00a4tze": 2431, "\u0120technische": 2432, "\u0120gab": 2433, "\u0120char": 2434, "\u0120liegen": 2435, "\u0120har": 2436, "\u0120pre": 2437, "\u0120anders": 2438, "fu": 2439, "\u0120mi": 2440, "\u0120antworten": 2441, "staur": 2442, "\u0120umsetzung": 2443, "ose": 2444, "fig": 2445, "\u0120nu": 2446, "\u0120kons": 2447, "tigkeit": 2448, "dungen": 2449, "iere": 2450, "\u0120ele": 2451, "\u0120erle": 2452, "\u0120interess": 2453, "\u0120vorsitz": 2454, "ationen": 2455, "\u0120vorschl\u00c3\u00a4ge": 2456, "\u0120allem": 2457, "\u01202004": 2458, "ologie": 2459, "ober": 2460, "\u0120zoll": 2461, "\u0120rechte": 2462, "bildung": 2463, "reiben": 2464, "merksam": 2465, "\u0120kroes": 2466, "schn": 2467, "\u0120vorh": 2468, "64": 2469, "\u0120antrag": 2470, "rik": 2471, "rika": 2472, "\u0120rund": 2473, "resse": 2474, "\u0120west": 2475, "94": 2476, "\u0120..": 2477, "\u0120russland": 2478, "ins": 2479, "\u0120aufmerksam": 2480, "\u0120beifall": 2481, "ungsverfahren": 2482, "laden": 2483, "ziel": 2484, "stall": 2485, "\u0120projekte": 2486, "zliche": 2487, "\u0120initi": 2488, "ator": 2489, "\u0120sp\u00c3\u00a4": 2490, "liegen": 2491, "\u0120meinung": 2492, "\u0120v\u00c3\u00b6llig": 2493, "fung": 2494, "ring": 2495, "arf": 2496, "\u0120neelie": 2497, "za": 2498, "\u0120cor": 2499, "\u0120bedeut": 2500, "07": 2501, "scht": 2502, "\u0120verpf": 2503, "\u0120kern": 2504, "\u0120internationale": 2505, "dit": 2506, "\u0120vertra": 2507, "\u0120stabil": 2508, "tur": 2509, "\u0120innern": 2510, "\u0120berichter": 2511, "gelung": 2512, "\u0120gesam": 2513, "\u00c3\u00a4nde": 2514, "\u0120grie": 2515, "zimmer": 2516, "\u0120jede": 2517, "\u0120stellt": 2518, "\u0120januar": 2519, "\u0120fran": 2520, "\u012099": 2521, "\u0120kraft": 2522, "\u0120prof": 2523, "\u0120rele": 2524, "\u0120usa": 2525, "\u0120drit": 2526, "ib": 2527, "gesetzt": 2528, "\u0120ag": 2529, "\u01202002": 2530, "\u0120sache": 2531, "\u0120mus": 2532, "kungen": 2533, "rieb": 2534, "\u0120handels": 2535, "kung": 2536, "andlungen": 2537, "\u0120erreicht": 2538, "\u0120rechtssache": 2539, "fr": 2540, "yl": 2541, "\u0120sport": 2542, "\u0120raum": 2543, "ct": 2544, "\u0120bean": 2545, "reise": 2546, "\u0120tats": 2547, "\u0120gemacht": 2548, "yer": 2549, "\u0120\u00c3\u00bcberpr\u00c3\u00bc": 2550, "\u0120unterschie": 2551, "\u0120produkt": 2552, "arit\u00c3\u00a4t": 2553, "ppe": 2554, "\u0120millionen": 2555, "\u0120bisher": 2556, "\u0120rich": 2557, "\u0120treffen": 2558, "\u0120modified": 2559, "\u0120dezember": 2560, "\u0120genug": 2561, "\u0120sollen": 2562, "\u0120politische": 2563, "\u0120cas": 2564, "ath": 2565, "\u0120schwei": 2566, "\u01202015": 2567, "\u0120haushalt": 2568, "\u0120restaur": 2569, "stelle": 2570, "\u0120aufge": 2571, "spiele": 2572, "\u0120richtung": 2573, "\u0120down": 2574, "ieden": 2575, "\u0120koh": 2576, "\u0120halte": 2577, "hei": 2578, "stehen": 2579, "zip": 2580, "80": 2581, "fassen": 2582, "inen": 2583, "\u0120pers\u00c3\u00b6n": 2584, "\u0120aufgabe": 2585, "linien": 2586, "\u0120meer": 2587, "\u0120berichterstat": 2588, "199": 2589, "\u0120seiner": 2590, "\u012029": 2591, "\u0120mitteilung": 2592, "spek": 2593, "\u0120weniger": 2594, "\u0120ganze": 2595, "\u0120etwa": 2596, "\u0120bilder": 2597, "ote": 2598, "zer": 2599, "wach": 2600, "\u0120f\u00c3\u00bchren": 2601, "ende": 2602, "\u0120zwe": 2603, "schlagen": 2604, "\u0120ihm": 2605, "mitglied": 2606, "\u0120debatte": 2607, "67": 2608, "dige": 2609, "ategor": 2610, "\u0120soft": 2611, "\u0120bundesminister": 2612, "\u0120lernen": 2613, "ierten": 2614, "\u0120hol": 2615, "\u0120organis": 2616, "onnen": 2617, "rieben": 2618, "mals": 2619, "\u0120versch": 2620, "\u0120berei": 2621, "\u0120gerade": 2622, "255": 2623, "\u0120halten": 2624, "ias": 2625, "\u0120musi": 2626, "\u0120wesent": 2627, "wesen": 2628, "\u0120bot": 2629, "itzen": 2630, "tember": 2631, "rigen": 2632, "\u0120allein": 2633, "aut": 2634, "\u0120sub": 2635, "\u0120hil": 2636, "\u0120kompl": 2637, "frieden": 2638, "\u0120ev": 2639, "ital": 2640, "werk": 2641, "strum": 2642, "ola": 2643, "\u0120m\u00c3\u00bcn": 2644, "\u012075": 2645, "ondere": 2646, "\u0120einw": 2647, "uppen": 2648, "glieder": 2649, "zw": 2650, "\u0120ewsa": 2651, "\u0120sp\u00c3\u00a4ter": 2652, "\u0120fel": 2653, "\u0120geschehen": 2654, "besondere": 2655, "\u0120auto": 2656, "dio": 2657, "\u0120meisten": 2658, "\u0120beste": 2659, "\u0120handeln": 2660, "\u0120fir": 2661, "\u0120struktur": 2662, "\u0120suchen": 2663, "\u0120meinen": 2664, "tex": 2665, "\u0120nord": 2666, "\u0120log": 2667, "ire": 2668, "\u0120insbesondere": 2669, "\u0120ministerium": 2670, "\u0120such": 2671, "\u0120gelten": 2672, "\u0120ernen": 2673, "\u0120bedeutung": 2674, "\u0120natur": 2675, "\u0120soziale": 2676, "\u0120wettbewerbs": 2677, "\u0120berichterstatter": 2678, "\u0120funktioniert": 2679, "\u0120benutzer": 2680, "aufen": 2681, "\u0120bekannt": 2682, "\u0120tier": 2683, "\u0120sc": 2684, "etter": 2685, "schlie\u00c3\u0141en": 2686, "sverl": 2687, "\u0120beitrag": 2688, "zogen": 2689, "\u0120zug": 2690, "\u0120sicherheits": 2691, "vo": 2692, "\u0120et": 2693, "\u0120abruf": 2694, "\u0120room": 2695, "ows": 2696, "\u0120zus\u00c3\u00a4t": 2697, "\u00c3\u00a4hlt": 2698, "\u0120entzieht": 2699, "\u01203255": 2700, "alisierung": 2701, "\u0120helfen": 2702, "schl\u00c3\u00bcsse": 2703, "frist": 2704, "\u0120anti": 2705, "\u0120l\u00c3\u00b6": 2706, "\u0120bew": 2707, "isches": 2708, "\u0120service": 2709, "\u0120entscheiden": 2710, "por": 2711, "hil": 2712, "!!": 2713, "\u00c3\u00a4hren": 2714, "\u0120beteil": 2715, "\u0120terror": 2716, "\u0120sto": 2717, "\u0120erw\u00c3\u00a4h": 2718, "\u0120downlo": 2719, "\u0120abrufbar": 2720, "87": 2721, "\u0120dig": 2722, "stunde": 2723, "ehe": 2724, "fahrt": 2725, "\u0120standard": 2726, "27": 2727, "ruch": 2728, "\u0120dagegen": 2729, "f\u00c3\u00bchren": 2730, "\u0120wichtigsten": 2731, "str\u00c3\u00b6": 2732, "cu": 2733, "stung": 2734, "ssil": 2735, "\u0120interesse": 2736, "\u0120investitionen": 2737, "\u0120human": 2738, "\u0120risik": 2739, "\u0120dein": 2740, "\u0120h\u00c3\u00b6r": 2741, "\u0120eff": 2742, "\u0120richtige": 2743, "urr": 2744, "ommer": 2745, "\u0120gesetz": 2746, "\u0120jedes": 2747, "\u0120spielen": 2748, "\u0120win": 2749, "durch": 2750, "\u0120christ": 2751, "atur": 2752, "93": 2753, "\u0120franz": 2754, "\u0120platz": 2755, "ssystem": 2756, "\u0120enthalten": 2757, "\u0120deine": 2758, "aben": 2759, "ieten": 2760, "ise": 2761, "\u0120hervor": 2762, "pfel": 2763, "\u0120vereinigtes": 2764, "tragen": 2765, "stet": 2766, "\u0120kolle": 2767, "\u0120ma\u00c3\u0141": 2768, "\u0120welch": 2769, "l\u00c3\u00a4u": 2770, "\u0120install": 2771, "\u0120wider": 2772, "\u0120mel": 2773, "ktober": 2774, "\u0120wissenschaft": 2775, "dliche": 2776, "sverletz": 2777, "\u0120uni": 2778, "\u00c3\u00b6ffent": 2779, "ations": 2780, "\u0120frieden": 2781, "\u0120sim": 2782, "\u0120schi": 2783, "\u00c3\u0141lich": 2784, "\u0120hei\u00c3\u0141t": 2785, "\u0120prak": 2786, "\u0120europ\u00c3\u00a4isches": 2787, "\u0120ren": 2788, "\u00c3\u00bcndet": 2789, "skomm": 2790, "\u0120sinn": 2791, "gesch": 2792, "ager": 2793, "\u0120peter": 2794, "\u0120]": 2795, "\u0120angebot": 2796, "\u0120leg": 2797, "2001": 2798, "65": 2799, "fs": 2800, "\u0120parlaments": 2801, "\u0120haushalts": 2802, "\u0120bi": 2803, "istan": 2804, "\u0120sogar": 2805, "chenland": 2806, "\u0120uk": 2807, "genda": 2808, "31": 2809, "\u0120verordnung": 2810, "spl": 2811, "\u0120fast": 2812, "\u0120entschlie\u00c3\u0141ungsantrag": 2813, "85": 2814, "urs": 2815, "del": 2816, "indung": 2817, "\u0120eng": 2818, "sb": 2819, "\u0120mom": 2820, "\u0120mad": 2821, "\u0120max": 2822, "\u0120finanzie": 2823, "\u0120ober": 2824, "\u00c3\u00a4ren": 2825, "\u0120liefer": 2826, "\u012002": 2827, "\u0120zeigt": 2828, "pan": 2829, "\u00c3\u00bcssel": 2830, "\u0120mehrere": 2831, "\u0120maria": 2832, "\u0120jahres": 2833, "dest": 2834, "\u0120very": 2835, "agement": 2836, "\u0120schlu\u00c3\u0141": 2837, "\u0120blick": 2838, "iou": 2839, "platz": 2840, "auft": 2841, "\u0120kommunikation": 2842, "usion": 2843, "r\u00c3\u00a4sidenten": 2844, "\u0120spezi": 2845, "\u0120nen": 2846, "\u0120news": 2847, "\u0120bestehen": 2848, "\u0120braucht": 2849, "punkte": 2850, "\u0120schriftlich": 2851, "\u0120bip": 2852, "teilungen": 2853, "\u0120oft": 2854, "\u0120verfol": 2855, "\u0120enth\u00c3\u00a4lt": 2856, "st\u00c3\u00a4ndig": 2857, "\u0120zun\u00c3\u00a4chst": 2858, "gessen": 2859, "\u0120gesp": 2860, "\u0120weiterhin": 2861, "\u0120themen": 2862, "k\u00c3\u00bcnf": 2863, "\u0120rede": 2864, "\u0120rechn": 2865, "\u0120verantwortung": 2866, "\u0120engl": 2867, "\u0120angebo": 2868, "\u0120mark": 2869, "skommissar": 2870, "eile": 2871, "\u0120software": 2872, "mas": 2873, "\u0120herzlich": 2874, "08": 2875, "\u0120hart": 2876, "lla": 2877, "\u0120herz": 2878, "aktion": 2879, "\u0120vertragsverletz": 2880, "ona": 2881, "setzen": 2882, "\u0120priorit\u00c3\u00a4ten": 2883, "ix": 2884, "\u0120ass": 2885, "stein": 2886, "\u00c3\u00bch": 2887, "\u0120oktober": 2888, "\u00c3\u00a4he": 2889, "\u0120ver\u00c3\u00b6ffent": 2890, "istr": 2891, "rid": 2892, "\u0120entsprechen": 2893, "\u0120dro": 2894, "reichen": 2895, "\u0120moder": 2896, "\u0120ernst": 2897, "\u0120name": 2898, "\u0120reise": 2899, "\u0120elekt": 2900, "stadt": 2901, "\u0120vert": 2902, "\u0120entde": 2903, "\u0120september": 2904, "ales": 2905, "tete": 2906, "que": 2907, "\u0120apart": 2908, "19": 2909, "af": 2910, "go": 2911, "\u0120gd": 2912, "\u0120rest": 2913, "\u0120geschichte": 2914, "forderungen": 2915, "deu": 2916, "\u0120546": 2917, "bru": 2918, "h\u00c3\u00a4ng": 2919, "ano": 2920, "tischen": 2921, "\u0120erfahren": 2922, "\u0120hinweis": 2923, "\u0120neuer": 2924, "\u0120erfolgt": 2925, "\u0120eigentlich": 2926, "\u0120release": 2927, "\u0120eingehen": 2928, "\u0120off": 2929, "haupt": 2930, "don": 2931, "\u0120zuge": 2932, "leistungen": 2933, "\u0120seinen": 2934, "\u0120gro\u00c3\u0141en": 2935, "schreibung": 2936, "m\u00c3\u00b6glich": 2937, "\u0120post": 2938, "\u0120verkauf": 2939, "\u0120griechenland": 2940, "\u0120beispiele": 2941, "\u0120bill": 2942, "\u0120pra": 2943, "denken": 2944, "\u0120anfang": 2945, "dert": 2946, "\u0120fax": 2947, "ial": 2948, "\u0120tagesordnung": 2949, "\u0120colom": 2950, "\u0120erster": 2951, "\u0120joh": 2952, "\u0120kleine": 2953, "\u0120verwenden": 2954, "\u0120gruppe": 2955, "\u0120pat": 2956, "\u0120beschl\u00c3\u00bcsse": 2957, "\u0120eigenen": 2958, "ux": 2959, "\u0120cent": 2960, "\u0120mig": 2961, "sektor": 2962, "\u00c3\u00a4um": 2963, "see": 2964, "\u0120vorbereitung": 2965, "29": 2966, "\u0120bon": 2967, "\u0120n\u00c3\u00bct": 2968, "\u0120rechnungs": 2969, "ers": 2970, "\u0120gre": 2971, "gew\u00c3\u00a4sser": 2972, "druck": 2973, "partner": 2974, "\u0120beruf": 2975, "\u00c3\u00a4ndert": 2976, "frastruktur": 2977, "\u0120november": 2978, "\u0120donner": 2979, "36": 2980, "89": 2981, "\u0120krise": 2982, "auber": 2983, "bare": 2984, "\u0120beh": 2985, "\u0120institu": 2986, "\u0120absol": 2987, "\u0120hintergrundinformation": 2988, "\u0120zweck": 2989, "\u0120schle": 2990, "\u0120antoine": 2991, "ump": 2992, "\u0120reser": 2993, "stimmen": 2994, "\u0120letzte": 2995, "\u0120erstens": 2996, "gangen": 2997, "\u0120inform": 2998, "ith": 2999, "\u0120konferenz": 3000, "\u0120genie": 3001, "513": 3002, "uropa": 3003, "\u0120behandel": 3004, "\u0120\u00c3\u00b6ff": 3005, "\u0120vill": 3006, "\u0120krie": 3007, "altungs": 3008, "26": 3009, "iete": 3010, "\u0120g\u00c3\u00bcn": 3011, "\u0120fraktion": 3012, "f\u00c3\u00a4higkeit": 3013, "\u0120dopp": 3014, "ont": 3015, "\u0120\u00c3\u00a4nderungen": 3016, "\u00c3\u00a4hrung": 3017, "staatssekret\u00c3\u00a4r": 3018, "str\u00c3\u00b6m": 3019, "925": 3020, "\u0120eindeu": 3021, "\u0120folgendes": 3022, "union": 3023, "\u0120komp": 3024, "\u0120vorsitzes": 3025, "bruar": 3026, "skon": 3027, "\u0120verbesserung": 3028, "\u0120defin": 3029, "\u0120amerik": 3030, "\u0120kennt": 3031, "\u0120video": 3032, "\u00c3\u00a4hrend": 3033, "berg": 3034, "\u0120europe": 3035, "\u012040": 3036, "\u00c3\u00a4uft": 3037, "zeigt": 3038, "84": 3039, "ater": 3040, "\u0120l\u00c3\u00a4ndern": 3041, "\u0120moment": 3042, "ight": 3043, "han": 3044, "w\u00c3\u00a4r": 3045, "\u0120vereinbar": 3046, "\u0120iii": 3047, "\u0120h\u00c3\u00b6ch": 3048, "\u0120kn": 3049, "dienst": 3050, "isa": 3051, "\u0120leicht": 3052, "ling": 3053, "\u0120w\u00c3\u00a4hrend": 3054, "\u0120leh": 3055, "\u0120alt": 3056, "\u0120konta": 3057, "\u0120mode": 3058, "\u0120freund": 3059, "ingt": 3060, "unsch": 3061, "gestellt": 3062, "\u0120leu": 3063, "riter": 3064, "\u0120akzep": 3065, "\u0120woche": 3066, "ssiliou": 3067, "erheit": 3068, "\u0120ge\u00c3\u00b6ffnet": 3069, "\u0120nachhaltige": 3070, "\u0120f\u00c3\u00bchrt": 3071, "gte": 3072, "ieht": 3073, "tim": 3074, "\u0120n\u00c3\u00a4he": 3075, "bek": 3076, "ada": 3077, "\u0120serv": 3078, "bani": 3079, "\u0120sommer": 3080, "\u0120fisch": 3081, "\u0120gef\u00c3\u00a4hr": 3082, "\u0120dir": 3083, "\u0120euch": 3084, "roso": 3085, "\u0120rev": 3086, "\u0120can": 3087, "\u0120auswahl": 3088, "\u0120kennen": 3089, "\u0120vertragsverletzungsverfahren": 3090, "ly": 3091, "ausch": 3092, "ame": 3093, "\u0120auswir": 3094, "\u0120dennoch": 3095, "ourcen": 3096, "\u0120colombani": 3097, "orden": 3098, "\u0120weise": 3099, "\u0120sal": 3100, "\u0120fan": 3101, "\u0120registr": 3102, "\u0120fortschritte": 3103, "\u0120aufmerksamkeit": 3104, "\u0120stabilit\u00c3\u00a4t": 3105, "mann": 3106, "ritts": 3107, "\u012093": 3108, "\u0120verschiedene": 3109, "\u0120beendet": 3110, "rank": 3111, "forderung": 3112, "ica": 3113, "\u0120aktuelle": 3114, "est": 3115, "\u0120laufen": 3116, "\u0120download": 3117, "\u0120kan": 3118, "produ": 3119, "\u0120h\u00c3\u00a4": 3120, "\u0120februar": 3121, "ael": 3122, "zung": 3123, "igkeiten": 3124, "gruppe": 3125, "ry": 3126, "\u0120tut": 3127, "izien": 3128, "44": 3129, "nu": 3130, "\u0120are": 3131, "\u0120sofort": 3132, "\u0120befinden": 3133, "74513": 3134, "ps": 3135, "ief": 3136, "schul": 3137, "li": 3138, "netz": 3139, "\u0120dich": 3140, "mmern": 3141, "einkommen": 3142, "\u0120n\u00c3\u00a4chste": 3143, "\u0120strand": 3144, "\u0120erforderlich": 3145, "\u0120donnerstag": 3146, "sh": 3147, "\u0120kun": 3148, "\u0120weltw": 3149, "\u0120diskuss": 3150, "ration": 3151, "\u0120bezahl": 3152, "s\u00c3\u00a4tze": 3153, "ausschuss": 3154, "\u0120bre": 3155, "arbeiten": 3156, "\u0120rela": 3157, "zeugnisse": 3158, "\u0120verpflicht": 3159, "mand": 3160, "\u0120kategor": 3161, "\u0120ers": 3162, "\u0120beding": 3163, "\u0120trotz": 3164, "by": 3165, "\u0120scheint": 3166, "\u0120operation": 3167, "\u0120regional": 3168, "\u0120kroa": 3169, "preis": 3170, "\u0120kos": 3171, "\u0120pu": 3172, "\u0120you": 3173, "\u0120h\u00c3\u00a4tte": 3174, "\u0120vertrauen": 3175, "\u0120mr": 3176, "\u0120zweitens": 3177, "rinzip": 3178, "\u0120fr\u00c3\u00bcher": 3179, "strategie": 3180, "\u0120augen": 3181, "\u0120angaben": 3182, "dok": 3183, "\u0120brin": 3184, "rop": 3185, "able": 3186, "\u0120komment": 3187, "\u0120nacht": 3188, "\u0120erhe": 3189, "\u01201999": 3190, "tisti": 3191, "urf": 3192, "\u0120ansatz": 3193, "ular": 3194, "\u0120handelspolitik": 3195, "\u0120erh\u00c3\u00b6": 3196, "elles": 3197, "\u0120jedem": 3198, "\u01202013": 3199, "\u0120stellung": 3200, "antr\u00c3\u00a4ge": 3201, "uel": 3202, "\u0120erfahr": 3203, "ott": 3204, "\u0120danken": 3205, "\u0120wichtiger": 3206, "\u0120bek\u00c3\u00a4mpfung": 3207, "\u0120bank": 3208, "ali": 3209, "ement": 3210, "\u0120bessere": 3211, "wor": 3212, "\u0120rein": 3213, "meer": 3214, "\u0120michael": 3215, "\u00c3\u00a4chlich": 3216, "sminister": 3217, "\u0120solid": 3218, "\u0120geh\u00c3\u00b6ren": 3219, "\u0120verhandlungen": 3220, "\u0120av": 3221, "ller": 3222, "weisen": 3223, "\u01202011": 3224, "\u0120guten": 3225, "\u0120handelt": 3226, "ativen": 3227, "\u0120belli": 3228, "\u0120berat": 3229, "\u0120meinem": 3230, "\u0120regierung": 3231, "\u0120karte": 3232, "\u0120verwendet": 3233, "\u0120erh\u00c3\u00a4ltlich": 3234, "met": 3235, "\u0120konkre": 3236, "\u0120endg": 3237, "ativ": 3238, "bien": 3239, "\u0120mitglieder": 3240, "\u0120informations": 3241, "haf": 3242, "imm": 3243, "inner": 3244, "\u0120setzen": 3245, "\u0120phil": 3246, "\u0120belliard": 3247, "60": 3248, "wort": 3249, "orn": 3250, "\u0120augu": 3251, "\u0120gew\u00c3\u00a4sser": 3252, "\u0120prozess": 3253, "\u0120grenz": 3254, "\u0120konsult": 3255, "mp": 3256, "innt": 3257, "\u0120schl\u00c3\u00bcssel": 3258, "\u0120n\u00c3\u00a4here": 3259, "\u0120windows": 3260, "ordin": 3261, "\u0120vorgeschlagen": 3262, "\u0120erf\u00c3\u00bc": 3263, "gtra": 3264, "quis": 3265, "ordne": 3266, "w\u00c3\u00bcr": 3267, "\u0120gelegen": 3268, "haltung": 3269, "\u0120ferien": 3270, "racht": 3271, "\u0120einzi": 3272, "\u0120vergessen": 3273, "spr\u00c3\u00a4sident": 3274, "\u0120gr\u00c3\u00bcnde": 3275, "\u0120w\u00c3\u00bcnschen": 3276, "halte": 3277, "\u0120wirtschaftliche": 3278, "2007": 3279, "\u0120veranst": 3280, "\u0120bugtra": 3281, "\u0120digit": 3282, "nor": 3283, "\u0120sin": 3284, "\u0120bekommen": 3285, "schlag": 3286, "\u0120doppel": 3287, "ms": 3288, "\u0120air": 3289, "raine": 3290, "\u0120betr\u00c3\u00a4gt": 3291, "\u0120urlaub": 3292, "\u0120demokra": 3293, "\u0120bugtraq": 3294, "39": 3295, "\u0120sek": 3296, "sper": 3297, "\u0120fl\u00c3\u00bc": 3298, "\u0120worte": 3299, "\u0120reicht": 3300, "\u0120betra": 3301, "\u0120paar": 3302, "\u0120curr": 3303, "stens": 3304, "\u0120sec": 3305, "28": 3306, "\u0120bri": 3307, "hafen": 3308, "\u0120h\u00c3\u00a4u": 3309, "tiger": 3310, "\u0120dau": 3311, "\u0120vote": 3312, "\u0120dokumenten": 3313, "\u0120falsch": 3314, "\u0120flex": 3315, "\u0120fusion": 3316, "\u0120schlie\u00c3\u0141lich": 3317, "\u0120restaurant": 3318, "andlung": 3319, "\u0120mass": 3320, "jahr": 3321, "\u0120musik": 3322, "hilfen": 3323, "\u0120current": 3324, "\u0120sam": 3325, "\u0120fu\u00c3\u0141": 3326, "ichten": 3327, "\u012031": 3328, "\u0120geschieht": 3329, "zeichnet": 3330, "\u0120erwarten": 3331, "\u0120tor": 3332, "\u0120zufrieden": 3333, "\u0120gefunden": 3334, "\u0120gleiche": 3335, "\u0120pfl": 3336, "entwick": 3337, "\u0120pressemitteilungen": 3338, "\u0120gegenteil": 3339, "\u0120begr\u00c3\u00bc\u00c3\u0141e": 3340, "\u0120ehr": 3341, "lauf": 3342, "\u00c3\u00a4sst": 3343, "mu": 3344, "sehen": 3345, "\u0120unters": 3346, "\u0120test": 3347, "\u0120passiert": 3348, "ide": 3349, "ars": 3350, "\u0120\u00c3\u00a4nderungs": 3351, "\u0120tagung": 3352, "\u0120ebene": 3353, "\u0120betreffen": 3354, "\u0120umfasst": 3355, "\u0120team": 3356, "\u00c3\u00a4hn": 3357, "zielle": 3358, "\u0120super": 3359, "\u0120ben\u00c3\u00b6tigen": 3360, "\u0120agenda": 3361, "\u0120pr\u00c3\u00a4sidenten": 3362, "\u0120w\u00c3\u00bcrden": 3363, "\u0120gon": 3364, "beh\u00c3\u00b6r": 3365, "\u0120fo": 3366, "\u0120stelle": 3367, "\u0120ausgew": 3368, "\u0120sektor": 3369, "\u0120begr\u00c3\u00bc\u00c3\u0141en": 3370, "sach": 3371, "\u0120agr": 3372, "\u0120gegeben": 3373, "\u0120einzelheiten": 3374, "ros": 3375, "\u0120gei": 3376, "\u0120zeitpunkt": 3377, "\u0120link": 3378, "\u0120gemeinsamen": 3379, "\u0120trans": 3380, "\u0120integra": 3381, "\u0120aspekte": 3382, "\u0120univers": 3383, "cel": 3384, "leitung": 3385, "\u0120stunden": 3386, "\u0120design": 3387, "2000": 3388, "\u0120gro\u00c3\u0141er": 3389, "23": 3390, "dat": 3391, "rahmen": 3392, "\u0120erk": 3393, "operation": 3394, "\u0120new": 3395, "\u0120weil": 3396, "\u0120verwaltungs": 3397, "\u0120zentral": 3398, "\u0120denken": 3399, "\u012034": 3400, "\u0120magst": 3401, "z\u00c3\u00bcglich": 3402, "\u0120kroatien": 3403, "\u0120jem": 3404, "\u0120staaten": 3405, "skontro": 3406, "57": 3407, "\u0120home": 3408, "verst\u00c3\u00a4n": 3409, "dire": 3410, "1040": 3411, "\u0120bald": 3412, "\u0120erken": 3413, "ehn": 3414, "\u0120alb": 3415, "\u0120webseite": 3416, "feld": 3417, "\u0120osten": 3418, "bauen": 3419, "\u0120\u00c3\u00a4nderung": 3420, "gesehen": 3421, "\u0120\u00c3\u00a4hn": 3422, "\u0120k\u00c3\u00bcnf": 3423, "\u0120gesch\u00c3\u00a4ftsordnung": 3424, "--": 3425, "int": 3426, "scher": 3427, "schein": 3428, "\u0120ge\u00c3\u00a4ndert": 3429, "\u0120finde": 3430, "beschreibung": 3431, "\u0120stimmt": 3432, "riterien": 3433, "\u0120auswirkungen": 3434, "\u0120august": 3435, "\u0120leit": 3436, "\u0120anmerk": 3437, "\u00c3\u00a4nge": 3438, "\u0120sprache": 3439, "\u0120altern": 3440, "\u0120best\u00c3\u00a4": 3441, "\u0120ernennungen": 3442, "\u0120sicht": 3443, "abon": 3444, "\u0120ref": 3445, "\u0120dadurch": 3446, "\u0120gruppen": 3447, "\u01202014": 3448, "\u0120keiner": 3449, "sie": 3450, "\u0120zudem": 3451, "\u0120beginnen": 3452, "k\u00c3\u00bcnfte": 3453, "utter": 3454, "use": 3455, "\u0120grenzen": 3456, "\u0120welchen": 3457, "\u0120mobiltel": 3458, "ara": 3459, "\u0120res": 3460, "\u0120142": 3461, "\u0120allgemein": 3462, "\u0120with": 3463, "ichtet": 3464, "ita": 3465, "\u0120tur": 3466, "ovo": 3467, "\u0120programme": 3468, "\u0120sil": 3469, "\u0120deutlich": 3470, "90": 3471, "\u0120dra": 3472, "\u0120mann": 3473, "\u0120h\u00c3\u00a4n": 3474, "\u0120ansicht": 3475, "\u0120stei": 3476, "\u0120hintergrundinformationen": 3477, "\u0120bringt": 3478, "\u0120humanit": 3479, "\u0120my": 3480, "\u0120hen": 3481, "\u0120schritte": 3482, "\u0120umfassen": 3483, "\u0120berlin": 3484, "\u0120hatten": 3485, "\u0120n\u00c3\u00a4her": 3486, "\u0120eindeutig": 3487, "\u0120sw": 3488, "aren": 3489, "verb": 3490, "\u0120fragestunde": 3491, "geln": 3492, "\u0120verstehen": 3493, "81": 3494, "era": 3495, "rou": 3496, "ova": 3497, "prom": 3498, "\u0120wochen": 3499, "\u0120sprachen": 3500, "\u0120komme": 3501, "\u0120vorgehen": 3502, "edig": 3503, "\u0120besuchen": 3504, "gesellschaft": 3505, "vention": 3506, "ene": 3507, "\u0120val": 3508, "\u0120k\u00c3\u00bcr": 3509, "\u0120einger": 3510, "\u0120k\u00c3\u00b6nnten": 3511, "\u0120bedarf": 3512, "\u0120bedingungen": 3513, "\u0120dritte": 3514, "\u0120wein": 3515, "\u0120typ": 3516, "\u0120hinaus": 3517, "richtlinie": 3518, "ogra": 3519, "\u0120geor": 3520, "\u0120warten": 3521, "\u01202012": 3522, "\u0120verst\u00c3\u00a4r": 3523, "\u0120agrar": 3524, "\u0120japan": 3525, "\u0120w\u00c3\u00bcnsche": 3526, "\u0120niemand": 3527, "\u0120gr\u00c3\u00bcnden": 3528, "\u0120reserv": 3529, "\u0120mot": 3530, "issabon": 3531, "\u0120regeln": 3532, "gi": 3533, "eilen": 3534, "dition": 3535, "\u0120zentrum": 3536, "ierungen": 3537, "onen": 3538, "\u0120instrum": 3539, "ash": 3540, "alter": 3541, "\u0120annahme": 3542, "\u0120belie": 3543, "bert": 3544, "\u0120koordin": 3545, "\u0120druck": 3546, "\u0120liebe": 3547, "\u0120ruh": 3548, "\u0120\u00c3\u00a4u\u00c3\u0141erst": 3549, "\u0120anwendung": 3550, "\u0120wunder": 3551, "\u0120st\u00c3\u00a4d": 3552, "\u0120cost": 3553, "kommunikation": 3554, "\u0120priorit\u00c3\u00a4tsach": 3555, "ammen": 3556, "reiche": 3557, "\u0120option": 3558, "\u0120kmu": 3559, "\u0120diskussion": 3560, "sz": 3561, "\u0120irak": 3562, "\u0120meines": 3563, "\u0120willst": 3564, "\u0120medien": 3565, "\u0120partnerschaft": 3566, "\u0120ukraine": 3567, "\u0120l\u00c3\u00a4sst": 3568, "\u0120teile": 3569, "sek": 3570, "zeichnung": 3571, "\u0120familie": 3572, "\u0120terrorismus": 3573, "l\u00c3\u00a4ss": 3574, "ante": 3575, "ama": 3576, "stellungen": 3577, "\u0120fotos": 3578, "zusammen": 3579, "55": 3580, "ssch": 3581, "\u0120lissabon": 3582, "\u0120chin": 3583, "\u0120drin": 3584, "\u0120schwar": 3585, "\u0120ress": 3586, "\u0120abgeordne": 3587, "\u0120einzelnen": 3588, "\u0120lebensmittel": 3589, "\u0120kunst": 3590, "ero": 3591, "\u0120vern": 3592, "\u0120verf\u00c3\u00bcgt": 3593, "\u0120solidarit\u00c3\u00a4t": 3594, "j\u00c3\u00a4hr": 3595, "leh": 3596, "\u0120somit": 3597, "\u0120genehmigt": 3598, "umping": 3599, "kel": 3600, "\u0120pf": 3601, "\u0120vorhanden": 3602, "iode": 3603, "\u0120mensch": 3604, "\u0120dor": 3605, "\u0120m\u00c3\u00a4n": 3606, "\u0120fac": 3607, "\u0120programms": 3608, "skommissarin": 3609, "\u0120weltweit": 3610, "\u0120imm": 3611, "\u0120eigene": 3612, "\u0120afrika": 3613, "ud": 3614, "\u01209396": 3615, "til": 3616, "\u0120pan": 3617, "\u0120anzahl": 3618, "\u0120anfragen": 3619, "\u0120ausf\u00c3\u00bchr": 3620, "\u0120arch": 3621, "\u0120arbei": 3622, "\u0120flughafen": 3623, "rang": 3624, "iten": 3625, "\u0120lehr": 3626, "\u0120cat": 3627, "\u0120kommissions": 3628, "\u0120michel": 3629, "\u0120pap": 3630, "\u0120deleg": 3631, "lang": 3632, "\u00c3\u00a4che": 3633, "etten": 3634, "\u0120perspek": 3635, "\u0120reihe": 3636, "\u0120h\u00c3\u00b6ren": 3637, "ay": 3638, "wurf": 3639, "\u0120erd": 3640, "\u0120herunter": 3641, "\u0120darin": 3642, "mitt": 3643, "\u0120gere": 3644, "\u0120sonder": 3645, "ons": 3646, "artige": 3647, "\u0120er\u00c3\u00b6ff": 3648, "teilen": 3649, "\u0120loc": 3650, "\u0120david": 3651, "\u0120weiteren": 3652, "karte": 3653, "vel": 3654, "wandel": 3655, "\u012000": 3656, "\u0120fei": 3657, "\u0120l\u00c3\u00a4uft": 3658, "elbe": 3659, "\u0120rech": 3660, "schnitt": 3661, "\u0120rechnungshof": 3662, "77": 3663, "osla": 3664, "\u0120paris": 3665, "\u0120monat": 3666, "38": 3667, "\u0120149": 3668, "\u0120apartment": 3669, "\u0120fusionskontro": 3670, "f\u00c3\u00b6r": 3671, "ini": 3672, "\u0120erlau": 3673, "umen": 3674, "\u0120aktionsplan": 3675, "\u0120gonz": 3676, "xis": 3677, "ted": 3678, "\u0120stark": 3679, "\u0120anderes": 3680, "\u0120quelle": 3681, "astrop": 3682, "sei": 3683, "\u0120che": 3684, "iges": 3685, "\u012080": 3686, "\u0120komprom": 3687, "\u0120asso": 3688, "61": 3689, "isierung": 3690, "\u0120bemerkungen": 3691, "finden": 3692, "\u0120\u00c3\u00bcbrigen": 3693, "gern": 3694, "\u0120eh": 3695, "\u0120tri": 3696, "\u0120benutzen": 3697, "\u0120initiative": 3698, "ule": 3699, "\u0120wto": 3700, "\u0120gutes": 3701, "\u0120kollegen": 3702, "\u0120kaufen": 3703, "\u0120ang": 3704, "\u0120fahren": 3705, "\u0120gegen\u00c3\u00bcber": 3706, "\u0120sagt": 3707, "\u0120menschenrechte": 3708, "\u0120familien": 3709, "dumping": 3710, "kom": 3711, "unt": 3712, "\u0120iran": 3713, "gende": 3714, "\u0120500": 3715, "marquis": 3716, "kosten": 3717, "bal": 3718, "\u0120gas": 3719, "vertreten": 3720, "mens": 3721, "ura": 3722, "\u0120hinsicht": 3723, "wettbewerb": 3724, "\u0120einigen": 3725, "\u0120geeig": 3726, "\u0120andre": 3727, "\u0120beschrei": 3728, "49": 3729, "\u0120kampf": 3730, "\u0120genehmigung": 3731, "ml": 3732, "stu": 3733, "\u0120hor": 3734, "\u0120pie": 3735, "aly": 3736, "\u0120anpa": 3737, "\u0120titel": 3738, "\u0120barroso": 3739, "stoff": 3740, "\u0120t\u00c3\u00a4tig": 3741, "griffen": 3742, "l\u00c3\u00a4ndern": 3743, "europa": 3744, "\u0120einsatz": 3745, "\u0120zeichen": 3746, "\u0120schaffen": 3747, "\u0120integration": 3748, "arbeitet": 3749, "\u0120trotzdem": 3750, "\u0120kal": 3751, "\u0120tagen": 3752, "\u0120vorteile": 3753, "\u012035": 3754, "\u0120stre": 3755, "spr\u00c3\u00bc": 3756, "ings": 3757, "\u0120telekommunikation": 3758, "\u0120h\u00c3\u00a4ufig": 3759, "dam": 3760, "\u0120anmel": 3761, "ets": 3762, "anzen": 3763, "\u0120hartmut": 3764, "\u0120paket": 3765, "\u0120gestellt": 3766, "richtung": 3767, "\u0120danach": 3768, "\u0120blog": 3769, "hlen": 3770, "tifiz": 3771, "twoch": 3772, "ministerin": 3773, "\u0120nennen": 3774, "\u0120zer": 3775, "\u0120los": 3776, "aussprache": 3777, "\u0120film": 3778, "\u0120id": 3779, "\u0120pak": 3780, "\u0120infrastruktur": 3781, "\u0120rad": 3782, "\u0120angezeigt": 3783, "\u0120statisti": 3784, "\u0120bem": 3785, "\u0120kommun": 3786, "\u0120chance": 3787, "\u0120unterbricht": 3788, "dr\u00c3\u00bc": 3789, "tere": 3790, "\u0120erziel": 3791, "cks": 3792, "vil": 3793, "techn": 3794, "\u0120lon": 3795, "\u0120lok": 3796, "\u0120schreiben": 3797, "\u0120real": 3798, "\u0120\u00c3\u00bcberhaupt": 3799, "\u0120perfe": 3800, "ni": 3801, "v\u00c3\u00b6l": 3802, "\u0120agen": 3803, "\u0120ecu": 3804, "\u00c3\u00b6st": 3805, "\u0120bevor": 3806, "istor": 3807, "\u0120sowie": 3808, "ziehen": 3809, "\u0120server": 3810, "fi": 3811, "pfen": 3812, "usi": 3813, "\u0120tren": 3814, "\u0120finanzierung": 3815, "\u0120zeigen": 3816, "\u0120t\u00c3\u00a4glich": 3817, "m\u00c3\u00a4\u00c3\u0141ig": 3818, "dor": 3819, "par": 3820, "konferenz": 3821, "\u0120investitions": 3822, "\u0120vassiliou": 3823, "zusammenarbeit": 3824, "iesen": 3825, "\u0120unten": 3826, "\u0120einheit": 3827, "\u0120tu": 3828, "\u0120cec": 3829, "\u0120neben": 3830, "speriode": 3831, "ez": 3832, "\u0120bio": 3833, "samm": 3834, "gebung": 3835, "haft": 3836, "zeugen": 3837, "ju": 3838, "mei": 3839, "m\u00c3\u00a4r": 3840, "\u0120bringen": 3841, "berei": 3842, "\u0120start": 3843, "\u0120gewalt": 3844, "bild": 3845, "\u0120wollte": 3846, "\u0120m\u00c3\u00b6glichkeit": 3847, "\u0120freiheit": 3848, "\u0120kenn": 3849, "pen": 3850, "\u0120ten": 3851, "\u0120ham": 3852, "\u0120pau": 3853, "\u0120mittwoch": 3854, "\u0120ber\u00c3\u00bcck": 3855, "\u0120berichte": 3856, "wohl": 3857, "\u0120gesprochen": 3858, "ums": 3859, "\u0120deswegen": 3860, "\u0120gipfel": 3861, "langen": 3862, "\u012060": 3863, "sprozess": 3864, "\u0120rednerin": 3865, "\u0120flexi": 3866, "\u0120dom": 3867, "\u0120aner": 3868, "fallen": 3869, "zeuge": 3870, "\u0120erg\u00c3\u00a4n": 3871, "\u0120unab": 3872, "\u0120l\u00c3\u00b6sungen": 3873, "47": 3874, "\u0120unge": 3875, "\u0120indi": 3876, "\u0120monate": 3877, "puter": 3878, "\u0120beginnt": 3879, "\u0120adresse": 3880, "9586": 3881, "weil": 3882, "\u0120camp": 3883, "\u01201998": 3884, "zeptabel": 3885, "\u0120madrid": 3886, "gliche": 3887, "\u0120teilen": 3888, "\u0120ver\u00c3\u00b6ffentlicht": 3889, "\u0120buchen": 3890, "emente": 3891, "\u0120seinem": 3892, "\u0120zahlungen": 3893, "\u0120innerhalb": 3894, "\u0120tats\u00c3\u00a4chlich": 3895, "\u0120offi": 3896, "bs": 3897, "stre": 3898, "\u012009": 3899, "\u0120m\u00c3\u00b6chtest": 3900, "\u00c3\u00a4sion": 3901, "\u0120mul": 3902, "\u0120wettbewerbsf\u00c3\u00a4higkeit": 3903, "\u0120fusionskontroll": 3904, "sabkommen": 3905, "\u0120igl": 3906, "\u0120anzu": 3907, "messen": 3908, "\u0120vereinfach": 3909, "ala": 3910, "\u0120betro": 3911, "\u0120ganzen": 3912, "52": 3913, "euerung": 3914, "\u0120sitzungsperiode": 3915, "\u0120q": 3916, "stausch": 3917, "altet": 3918, "\u0120schen": 3919, "\u0120schla": 3920, "abstimmung": 3921, "\u0120idee": 3922, "\u0120krieg": 3923, "obil": 3924, "\u0120si": 3925, "\u0120comm": 3926, "hotel": 3927, "alez": 3928, "\u0120personal": 3929, "\u0120schweiz": 3930, "\u0120vir": 3931, "\u0120integr": 3932, "cs": 3933, "\u0120alex": 3934, "\u0120vertreten": 3935, "\u0120vorschriften": 3936, "\u0120standpunkt": 3937, "\u0120kontrolle": 3938, "\u0120franz\u00c3\u00b6s": 3939, "\u0120finanzielle": 3940, "\u0120einzige": 3941, "\u0120gonzalez": 3942, "\u00c3\u00bchr": 3943, "\u0120l\u00c3\u00a4nger": 3944, "\u00c3\u00b6rper": 3945, "\u00c3\u00a4hl": 3946, "\u0120androu": 3947, "\u0120gast": 3948, "\u0120geplan": 3949, "\u0120arbeitspl": 3950, "\u0120kontroll": 3951, "\u0120dritt": 3952, "\u0120fon": 3953, "\u0120l\u00c3\u00a4nd": 3954, "\u0120realit\u00c3\u00a4t": 3955, "\u0120kannst": 3956, "\u0120marisa": 3957, "\u0120gew\u00c3\u00a4hr": 3958, "finanz": 3959, "56": 3960, "ost": 3961, "val": 3962, "\u0120wh": 3963, "\u0120werte": 3964, "\u0120\u00c3\u00b6ffentlichen": 3965, "\u0120tragen": 3966, "richten": 3967, "zwischen": 3968, "\u0120igles": 3969, "jek": 3970, "\u0120ku": 3971, "\u0120tac": 3972, "\u0120verz": 3973, "\u0120konnte": 3974, "\u0120isra": 3975, "\u0120normal": 3976, "\u0120androulla": 3977, "\u0120fen": 3978, "dex": 3979, "\u0120nachbar": 3980, "\u0120betrieb": 3981, "\u0120stellvertreten": 3982, "stattet": 3983, "\u0120welches": 3984, "\u0120genie\u00c3\u0141en": 3985, "\u0120\u00c3\u00a4nderungsantr\u00c3\u00a4ge": 3986, "\u0120iglesias": 3987, "vis": 3988, "\u0120alter": 3989, "\u0120strate": 3990, "\u0120nationale": 3991, "\u0120privat": 3992, "\u0120absolut": 3993, "\u0120histor": 3994, "\u0120kriterien": 3995, "schung": 3996, "dienste": 3997, "\u0120erwartet": 3998, "\u0120luftverkehr": 3999, "\u0120suche": 4000, "\u0120kind": 4001, "\u0120vorbeh": 4002, "\u0120verwaltung": 4003, "\u0120sauber": 4004, "\u0120cop": 4005, "\u0120arten": 4006, "\u0120eisen": 4007, "\u0120gr\u00c3\u00b6\u00c3\u0141te": 4008, "\u0120golf": 4009, "\u0120politischen": 4010, "\u0120endlich": 4011, "\u0120produktion": 4012, "\u0120h\u00c3\u00b6her": 4013, "f\u00c3\u00a4lle": 4014, "\u0120automa": 4015, "\u0120einw\u00c3\u00a4nde": 4016, "dd": 4017, "\u0120dre": 4018, "\u0120lam": 4019, "\u0120vorgesehen": 4020, "eller": 4021, "hu": 4022, "\u0120mik": 4023, "arte": 4024, "\u00c3\u00a4ne": 4025, "stoffe": 4026, "\u0120mobilit\u00c3\u00a4t": 4027, "\u0120antidumping": 4028, "\u0120humanit\u00c3\u00a4re": 4029, "\u0120betroffen": 4030, "chan": 4031, "sson": 4032, "\u0120georg": 4033, "\u0120werk": 4034, "\u0120arg": 4035, "\u0120steu": 4036, "\u0120gesellschaft": 4037, "arbeitung": 4038, "\u0120garan": 4039, "\u0120positiv": 4040, "\u0120nutzung": 4041, "\u0120john": 4042, "\u0120konsultation": 4043, "48": 4044, "les": 4045, "\u0120sach": 4046, "\u0120cam": 4047, "\u0120ziehen": 4048, "\u0120kenntnis": 4049, "\u0120verpflichtungen": 4050, "\u0120ressourcen": 4051, "\u0120assozi": 4052, ");": 4053, "kraft": 4054, "etzung": 4055, "\u00c3\u00a4ude": 4056, "\u0120regionale": 4057, "51925": 4058, "indern": 4059, "\u0120ster": 4060, "\u0120bir": 4061, "atten": 4062, "utt": 4063, "ika": 4064, "\u0120martin": 4065, "mbh": 4066, "datei": 4067, "\u00c3\u00bcnst": 4068, "\u0120kooperation": 4069, "wasser": 4070, "\u0120hohe": 4071, "\u0120zweiten": 4072, "\u0120wall": 4073, "jekt": 4074, "sweise": 4075, "\u0120vin": 4076, "\u0120amt": 4077, "\u0120lautet": 4078, "kommissarin": 4079, "out": 4080, "\u0120abschlie\u00c3\u0141en": 4081, "\u0120m\u00c3\u00b6glichkeiten": 4082, "\u0120position": 4083, "\u0120sorgen": 4084, "\u0120firma": 4085, "\u0120cre": 4086, "\u0120ausk\u00c3\u00bcnfte": 4087, "\u0120opfer": 4088, "\u0120wiederauf": 4089, "\u0120bemerkung": 4090, "cus": 4091, "\u0120setzt": 4092, "\u0120bad": 4093, "\u0120beob": 4094, "\u0120computer": 4095, "\u0120ebenso": 4096, "\u0120disku": 4097, "\u0120gesamte": 4098, "\u0120koh\u00c3\u00a4sion": 4099, "text": 4100, "gelegt": 4101, "\u0120jos": 4102, "sprechen": 4103, "usst": 4104, "\u0120jean": 4105, "\u0120betru": 4106, "\u0120verschiedenen": 4107, "\u0120winter": 4108, "\u0120praxis": 4109, "\u0120kosovo": 4110, "\u0120wunsch": 4111, "\u0120mol": 4112, "sph": 4113, "\u0120laden": 4114, "\u0120mod": 4115, "weit": 4116, "\u0120gebiet": 4117, "\u0120wahrheit": 4118, "\u0120phili": 4119, "ya": 4120, "\u0120gmbh": 4121, "\u01201997": 4122, "zentrum": 4123, "ij": 4124, "mes": 4125, "ution": 4126, "chter": 4127, "achtens": 4128, "hoben": 4129, "beding": 4130, "\u0120sechs": 4131, "\u0120geworden": 4132, "\u0120wohnung": 4133, "wand": 4134, "\u0120koll": 4135, "asc": 4136, "\u0120ledig": 4137, "\u0120speich": 4138, "gr\u00c3\u00b6": 4139, "\u0120kleinen": 4140, "web": 4141, "\u0120n\u00c3\u00bctzliche": 4142, "bek\u00c3\u00a4mpfung": 4143, "\u0120lediglich": 4144, "\u0120essen": 4145, "tiver": 4146, "\u0120aufbauen": 4147, "\u0120optim": 4148, "\u0120wirkung": 4149, "\u0120versuchen": 4150, "\u0120klimawandel": 4151, "\u0120perspektiven": 4152, "cy": 4153, "\u0120bur": 4154, "roh": 4155, "\u0120berichts": 4156, "\u0120staff": 4157, "st\u00c3\u00a4ndige": 4158, "\u0120allgemeinen": 4159, "\u0120erfolgreich": 4160, "\u0120s\u00c3\u00bcd": 4161, "arbeiter": 4162, "heim": 4163, "bin": 4164, "\u0120stat": 4165, "\u0120reag": 4166, "\u0120herzlichen": 4167, "ex": 4168, "\u0120hu": 4169, "\u0120ging": 4170, "\u0120tau": 4171, "\u0120leist": 4172, "\u0120besondere": 4173, "dingt": 4174, "hi": 4175, "liste": 4176, "\u0120ordnung": 4177, "steuer": 4178, "eiden": 4179, "geber": 4180, "laufen": 4181, "mitteln": 4182, "\u0120englisch": 4183, "82": 4184, "angeb": 4185, "\u0120kir": 4186, "\u0120indien": 4187, "\u0120reden": 4188, "\u00c3\u00bctzt": 4189, "\u0120beitritts": 4190, "\u0120senden": 4191, "54": 4192, "gei": 4193, "wn": 4194, "\u0120ban": 4195, "\u0120wiederhol": 4196, "\u0120gefahr": 4197, "\u0120erachtens": 4198, "\u0120armut": 4199, "beitrag": 4200, "\u0120kostet": 4201, "\u0120kontak": 4202, "tu": 4203, "\u0120beachten": 4204, "ierter": 4205, "isla": 4206, "annte": 4207, "\u0120nav": 4208, "rechpartner": 4209, "fik": 4210, "zun": 4211, "stes": 4212, "\u0120manch": 4213, "\u0120vii": 4214, "bott": 4215, "paket": 4216, "uk": 4217, "ingen": 4218, "standen": 4219, "ary": 4220, "ats": 4221, "\u0120cle": 4222, "\u0120ausbildung": 4223, "\u0120good": 4224, "\u0120steuern": 4225, "\u0120sehe": 4226, "\u0120gegenw\u00c3\u00a4r": 4227, "\u0120zivil": 4228, "\u0120kategorie": 4229, "zur": 4230, "\u0120bein": 4231, "\u0120hoffen": 4232, "2005": 4233, "\u0120f\u00c3\u00bcgte": 4234, "\u0120island": 4235, "\u0120unterschied": 4236, "\u0120drogen": 4237, "nier": 4238, "nam": 4239, "\u0120anzei": 4240, "ents": 4241, "\u0120berech": 4242, "\u0120forum": 4243, "wachung": 4244, "\u0120agentur": 4245, "\u0120ke": 4246, "\u0120tot": 4247, "\u00c3\u00a4hrungs": 4248, "\u0120live": 4249, "\u0120gemeinschafts": 4250, "\u0120empfehlung": 4251, "\u0120club": 4252, "\u0120dringend": 4253, "\u0120beschreibung": 4254, "\u0120unabh\u00c3\u00a4ng": 4255, "\u0120gal": 4256, "\u0120lag": 4257, "\u0120wirksam": 4258, "\u0120bedeuten": 4259, "\u0120generalsek": 4260, "\u0120dauer": 4261, "ness": 4262, "\u0120erkl\u00c3\u00a4rt": 4263, "tseite": 4264, "griff": 4265, "\u0120schwierig": 4266, "\u0120zus\u00c3\u00a4tzliche": 4267, "68": 4268, "letter": 4269, "ors": 4270, "\u0120regelung": 4271, "\u0120oben": 4272, "leisch": 4273, "\u0120chem": 4274, "\u0120gesehen": 4275, "\u0120tourismus": 4276, "\u0120metho": 4277, "\u0120lesung": 4278, "\u0120mrd": 4279, "\u0120acht": 4280, "\u0120out": 4281, "tierung": 4282, "\u0120guter": 4283, "\u0120wohn": 4284, "zeitig": 4285, "\u0120sonstiges": 4286, "\u0120ansprechpartner": 4287, "\u0120bahn": 4288, "urity": 4289, "ript": 4290, "\u0120mac": 4291, "\u0120angesprochen": 4292, "folgerung": 4293, "\u0120nahe": 4294, "\u0120sprach": 4295, "\u0120effizien": 4296, "\u0120kommentare": 4297, "\u0120untersuch": 4298, "gleich": 4299, "\u0120kla": 4300, "\u0120zehn": 4301, "\u0120abstimm": 4302, "\u0120karten": 4303, "\u0120technologie": 4304, "\u0120kaum": 4305, "\u0120herausforderung": 4306, "\u0120erleben": 4307, "92": 4308, "nissen": 4309, "\u0120n\u00c3\u00b6": 4310, "\u0120insel": 4311, "legung": 4312, "\u0120sign": 4313, "\u0120wil": 4314, "anen": 4315, "spok": 4316, "\u0120schl\u00c3\u00a4": 4317, "\u0120extre": 4318, "\u0120komfort": 4319, "\u0120asyl": 4320, "\u0120korre": 4321, "\u0120schwerpunkt": 4322, "ometer": 4323, "\u0120m\u00c3\u00bcndliche": 4324, "\u0120ma\u00c3\u0141nahme": 4325, "win": 4326, "\u0120top": 4327, "\u0120erreich": 4328, "\u0120ausgaben": 4329, "adresse": 4330, "\u0120katastrop": 4331, "\u0120leute": 4332, "eben": 4333, "reform": 4334, "\u0120bewer": 4335, "\u0120abend": 4336, "ecspok": 4337, "\u0120glauben": 4338, "\u0120pr\u00c3\u00bcfen": 4339, "\u0120sem": 4340, "\u0120g\u00c3\u00bcl": 4341, "ison": 4342, "leben": 4343, "\u0120rande": 4344, "\u0120ber\u00c3\u00bccksich": 4345, "\u0120fusionskontrollvorschriften": 4346, "dre": 4347, "kerung": 4348, "ufen": 4349, "ele": 4350, "\u0120exist": 4351, "\u0120liber": 4352, "\u0120haup": 4353, "\u0120empfehlen": 4354, "\u0120dateien": 4355, "\u0120erw\u00c3\u00a4hnt": 4356, "\u0120schiff": 4357, "van": 4358, "\u0120banken": 4359, "\u0120from": 4360, "\u0120pot": 4361, "ffung": 4362, "\u0120hoff": 4363, "nehm": 4364, "\u0120sondern": 4365, "\u0120freue": 4366, "\u0120geboren": 4367, "\u0120kurze": 4368, "\u0120fertig": 4369, "\u0120entwicklungszusammenarbeit": 4370, "fuhr": 4371, "ld": 4372, "\u0120spa\u00c3\u0141": 4373, "\u0120entdecken": 4374, "\u0120israel": 4375, "\u0120aufent": 4376, "....": 4377, "\u0120spielt": 4378, "42": 4379, "\u0120las": 4380, "\u0120mater": 4381, "\u0120stra\u00c3\u0141en": 4382, "\u0120abgeschlossen": 4383, "2010": 4384, "\u0120unbedingt": 4385, "\u0120prem": 4386, "\u0120akzeptieren": 4387, "szl": 4388, "\u0120argum": 4389, "73": 4390, "ius": 4391, "ora": 4392, "\u0120vorher": 4393, "takte": 4394, "\u0120rot": 4395, "\u0120soziales": 4396, "\u0120aktuellen": 4397, "\u0120forschungs": 4398, "eng": 4399, "\u0120jon": 4400, "\u0120%.": 4401, "\u0120datenschutz": 4402, "\u0120ben\u00c3\u00b6tigt": 4403, "\u0120profiti": 4404, "siehe": 4405, "\u0120ed": 4406, "anderung": 4407, "test": 4408, "uren": 4409, "it\u00c3\u00a4r": 4410, "spun": 4411, "\u012045": 4412, "\u0120invest": 4413, "\u0120balkan": 4414, "datenbank": 4415, "oo": 4416, "ony": 4417, "ole": 4418, "\u0120spre": 4419, "\u0120spricht": 4420, "\u0120gewesen": 4421, "\u0120funktionieren": 4422, "beh\u00c3\u00b6rde": 4423, "feh": 4424, "\u0120blau": 4425, "\u0120wechs": 4426, "\u0120dimens": 4427, "gebiet": 4428, "\u0120boden": 4429, "\u0120barcel": 4430, "\u0120villa": 4431, "b\u00c3\u00bcr": 4432, "cia": 4433, "\u0120miss": 4434, "\u00c3\u00bchren": 4435, "regelung": 4436, "rad": 4437, "\u0120lszl": 4438, "\u0120gek": 4439, "\u0120bef\u00c3\u00bcr": 4440, "\u0120verfasst": 4441, "\u0120city": 4442, "heben": 4443, "\u012090": 4444, "fl\u00c3\u00bc": 4445, "\u0120arbeitslos": 4446, "\u0120empfehlungen": 4447, "\u0120verfolgt": 4448, "\u0120sand": 4449, "\u0120er\u00c3\u00b6ffnet": 4450, "\u0120grat": 4451, "\u0120starten": 4452, "\u0120sch\u00c3\u00b6ne": 4453, "\u0120endg\u00c3\u00bcl": 4454, "v\u00c3\u00b6lkerung": 4455, "bringen": 4456, "mehr": 4457, "\u0120trifft": 4458, "\u0120j\u00c3\u00a4hr": 4459, "0000": 4460, "\u012004": 4461, "\u0120ideal": 4462, "\u0120tief": 4463, "\u0120verteilt": 4464, "ema": 4465, "\u0120beihilfen": 4466, "\u0120rom": 4467, "how": 4468, "orgung": 4469, "jekte": 4470, "\u0120startseite": 4471, "41": 4472, "ces": 4473, "page": 4474, "rien": 4475, "zy": 4476, "ichtigen": 4477, "\u0120geh": 4478, "\u0120verhalten": 4479, "\u0120dimas": 4480, "\u0120mittelmeer": 4481, "\u0120joe": 4482, "verst\u00c3\u00a4ndlich": 4483, "\u0120mw": 4484, "\u0120mitarbeiter": 4485, "spa": 4486, "\u0120masch": 4487, "\u0120sozialpolitik": 4488, "\u0120verteidigungspolitik": 4489, "\u0120kontaktieren": 4490, "\u0120hans": 4491, "\u0120erl\u00c3\u00a4u": 4492, "\u0120aufgaben": 4493, "\u0120rub": 4494, "gr\u00c3\u00bcndet": 4495, "qualit\u00c3\u00a4t": 4496, "\u0120ratspr\u00c3\u00a4sident": 4497, "ziehung": 4498, "kontro": 4499, "\u0120beitritt": 4500, "wettbewerbskommissarin": 4501, "\u0120gratul": 4502, ".-": 4503, "\u0120fuer": 4504, "\u0120diesbe": 4505, "indu": 4506, "\u0120span": 4507, "\u0120arbeitsprogramm": 4508, "zeugt": 4509, "sichtlich": 4510, "\u0120aktualis": 4511, "2013": 4512, "dnis": 4513, "pr\u00c3\u00a4": 4514, "tung": 4515, "initi": 4516, "\u0120unseres": 4517, "\u0120\u00c3\u00b6l": 4518, "\u0120schaden": 4519, "schafter": 4520, "\u0120au\u00c3\u0141enbeziehungen": 4521, "\u0120konkrete": 4522, "\u0120erlaubt": 4523, "ete": 4524, "sil": 4525, "\u0120doll": 4526, "\u0120mm": 4527, "\u0120jeweil": 4528, "ppen": 4529, "\u0120unternehmens": 4530, "\u0120erneut": 4531, "\u0120anmerkungen": 4532, "fil": 4533, "greifen": 4534, "\u0120reich": 4535, "gelt": 4536, "gef\u00c3\u00bchrt": 4537, "\u0120derzei": 4538, "\u0120cd": 4539, "\u0120wenige": 4540, "\u0120stav": 4541, "digt": 4542, "\u0120passen": 4543, "\u0120costa": 4544, "\u0120bereiche": 4545, "\u0120pr": 4546, "\u0120beschluss": 4547, "\u0120voraus": 4548, "\u0120fakten": 4549, "\u0120rats": 4550, "\u0120zusammenhang": 4551, "\u0120\u00c3\u00a4l": 4552, "\u0120angeboten": 4553, "91": 4554, "gn": 4555, "pr\u00c3\u00a4sident": 4556, "\u0120k\u00c3\u00b6rper": 4557, "tit": 4558, "\u0120st\u00c3\u00bcck": 4559, "00352": 4560, "ish": 4561, "\u0120os": 4562, "steller": 4563, "\u0120modell": 4564, "\u0120schl\u00c3\u00a4gt": 4565, "kor": 4566, "\u0120dun": 4567, "statt": 4568, "\u0120fach": 4569, "\u0120innen": 4570, "esien": 4571, "\u0120leich": 4572, "einander": 4573, "\u0120stahl": 4574, "\u012070": 4575, "\u0120bestand": 4576, "\u0120institution": 4577, "jan": 4578, "kle": 4579, "get": 4580, "\u0120auftrag": 4581, "\u0120\u00c3\u00bcberra": 4582, "\u012043": 4583, "gangs": 4584, "\u0120book": 4585, "\u0120bereichen": 4586, "ecspokes": 4587, "date": 4588, "eira": 4589, "\u0120eint": 4590, "\u0120ihres": 4591, "\u0120fair": 4592, "gehend": 4593, "\u0120dokumente": 4594, "\u0120gesch\u00c3\u00a4fts": 4595, "\u0120stock": 4596, "bereiche": 4597, "\u0120email": 4598, "\u0120bab": 4599, "\u0120pop": 4600, "\u0120herzen": 4601, "\u0120berg": 4602, "\u0120halb": 4603, "\u0120karel": 4604, "\u0120newsletter": 4605, "\u0120h\u00c3\u00a4lt": 4606, "\u0120erfahrung": 4607, "66": 4608, "\u0120sur": 4609, "\u0120vorliegen": 4610, "werte": 4611, "\u0120beschr\u00c3\u00a4n": 4612, "\u0120hast": 4613, "\u0120datum": 4614, "\u0120milch": 4615, "\u0120operationelles": 4616, "w\u00c3\u00bcrdig": 4617, "bedingungen": 4618, "ock": 4619, "\u0120samm": 4620, "\u0120menge": 4621, "\u0120vergangen": 4622, "\u0120angebote": 4623, "\u0120manchmal": 4624, "viel": 4625, "\u0120il": 4626, "\u0120ix": 4627, "umwelt": 4628, "iko": 4629, "nummer": 4630, "\u0120er\u00c3\u00b6ffnung": 4631, "bie": 4632, "l\u00c3\u00bcck": 4633, "\u0120heil": 4634, "sch\u00c3\u00a4t": 4635, "istisch": 4636, "\u0120ausreichen": 4637, "\u0120vorlage": 4638, "rimin": 4639, "schaffen": 4640, "\u0120bestimmte": 4641, "\u0120dv": 4642, "ssern": 4643, "icherheit": 4644, "\u01201000": 4645, "dient": 4646, "\u0120angelegenheit": 4647, "antie": 4648, "\u0120internationalen": 4649, "\u0120herausforderungen": 4650, "\u0120foto": 4651, "\u0120kapital": 4652, "\u0120stellungnahme": 4653, "ew": 4654, "itel": 4655, "\u0120bos": 4656, "\u0120kris": 4657, "\u0120prinzip": 4658, "\u0120zustimmen": 4659, "\u0120schauen": 4660, "liefer": 4661, "f\u00c3\u00bcgen": 4662, "\u0120roman": 4663, "\u0120leisten": 4664, "\u0120fehlt": 4665, "\u0120dienstleistungen": 4666, "balgs": 4667, "\u0120schengen": 4668, "43": 4669, "stie": 4670, "\u0120pc": 4671, "\u0120anteil": 4672, "\u0120tr\u00c3\u00a4gt": 4673, "leb": 4674, "\u0120konzept": 4675, "\u0120mail": 4676, "\u0120grundlegen": 4677, "\u0120vollkommen": 4678, "\u0120klare": 4679, "\u0120serviert": 4680, "\u0120delegation": 4681, "\u0120piebalgs": 4682, "ira": 4683, "nern": 4684, "\u00c3\u00bcter": 4685, "atoren": 4686, "ume": 4687, "\u0120mitt": 4688, "\u0120cci": 4689, "bed": 4690, "\u0120konk": 4691, "\u0120besitz": 4692, "\u0120spieler": 4693, "\u0120selbstverst\u00c3\u00a4ndlich": 4694, "\u0120technolog": 4695, "unternehmen": 4696, "\u0120aspekt": 4697, "\u0120restrik": 4698, "\u0120behandelt": 4699, "\u0120philippe": 4700, "fisch": 4701, "\u0120mand": 4702, "dete": 4703, "\u0120bezug": 4704, "\u0120bern": 4705, "uld": 4706, "altungen": 4707, "\u0120norwegen": 4708, "\u0120entspricht": 4709, "schl\u00c3\u00bcssel": 4710, "\u0120vergleich": 4711, "\u0120richtigen": 4712, "\u0120botschaft": 4713, "\u0120costas": 4714, "\u0120stellvertretender": 4715, "l\u00c3\u00b6s": 4716, "gef\u00c3\u00bc": 4717, "\u00c3\u00bctzen": 4718, "\u0120gewinnen": 4719, "\u0120sozialen": 4720, "\u0120hause": 4721, "\u0120pressekontakte": 4722, "\u0120kredit": 4723, "\u0120vizepr\u00c3\u00a4sidentin": 4724, "\u0120kopf": 4725, "fuhren": 4726, "\u0120elektron": 4727, "\u0120\u00c3\u00b6ffnen": 4728, "sammlung": 4729, "83": 4730, "annen": 4731, "\u0120partei": 4732, "\u0120zweifel": 4733, "\u0120verbindung": 4734, "\u0120malm": 4735, "\u0120verkehrs": 4736, "\u0120h\u00c3\u00b6he": 4737, "\u0120vorhaben": 4738, "\u0120belieb": 4739, "\u0120\u00c3\u00bcberall": 4740, "\u0120open": 4741, "\u0120minde": 4742, "fische": 4743, "\u00c3\u00a4te": 4744, "\u0120verab": 4745, "bezogen": 4746, "\u0120waffen": 4747, "retari": 4748, "\u0120urs": 4749, "\u0120beratung": 4750, "aid": 4751, "gas": 4752, "wald": 4753, "ane": 4754, "\u0120kauf": 4755, "\u0120loh": 4756, "\u0120zucker": 4757, "\u0120konst": 4758, "ado": 4759, "zenz": 4760, "\u0120reformen": 4761, "\u0120tabelle": 4762, "\u0120ersucht": 4763, "\u0120erheb": 4764, "\u0120security": 4765, "\u0120arbeitet": 4766, "\u0120barcelona": 4767, "gung": 4768, "ghan": 4769, "zo": 4770, "\u0120unterst\u00c3\u00bctze": 4771, "\u0120irgend": 4772, "\u0120zahlungs": 4773, "rechts": 4774, "\u0120fenster": 4775, "industrie": 4776, "\u0120).": 4777, "\u0120sn": 4778, "tert": 4779, "wser": 4780, "bilit\u00c3\u00a4t": 4781, "\u0120protokolls": 4782, "\u0120orig": 4783, "f\u00c3\u00a4l": 4784, "hlt": 4785, "pla": 4786, "\u0120krank": 4787, "igar": 4788, "nete": 4789, "\u0120verfahrens": 4790, "\u0120felder": 4791, "mlich": 4792, "onik": 4793, "\u0120licht": 4794, "\u0120gef\u00c3\u00bchrt": 4795, "\u0120que": 4796, "\u0120passwort": 4797, "\u0120gleichen": 4798, "\u0120legisla": 4799, "\u0120malmstr\u00c3\u00b6m": 4800, "fun": 4801, "preise": 4802, "vill": 4803, "\u0120stein": 4804, "\u0120sicherlich": 4805, "izei": 4806, "\u0120life": 4807, "konom": 4808, "\u0120adr": 4809, "\u0120gr\u00c3\u00b6\u00c3\u0141er": 4810, "\u0120sinne": 4811, "\u0120dimension": 4812, "falt": 4813, "\u012001": 4814, "asmus": 4815, "sidi": 4816, "\u0120german": 4817, "\u0120besch\u00c3\u00a4ftig": 4818, "\u0120mwst": 4819, "ader": 4820, "anten": 4821, "\u00c3\u00a4st": 4822, "\u0120inf": 4823, "\u0120zentrale": 4824, "\u0120risiko": 4825, "oslaw": 4826, "\u0120ret": 4827, "\u0120hohen": 4828, "\u0120300": 4829, "\u0120lou": 4830, "\u0120afghan": 4831, "haushalt": 4832, "\u0120f\u00c3\u00a4llen": 4833, "iar": 4834, "\u0120$": 4835, "urt": 4836, "\u00c3\u00a4nglich": 4837, "\u0120\u00c3\u00bcbereinkommen": 4838, "\u012036": 4839, "\u0120manuel": 4840, "\u0120mitgliedstaat": 4841, "\u0120begrenz": 4842, "undert": 4843, "urop\u00c3\u00a4": 4844, "\u0120anton": 4845, "\u0120ferner": 4846, "\u0120erscheint": 4847, "\u0120dauert": 4848, "\u0120kompromiss": 4849, "\u0120mittler": 4850, "\u0120mat": 4851, "onien": 4852, "\u0120gott": 4853, "\u0120bestellen": 4854, "\u0120vorbei": 4855, "agne": 4856, "\u0120konfl": 4857, "\u0120chan": 4858, "\u0120durchf\u00c3\u00bchrung": 4859, "herr": 4860, "\u0120tabak": 4861, "\u0120volk": 4862, "\u0120pers\u00c3\u00b6nlich": 4863, "\u0120fischler": 4864, "\u0120geeignet": 4865, "\u0120costasur": 4866, "vent": 4867, "ques": 4868, "ziele": 4869, "vidu": 4870, "\u0120malta": 4871, "alismus": 4872, "\u0120nationalen": 4873, "\u0120schlu\u00c3\u0141folgerung": 4874, "\u0120bezahlen": 4875, "\u0120immobil": 4876, "\u0120individu": 4877, "\u0120brei": 4878, "\u0120but": 4879, "\u0120bade": 4880, "fast": 4881, "\u012037": 4882, "folge": 4883, "\u0120dasselbe": 4884, "\u0120tradition": 4885, "\u01202020": 4886, "zeichen": 4887, "ension": 4888, "\u0120london": 4889, "artement": 4890, "nien": 4891, "\u0120hierf\u00c3\u00bcr": 4892, "\u00c3\u00b6rt": 4893, "leitet": 4894, "\u0120reisen": 4895, "\u0120gesamten": 4896, "nach": 4897, "\u0120verpa": 4898, "barkeit": 4899, "\u0120daraus": 4900, "\u0120welcher": 4901, "ritten": 4902, "ards": 4903, "\u0120free": 4904, "2002": 4905, "\u0120linux": 4906, "\u0120erfolgen": 4907, "\u00c3\u00b6hn": 4908, "\u0120verst\u00c3\u00a4n": 4909, "ckung": 4910, "tage": 4911, "\u0120deutsch": 4912, "fl\u00c3\u00a4che": 4913, "\u0120linie": 4914, "ktoren": 4915, "\u0120php": 4916, "\u0120media": 4917, "twortet": 4918, "retariat": 4919, "\u0120origin": 4920, "\u0120mos": 4921, "tein": 4922, "\u0120gegr\u00c3\u00bcndet": 4923, "ilia": 4924, "ktes": 4925, "\u0120genommen": 4926, "\u0120zahlreiche": 4927, "\u0120serbien": 4928, "kommission": 4929, "\u0120\u00c3\u00a4g": 4930, "\u0120ehem": 4931, "\u0120anerken": 4932, "bra": 4933, "w\u00c3\u00bcn": 4934, "\u0120ah": 4935, "\u0120well": 4936, "\u0120eher": 4937, "\u0120n\u00c3\u00a4m": 4938, "uche": 4939, "\u0120fordern": 4940, "\u0120bitten": 4941, "\u0120entwickelt": 4942, "\u0120zusammensetzung": 4943, "code": 4944, "peten": 4945, "\u0120st\u00c3\u00a4rkung": 4946, "\u0120n\u00c3\u00a4mlich": 4947, "\u0120iden": 4948, "\u0120nic": 4949, "\u0120erstellen": 4950, "rot": 4951, "\u012033": 4952, "klusi": 4953, "\u0120k\u00c3\u00bcche": 4954, "\u00c3\u00bcsse": 4955, "arch": 4956, "\u0120ann": 4957, "\u0120bekomm": 4958, "issionen": 4959, "\u0120grand": 4960, "\u0120anderer": 4961, "vorschlag": 4962, "\u0120deutsche": 4963, "\u0120exter": 4964, "\u0120verf\u00c3\u00bcgen": 4965, "\u0120jederzeit": 4966, "\u0120franch": 4967, "\u0120diesbez\u00c3\u00bcglich": 4968, "zeiten": 4969, "\u0120wol": 4970, "\u0120inak": 4971, "\u0120stol": 4972, "\u0120ce": 4973, "\u0120angegeben": 4974, "baren": 4975, "vors": 4976, "\u0120langsam": 4977, "\u0120versand": 4978, "\u0120w\u00c3\u00a4hrungs": 4979, "\u0120uner": 4980, "\u0120beach": 4981, "ato": 4982, "\u0120mitte": 4983, "ffet": 4984, "\u0120475": 4985, "\u0120gesetzt": 4986, "\u0120basis": 4987, "\u0120migration": 4988, "alyse": 4989, "website": 4990, "bu": 4991, "jo": 4992, "\u0120sage": 4993, "\u0120ep": 4994, "\u0120paten": 4995, "\u0120j\u00c3\u00bcn": 4996, "\u0120vorauss": 4997, "\u0120exper": 4998, "\u0120terra": 4999, "leistet": 5000, "\u0120285": 5001, "\u0120symb": 5002, "\u0120kritik": 5003, "\u0120homepage": 5004, "\u0120leitlinien": 5005, "\u0120mindestens": 5006, "\u0120wege": 5007, "\u0120zeitraum": 5008, "\u0120gebrauch": 5009, "\u0120verloren": 5010, "\u0120drittens": 5011, "\u0120l\u00c3\u00b6sen": 5012, "\u0120komplex": 5013, "\u0120location": 5014, "\u0120plen": 5015, "\u0120einf\u00c3\u00bchrung": 5016, "\u0120tv": 5017, "\u0120tom": 5018, "\u0120beru": 5019, "osen": 5020, "\u012007": 5021, "\u0120solchen": 5022, "\u0120ansprechen": 5023, "\u0120h\u00c3\u00a4tten": 5024, "\u0120stavros": 5025, "sel": 5026, "enze": 5027, "\u0120sank": 5028, "\u0120bedenken": 5029, "\u0120ton": 5030, "schl\u00c3\u00a4ge": 5031, "\u0120nachstehen": 5032, "\u0120men\u00c3\u00bc": 5033, "\u0120pool": 5034, "\u0120f\u00c3\u00b6rdern": 5035, "fizit": 5036, "\u0120priorit\u00c3\u00a4tsachse": 5037, "\u0120franchise": 5038, "\u0120bol": 5039, "schi": 5040, "\u0120zwar": 5041, "\u0120europ\u00c3\u00a4er": 5042, "\u0120umfang": 5043, "schlu\u00c3\u0141": 5044, "\u0120beihilfe": 5045, "62": 5046, "ktiv": 5047, "sent": 5048, "\u0120erasmus": 5049, "\u0120\u00c3\u00bcberblick": 5050, "\u0120%)": 5051, "\u01201996": 5052, "\u0120hafen": 5053, "book": 5054, "\u0120muse": 5055, "m\u00c3\u00b6glichkeiten": 5056, "\u0120abschlie\u00c3\u0141end": 5057, "dy": 5058, "ition": 5059, "\u0120b\u00c3\u00bc": 5060, "ants": 5061, "\u0120has": 5062, "\u0120pet": 5063, "vertrag": 5064, "sequ": 5065, "ziell": 5066, "\u0120meter": 5067, "\u0120vollst\u00c3\u00a4ndig": 5068, "\u0120globale": 5069, "f\u00c3\u00b6rderung": 5070, "\u0120dring": 5071, "\u0120inzwischen": 5072, "\u0120ga": 5073, "deut": 5074, "\u0120jug": 5075, "\u0120cm": 5076, "eugen": 5077, "\u0120absatz": 5078, "\u0120spiele": 5079, "\u012055": 5080, "\u0120reding": 5081, "\u0120baum": 5082, "\u0120milit\u00c3\u00a4r": 5083, "ime": 5084, "pel": 5085, "ena": 5086, "\u0120ve": 5087, "ese": 5088, "\u0120tonnen": 5089, "\u0120schei": 5090, "annten": 5091, "weite": 5092, "heet": 5093, "\u0120genannt": 5094, "\u0120andor": 5095, "\u0120benutzt": 5096, "\u0120h\u00c3\u00a4ngt": 5097, "\u0120n\u00c3\u00b6tig": 5098, "eff": 5099, "\u0120fein": 5100, "\u00c3\u00a4chen": 5101, "\u0120gekommen": 5102, "\u0120voran": 5103, "\u0120minute": 5104, "\u0120barnier": 5105, "\u0120gesundheits": 5106, "\u0120generaldire": 5107, "bett": 5108, "ient": 5109, "\u0120arbeitnehmer": 5110, "\u0120gro\u00c3\u0141es": 5111, "\u0120trag": 5112, "\u0120besucher": 5113, "\u0120ver\u00c3\u00a4ndert": 5114, "\u0120ehemal": 5115, "72": 5116, "\u0120ara": 5117, "antoine": 5118, "\u0120einleitung": 5119, "r\u00c3\u00a4ger": 5120, "izin": 5121, "\u0120kurs": 5122, "\u01201995": 5123, "\u0120wahlen": 5124, "karten": 5125, "\u0120appartement": 5126, "\u0120k\u00c3\u00bcrze": 5127, "ecspokesantoine": 5128, "ev": 5129, "zn": 5130, "\u0120sex": 5131, "gebiete": 5132, "\u0120ausw\u00c3\u00a4rtigen": 5133, "\u0120geb\u00c3\u00a4ude": 5134, "\u0120gr\u00c3\u00b6\u00c3\u0141e": 5135, "tischer": 5136, "\u0120ideen": 5137, "hafter": 5138, "dungs": 5139, "wo": 5140, "wahl": 5141, "\u0120ech": 5142, "\u0120hon": 5143, "\u0120gef\u00c3\u00bc": 5144, "\u0120forder": 5145, "\u0120modern": 5146, "zeption": 5147, "\u0120f\u00c3\u00a4lle": 5148, "\u0120break": 5149, "\u0120vorbehalten": 5150, "ios": 5151, "ude": 5152, "zig": 5153, "\u0120beh\u00c3\u00b6r": 5154, "\u0120zuerst": 5155, "\u0120weiteres": 5156, "inger": 5157, "oto": 5158, "st\u00c3\u00a4nde": 5159, "\u0120jemand": 5160, "545": 5161, "ziert": 5162, "inve": 5163, "itor": 5164, "\u0120tr": 5165, "\u0120europol": 5166, "\u0120unternehmer": 5167, "\u0120konver": 5168, "\u0120enor": 5169, "kl\u00c3\u00a4rungen": 5170, "problem": 5171, "\u0120begr\u00c3\u00bc\u00c3\u0141t": 5172, "sicherheit": 5173, "\u0120afghanistan": 5174, "\u0120bla": 5175, "\u0120beweg": 5176, "\u0120stren": 5177, "\u0120prozent": 5178, "\u0120konzent": 5179, "\u0120landes": 5180, "\u0120verbunden": 5181, "\u0120worum": 5182, "\u0120kurzbeschreibung": 5183, "\u0120treten": 5184, "version": 5185, "\u0120pr\u00c3\u00bcfung": 5186, "focus": 5187, "\u0120amerikan": 5188, "\u0120schlaf": 5189, "ption": 5190, "\u0120fu": 5191, "\u0120zusatz": 5192, "\u0120erhol": 5193, "\u0120kontin": 5194, "\u0120tem": 5195, "\u0120bedau": 5196, "\u0120garten": 5197, "\u0120transport": 5198, "\u0120gespr\u00c3\u00a4": 5199, "\u0120geplant": 5200, "koh": 5201, "ther": 5202, "\u0120bat": 5203, "\u0120via": 5204, "\u0120hy": 5205, "\u0120bestimmt": 5206, "spr": 5207, "\u0120legen": 5208, "\u0120falls": 5209, "management": 5210, "\u0120elemente": 5211, "\u0120termin": 5212, "\u0120ferr": 5213, "\u0120vorgelegt": 5214, "\u0120zollunion": 5215, "\u0120strateg": 5216, "iven": 5217, "\u0120taten": 5218, "igation": 5219, "r\u00c3\u00a4gen": 5220, "edien": 5221, "\u0120teilnahme": 5222, "langt": 5223, "\u0120poten": 5224, "\u0120freunde": 5225, "\u0120einfache": 5226, "\u0120mindest": 5227, "\u0120bud": 5228, "\u0120positive": 5229, "\u0120update": 5230, "\u0120profitieren": 5231, "\u0120securityfocus": 5232, "\u0120jugoslaw": 5233, "engl": 5234, "\u0120w\u00c3\u00a4ren": 5235, "\u0120folge": 5236, "pl\u00c3\u00a4tze": 5237, "\u0120verwendung": 5238, "\u0120beteiligung": 5239, "\u0120facts": 5240, "\u0120angst": 5241, "oul": 5242, "\u0120#": 5243, "\u0120pina": 5244, "llo": 5245, "\u0120verh\u00c3\u00a4lt": 5246, "\u0120sp\u00c3\u00a4t": 5247, "rufe": 5248, "\u0120ther": 5249, "\u0120nied": 5250, "\u0120grunds\u00c3\u00a4t": 5251, "\u0120langfrist": 5252, "h\u00c3\u00b6ren": 5253, "achtung": 5254, "\u0120ern\u00c3\u00a4hrung": 5255, "rechung": 5256, "\u0120casino": 5257, "\u0120fr\u00c3\u00bchere": 5258, "\u0120erf\u00c3\u00bcllt": 5259, "\u0120\u00c3\u00a4gyp": 5260, "erweise": 5261, "\u0120band": 5262, "\u0120hig": 5263, "achsen": 5264, "\u0120akp": 5265, "\u0120gleichzeitig": 5266, "auftrag": 5267, "m\u00c3\u00a4rkte": 5268, "gut": 5269, "zte": 5270, "\u0120\u00c3\u00a4r": 5271, "onn": 5272, "tic": 5273, "ral": 5274, "quem": 5275, "lose": 5276, "\u0120debian": 5277, "\u0120restriktive": 5278, "%)": 5279, "\u0120infl": 5280, "\u0120gap": 5281, "\u0120vorrang": 5282, "\u0120alten": 5283, "\u0120damals": 5284, "\u0120stimmer": 5285, "\u0120ziffer": 5286, "\u0120ausgestattet": 5287, "\u0120dritten": 5288, "\u0120arbeitspl\u00c3\u00a4tze": 5289, "\u0120potonik": 5290, "ewg": 5291, "71": 5292, "vin": 5293, "\u0120supp": 5294, "\u0120f\u00c3\u00a4h": 5295, "\u0120kabel": 5296, "\u0120einzu": 5297, "indungen": 5298, "\u0120frem": 5299, "\u0120polizei": 5300, "\u0120institutionen": 5301, "dienstleistungen": 5302, "\u0120inakzeptabel": 5303, "ssion": 5304, "\u0120klage": 5305, "\u0120pok": 5306, "ragen": 5307, "\u0120gebe": 5308, "\u0120zustimmung": 5309, "spra": 5310, "\u0120regul": 5311, "\u0120sonst": 5312, "\u0120selten": 5313, "\u0120staatsminister": 5314, "\u0120\u0120\u0120\u0120": 5315, "\u0120farbe": 5316, "\u0120brasil": 5317, "\u0120eisenbahn": 5318, "icher": 5319, "\u0120kr": 5320, "olution": 5321, "riff": 5322, "\u0120stets": 5323, "\u012008": 5324, "\u0120shop": 5325, "\u0120verbessert": 5326, "mode": 5327, "\u0120koordinierung": 5328, "\u0120dr": 5329, "\u0120ps": 5330, "iser": 5331, "ftung": 5332, "\u0120hierbei": 5333, "\u0120stattfinden": 5334, "\u0120jahrh": 5335, "\u0120code": 5336, "statten": 5337, "\u0120\u00c3\u00bcberpr\u00c3\u00bcft": 5338, "\u0120krisen": 5339, "76": 5340, "dan": 5341, "ls": 5342, "\u0120gepr\u00c3\u00bc": 5343, "\u0120\u00c3\u00bcberwachung": 5344, "\u0120ausgang": 5345, "\u0120entschieden": 5346, "hagen": 5347, "\u0120world": 5348, "\u0120goog": 5349, "\u0120investitionsbank": 5350, "sst": 5351, "\u0120prodi": 5352, "\u0120unterkunft": 5353, "\u0120angemessen": 5354, "\u0120gew\u00c3\u00bcn": 5355, "iness": 5356, "\u0120festgelegt": 5357, "\u0120verbessern": 5358, "\u0120grenz\u00c3\u00bcber": 5359, "entwicklung": 5360, "scheinlich": 5361, "\u0120herunterladen": 5362, "\u0120statistiken": 5363, "\u0120fonds": 5364, "rt": 5365, "\u0120bru": 5366, "regeln": 5367, "entschei": 5368, "\u0120konsequ": 5369, "\u0120nice": 5370, "\u0120wichtiges": 5371, "\u0120vereinfachung": 5372, "\u0120chancen": 5373, "eur": 5374, "ikt": 5375, "kap": 5376, "swert": 5377, "t\u00c3\u00a4u": 5378, "tensi": 5379, "\u0120aufbau": 5380, "amt": 5381, "grenzen": 5382, "\u0120minder": 5383, "\u0120beginn": 5384, "\u0120b\u00c3\u00bcro": 5385, "\u0120begr\u00c3\u00bc\u00c3\u0141": 5386, "\u0120verbraucherschutz": 5387, "\u0120seien": 5388, "\u0120beantworten": 5389, "\u0120holz": 5390, "sph\u00c3\u00a4re": 5391, "fikation": 5392, "nungs": 5393, "pft": 5394, "\u0120wandel": 5395, "\u0120verwir": 5396, "\u0120were": 5397, "\u0120dessen": 5398, "\u0120fallen": 5399, "\u0120\u00c3\u00bcberpr\u00c3\u00bcfung": 5400, "\u0120bewusst": 5401, "\u0120automatisch": 5402, "\u0120factsheet": 5403, "f\u00c3\u00a4hr": 5404, "uz": 5405, "\u0120wichtigen": 5406, "\u0120var": 5407, "\u0120verring": 5408, "\u0120nochmals": 5409, "ype": 5410, "\u0120anspruch": 5411, "\u0120bosnien": 5412, "will": 5413, "\u0120site": 5414, "\u0120bev\u00c3\u00b6lkerung": 5415, "\u0120abzu": 5416, "\u0120abfall": 5417, "ehrte": 5418, "othe": 5419, "utzt": 5420, "\u0120your": 5421, "\u0120aktionen": 5422, "\u0120initiativen": 5423, "\u0120n\u00c3\u00a4heres": 5424, "\u0120multi": 5425, "ften": 5426, "ice": 5427, "kauf": 5428, "vie": 5429, "ehme": 5430, "richtungen": 5431, "agentur": 5432, "weisung": 5433, "\u0120behandlung": 5434, "mod": 5435, "\u0120ul": 5436, "inst": 5437, "\u0120ereig": 5438, "\u0120weiterer": 5439, "\u0120wegen": 5440, "stellvertreter": 5441, "\u012003": 5442, "herine": 5443, "\u0120nahen": 5444, "\u0120asien": 5445, "\u0120m\u00c3\u00a4rkte": 5446, "\u0120bestimmungen": 5447, "\u0120browser": 5448, "\u0120behandeln": 5449, "\u0120erzielt": 5450, "seh": 5451, "sfonds": 5452, "\u0120lauf": 5453, "amerik": 5454, "\u0120gen\u00c3\u00bc": 5455, "\u0120zweif": 5456, "\u0120gewinner": 5457, "\u0120mex": 5458, "\u0120train": 5459, "\u0120boot": 5460, "\u0120haut": 5461, "\u0120dienstag": 5462, "\u0120vorsitzen": 5463, "\u0120sekunden": 5464, "ep": 5465, "imal": 5466, "anlage": 5467, "\u0120pin": 5468, "\u0120ind": 5469, "mme": 5470, "\u0120sparen": 5471, "ickt": 5472, "lleg": 5473, "\u0120tisch": 5474, "\u0120heim": 5475, "\u0120meeres": 5476, "porte": 5477, "\u0120georgie": 5478, "\u0120aufenthalt": 5479, "investi": 5480, "nr": 5481, "\u0120schrei": 5482, "\u0120soweit": 5483, "\u0120jac": 5484, "\u0120richtlinien": 5485, "\u0120stimmerkl\u00c3\u00a4rungen": 5486, "\u0120google": 5487, "erzeugnisse": 5488, "\u0120wien": 5489, "\u0120vari": 5490, "\u0120por": 5491, "\u0120bequem": 5492, "\u0120tal": 5493, "lehen": 5494, "\u0120alte": 5495, "\u0120nachricht": 5496, "\u0120freie": 5497, "flug": 5498, "box": 5499, "\u0120janez": 5500, "\u0120farben": 5501, "\u0120catherine": 5502, "\u0120copy": 5503, "\u0120clean": 5504, "\u0120stolz": 5505, "\u0120bren": 5506, "\u00c3\u0141burg": 5507, "anda": 5508, "...?": 5509, "\u012048": 5510, "\u0120ziemlich": 5511, "\u0120harmon": 5512, "\u0120untersuchung": 5513, "54530": 5514, "ball": 5515, "no": 5516, "arten": 5517, "\u00c3\u00b6h": 5518, "wegs": 5519, "erefer": 5520, "\u0120umweltschutz": 5521, "\u0120gr\u00c3\u00bcnbuch": 5522, "\u0120stellvertreterin": 5523, "presse": 5524, "frika": 5525, "km": 5526, "\u0120echte": 5527, "\u0120net": 5528, "\u0120pad": 5529, "esc": 5530, "\u0120sch\u00c3\u00a4": 5531, "igte": 5532, "spartner": 5533, "wechs": 5534, "\u0120grundlage": 5535, "\u0120traum": 5536, "\u0120vollst\u00c3\u00a4ndige": 5537, "\u0120politisch": 5538, "\u0120offensichtlich": 5539, "\u0120schlu\u00c3\u0141folgerungen": 5540, "\u0120modernis": 5541, "cd": 5542, "lig": 5543, "\u0120ord": 5544, "\u0120illeg": 5545, "\u0120erinner": 5546, "ament": 5547, "\u0120lebt": 5548, "ski": 5549, "\u0120gr\u00c3\u00b6\u00c3\u0141ten": 5550, "freiheit": 5551, "\u0120bef\u00c3\u00bcrwor": 5552, "\u0120georgieva": 5553, "dis": 5554, "tell": 5555, "schrift": 5556, "schr\u00c3\u00a4n": 5557, "eits": 5558, "anner": 5559, "\u0120auszu": 5560, "\u0120zeitplan": 5561, "\u0120durchaus": 5562, "\u0120keines": 5563, "\u0120datenbank": 5564, "fordert": 5565, "\u0120fl\u00c3\u00bccht": 5566, "79": 5567, "ace": 5568, "mt": 5569, "gegeben": 5570, "\u0120haltung": 5571, "\u0120einver": 5572, "\u0120zuvor": 5573, "\u0120rie": 5574, "verordnung": 5575, "\u0120entt\u00c3\u00a4u": 5576, "\u0120gran": 5577, "\u00c3\u00a4mpfen": 5578, "\u0120verl\u00c3\u00a4nger": 5579, "\u0120kapitel": 5580, "\u0120motor": 5581, "vier": 5582, "\u0120organ": 5583, "instrum": 5584, "\u0120borg": 5585, "\u0120zeiten": 5586, "\u0120bez": 5587, "\u0120jur": 5588, "r\u00c3\u00a4ume": 5589, "\u0120deutschen": 5590, "\u0120flash": 5591, "f\u00c3\u00bchrer": 5592, "\u0120n\u00c3\u00a4chster": 5593, "\u0120entscheidungen": 5594, "\u0120fehlen": 5595, "\u0120kulture": 5596, "ileo": 5597, "right": 5598, "\u0120verfolgen": 5599, "63": 5600, "kur": 5601, "\u0120kol": 5602, "\u0120ped": 5603, "\u0120denen": 5604, "lastung": 5605, "\u0120mak": 5606, "\u0120150": 5607, "\u0120studie": 5608, "z\u00c3\u00bcg": 5609, "\u0120erfordert": 5610, "\u0120business": 5611, "\u0120wesentlichen": 5612, "\u0120tiere": 5613, "\u0120digitalen": 5614, "\u0120albanien": 5615, "\u0120eingerichtet": 5616, "ras": 5617, "\u0120geschen": 5618, "\u0120anna": 5619, "\u0120redu": 5620, "anne": 5621, "\u0120rh": 5622, "vern": 5623, "\u0120frien": 5624, "\u0120geschrieben": 5625, "\u0120straf": 5626, "\u0120lizenz": 5627, "troffen": 5628, "\u0120breakfast": 5629, "59": 5630, "krise": 5631, "pol": 5632, "\u0120fab": 5633, "itze": 5634, "\u0120erzeugnisse": 5635, "\u0120schre": 5636, "\u0120emission": 5637, "\u0120praktische": 5638, "\u0120vereinbarung": 5639, "\u0120vern\u00c3\u00bcnf": 5640, "\u0120papier": 5641, "\u0120flexibilit\u00c3\u00a4t": 5642, "\u0120hoffnung": 5643, "\u0120verabschie": 5644, "bro": 5645, "sc": 5646, "\u0120bist": 5647, "\u0120verdient": 5648, "\u0120sch\u00c3\u00bctzen": 5649, "\u0120ci": 5650, "\u0120umgesetzt": 5651, "\u0120entwurf": 5652, "\u0120radio": 5653, "olitische": 5654, "\u0120foren": 5655, "utzung": 5656, "\u0120worten": 5657, "\u0120interessen": 5658, "\u0120medizin": 5659, "\u0120spezielle": 5660, "\u0120gelegenheit": 5661, "\u0120anerkennung": 5662, "\u0120sanktionen": 5663, "bi": 5664, "br\u00c3\u00bc": 5665, "gub": 5666, "hung": 5667, "\u0120sing": 5668, "stern": 5669, "\u0120ven": 5670, "\u0120k\u00c3\u00bcnst": 5671, "\u0120rezeption": 5672, "r\u00c3\u00a4fte": 5673, "\u0120nachrichten": 5674, "gere": 5675, "gerung": 5676, "zeg": 5677, "\u0120extra": 5678, "\u0120monaten": 5679, "\u0120gef\u00c3\u00b6r": 5680, "\u0120international": 5681, "\u0120textil": 5682, "spunkt": 5683, "\u0120bemer": 5684, "\u00c3\u00bcbereinkommen": 5685, "\u0120weder": 5686, "\u0120grunde": 5687, "\u0120mehrwert": 5688, "\u0120dient": 5689, "\u0120durchgef\u00c3\u00bchrt": 5690, "\u0120norm": 5691, "\u0120weshalb": 5692, "\u0120gold": 5693, "\u0120kompliz": 5694, "\u0120schlecht": 5695, "ates": 5696, "ea": 5697, "\u0120einigung": 5698, "\u0120ausnahme": 5699, "\u0120amtieren": 5700, "\u0120mehrheit": 5701, "\u0120fordert": 5702, "2009": 5703, "\u0120formular": 5704, "\u0120schlie\u00c3\u0141en": 5705, "\u0120fortschritt": 5706, "\u0120demokratische": 5707, "\u0120gerecht": 5708, "\u0120galileo": 5709, "\u0120extrem": 5710, "\u0120\u00c3\u00bc": 5711, "\u0120dol": 5712, "\u0120zerst": 5713, "\u0120\u00c3\u00bcbernahme": 5714, "\u0120umgebung": 5715, "okko": 5716, "prozess": 5717, "\u01201994": 5718, "\u0120beitr\u00c3\u00a4ge": 5719, "\u0120verlieren": 5720, "wohner": 5721, "\u0120kollege": 5722, "ausschusses": 5723, "\u0120regionalpolitik": 5724, "\u0120alternative": 5725, "\u0120anpassung": 5726, "stieg": 5727, "edienst": 5728, "park": 5729, "\u0120schule": 5730, "\u0120profe": 5731, "\u0120hinweise": 5732, "\u0120mehreren": 5733, "\u0120niemals": 5734, "\u0120solch": 5735, "\u0120subsidi": 5736, "\u0120besch\u00c3\u00a4ftigungs": 5737, "\u0120brasilien": 5738, "\u0120dyn": 5739, "\u0120mic": 5740, "\u0120fla": 5741, "ike": 5742, "\u0120hilft": 5743, "\u0120relativ": 5744, "\u0120instrumente": 5745, "\u0120chinas": 5746, "\u0120kolleg": 5747, "kop": 5748, "zone": 5749, "\u0120derartige": 5750, "\u0120inhalte": 5751, "ley": 5752, "\u0120diam": 5753, "\u0120f\u00c3\u00bcllen": 5754, "\u0120ehrgei": 5755, "lehnt": 5756, "\u0120dringlichkeit": 5757, "englisch": 5758, "br": 5759, "kat": 5760, "n\u00c3\u00bc": 5761, "ergie": 5762, "\u0120dach": 5763, "\u0120zust\u00c3\u00a4ndig": 5764, "\u0120verzeich": 5765, "sterdam": 5766, "posi": 5767, "\u0120private": 5768, "\u0120hilf": 5769, "produkte": 5770, "\u0120horiz": 5771, "%.": 5772, "bab": 5773, "seiten": 5774, "\u0120deinen": 5775, "\u0120verfassung": 5776, "\u0120job": 5777, "\u0120zweiter": 5778, "rief": 5779, "\u0120heutige": 5780, "\u0120plus": 5781, "\u0120national": 5782, "\u0120risiken": 5783, "\u0120welchem": 5784, "\u0120schiffe": 5785, "\u0120wiederaufnahme": 5786, "\u0120abstimmungs": 5787, "\u0120konzentr": 5788, "69": 5789, "ql": 5790, "ves": 5791, "anw": 5792, "schau": 5793, "\u0120pil": 5794, "\u0120autor": 5795, "\u0120lt": 5796, "2003": 5797, "f\u00c3\u00bchrungs": 5798, "\u0120staatliche": 5799, "licherweise": 5800, "gewiesen": 5801, "\u0120dienste": 5802, "\u0120shar": 5803, "\u0120schwerpunkte": 5804, "schreiten": 5805, "78": 5806, "\u0120kg": 5807, "schw": 5808, "\u0120anliegen": 5809, "ohlen": 5810, "fragt": 5811, "\u0120heutigen": 5812, "gesetz": 5813, "\u0120add": 5814, "\u0120m\u00c3\u00a4nner": 5815, "\u0120sir": 5816, "\u0120han": 5817, "\u0120put": 5818, "\u0120verd": 5819, "\u0120verur": 5820, "berto": 5821, "\u0120sowohl": 5822, "\u0120todes": 5823, "\u0120\u00c3\u00b6ffentlicher": 5824, "\u0120kompeten": 5825, "\u0120begonnen": 5826, "\u0120tick": 5827, "\u0120syrien": 5828, "tagung": 5829, "\u00c3\u00bchungen": 5830, "\u0120pflicht": 5831, "\u0120verwaltungsbeh\u00c3\u00b6rde": 5832, "\u0120g\u00c3\u00bcltig": 5833, "\u0120\u00c3\u00a4gypten": 5834, "664": 5835, "zungen": 5836, "eichen": 5837, "\u0120z\u00c3\u00a4hlt": 5838, "\u0120einig": 5839, "genz": 5840, "\u0120schm": 5841, "\u0120refer": 5842, "\u0120reaktion": 5843, "\u0120abschluss": 5844, "\u00c3\u00a4tzen": 5845, "\u0120manche": 5846, "\u0120gratis": 5847, "\u0120rechtsvorschriften": 5848, "\u0120ski": 5849, "\u0120diskrimin": 5850, "programme": 5851, "\u0120nummer": 5852, "\u0120abgeordneten": 5853, "\u0120georgien": 5854, "stattung": 5855, "\u0120louis": 5856, "\u0120copyright": 5857, "100": 5858, "hop": 5859, "\u0120sorg": 5860, "\u0120mutter": 5861, "\u0120gestatten": 5862, "grenz": 5863, "\u0120hof": 5864, "\u0120amsterdam": 5865, "\u012044": 5866, "\u0120leiden": 5867, "\u0120attra": 5868, "\u0120abgelehnt": 5869, "handels": 5870, "\u0120f\u00c3\u00b6rder": 5871, "\u0120vertrags": 5872, "\u0120cecilia": 5873, "xi": 5874, "\u0120sah": 5875, "\u0120wald": 5876, "\u0120mcc": 5877, "\u0120kub": 5878, "\u0120verdien": 5879, "\u0120jen": 5880, "\u0120cal": 5881, "ienen": 5882, "\u0120werbung": 5883, "\u0120\u00c3\u00bcbernehmen": 5884, "spruch": 5885, "ria": 5886, "verein": 5887, "\u0120rasch": 5888, "\u0120dimit": 5889, "\u0120entwicklungen": 5890, "\u0120optionen": 5891, "\u0120grunds\u00c3\u00a4tze": 5892, "\u0120gebiete": 5893, "verkehrs": 5894, "leistung": 5895, "\u0120schneller": 5896, "\u0120milliar": 5897, "\u0120feld": 5898, "\u0120great": 5899, "\u0120h\u00c3\u00b6chst": 5900, "\u0120erkennen": 5901, "mittlung": 5902, "l\u00c3\u00a4nd": 5903, "\u0120z\u00c3\u00b6": 5904, "itut": 5905, "\u0120stunde": 5906, "\u0120strom": 5907, "\u0120dennis": 5908, "ric": 5909, "attform": 5910, "\u0120gesch\u00c3\u00bctzt": 5911, "\u012085": 5912, "2006": 5913, "\u0120lob": 5914, "\u0120nahr": 5915, "\u0120gegenw\u00c3\u00a4rtig": 5916, "\u0120ferrero": 5917, "\u0120gepr\u00c3\u00bcft": 5918, "\u0120subsidiarit\u00c3\u00a4t": 5919, "\u0120dist": 5920, "eib": 5921, "\u0120kindern": 5922, "\u0120ankunft": 5923, "omen": 5924, "\u0120konz": 5925, "\u0120kontext": 5926, "\u0120vielfalt": 5927, "\u0120quali": 5928, "\u0120ruhe": 5929, "\u0120gestern": 5930, "\u0120kleiner": 5931, "\u0120gr\u00c3\u00b6\u00c3\u0141ere": 5932, "\u0120pr\u00c3\u00bcf": 5933, "\u0120effek": 5934, "\u0120avra": 5935, "\u0120st\u00c3\u00a4dte": 5936, "\u0120status": 5937, "\u0120gew\u00c3\u00bcnsch": 5938, "bus": 5939, "volle": 5940, "\u0120pier": 5941, "\u0120anschluss": 5942, "\u0120jung": 5943, "ista": 5944, "\u012039": 5945, "quote": 5946, "\u0120gewiss": 5947, "107": 5948, "\u0120kaffe": 5949, "\u0120sorge": 5950, "\u0120bundesministerin": 5951, "\u0120vinc": 5952, "\u0120w\u00c3\u00a4hrung": 5953, "mma": 5954, "\u0120tritt": 5955, "annes": 5956, "\u0120abs": 5957, "aga": 5958, "mack": 5959, "\u0120work": 5960, "\u0120eigenes": 5961, "\u0120202": 5962, "\u0120xii": 5963, "\u0120ausschu\u00c3\u0141": 5964, "\u0120erwartete": 5965, "\u0120vereinigten": 5966, "\u0120globalisierung": 5967, "\u0120christian": 5968, "\u0120veranstaltungen": 5969, "\u0120ausreichend": 5970, "bre": 5971, "wel": 5972, "yt": 5973, "\u0120fand": 5974, "\u0120flie": 5975, "\u0120gelangen": 5976, "\u0120angen": 5977, "\u0120verlassen": 5978, "ando": 5979, "\u0120obst": 5980, "ella": 5981, "usa": 5982, "\u0120may": 5983, "\u0120400": 5984, "barometer": 5985, "\u0120punkten": 5986, "ichtigung": 5987, "\u0120gegensei": 5988, "\u0120qual": 5989, "\u0120t\u00c3\u00a4tigkeit": 5990, "\u0120beantwortet": 5991, "wachstum": 5992, "\u0120behinder": 5993, "waldner": 5994, "lu": 5995, "indest": 5996, "\u0120sieben": 5997, "\u0120bestellung": 5998, "abe": 5999, "2008": 6000, "sko": 6001, "\u0120grundsatz": 6002, "\u0120olaf": 6003, "\u0120\u00c3\u00bcberpr\u00c3\u00bcfen": 6004, "\u0120zug\u00c3\u00a4nglich": 6005, "\u0120resort": 6006, "\u0120ausf\u00c3\u00bchrungen": 6007, "\u0120generalsekretariat": 6008, "\u0120baby": 6009, "gef\u00c3\u00bcgt": 6010, "\u0120immobilien": 6011, "\u0120support": 6012, "53": 6013, "cz": 6014, "una": 6015, "ters": 6016, "ierminister": 6017, "\u0120aufgenommen": 6018, "reiber": 6019, "beauftrag": 6020, "\u0120how": 6021, "\u0120zumindest": 6022, "\u0120freier": 6023, "\u0120f\u00c3\u00a4llt": 6024, "\u0120gedanken": 6025, "\u0120digitale": 6026, "\u0120k\u00c3\u00bcnftige": 6027, "bedarf": 6028, "cor": 6029, "\u0120ball": 6030, "ssa": 6031, "\u0120klass": 6032, "arus": 6033, "\u0120intensi": 6034, "\u0120auffassung": 6035, "istische": 6036, "\u0120vorteil": 6037, "verh": 6038, "\u0120konnten": 6039, "\u0120staats": 6040, "\u0120patten": 6041, "\u0120informieren": 6042, "\u0120instrument": 6043, "\u0120kommunal": 6044, "\u0120reagieren": 6045, "\u0120symbol": 6046, "ction": 6047, "kam": 6048, "inge": 6049, "orgt": 6050, "\u0120zuver": 6051, "\u0120abbott": 6052, "\u0120thom": 6053, "gebaut": 6054, "\u0120stil": 6055, "\u0120stra\u00c3\u0141e": 6056, "\u0120gemeinsamer": 6057, "\u0120verstehe": 6058, "\u0120kamp": 6059, "\u0120junge": 6060, "\u0120systeme": 6061, "\u0120zentralbank": 6062, "schl\u00c3\u00bcsselung": 6063, "fleisch": 6064, "tliche": 6065, "\u0120dina": 6066, "\u0120mas": 6067, "\u0120deren": 6068, "\u0120lab": 6069, "forschung": 6070, "\u0120f\u00c3\u00bchlen": 6071, "\u0120mess": 6072, "\u0120arbeitsmarkt": 6073, "\u0120pal\u00c3\u00a4st": 6074, "ologische": 6075, "\u0120europeaid": 6076, "\u0120informationsgesellschaft": 6077, "znei": 6078, "yan": 6079, "eigen": 6080, "\u0120fi": 6081, "ork": 6082, "rates": 6083, "\u0120sch\u00c3\u00b6": 6084, "ernt": 6085, "\u0120\u00c3\u00b6k": 6086, "\u012065": 6087, "\u0120phase": 6088, "iano": 6089, "\u0120player": 6090, "\u0120lehnt": 6091, "dr\u00c3\u00bcck": 6092, "\u0120l\u00c3\u00a4ndlichen": 6093, "\u0120booking": 6094, "zegow": 6095, "pon": 6096, "zed": 6097, "enden": 6098, "orge": 6099, "\u0120lim": 6100, "\u0120analyse": 6101, "\u0120t\u00c3\u00b6": 6102, "opoul": 6103, "\u0120cen": 6104, "igten": 6105, "\u0120entgegen": 6106, "werke": 6107, "\u0120klick": 6108, "\u012052": 6109, "\u0120erkl\u00c3\u00a4ren": 6110, "\u0120staatssekret\u00c3\u00a4rin": 6111, "\u0120erwachsen": 6112, "freund": 6113, "\u0120brut": 6114, "\u0120einwanderung": 6115, "\u0120spezial": 6116, "\u0120ferienwoh": 6117, "\u0120archiv": 6118, "\u0120bem\u00c3\u00bchungen": 6119, "\u0120dynam": 6120, "\u0120kall": 6121, "\u0120regen": 6122, "ila": 6123, "\u0120eure": 6124, "\u0120tool": 6125, "ntag": 6126, "\u0120spielraum": 6127, "\u0120redaktion": 6128, "\u0120glaub": 6129, "\u0120schaffung": 6130, "alerie": 6131, "\u0120korrig": 6132, "\u0120pr\u00c3\u00a4sen": 6133, "\u0120st\u00c3\u00a4rken": 6134, "\u0120pflanzen": 6135, "\u0120apartments": 6136, "\u0120leistungs": 6137, "\u0120navigation": 6138, "nes": 6139, "\u0120h\u00c3\u00bcb": 6140, "\u0120gefallen": 6141, "\u0120anh\u00c3\u00b6r": 6142, "austausch": 6143, "\u0120cro": 6144, "\u0120\u00c3\u00bcberein": 6145, "\u0120hering": 6146, "gruppen": 6147, "\u0120armen": 6148, "stellte": 6149, "zial": 6150, "\u0120gel\u00c3\u00b6st": 6151, "\u0120comfort": 6152, "\u0120wahrscheinlich": 6153, "1999": 6154, "\u0120sinnvoll": 6155, "\u0120berufliche": 6156, "\u0120ausgewogen": 6157, "\u0120virtu": 6158, "tlich": 6159, "\u0120fang": 6160, "\u0120taus": 6161, "hton": 6162, "\u012046": 6163, "kl\u00c3\u00a4rung": 6164, "ico": 6165, "\u0120bilden": 6166, "spielt": 6167, "stands": 6168, "\u0120verantwortlich": 6169, "\u0120wesentliche": 6170, "\u0120erkki": 6171, "\u0120garantiert": 6172, "\u0120poker": 6173, "zegowina": 6174, "\u0120dr\u00c3\u00bc": 6175, "\u0120geheim": 6176, "gerufen": 6177, "aktiv": 6178, "\u0120folgender": 6179, "\u0120gemeinschaften": 6180, "\u0120leid": 6181, "\u0120leistung": 6182, "\u0120reichen": 6183, "\u0120jedenfalls": 6184, "\u0120deiner": 6185, "\u0120kompon": 6186, "\u0120erfahrungen": 6187, "\u0120betrachten": 6188, "\u0120dorf": 6189, "meister": 6190, "\u0120j\u00c3\u00bcng": 6191, "effizien": 6192, "\u0120ly": 6193, "\u0120beein": 6194, "rock": 6195, "reisen": 6196, "\u0120dankbar": 6197, "ugh": 6198, "\u0120gross": 6199, "\u0120letzter": 6200, "\u0120gerichtshofs": 6201, "\u0120ver\u00c3\u00a4nderungen": 6202, "\u0120henn": 6203, "\u0120paul": 6204, "\u0120assoziations": 6205, "\u0120horizont": 6206, "cell": 6207, "\u0120prag": 6208, "\u0120geschaffen": 6209, "\u0120schlo": 6210, "\u0120ausbau": 6211, "blie": 6212, "linge": 6213, "\u0120gem\u00c3\u00bc": 6214, "\u0120bislang": 6215, "\u0120d\u00c3\u00bcrfte": 6216, "\u0120schulden": 6217, "\u0120krimin": 6218, "\u0120volks": 6219, "\u0120merc": 6220, "\u0120komplett": 6221, "\u0120hervorra": 6222, "metho": 6223, "\u0120nachstehenden": 6224, "\u0120avraam": 6225, "596": 6226, "fangen": 6227, "nel": 6228, "off": 6229, "part": 6230, "uhr": 6231, "uelle": 6232, "wunsch": 6233, "\u0120anstr": 6234, "oph": 6235, "fordern": 6236, "sites": 6237, "user": 6238, "tierte": 6239, "\u0120montag": 6240, "\u0120liban": 6241, "f\u00c3\u00a4hig": 6242, "\u0120verpflich": 6243, "\u0120melden": 6244, "\u0120maxim": 6245, "\u0120feier": 6246, "jekten": 6247, "\u0120wallstr\u00c3\u00b6m": 6248, "entscheidung": 6249, "500": 6250, "pra": 6251, "enhagen": 6252, "inter": 6253, "eisen": 6254, "\u0120eth": 6255, "\u0120mut": 6256, "\u0120prin": 6257, "arm": 6258, "\u0120\u00c3\u00bcberw": 6259, "\u0120ok": 6260, "fluss": 6261, "\u0120282": 6262, "betrag": 6263, "\u0120installieren": 6264, "\u0120veranstaltung": 6265, "\u0120perfekt": 6266, "jun": 6267, "jahre": 6268, "zz": 6269, "\u0120sm": 6270, "iertes": 6271, "\u0120umge": 6272, "fa\u00c3\u0141t": 6273, "hebung": 6274, "\u0120marc": 6275, "\u0120marg": 6276, "\u0120anderem": 6277, "\u0120tod": 6278, "\u0120xiv": 6279, "gewicht": 6280, "\u0120internationaler": 6281, "\u0120ashton": 6282, "\u0120studio": 6283, "\u0120videos": 6284, "\u0120zus\u00c3\u00a4tzlich": 6285, "umweltkommissar": 6286, "\u0120friend": 6287, "bruch": 6288, "hle": 6289, "tele": 6290, "artet": 6291, "\u0120austausch": 6292, "\u0120eingesetzt": 6293, "\u0120gep": 6294, "\u0120anwesen": 6295, "\u0120ausgabe": 6296, "sport": 6297, "anke": 6298, "\u0120aussehen": 6299, "\u012042": 6300, "\u0120genutzt": 6301, "\u0120entwickeln": 6302, "waren": 6303, "\u0120viii": 6304, "\u0120skype": 6305, "\u0120balkon": 6306, "\u0120h\u00c3\u00b6chste": 6307, "\u0120katastrophen": 6308, "\u0120derzeitige": 6309, "535": 6310, "car": 6311, "leit": 6312, "zul": 6313, "\u0120bewegen": 6314, "\u0120schau": 6315, "\u0120vorange": 6316, "rige": 6317, "begriffen": 6318, "ots": 6319, "\u0120leiter": 6320, "hafte": 6321, "\u0120wirklichkeit": 6322, "\u0120bedauer": 6323, "\u0120fehl": 6324, "\u0120politischer": 6325, "\u0120byr": 6326, "\u0120unterbrechung": 6327, "\u0120simbab": 6328, "\u0120george": 6329, "\u0120nachbarschaft": 6330, "lebhafter": 6331, "mor": 6332, "\u0120fit": 6333, "\u0120hi": 6334, "\u0120getroffen": 6335, "\u0120versammlung": 6336, "neten": 6337, "\u0120marken": 6338, "ierend": 6339, "\u0120pressestelle": 6340, "\u0120detail": 6341, "cccc": 6342, "z\u00c3\u00bcge": 6343, "\u0120aktivit\u00c3\u00a4ten": 6344, "\u0120nukle": 6345, "\u0120entsprechend": 6346, "\u0120moderne": 6347, "\u0120amerika": 6348, "\u0120akzeptiert": 6349, "\u0120beratungen": 6350, "\u0120agrarpolitik": 6351, "\u0120arbeitslosigkeit": 6352, "\u0120einverstanden": 6353, "gress": 6354, "stig": 6355, "\u0120fur": 6356, "\u0120jens": 6357, "\u0120wester": 6358, "dia": 6359, "\u0120vieles": 6360, "\u0120pr\u00c3\u00a4sidentschaft": 6361, "ices": 6362, "\u0120sonnen": 6363, "\u0120kombin": 6364, "\u0120au\u00c3\u0141erhalb": 6365, "\u0120interessiert": 6366, "\u0120casa": 6367, "gipfel": 6368, "\u0120rechnung": 6369, "iner": 6370, "\u0120bzw": 6371, "\u0120v\u00c3\u00b6l": 6372, "rate": 6373, "\u0120anh": 6374, "\u0120tari": 6375, "\u0120cap": 6376, "\u0120ausland": 6377, "ielt": 6378, "ze\u00c3\u0141": 6379, "\u0120marokko": 6380, "\u0120urspr": 6381, "\u0120solcher": 6382, "sichts": 6383, "\u0120erneuer": 6384, "leistungs": 6385, "\u0120schuld": 6386, "\u0120restaurants": 6387, "9258": 6388, "\u0120erf\u00c3\u00bcllen": 6389, "\u0120drittl\u00c3\u00a4ndern": 6390, "\u0120erreichbar": 6391, "initiative": 6392, "ula": 6393, "\u0120szen": 6394, "lligen": 6395, "\u0120audi": 6396, "\u0120tie": 6397, "\u0120toll": 6398, "indik": 6399, "\u0120spann": 6400, "osa": 6401, "kteure": 6402, "\u0120legt": 6403, "\u0120cha": 6404, "mittag": 6405, "\u0120starke": 6406, "ssysteme": 6407, "\u0120maschinen": 6408, "\u0120verdienen": 6409, "59667": 6410, "546": 6411, "cam": 6412, "\u0120einrichtung": 6413, "\u0120len": 6414, "\u0120gebur": 6415, "hrt": 6416, "\u0120schu": 6417, "\u0120auft": 6418, "\u0120herbst": 6419, "\u0120r\u00c3\u00a4um": 6420, "\u0120konto": 6421, "haltet": 6422, "\u0120defizit": 6423, "rucken": 6424, "\u0120leon": 6425, "projekt": 6426, "\u0120freude": 6427, "\u0120besteuerung": 6428, "\u0120flor": 6429, "\u0120belarus": 6430, "\u0120karl": 6431, "\u0120technik": 6432, "\u0120garantie": 6433, "\u0120glas": 6434, "versorgung": 6435, "\u0120ewr": 6436, "\u0120ernennung": 6437, "\u0120berichterstatterin": 6438, "\u0120erh\u00c3\u00b6ht": 6439, "ograf": 6440, "spakt": 6441, "\u0120dvd": 6442, "\u0120terrasse": 6443, "ye": 6444, "\u0120show": 6445, "\u0120edu": 6446, "\u0120mau": 6447, "\u0120z\u00c3\u00a4hlen": 6448, "\u0120geleistet": 6449, "ild": 6450, "\u0120\u00c3\u00bcbersetz": 6451, "\u0120arznei": 6452, "mechan": 6453, "u\u00c3\u0141en": 6454, "\u0120beschwer": 6455, "\u0120begann": 6456, "service": 6457, "\u0120tages": 6458, "\u0120aktuell": 6459, "\u0120kaiser": 6460, "\u0120\u00c3\u00a4u\u00c3\u0141ern": 6461, "\u0120green": 6462, "\u0120kontakte": 6463, "\u0120kanada": 6464, "\u0120dauern": 6465, "\u0120ruhig": 6466, "l\u00c3\u00b6sung": 6467, "\u0120emissions": 6468, "59258": 6469, "bundes": 6470, "onte": 6471, "\u0120ky": 6472, "\u0120trin": 6473, "emen": 6474, "\u0120ausdruck": 6475, "\u0120beides": 6476, "\u0120teilnehmen": 6477, "\u0120gew\u00c3\u00a4hlt": 6478, "\u0120verboten": 6479, "\u0120preisen": 6480, "\u0120serie": 6481, "\u0120york": 6482, "\u0120b\u00c3\u00bcrgern": 6483, "\u0120empfohlen": 6484, "\u0120geldb": 6485, "dafrika": 6486, "\u0120priorit\u00c3\u00a4tsachsen": 6487, "\u0120check": 6488, "\u0120bewegung": 6489, "\u0120libanon": 6490, "pal": 6491, "\u0120eb": 6492, "\u0120bse": 6493, "schir": 6494, "\u0120nehme": 6495, "andal": 6496, "\u0120weitergehen": 6497, "barer": 6498, "\u0120kompa": 6499, "gemein": 6500, "\u0120admin": 6501, "\u0120direktor": 6502, "\u0120carlo": 6503, "\u0120parkplatz": 6504, "\u0120ver\u00c3\u00a4nderung": 6505, "\u0120entsprechende": 6506, "tifizierung": 6507, "\u0120bahnhof": 6508, "fan": 6509, "mw": 6510, "\u0120ig": 6511, "\u0120eins": 6512, "\u0120jn": 6513, "verw": 6514, "\u0120ue": 6515, "\u0120gem\u00c3\u00a4\u00c3\u0141": 6516, "ziellen": 6517, "\u012006": 6518, "\u0120pack": 6519, "\u0120zusammenfassung": 6520, "\u0120power": 6521, "\u0120element": 6522, "\u0120verheugen": 6523, "region": 6524, "\u0120definiert": 6525, "\u0120bem\u00c3\u00bc": 6526, "\u0120diskutieren": 6527, "\u0120spreche": 6528, "\u0120beh\u00c3\u00b6rden": 6529, "bad": 6530, "n\u00c3\u00b6": 6531, "pc": 6532, "ssicherheit": 6533, "\u0120kna": 6534, "\u0120pi": 6535, "\u0120eintrag": 6536, "\u0120got": 6537, "alte": 6538, "\u0120anlagen": 6539, "\u0120anschlie\u00c3\u0141en": 6540, "\u0120erleich": 6541, "rian": 6542, "akter": 6543, "\u0120just": 6544, "apier": 6545, "\u0120rufen": 6546, "\u0120freien": 6547, "\u0120vorschlags": 6548, "\u0120investition": 6549, "\u0120kreativ": 6550, "azit\u00c3\u00a4t": 6551, "\u0120wachstums": 6552, "\u0120gl\u00c3\u00bcckwunsch": 6553, "\u0120wesentlich": 6554, "\u0120best\u00c3\u00a4tigt": 6555, "\u0120total": 6556, "\u0120methode": 6557, "f\u00c3\u00a4ltig": 6558, "\u0120simbabwe": 6559, "ns": 6560, "\u0120sau": 6561, "\u0120sant": 6562, "\u0120ef": 6563, "\u0120nett": 6564, "\u0120info": 6565, "\u0120lan": 6566, "\u0120erde": 6567, "\u0120cook": 6568, "\u0120ausschlie": 6569, "\u0120format": 6570, "\u0120wei\u00c3\u0141buch": 6571, "organisation": 6572, "\u0120vision": 6573, "\u0120sp\u00c3\u00a4teren": 6574, "\u0120konflikt": 6575, "\u0120milliarden": 6576, "kult": 6577, "\u0120bran": 6578, "\u0120niel": 6579, "ata": 6580, "\u00c3\u00a4ngt": 6581, "annis": 6582, "rikan": 6583, "log": 6584, "grammen": 6585, "kenn": 6586, "\u0120woher": 6587, "\u0120schaf": 6588, "\u0120fahrt": 6589, "\u0120installation": 6590, "\u0120praktisch": 6591, "\u0120schwarz": 6592, "\u0120haupts": 6593, "\u0120begr\u00c3\u00bc\u00c3\u0141ung": 6594, "\u0120jacques": 6595, "\u0120hennon": 6596, "\u0120eas": 6597, "\u0120bor": 6598, "\u0120zustand": 6599, "\u0120heran": 6600, "\u0120beraten": 6601, "ungsmittel": 6602, "aktionen": 6603, "\u0120besorg": 6604, "\u0120luc": 6605, "\u0120messe": 6606, "gew\u00c3\u00b6hn": 6607, "\u0120daniel": 6608, "\u0120kopenhagen": 6609, "\u0120airport": 6610, "\u0120keinerlei": 6611, "dorf": 6612, "\u0120ungef\u00c3\u00a4hr": 6613, "\u0120alexand": 6614, "\u0120betrugs": 6615, "\u0120wechsel": 6616, "\u0120infos": 6617, "53593": 6618, "ack": 6619, "eesc": 6620, "machen": 6621, "\u0120witt": 6622, "\u0120iia": 6623, "\u0120mite": 6624, "teste": 6625, "\u00c3\u00a4ck": 6626, "ori": 6627, "\u0120inbegriffen": 6628, "teneg": 6629, "\u0120house": 6630, "\u012038": 6631, "bli": 6632, "\u0120one": 6633, "\u0120priva": 6634, "\u0120sitzungen": 6635, "\u0120voller": 6636, "\u0120nationen": 6637, "\u0120passieren": 6638, "\u0120bestimmten": 6639, "wiesen": 6640, "hel": 6641, "ua": 6642, "\u0120h\u00c3\u00a4l": 6643, "\u0120pension": 6644, "\u0120einstellung": 6645, "\u00c3\u00b6konom": 6646, "\u0120beschlossen": 6647, "\u0120tru": 6648, "\u0120250": 6649, "\u0120jour": 6650, "\u0120\u00c3\u00bcbersetzung": 6651, "\u0120ausstellung": 6652, "etzungen": 6653, "ressourcen": 6654, "ohne": 6655, "fest": 6656, "ierende": 6657, "\u0120gerech": 6658, "\u0120regierungen": 6659, "\u0120eis": 6660, "\u0120sonntag": 6661, "\u0120dienen": 6662, "\u0120revolution": 6663, "\u0120betreffend": 6664, "\u0120lehren": 6665, "\u0120cecaf": 6666, "58": 6667, "st\u00c3\u00a4": 6668, "\u0120l\u00c3\u00a4": 6669, "\u0120versp": 6670, "001": 6671, "\u0120relig": 6672, "andid": 6673, "\u0120our": 6674, "formular": 6675, "\u0120zurzeit": 6676, "ektion": 6677, "\u012058": 6678, "\u0120marke": 6679, "\u0120gemisch": 6680, "\u0120geschmack": 6681, "inea": 6682, "\u0120verbot": 6683, "zeugung": 6684, "\u0120pr\u00c3\u00a4z": 6685, "azza": 6686, "\u0120farb": 6687, "\u0120falsche": 6688, "\u0120tatsache": 6689, "\u0120753": 6690, "aturen": 6691, "\u0120betrug": 6692, "\u0120antonio": 6693, "\u0120gem\u00c3\u00bcse": 6694, "san": 6695, "\u0120feuer": 6696, "dessen": 6697, "\u0120unterschei": 6698, "masch": 6699, "\u0120freit": 6700, "\u0120einiges": 6701, "\u0120freiwill": 6702, "stral": 6703, "\u0120strukturfonds": 6704, "spr\u00c3\u00bcn": 6705, "finanzierung": 6706, "\u0120beinhaltet": 6707, "\u0120klasse": 6708, "\u0120premierminister": 6709, "gast": 6710, "kw": 6711, "zin": 6712, "infrastruktur": 6713, "\u0120hell": 6714, "\u0120lager": 6715, "\u0120gefragt": 6716, "\u0120betrag": 6717, "\u0120cu": 6718, "forts": 6719, "lassung": 6720, "\u0120testen": 6721, "\u0120mari": 6722, "\u0120fron": 6723, "\u0120forsten": 6724, "\u0120andris": 6725, "\u0120quoten": 6726, "alender": 6727, "\u0120besonderen": 6728, "\u0120beispielsweise": 6729, "\u0120back": 6730, "\u0120ausschusses": 6731, "\u0120intelligen": 6732, "\u0120buchung": 6733, "\u0120kommissionsmitglied": 6734, "\u0120ber\u00c3\u00bccksichtigen": 6735, "amerika": 6736, "\u0120modernisierung": 6737, "ych": 6738, "\u0120erz": 6739, "lichung": 6740, "\u0120jose": 6741, "\u0120\u00c3\u00bcberzeugt": 6742, "\u0120weist": 6743, "\u0120management": 6744, "\u0120stay": 6745, "laut": 6746, "\u0120600": 6747, "vii": 6748, "\u0120kostenfrei": 6749, "\u0120plug": 6750, "\u0120systems": 6751, "\u0120verkaufen": 6752, "\u0120nationaler": 6753, "\u0120kontrollen": 6754, "\u0120ostsee": 6755, "\u0120finanziellen": 6756, "dokum": 6757, "\u0120high": 6758, "dau": 6759, "krie": 6760, "\u0120satz": 6761, "\u0120wetter": 6762, "\u0120ht": 6763, "itten": 6764, "\u0120rec": 6765, "\u0120herzegowina": 6766, "spar": 6767, "tagen": 6768, "\u0120jav": 6769, "\u0120gene": 6770, "\u0120formen": 6771, "\u0120teilweise": 6772, "\u0120grad": 6773, "mittelmeer": 6774, "\u0120bed\u00c3\u00bcr": 6775, "handelt": 6776, "\u0120vermeiden": 6777, "\u0120schwierigkeiten": 6778, "\u0120bonus": 6779, "\u0120kommentar": 6780, "\u0120\u00c3\u00a4hnlich": 6781, "\u0120pakete": 6782, "\u0120vergangenheit": 6783, "\u0120arab": 6784, "\u0120konvergenz": 6785, "\u0120anstreng": 6786, "\u0120mitein": 6787, "eral": 6788, "\u0120sar": 6789, "\u0120mc": 6790, "aru": 6791, "\u0120\u00c3\u00bcbersch": 6792, "sia": 6793, "\u0120mart": 6794, "wenden": 6795, "\u0120besucht": 6796, "veau": 6797, "\u0120problema": 6798, "\u0120worin": 6799, "\u0120urspr\u00c3\u00bcn": 6800, "\u0120mini": 6801, "ated": 6802, "\u0120zimmerbeschreibung": 6803, "\u0120stoffe": 6804, "\u0120lamy": 6805, "zunehmen": 6806, "ebene": 6807, "\u0120original": 6808, "\u0120mexiko": 6809, "\u0120friendly": 6810, "kla": 6811, "pre": 6812, "\u0120wal": 6813, "\u0120ill": 6814, "\u0120kunde": 6815, "\u0120unmittel": 6816, "aria": 6817, "asen": 6818, "\u0120beur": 6819, "rochen": 6820, "\u0120(%": 6821, "\u0120aufzu": 6822, "amen": 6823, "ellos": 6824, "\u00c3\u00a4rm": 6825, "\u0120amts": 6826, "\u0120roh": 6827, "\u0120gem\u00c3\u00bct": 6828, "\u0120grundrechte": 6829, "\u0120atmo": 6830, "\u0120wirtschaftsraum": 6831, "\u0120netzwerk": 6832, "\u0120engagement": 6833, "\u0120berufs": 6834, "\u0120erkennt": 6835, "\u0120chines": 6836, "\u0120camping": 6837, "kohol": 6838, "\u0120grunds\u00c3\u00a4tzlich": 6839, "far": 6840, "vp": 6841, "\u0120who": 6842, "\u0120nik": 6843, "\u0120gelin": 6844, "\u0120jungen": 6845, "last": 6846, "\u0120mazed": 6847, "\u0120websites": 6848, "\u0120saal": 6849, "\u0120messen": 6850, "\u0120gemeinsames": 6851, "\u0120erwart": 6852, "\u0120ideale": 6853, "\u0120profil": 6854, "\u0120firmen": 6855, "\u0120hervorheben": 6856, "\u0120abgeordnete": 6857, "\u0120vorsitzender": 6858, "dr\u00c3\u00bccklich": 6859, "kas": 6860, "sal": 6861, "\u0120kas": 6862, "\u0120versprechen": 6863, "bergen": 6864, "\u0120schlagen": 6865, "ames": 6866, "\u0120abonn": 6867, "\u0120konfig": 6868, "\u012005": 6869, "ida": 6870, "\u0120pati": 6871, "\u00c3\u00a4ufer": 6872, "\u0120monica": 6873, "\u0120gebracht": 6874, "zahlungen": 6875, "\u0120sozialausschuss": 6876, "\u0120st\u00c3\u00a4rker": 6877, "\u0120\u00c3\u00a4u\u00c3\u0141er": 6878, "\u0120interessant": 6879, "\u0120unterschiede": 6880, "\u0120organisation": 6881, "\u0120jahresbericht": 6882, "\u0120universit\u00c3\u00a4t": 6883, "\u0120abstimmungsstunde": 6884, "band": 6885, "chtet": 6886, "\u0120anca": 6887, "\u0120erh": 6888, "berge": 6889, "\u0120--": 6890, "vert": 6891, "blatt": 6892, "\u0120genaus": 6893, "\u0120differ": 6894, "fraktion": 6895, "\u0120gewinn": 6896, "\u0120800": 6897, "mark": 6898, "\u0120inseln": 6899, "kestein": 6900, "\u0120geb\u00c3\u00bchr": 6901, "\u0120energien": 6902, "\u0120begr\u00c3\u00bcndet": 6903, "\u0120korru": 6904, "\u0120wachsen": 6905, "379": 6906, "\u0120pers\u00c3\u00b6nlichen": 6907, "\u0120ehrlich": 6908, "\u0120anmelden": 6909, "\u0120diskutiert": 6910, "\u0120koh\u00c3\u00a4sionspolitik": 6911, "\u0120grundlegende": 6912, "\u0120konkret": 6913, "\u0120bolkestein": 6914, "\u0120generaldirektion": 6915, "\u0120besorgnis": 6916, "\u0120h\u00c3\u00a4lfte": 6917, "fortsetzung": 6918, "hy": 6919, "\u0120wik": 6920, "\u0120ib": 6921, "\u0120fas": 6922, "sso": 6923, "urd": 6924, "\u0120einwohner": 6925, "\u0120lind": 6926, "\u0120bege": 6927, "\u0120bezieht": 6928, "\u0120\u00c3\u00bcbertrag": 6929, "\u0120spie": 6930, "dium": 6931, "\u0120parame": 6932, "\u0120roma": 6933, "\u0120\u00c3\u00a4ndert": 6934, "\u0120zimmern": 6935, "\u0120gelungen": 6936, "\u0120begriff": 6937, "\u0120volle": 6938, "phone": 6939, "\u0120direkte": 6940, "\u0120texte": 6941, "\u0120bay": 6942, "\u0120verbesserungen": 6943, "\u0120hinzuf\u00c3\u00bcgen": 6944, "\u0120autom": 6945, "athan": 6946, "\u0120pers\u00c3\u00b6nliche": 6947, "\u0120entscheidend": 6948, "ascript": 6949, "\u0120endg\u00c3\u00bcltigen": 6950, "\u0120verst\u00c3\u00a4ndnis": 6951, "\u0120museum": 6952, "\u0120anh\u00c3\u00b6rung": 6953, "\u0120javascript": 6954, "**": 6955, "gy": 6956, "ufel": 6957, "\u0120zeich": 6958, "\u0120vertre": 6959, "\u0120abende": 6960, "\u0120fassen": 6961, "\u0120gering": 6962, "\u0120durchschnitt": 6963, "ffentlich": 6964, "\u0120festi": 6965, "\u0120have": 6966, "\u0120umweltkommissar": 6967, "\u0120getrei": 6968, "botschafter": 6969, "\u0120erleb": 6970, "\u0120renov": 6971, "\u0120maximal": 6972, "\u0120geist": 6973, "\u0120pakistan": 6974, "\u0120material": 6975, "modell": 6976, "\u0120profession": 6977, "\u0120aqu": 6978, "\u0120ker": 6979, "schm": 6980, "orte": 6981, "\u00c3\u00a4ngen": 6982, "\u0120absicht": 6983, "\u0120entlastung": 6984, "r\u00c3\u00bcstung": 6985, "\u0120latein": 6986, "ritann": 6987, "\u0120tha": 6988, "\u0120that": 6989, "\u0120ger\u00c3\u00a4t": 6990, "\u0120wirtschaftspolitik": 6991, "\u0120verbin": 6992, "2004": 6993, "\u0120versuch": 6994, "\u0120versucht": 6995, "\u0120ungleich": 6996, "acio": 6997, "schafft": 6998, "\u0120fr\u00c3\u00bchst\u00c3\u00bccksb": 6999, "\u0120null": 7000, "\u0120informiert": 7001, "\u0120argument": 7002, "effizienz": 7003, "tenegro": 7004, "\u0120genauso": 7005, "ites": 7006, "sl": 7007, "aner": 7008, "\u0120hyp": 7009, "\u0120kil": 7010, "\u0120puer": 7011, "\u0120schicken": 7012, "\u0120cy": 7013, "stige": 7014, "\u0120hoffentlich": 7015, "\u0120wenigen": 7016, "rina": 7017, "\u0120naher": 7018, "\u0120mittelpunkt": 7019, "stra\u00c3\u0141e": 7020, "\u0120helpf": 7021, "\u0120eingegangen": 7022, "\u00c3\u00a4ndler": 7023, "\u0120netze": 7024, "\u0120anmerkung": 7025, "\u0120franz\u00c3\u00b6sisch": 7026, "\u0120parteien": 7027, "\u0120thomas": 7028, "\u0120miteinander": 7029, "\u0120mazedonien": 7030, "bon": 7031, "brauch": 7032, "gier": 7033, "jau": 7034, "arische": 7035, "its": 7036, "\u0120lar": 7037, "\u0120gefordert": 7038, "\u0120anb": 7039, "\u0120betre": 7040, "entwurf": 7041, "reiten": 7042, "\u0120abstimmen": 7043, "\u0120entschul": 7044, "\u0120kommissionspr\u00c3\u00a4sident": 7045, "aka": 7046, "\u0120leb": 7047, "sens": 7048, "\u0120landwir": 7049, "uble": 7050, "\u0120geb\u00c3\u00bchren": 7051, "\u0120begl\u00c3\u00bcck": 7052, "\u0120ausgezeich": 7053, "tisierung": 7054, "\u0120zunehmen": 7055, "\u0120momentan": 7056, "\u0120l\u00c3\u00a4ndliche": 7057, "\u0120modul": 7058, "\u0120institutionelle": 7059, "\u0120begl\u00c3\u00bcckw\u00c3\u00bcn": 7060, "card": 7061, "\u0120effe": 7062, "\u0120himm": 7063, "itte": 7064, "\u0120gri": 7065, "\u0120lov": 7066, "\u0120anne": 7067, "\u0120anforderungen": 7068, "\u0120card": 7069, "\u0120rss": 7070, "uta": 7071, "format": 7072, "\u012053": 7073, "\u0120finanzdienstleistungen": 7074, "projekte": 7075, "\u0120feed": 7076, "\u0120oper": 7077, "\u01201992": 7078, "\u01201993": 7079, "\u0120sicherheitspolitik": 7080, "517": 7081, "person": 7082, "\u0120phot": 7083, "\u0120eingef\u00c3\u00bchrt": 7084, "\u0120carl": 7085, "\u0120oliven": 7086, "\u0120s\u00c3\u00bcdafrika": 7087, "\u0120syn": 7088, "\u0120eigentum": 7089, "\u0120registrieren": 7090, "\u0120steigen": 7091, "\u0120jeweils": 7092, "\u0120technologien": 7093, "\u0120solches": 7094, "\u0120kommunalvertreter": 7095, "\u0120wittling": 7096, "ham": 7097, "wagen": 7098, "\u0120s\u00c3\u00a4m": 7099, "\u0120krist": 7100, "\u0120gir": 7101, "\u0120verurs": 7102, "\u0120residen": 7103, "\u0120respek": 7104, "\u0120\u00c3\u00bcbernommen": 7105, "\u0120gewonnen": 7106, "ics": 7107, "\u0120group": 7108, "\u0120eurobarometer": 7109, "\u0120laut": 7110, "\u0120f\u00c3\u00bchrte": 7111, "abilit\u00c3\u00a4t": 7112, "\u0120westliche": 7113, "zureichen": 7114, "\u0120ber\u00c3\u00bccksichtigt": 7115, "\u0120k\u00c3\u00bcnstler": 7116, "telefon": 7117, "\u0120v\u00c3\u00b6lker": 7118, "iw": 7119, "nie": 7120, "ox": 7121, "reitung": 7122, "\u0120ale": 7123, "\u0120wem": 7124, "\u0120bmw": 7125, "\u0120hard": 7126, "\u0120unm\u00c3\u00b6glich": 7127, "\u0120unzureichen": 7128, "eting": 7129, "\u0120schmer": 7130, "\u0120sound": 7131, "\u0120alp": 7132, "\u0120regierungs": 7133, "\u0120monti": 7134, "\u0120einfacher": 7135, "\u0120verk\u00c3\u00bcndet": 7136, "\u0120entspannen": 7137, "\u0120ergreifen": 7138, "\u0120publ": 7139, "\u0120inflation": 7140, "\u0120kallas": 7141, "()": 7142, "kore": 7143, "uds": 7144, "\u0120mp": 7145, "\u0120ms": 7146, "\u0120einla": 7147, "\u0120aufschl\u00c3\u00bcsselung": 7148, "\u0120\u00c3\u00bcbersicht": 7149, "\u0120herrscht": 7150, "\u012047": 7151, "fertigt": 7152, "ido": 7153, "\u0120besei": 7154, "\u0120bedroh": 7155, "403": 7156, "\u0120funktionen": 7157, "back": 7158, "\u0120st\u00c3\u00a4rk": 7159, "\u0120erscheinen": 7160, "\u0120kategorien": 7161, "\u0120anmeldung": 7162, "\u0120erg\u00c3\u00a4nzen": 7163, "\u0120erl\u00c3\u00a4uter": 7164, "\u0120konstru": 7165, "mine": 7166, "nommen": 7167, "\u0120banner": 7168, "\u0120mission": 7169, "teten": 7170, "ory": 7171, "\u0120ple": 7172, "deb": 7173, "\u0120aufnahme": 7174, "lege": 7175, "\u0120spam": 7176, "gr\u00c3\u00bcn": 7177, "\u0120temp": 7178, "\u012049": 7179, "\u0120did": 7180, "\u0120finanzmittel": 7181, "vassiliou": 7182, "\u0120au\u00c3\u0141erorden": 7183, "\u0120hauptstadt": 7184, "\u0120gestrigen": 7185, "\u0120rooms": 7186, "\u0120stabilit\u00c3\u00a4ts": 7187, "entwicklungs": 7188, "\u0120jonathan": 7189, "deutschland": 7190, "\u0120zweifellos": 7191, "\u0120freitag": 7192, "vassilioueu": 7193, "dr": 7194, "\u0120w\u00c3\u00a4h": 7195, "\u0120b\u00c3\u00b6": 7196, "\u0120pen": 7197, "regel": 7198, "\u0120austral": 7199, "\u0120eingeb": 7200, "\u0120zul": 7201, "\u0120rab": 7202, "leichen": 7203, "werbe": 7204, "mall": 7205, "\u0120sonne": 7206, "\u0120sudan": 7207, "day": 7208, "f\u00c3\u00a4llen": 7209, "\u0120f\u00c3\u00bchrung": 7210, "\u0120au\u00c3\u0141enhandel": 7211, "\u0120freundlich": 7212, "\u0120album": 7213, "\u0120statistik": 7214, "\u0120existiert": 7215, "\u0120legislative": 7216, "sprach": 7217, "\u0120geschenk": 7218, "\u0120dimitri": 7219, "wf": 7220, "uraru": 7221, "\u0120gvo": 7222, "\u00c3\u00b6t": 7223, "\u0120tar": 7224, "\u0120tol": 7225, "\u0120ermu": 7226, "oper": 7227, "\u0120omb": 7228, "\u0120ableh": 7229, "ochen": 7230, "\u0120entstehen": 7231, "ille": 7232, "\u0120saison": 7233, "\u0120mechan": 7234, "\u0120wozu": 7235, "\u0120technischen": 7236, "strafe": 7237, "\u0120zur\u00c3\u00bcckge": 7238, "\u0120eltern": 7239, "\u0120r\u00c3\u00bcckkehr": 7240, "\u0120block": 7241, "systeme": 7242, "angebote": 7243, "\u0120wiederholen": 7244, "\u01200475": 7245, "kontrolle": 7246, "liefert": 7247, "bliothe": 7248, "\u0120getreide": 7249, "ritannien": 7250, "britannien": 7251, "haben": 7252, "ive": 7253, "mot": 7254, "tran": 7255, "\u0120dur": 7256, "\u0120ec": 7257, "orien": 7258, "\u0120anlass": 7259, "amb": 7260, "elli": 7261, "\u0120alkohol": 7262, "\u0120hinweisen": 7263, "\u0120folglich": 7264, "\u0120frist": 7265, "\u0120dipl": 7266, "ktionen": 7267, "\u0120exp": 7268, "\u0120zahlung": 7269, "alisiert": 7270, "\u0120sozialer": 7271, "solid": 7272, "\u0120pedro": 7273, "\u0120kaffee": 7274, "bundesminister": 7275, "574": 7276, "su": 7277, "uffet": 7278, "\u0120ever": 7279, "team": 7280, "raten": 7281, "\u0120gehalten": 7282, "\u0120anreg": 7283, "ela": 7284, "achs": 7285, "\u0120sohn": 7286, "\u0120abh\u00c3\u00a4ng": 7287, "\u0120ber\u00c3\u00bch": 7288, "\u0120mangel": 7289, "\u0120finanziert": 7290, "vorschl\u00c3\u00a4ge": 7291, "\u0120pl\u00c3\u00a4ne": 7292, "\u0120getr\u00c3\u00a4n": 7293, "\u0120verkauft": 7294, "\u0120bildungs": 7295, "pressedienst": 7296, "\u0120definition": 7297, "\u0120related": 7298, "\u0120birma": 7299, "\u0120paduraru": 7300, "\u0120ltd": 7301, "\u0120center": 7302, "\u0120ombuds": 7303, "aden": 7304, "cis": 7305, "har": 7306, "leiten": 7307, "\u0120wander": 7308, "icherung": 7309, "\u0120nick": 7310, "\u0120n\u00c3\u00b6r": 7311, "\u0120inc": 7312, "esa": 7313, "\u0120anson": 7314, "\u0120verlangt": 7315, "ions": 7316, "ikanen": 7317, "tiges": 7318, "link": 7319, "\u0120satell": 7320, "\u0120einzig": 7321, "\u0120gr\u00c3\u00bcne": 7322, "\u0120offene": 7323, "\u0120wordpress": 7324, "\u0120torres": 7325, "\u0120offizielle": 7326, "918": 7327, "i\u00c3\u0141": 7328, "ple": 7329, "\u0120mys": 7330, "\u0120auge": 7331, "\u0120zusch": 7332, "\u0120erfre": 7333, "bereit": 7334, "\u0120schne": 7335, "\u0120stano": 7336, "ione": 7337, "\u0120ru\u00c3\u0141": 7338, "\u0120angeb": 7339, "ma\u00c3\u0141": 7340, "\u0120there": 7341, "\u0120mob": 7342, "\u0120seitdem": 7343, "\u0120verstanden": 7344, "\u0120fr\u00c3\u00bchjahr": 7345, "\u0120erstes": 7346, "\u0120meist": 7347, "wegische": 7348, "\u0120salz": 7349, "\u0120augenblick": 7350, "\u0120best\u00c3\u00a4tigen": 7351, "\u0120gipfeltreffen": 7352, "\u0120moldau": 7353, "\u0120kirche": 7354, "klusive": 7355, "\u0120wolf": 7356, "evy": 7357, "\u0120abendessen": 7358, "app": 7359, "med": 7360, "oss": 7361, "str\u00c3\u00a4ger": 7362, "\u0120fire": 7363, "\u00c3\u00a4gen": 7364, "tist": 7365, "\u0120gucht": 7366, "\u0120cast": 7367, "\u0120face": 7368, "\u0120lieber": 7369, "\u0120seg": 7370, "\u012062": 7371, "izza": 7372, "\u0120produkten": 7373, "fahrzeuge": 7374, "\u0120vater": 7375, "\u0120privaten": 7376, "\u0120erw\u00c3\u00a4hnen": 7377, "\u0120standards": 7378, "\u0120installiert": 7379, "\u0120g\u00c3\u00bcnther": 7380, "ograph": 7381, "\u0120beobach": 7382, "\u0120helpful": 7383, "\u0120ansonsten": 7384, "\u0120wahre": 7385, "\u0120kron": 7386, "\u0120pia": 7387, "reevy": 7388, "uri": 7389, "\u0120gespielt": 7390, "\u0120bewe": 7391, "\u0120abschnitt": 7392, "\u0120hinder": 7393, "lieb": 7394, "\u0120view": 7395, "glichen": 7396, "\u0120mont": 7397, "\u0120reihen": 7398, "\u0120liby": 7399, "wahr": 7400, "waffen": 7401, "752": 7402, "\u0120breit": 7403, "\u0120haushaltsplan": 7404, "\u0120centre": 7405, "\u0120speicher": 7406, "\u0120dollar": 7407, "\u0120erholung": 7408, "\u0120westeren": 7409, "mission": 7410, "sein": 7411, "wind": 7412, "wissen": 7413, "\u0120if": 7414, "\u0120mb": 7415, "denk": 7416, "abgabe": 7417, "\u0120stad": 7418, "\u0120umgehend": 7419, "fass": 7420, "anzler": 7421, "\u0120argen": 7422, "blei": 7423, "\u0120leer": 7424, "\u012092": 7425, "\u0120export": 7426, "\u0120liikanen": 7427, "\u0120handy": 7428, "\u0120kleines": 7429, "\u0120samstag": 7430, "\u0120korrekt": 7431, "\u0120echo": 7432, "\u0120kabeljau": 7433, "z\u00c3\u00bcgigkeit": 7434, "\u0120anstrengungen": 7435, "nl": 7436, "ool": 7437, "\u0120sara": 7438, "\u0120fund": 7439, "testen": 7440, "\u0120bezeichnet": 7441, "\u0120scholle": 7442, "sik": 7443, "stechn": 7444, "stellungs": 7445, "\u0120aussicht": 7446, "akis": 7447, "ssektor": 7448, "haber": 7449, "\u0120barbar": 7450, "\u0120kamen": 7451, "\u0120vorgesch": 7452, "ures": 7453, "\u0120formul": 7454, "\u0120kostenlose": 7455, "\u0120gespeich": 7456, "\u0120g\u00c3\u00bcnter": 7457, "\u0120massnahmen": 7458, "\u0120leistungen": 7459, "\u0120externe": 7460, "\u0120schlafzimmer": 7461, "\u0120mccreevy": 7462, "\u0120zuverl\u00c3\u00a4ss": 7463, "\u0120schloss": 7464, "\u0120ignor": 7465, "\u0120zuletzt": 7466, "\u0120ru\u00c3\u0141land": 7467, "689": 7468, "cer": 7469, "dar": 7470, "nal": 7471, "\u0120;": 7472, "onom": 7473, "\u0120vla": 7474, "\u00c3\u00a4sche": 7475, "\u00c3\u00a4u\u00c3\u0141": 7476, "\u0120bef": 7477, "stigen": 7478, "bew": 7479, "\u0120begei": 7480, "\u0120n\u00c3\u00a4chstes": 7481, "\u0120unglaub": 7482, "server": 7483, "\u0120lauten": 7484, "way": 7485, "weisungen": 7486, "\u0120studien": 7487, "tini": 7488, "\u0120aktiviert": 7489, "\u0120event": 7490, "\u0120m\u00c3\u00bcnchen": 7491, "\u0120l\u00c3\u00b6schen": 7492, "\u0120ausgew\u00c3\u00a4hl": 7493, "technologie": 7494, "b\u00c3\u00bcrger": 7495, "\u0120besitzt": 7496, "\u0120fremden": 7497, "schirm": 7498, "\u0120easy": 7499, "\u0120fr\u00c3\u00bchst\u00c3\u00bccksbuffet": 7500, "sv": 7501, "utes": 7502, "\u0120eleg": 7503, "\u0120bauen": 7504, "\u0120hung": 7505, "\u0120einfuhr": 7506, "\u0120beziehen": 7507, "\u0120verord": 7508, "\u0120schatz": 7509, "\u0120cr": 7510, "ahnen": 7511, "\u0120vorzu": 7512, "\u0120vorl\u00c3\u00a4u": 7513, "forum": 7514, "\u0120main": 7515, "\u0120jack": 7516, "\u0120700": 7517, "\u0120todd": 7518, "\u0120problems": 7519, "\u0120gesicht": 7520, "\u0120neun": 7521, "\u0120stra\u00c3\u0141burg": 7522, "st\u00c3\u00a4ndigen": 7523, "\u0120schwach": 7524, "\u0120hochschul": 7525, "pool": 7526, "\u0120novak": 7527, "\u01202734": 7528, "betten": 7529, "\u0120visa": 7530, "\u0120interessante": 7531, "\u0120beteiligt": 7532, "\u0120doppelzimmer": 7533, "\u0120brian": 7534, "sch\u00c3\u00a4tzung": 7535, "\u0120mandat": 7536, "\u0120verh\u00c3\u00a4ltnis": 7537, "\u0120makro": 7538, "t\u00c3\u00a4": 7539, "zel": 7540, "\u0120sun": 7541, "unru": 7542, "\u0120achten": 7543, "ito": 7544, "\u0120letzt": 7545, "\u0120langen": 7546, "alo": 7547, "\u0120ans": 7548, "\u00c3\u0141te": 7549, "uth": 7550, "r\u00c3\u00a4f": 7551, "usse": 7552, "\u0120vielmehr": 7553, "ferenzen": 7554, "zeuger": 7555, "\u0120zeile": 7556, "f\u00c3\u00a4llig": 7557, "\u0120lokale": 7558, "nehmbar": 7559, "\u0120gratulieren": 7560, "\u0120glaubw\u00c3\u00bcrdig": 7561, "bas": 7562, "immer": 7563, "erlei": 7564, "\u0120dick": 7565, "\u0120irina": 7566, "\u0120h\u00c3\u00bc": 7567, "\u0120kra": 7568, "\u0120gefahren": 7569, "elia": 7570, "\u0120cer": 7571, "indlich": 7572, "euern": 7573, "\u0120\u00c3\u00bcbergangs": 7574, "\u0120ot": 7575, "men\u00c3\u00bc": 7576, "ger\u00c3\u00a4te": 7577, "leiter": 7578, "ma\u00c3\u0141en": 7579, "\u0120falle": 7580, "\u012051": 7581, "\u0120bett": 7582, "\u0120still": 7583, "\u0120wortlaut": 7584, "\u0120global": 7585, "\u0120globalen": 7586, "\u0120basiert": 7587, "sb\u00c3\u00bcr": 7588, "\u0120gef\u00c3\u00a4hrlich": 7589, "\u0120transfer": 7590, "\u0120verst\u00c3\u00a4rkt": 7591, "\u0120speichern": 7592, "\u0120rubrik": 7593, "\u0120begrenzt": 7594, "\u0120jugoslawien": 7595, "\u0120byrne": 7596, "kau": 7597, "nik": 7598, "\u0120doma": 7599, "\u0120set": 7600, "unge": 7601, "steht": 7602, "\u0120fri": 7603, "\u0120vb": 7604, "\u0120kreis": 7605, "republik": 7606, "\u0120z\u00c3\u00bc": 7607, "\u0120jer": 7608, "\u0120aufforderung": 7609, "aminister": 7610, "\u0120entschlossen": 7611, "ago": 7612, "ney": 7613, "\u012041": 7614, "\u0120bildet": 7615, "\u0120nunmehr": 7616, "\u0120excell": 7617, "\u0120gef\u00c3\u00a4": 7618, "\u0120atlan": 7619, "\u0120orien": 7620, "\u0120speziell": 7621, "\u0120stufe": 7622, "frank": 7623, "\u0120nordsee": 7624, "\u0120n\u00c3\u00bctzlich": 7625, "view": 7626, "66430": 7627, "\u0120brutto": 7628, "\u0120h\u00c3\u00bcbner": 7629, "\u0120parameter": 7630, "ku": 7631, "kurs": 7632, "star": 7633, "\u0120kart": 7634, "\u0120passt": 7635, "ask": 7636, "\u0120geehrte": 7637, "\u0120bezeichnung": 7638, "\u0120erf": 7639, "\u0120schick": 7640, "\u0120aufgrund": 7641, "rip": 7642, "ulta": 7643, "\u0120finanzierungs": 7644, "\u0120gro\u00c3\u0141britannien": 7645, "\u0120gerichtshofes": 7646, "\u0120autobahn": 7647, "\u0120johannes": 7648, "dateien": 7649, "\u0120argumente": 7650, "urop\u00c3\u00a4ische": 7651, "\u0120grenz\u00c3\u00bcberschreiten": 7652, "\u0120minderheiten": 7653, "l\u00c3\u00a4ndische": 7654, "\u0120excellent": 7655, "dra": 7656, "\u0120io": 7657, "\u0120iphone": 7658, "oni": 7659, "\u0120pasc": 7660, "\u0120l\u00c3\u00a4ch": 7661, "\u0120befassen": 7662, "\u0120aufnehmen": 7663, "\u0120rehn": 7664, "\u0120somal": 7665, "gran": 7666, "\u0120frat": 7667, "\u0120lied": 7668, "\u00c3\u00a4hrt": 7669, "\u0120hallo": 7670, "bour": 7671, "strich": 7672, "\u0120nutzer": 7673, "\u0120charlie": 7674, "94107": 7675, "\u0120....": 7676, "\u0120musste": 7677, "\u0120richten": 7678, "\u0120richard": 7679, "namen": 7680, "\u0120jahrhundert": 7681, "\u0120mehrwertsteuer": 7682, "\u0120diskriminierung": 7683, "verhandlungen": 7684, "\u0120schafft": 7685, "\u0120erwartungen": 7686, "fischer": 7687, "prinzip": 7688, "zb": 7689, "\u0120maus": 7690, "\u0120fanden": 7691, "\u0120gn": 7692, "alu": 7693, "\u0120erwerb": 7694, "\u0120stich": 7695, "reib": 7696, "\u0120hergestellt": 7697, "\u0120kongo": 7698, "rufen": 7699, "zeichnen": 7700, "865": 7701, "spekt": 7702, "\u0120ver\u00c3\u00a4ndern": 7703, "zusetzen": 7704, "\u0120franco": 7705, "\u0120hilfs": 7706, "\u0120patri": 7707, "\u0120ausgew\u00c3\u00a4hlt": 7708, "\u0120sch\u00c3\u00b6nen": 7709, "\u0120verpflichtet": 7710, "\u0120atmosph\u00c3\u00a4re": 7711, "\u0120puerto": 7712, "906": 7713, "hand": 7714, "inos": 7715, "\u0120zo": 7716, "\u0120gaz": 7717, "\u0120gezeigt": 7718, "iga": 7719, "gert": 7720, "\u0120grenze": 7721, "grundlage": 7722, "\u0120interne": 7723, "\u0120problemen": 7724, "\u0120moral": 7725, "\u0120montenegro": 7726, "\u0120times": 7727, "\u0120hei\u00c3\u0141en": 7728, "meldung": 7729, "sichten": 7730, "\u0120autos": 7731, "\u0120jugendher": 7732, "\u0120dienstleistungs": 7733, "\u0120charta": 7734, "\u0120archite": 7735, "\u0120anzeigen": 7736, "\u0120gratuliere": 7737, "\u0120gef\u00c3\u00b6rdert": 7738, "\u0120intensiv": 7739, "\u0120dr\u00c3\u00bccken": 7740, "blieben": 7741, "57484": 7742, "\u0120frattini": 7743, ".,": 7744, "gro": 7745, "pri": 7746, "ube": 7747, "ink": 7748, "\u0120iwf": 7749, "\u0120froh": 7750, "\u0120pek": 7751, "\u0120pfer": 7752, "urlaub": 7753, "\u0120indon": 7754, "\u0120over": 7755, "\u0120neuigkeiten": 7756, "dim": 7757, "\u0120m\u00c3\u00bcs": 7758, "\u0120teuer": 7759, "\u0120roy": 7760, "\u0120andern": 7761, "\u012095": 7762, "\u0120wohin": 7763, "\u0120bezahlt": 7764, "\u0120reservierung": 7765, "\u0120\u00c3\u00bcbrigens": 7766, "tifiziert": 7767, "\u0120commun": 7768, "\u0120amtierender": 7769, "\u0120todesstrafe": 7770, "kanzler": 7771, "mien": 7772, "m\u00c3\u00a4ss": 7773, "passt": 7774, "\u0120stern": 7775, "sch\u00c3\u00b6n": 7776, "dennis": 7777, "\u00c3\u00b6der": 7778, "\u0120(*": 7779, "abbott": 7780, "\u0120weihn": 7781, "agn": 7782, "ador": 7783, "pfung": 7784, "\u0120schlimm": 7785, "schlie\u00c3\u0141lich": 7786, "\u0120handlungs": 7787, "\u0120muster": 7788, "\u0120regelm\u00c3\u00a4\u00c3\u0141ig": 7789, "shop": 7790, "\u0120j\u00c3\u00a4hrlich": 7791, "tit\u00c3\u00a4t": 7792, "\u0120krankheiten": 7793, "\u0120ehemalige": 7794, "\u0120pierre": 7795, "\u0120korruption": 7796, "\u0120novakova": 7797, "dennisabbott": 7798, "ibt": 7799, "l\u00c3\u00b6": 7800, "\u0120ast": 7801, "\u0120tak": 7802, "\u0120zul\u00c3\u00a4ss": 7803, "\u0120vergr\u00c3\u00b6": 7804, "\u0120olli": 7805, "\u0120rand": 7806, "\u0120hot": 7807, "\u0120lieben": 7808, "\u0120quellen": 7809, "\u0120akzeptabel": 7810, "mittelt": 7811, "\u0120box": 7812, "\u0120n\u00c3\u00a4chte": 7813, "\u0120beitragen": 7814, "\u0120kamera": 7815, "\u0120verlu": 7816, "\u0120pr\u00c3\u00a4sent": 7817, "\u0120\u00c3\u00a4hnliche": 7818, "\u0120andreas": 7819, "angebot": 7820, "\u0120experten": 7821, "\u0120heimat": 7822, "\u0120konzentrieren": 7823, "\u0120sharrock": 7824, "\u0120ferienwohnung": 7825, "\u0120oliven\u00c3\u00b6l": 7826, "k\u00c3\u00bcr": 7827, "kannt": 7828, "ny": 7829, "xt": 7830, "\u0120eds": 7831, "\u0120mieten": 7832, "ani": 7833, "lly": 7834, "\u0120eindruck": 7835, "dent": 7836, "oli": 7837, "\u0120mittag": 7838, "ckte": 7839, "\u0120om": 7840, "verfol": 7841, "bewertung": 7842, "oha": 7843, "\u0120mache": 7844, "\u0120nega": 7845, "\u0120poln": 7846, "\u0120einzigar": 7847, "\u0120!!": 7848, "\u0120offenbar": 7849, "behandlung": 7850, "\u0120sch\u00c3\u00b6nes": 7851, "\u0120seezun": 7852, "\u0120zus\u00c3\u00a4tz": 7853, "\u0120widerspruch": 7854, "\u0120wellness": 7855, "\u0120verzeichnis": 7856, "position": 7857, "b\u00c3\u00bc": 7858, "ois": 7859, "sbericht": 7860, "wi": 7861, "\u0120),": 7862, "ergeb": 7863, "\u0120aw": 7864, "eitet": 7865, "\u0120biss": 7866, "\u0120l\u00c3\u00a4nge": 7867, "ded": 7868, "\u0120beunru": 7869, "\u0120crist": 7870, "\u0120alm": 7871, "\u0120unternommen": 7872, "\u0120endet": 7873, "ausgaben": 7874, "quin": 7875, "ovis": 7876, "\u0120120": 7877, "\u0120wirtschaftlichen": 7878, "\u0120geboten": 7879, "\u0120vertreterin": 7880, "\u0120time": 7881, "\u0120freiz\u00c3\u00bcgigkeit": 7882, "\u0120schriftlichen": 7883, "\u0120verhindern": 7884, "holm": 7885, "\u0120palace": 7886, "\u0120fernseh": 7887, "\u0120vorbereitet": 7888, "\u0120western": 7889, "\u0120botschafter": 7890, "\u0120lieferung": 7891, "\u0120vertr\u00c3\u00a4ge": 7892, "\u0120drama": 7893, "\u0120trend": 7894, "\u0120verz\u00c3\u00b6": 7895, "\u0120effizienz": 7896, "vorsitz": 7897, "\u0120strategische": 7898, "investitionen": 7899, "\u0120verl\u00c3\u00a4ngerung": 7900, "korea": 7901, "if": 7902, "obe": 7903, "var": 7904, "\u0120ww": 7905, "\u0120wlan": 7906, "ario": 7907, "\u0120grei": 7908, "\u0120annehmen": 7909, "\u0120verlangen": 7910, "\u0120rechten": 7911, "\u0120image": 7912, "\u0120hersteller": 7913, "\u0120vorn": 7914, "\u0120demo": 7915, "iken": 7916, "\u0120parti": 7917, "\u0120robert": 7918, "\u0120pour": 7919, "\u01201990": 7920, "h\u00c3\u00b6rt": 7921, "\u0120luxus": 7922, "pass": 7923, "innern": 7924, "\u0120beenden": 7925, "\u0120entscheidende": 7926, "\u0120liefert": 7927, "gangenen": 7928, "\u0120erh\u00c3\u00b6hen": 7929, "oslav": 7930, "\u0120mikro": 7931, "wechsel": 7932, "\u0120margot": 7933, "\u0120arzneimittel": 7934, "\u0120einladung": 7935, "\u0120pascal": 7936, "cic": 7937, "eten": 7938, "k\u00c3\u00bcn": 7939, "\u0120erm\u00c3\u00b6": 7940, "\u0120erteilt": 7941, "\u0120erinnern": 7942, "\u0120diesmal": 7943, "\u0120amelia": 7944, "\u0120fried": 7945, "\u012098": 7946, "marktes": 7947, "\u0120tipp": 7948, "\u0120gr\u00c3\u00bcnen": 7949, "glicht": 7950, "2012": 7951, "\u0120santa": 7952, "\u0120registrierung": 7953, "\u0120perfekte": 7954, "\u0120aktualisiert": 7955, "\u0120breite": 7956, "\u0120gef\u00c3\u00bchl": 7957, "\u0120konzert": 7958, "\u0120kompati": 7959, "\u0120ausschlie\u00c3\u0141lich": 7960, "91830": 7961, "\u0120mobile": 7962, "\u0120libyen": 7963, "\u0120edsb": 7964, "jen": 7965, "russ": 7966, "\u0120small": 7967, "\u0120futter": 7968, "\u0120pg": 7969, "ders": 7970, "\u0120jes": 7971, "\u0120station": 7972, "\u0120stard": 7973, "\u0120imp": 7974, "\u0120ausnahmen": 7975, "\u0120hoher": 7976, "blin": 7977, "\u0120parad": 7978, "riebe": 7979, "ids": 7980, "\u012064": 7981, "\u012079": 7982, "geld": 7983, "\u0120wollten": 7984, "\u0120iso": 7985, "\u0120mobiltelefon": 7986, "\u0120schulen": 7987, "\u0120sterne": 7988, "\u0120bernard": 7989, "villa": 7990, "\u0120vincent": 7991, "\u0120kampagne": 7992, "\u0120erm\u00c3\u00b6glicht": 7993, "\u0120sho": 7994, "\u0120w\u00c3\u00a4chst": 7995, "\u0120big": 7996, "\u0120mang": 7997, "\u0120vene": 7998, "\u0120kandid": 7999, "tifik": 8000, "\u0120gestellte": 8001, "\u0120bewir": 8002, "\u0120eurora": 8003, "aming": 8004, "\u0120sichern": 8005, "\u0120rauchen": 8006, "\u0120wende": 8007, "senden": 8008, "\u012087": 8009, "\u0120bilater": 8010, "\u0120guinea": 8011, "\u0120gelernt": 8012, "\u0120urban": 8013, "\u0120versionen": 8014, "\u0120haftung": 8015, "\u0120nahost": 8016, "\u0120k\u00c3\u00bcmmern": 8017, "876": 8018, "\u0120spezifische": 8019, "\u0120\u00c3\u00b6ffnet": 8020, "\u0120k\u00c3\u00bcnftigen": 8021, "\u0120umfassende": 8022, "\u0120balkanstaaten": 8023, "\u0120niedrig": 8024, "\u0120kulturelle": 8025, "\u0120stardoll": 8026, "gten": 8027, "rung": 8028, "eien": 8029, "\u0120frit": 8030, "\u00c3\u00a4ki": 8031, "\u0120had": 8032, "orben": 8033, "\u0120tsch": 8034, "\u0120zut": 8035, "\u0120verlie": 8036, "\u0120berichten": 8037, "\u0120m\u00c3\u00b6gliche": 8038, "\u0120ger\u00c3\u00a4um": 8039, "arbeits": 8040, "\u0120transe": 8041, "\u0120fortgesetzt": 8042, "\u0120user": 8043, "m\u00c3\u00a4\u00c3\u0141igung": 8044, "netze": 8045, "\u0120steigt": 8046, "\u0120integrierte": 8047, "\u0120achtung": 8048, "fehl": 8049, "\u0120w\u00c3\u00a4hrungsunion": 8050, "\u0120knapp": 8051, "\u0120himmel": 8052, "\u0120s\u00c3\u00a4mtliche": 8053, "dro": 8054, "dlichen": 8055, "une": 8056, "\u0120einstellungen": 8057, "\u0120g\u00c3\u00bcter": 8058, "\u0120296": 8059, "anni": 8060, "\u0120warm": 8061, "\u0120chat": 8062, "\u0120schlag": 8063, "\u0120rechtsetzung": 8064, "\u0120freunden": 8065, "\u0120fluss": 8066, "\u0120more": 8067, "\u0120wohnen": 8068, "\u0120peti": 8069, "\u0120abkommens": 8070, "\u0120empfehle": 8071, "f\u00c3\u00a4hige": 8072, "\u0120golden": 8073, "\u0120beantra": 8074, "\u0120fraktionen": 8075, "w\u00c3\u00a4rts": 8076, "\u0120tests": 8077, "\u0120t\u00c3\u00a4tigkeiten": 8078, "\u0120signal": 8079, "\u0120semin": 8080, "\u0120bekomme": 8081, "\u0120f\u00c3\u00a4higkeiten": 8082, "\u0120vorangegangenen": 8083, "54629": 8084, "\u0120l\u00c3\u00a4\u00c3\u0141t": 8085, "ble": 8086, "las": 8087, "nio": 8088, "\u0120sat": 8089, "\u0120its": 8090, "\u0120bj": 8091, "\u0120vot": 8092, "terkeit": 8093, "\u0120schande": 8094, "\u0120euros": 8095, "leun": 8096, "reitet": 8097, "\u0120konvent": 8098, "\u0120hingewiesen": 8099, "\u0120ware": 8100, "\u0120liefern": 8101, "\u00c3\u00bctung": 8102, "\u0120selber": 8103, "\u0120andr": 8104, "\u0120urmas": 8105, "\u01201991": 8106, "ally": 8107, "\u0120energieeffizienz": 8108, "\u0120begr\u00c3\u00bcn": 8109, "\u0120suite": 8110, "weiterung": 8111, "\u0120\u00e2\u0124\u00ac)": 8112, "\u0120skandal": 8113, "\u0120erweitert": 8114, "\u0120institut": 8115, "\u0120sensi": 8116, "\u0120vermieten": 8117, "\u0120mi\u00c3\u0141": 8118, "\u0120tuom": 8119, "\u0120hamburg": 8120, "bieter": 8121, "\u0120gespeichert": 8122, "frankreich": 8123, "215": 8124, "300": 8125, "kn": 8126, "nicht": 8127, "zwe": 8128, "\u0120flo": 8129, "ssp": 8130, "\u0120einfluss": 8131, "\u0120vermitt": 8132, "bern": 8133, "\u0120oc": 8134, "\u0120ring": 8135, "\u0120unterzeichnet": 8136, "angs": 8137, "\u012054": 8138, "\u0120roger": 8139, "\u0120paet": 8140, "\u012088": 8141, "\u0120linken": 8142, "407": 8143, "\u0120cons": 8144, "\u0120plaza": 8145, "\u0120gedacht": 8146, "\u0120charakter": 8147, "\u0120miguel": 8148, "\u0120beobachten": 8149, "\u0120mittelmeerraum": 8150, "\u0120lohnt": 8151, "\u0120verringerung": 8152, "\u0120kuba": 8153, "\u0120lobby": 8154, "\u0120betrugsbek\u00c3\u00a4mpfung": 8155, "\u0120differenz": 8156, "\u0120facebook": 8157, "\u0120tuomio": 8158, "\u00c3\u00a4g": 8159, "\u0120k\u00c3\u00a4mpfen": 8160, "\u0120unein": 8161, "\u0120nichtig": 8162, "\u0120gent": 8163, "\u0120belo": 8164, "\u0120behalten": 8165, "isiert": 8166, "\u0120cra": 8167, "\u0120umstruktur": 8168, "tain": 8169, "gericht": 8170, "\u0120westen": 8171, "\u0120faktor": 8172, "ads": 8173, "\u0120ros": 8174, "\u0120bilanz": 8175, "\u0120expl": 8176, "\u0120willen": 8177, "\u0120blut": 8178, "\u0120stadtzentrum": 8179, "\u0120fahrzeug": 8180, "chtenstein": 8181, "haup": 8182, "\u0120ersetzt": 8183, "\u0120vorgeschlagene": 8184, "\u0120alexander": 8185, "\u0120generalsekret\u00c3\u00a4r": 8186, "korb": 8187, "\u0120popul": 8188, "\u0120romano": 8189, "\u0120b\u00c3\u00bccher": 8190, "\u0120gespr\u00c3\u00a4che": 8191, "\u0120ombudsmann": 8192, "ous": 8193, "sis": 8194, "yth": 8195, "inne": 8196, "\u0120ezb": 8197, "\u0120bord": 8198, "\u0120mandel": 8199, "\u0120z\u00c3\u00bcr": 8200, "\u0120anal": 8201, "\u0120sieg": 8202, "\u0120jar": 8203, "iland": 8204, "\u0120ausger": 8205, "\u0120prote": 8206, "\u0120angel": 8207, "\u0120diver": 8208, "\u0120forderung": 8209, "ovi": 8210, "\u0120dusche": 8211, "wski": 8212, "bilanz": 8213, "\u0120tunesien": 8214, "wirtschaftung": 8215, "\u0120worauf": 8216, "\u0120wissens": 8217, "h\u00c3\u00a4fen": 8218, "\u0120usd": 8219, "\u00c3\u00a4fte": 8220, "\u0120play": 8221, "\u0120string": 8222, "1998": 8223, "\u0120panor": 8224, "\u0120bestandteil": 8225, "\u0120kompliziert": 8226, "\u0120barbara": 8227, "\u0120s\u00c3\u00a4": 8228, "\u0120fleisch": 8229, "\u0120vic": 8230, "\u0120pur": 8231, "\u00c3\u00bcren": 8232, "\u0120betragen": 8233, "\u0120erzeugt": 8234, "\u0120vorb": 8235, "\u0120abreise": 8236, "\u0120provin": 8237, "omer": 8238, "\u0120nachmittag": 8239, "zugang": 8240, "\u0120desto": 8241, "\u0120liechtenstein": 8242, "\u0120gewicht": 8243, "sselt": 8244, "\u0120betten": 8245, "tiere": 8246, "\u0120arbeitsplan": 8247, "antas": 8248, "\u0120irgende": 8249, "\u0120standort": 8250, "\u0120b\u00c3\u00bcrok": 8251, "\u0120handlung": 8252, "\u0120startet": 8253, "innenmarkt": 8254, "\u0120regelungen": 8255, "\u0120zugelassen": 8256, "rosoft": 8257, "\u0120verpflichtung": 8258, "\u0120gew\u00c3\u00a4hrt": 8259, "\u0120anzeige": 8260, "\u0120konsequenzen": 8261, "\u0120putin": 8262, "68909": 8263, "\u0120somalia": 8264, "granat": 8265, "\u0120indonesien": 8266, "politische": 8267, "zieren": 8268, "\u0120emer": 8269, "ong": 8270, "\u0120hahn": 8271, "\u0120klei": 8272, "tiken": 8273, "\u0120einkommen": 8274, "alia": 8275, "\u0120ersta": 8276, "\u0120referenz": 8277, "\u0120berichtig": 8278, "ungsk": 8279, "\u0120maja": 8280, "mass": 8281, "kl\u00c3\u00a4rt": 8282, "\u0120lieb": 8283, "\u0120seel": 8284, "\u0120viet": 8285, "tika": 8286, "\u0120verbrechen": 8287, "\u0120\u00c3\u00b6ffentlich": 8288, "\u0120emissionen": 8289, "\u0120wiederum": 8290, "\u0120haust": 8291, "\u0120er\u00c3\u00b6rtert": 8292, "\u0120genaue": 8293, "\u0120detaill": 8294, "\u0120katalog": 8295, "\u0120unterschiedliche": 8296, "\u0120amerikas": 8297, "\u0120european": 8298, "\u0120kreditkarte": 8299, "\u0120baumw": 8300, "\u0120microsoft": 8301, "\u0120geburt": 8302, "\u0120nielson": 8303, "\u0120bed\u00c3\u00bcrf": 8304, "dauer": 8305, "pm": 8306, "setzt": 8307, "ymp": 8308, "\u0120setz": 8309, "\u0120wat": 8310, "\u0120k\u00c3\u00a4": 8311, "orca": 8312, "\u0120niger": 8313, "terie": 8314, "\u0120angriff": 8315, "emissionen": 8316, "ierer": 8317, "\u0120denk": 8318, "\u0120vorstellung": 8319, "\u0120alleine": 8320, "agung": 8321, "zustellen": 8322, "\u0120besitzen": 8323, "\u0120zusammenhalt": 8324, "102": 8325, "\u0120islam": 8326, "\u0120zur\u00c3\u00bcckkommen": 8327, "\u0120fischereipolitik": 8328, "aldo": 8329, "stoffen": 8330, "\u0120sch\u00c3\u00b6nsten": 8331, "sprogramme": 8332, "\u0120egf": 8333, "\u0120griech": 8334, "\u0120tatsachen": 8335, "\u0120music": 8336, "\u0120logo": 8337, "\u0120laufenden": 8338, "\u0120swiss": 8339, "\u0120reagiert": 8340, "\u0120bewertet": 8341, "\u0120vorliegenden": 8342, "\u0120ursachen": 8343, "\u0120bekommt": 8344, "\u0120absurd": 8345, "\u0120journal": 8346, "russland": 8347, "bb": 8348, "bast": 8349, "\u00c3\u00bcre": 8350, "\u0120lern": 8351, "\u0120wirkt": 8352, "\u0120beweis": 8353, "\u0120ergeben": 8354, "leger": 8355, "formationen": 8356, "\u0120presserefer": 8357, "\u0120steckt": 8358, "\u0120mall": 8359, "\u00c3\u00a4nderung": 8360, "\u0120faktoren": 8361, "\u0120sichere": 8362, "vizepr\u00c3\u00a4sident": 8363, "\u0120gebaut": 8364, "\u01201989": 8365, "\u0120regionalen": 8366, "\u0120isol": 8367, "\u0120freihandel": 8368, "\u0120bekannte": 8369, "\u0120letztes": 8370, "\u0120schnelle": 8371, "\u0120kurzfrist": 8372, "\u0120getren": 8373, "\u0120liter": 8374, "cial": 8375, "\u0120politiker": 8376, "\u0120gestalten": 8377, "\u0120afrikan": 8378, "\u0120pr\u00c3\u00a4vention": 8379, "freie": 8380, "\u0120instanz": 8381, "\u0120streit": 8382, "\u0120hinzugef\u00c3\u00bcgt": 8383, "\u0120corazza": 8384, "\u0120koh\u00c3\u00a4r": 8385, "\u0120organisieren": 8386, "\u0120bibliothe": 8387, "\u0120billige": 8388, "\u0120erdbe": 8389, "\u0120realistisch": 8390, "\u0120\u00c3\u00a4lter": 8391, "\u0120temper": 8392, "\u0120ordner": 8393, "\u0120comfortable": 8394, "verwaltung": 8395, "\u0120festival": 8396, "\u0120landwirte": 8397, "\u0120satelliten": 8398, "\u0120begeister": 8399, "\u0120euroraum": 8400, "\u0120aro": 8401, "\u0120za": 8402, "acher": 8403, "\u0120\u00c3\u00bcbertragen": 8404, "weiten": 8405, "\u0120k\u00c3\u00b6nnt": 8406, "\u0120parall": 8407, "\u0120java": 8408, "quelle": 8409, "klar": 8410, "laude": 8411, "\u012096": 8412, "\u0120beschleun": 8413, "\u0120bedro": 8414, "\u0120kommenden": 8415, "zahlen": 8416, "\u0120aussch\u00c3\u00bcsse": 8417, "\u0120besch\u00c3\u00a4ftigt": 8418, "tisches": 8419, "ited": 8420, "\u0120zieht": 8421, "\u0120kernel": 8422, "\u0120services": 8423, "\u0120verst\u00c3\u00a4rkte": 8424, "j\u00c3\u00a4hrige": 8425, "\u0120strategien": 8426, "\u0120badezimmer": 8427, "\u0120forderungen": 8428, "institu": 8429, "\u0120nahrungsmittel": 8430, "\u0120distri": 8431, "\u0120katastrophenschutz": 8432, "\u0120ermutigen": 8433, "\u0120bewegt": 8434, "\u0120argentin": 8435, "\u0120gef\u00c3\u00a4llt": 8436, "\u0120(*)": 8437, "ef": 8438, "steuerung": 8439, "\u0120path": 8440, "\u0120einsetzen": 8441, "\u0120galerie": 8442, "denz": 8443, "\u0120anony": 8444, "\u0120herum": 8445, "riz": 8446, "\u0120spar": 8447, "weder": 8448, "\u012063": 8449, "\u0120papa": 8450, "\u0120f\u00c3\u00bcgen": 8451, "\u0120opti": 8452, "\u0120aktien": 8453, "indert": 8454, "\u0120vorsichtig": 8455, "\u0120st\u00c3\u00a4rke": 8456, "bahnhof": 8457, "\u0120entsprechenden": 8458, "produktion": 8459, "57517": 8460, "\u0120rechnen": 8461, "\u0120elektronische": 8462, "\u0120patent": 8463, "\u0120kranken": 8464, "fikationen": 8465, "\u0120fitness": 8466, "\u0120patienten": 8467, "\u0120vietnam": 8468, "kil": 8469, "neu": 8470, "\u0120w\u00c3\u00bc": 8471, "\u0120eck": 8472, "\u0120bier": 8473, "\u0120mund": 8474, "\u0120vista": 8475, "deten": 8476, "\u0120behaup": 8477, "lichten": 8478, "abl": 8479, "\u0120vorab": 8480, "heber": 8481, "\u0120nachfrage": 8482, "\u0120massen": 8483, "\u0120ausser": 8484, "klaus": 8485, "\u0120margar": 8486, "\u0120gewinnt": 8487, "\u0120webseiten": 8488, "\u0120gebieten": 8489, "\u0120trat": 8490, "\u0120ausgeschlossen": 8491, "\u0120usw": 8492, "\u0120fahrzeuge": 8493, "legungen": 8494, "\u0120trocken": 8495, "\u0120access": 8496, "\u0120buchst": 8497, "\u0120schwierige": 8498, "\u0120evalu": 8499, "\u0120bew\u00c3\u00a4l": 8500, "\u0120simon": 8501, "\u0120erhebt": 8502, "\u0120k\u00c3\u00bcnftig": 8503, "\u0120kennzeichnung": 8504, "reformen": 8505, "haushaltsplan": 8506, "\u0120hong": 8507, "\u0120black": 8508, "\u0120indik": 8509, "\u0120sorgf\u00c3\u00a4ltig": 8510, "skodex": 8511, "\u0120nachbarschaftspolitik": 8512, "\u0120audiovis": 8513, "\u0120kaisergranat": 8514, "zellen": 8515, "iegen": 8516, "\u0120vitor": 8517, "\u0120kyp": 8518, "sch\u00c3\u00a4": 8519, "\u0120pas": 8520, "\u0120audio": 8521, "\u0120einbe": 8522, "\u0120gall": 8523, "\u0120scheinen": 8524, "\u0120st\u00c3\u00b6": 8525, "\u0120mitten": 8526, "\u0120runde": 8527, "grenze": 8528, "\u0120wartet": 8529, "\u0120master": 8530, "andem": 8531, "\u0120seines": 8532, "fenster": 8533, "\u0120darlehen": 8534, "schend": 8535, "\u0120gewisse": 8536, "\u0120sap": 8537, "kehrt": 8538, "\u0120gelesen": 8539, "\u0120bedien": 8540, "\u0120bou": 8541, "\u0120vollen": 8542, "roni": 8543, "f\u00c3\u00a4llt": 8544, "\u0120meister": 8545, "systems": 8546, "\u0120schlechte": 8547, "\u0120eingereicht": 8548, "\u0120ausgangspunkt": 8549, "\u0120verabschiedet": 8550, "\u0120begeg": 8551, "sb\u00c3\u00bcrger": 8552, "\u0120andernfalls": 8553, "bald": 8554, "izi": 8555, "vol": 8556, "yi": 8557, "\u0120hein": 8558, "orah": 8559, "ray": 8560, "\u0120aust": 8561, "italien": 8562, "\u0120ansch": 8563, "\u0120trum": 8564, "\u0120zuges": 8565, "\u0120sch\u00c3\u00a4t": 8566, "ision": 8567, "\u0120ausfuhr": 8568, "\u0120oh": 8569, "\u0120vorder": 8570, "\u0120konsens": 8571, "stimmungen": 8572, "\u012059": 8573, "sendet": 8574, "\u0120seele": 8575, "\u0120gewal": 8576, "\u0120saint": 8577, "ardo": 8578, "\u0120nato": 8579, "\u0120zielen": 8580, "\u0120adobe": 8581, "\u0120zweit": 8582, "\u0120normen": 8583, "\u0120brand": 8584, "\u0120k\u00c3\u00bcste": 8585, "\u0120beteiligten": 8586, "\u0120digital": 8587, "\u0120vertrieb": 8588, "\u0120geniessen": 8589, "verbrauch": 8590, "\u0120feiern": 8591, "\u0120diamant": 8592, "\u0120australien": 8593, "bleiben": 8594, "iver": 8595, "lit": 8596, "ual": 8597, "vb": 8598, "yle": 8599, "station": 8600, "\u0120wid": 8601, "\u0120b\u00c3\u00b6r": 8602, "\u0120mie": 8603, "\u0120fett": 8604, "\u0120kab": 8605, "\u0120non": 8606, "\u0120indem": 8607, "\u0120gang": 8608, "\u0120gehe": 8609, "\u0120zulassen": 8610, "\u0120renten": 8611, "\u0120spec": 8612, "\u0120arme": 8613, "\u0120finanzrahmen": 8614, "\u0120stellte": 8615, "\u0120freut": 8616, "\u0120lod": 8617, "\u0120objekt": 8618, "endo": 8619, "\u0120deborah": 8620, "\u0120stimmabgabe": 8621, "\u0120politikbereiche": 8622, "\u0120fahrer": 8623, "\u0120au\u00c3\u0141enpolitik": 8624, "\u0120parkpl\u00c3\u00a4tze": 8625, "\u0120notwendigkeit": 8626, "\u0120engag": 8627, "\u0120elektro": 8628, "\u0120lehnen": 8629, "\u0120altstadt": 8630, "\u0120sichtbar": 8631, "\u0120sterben": 8632, "\u0120wiederaufbau": 8633, "\u0120maximale": 8634, "\u0120bedauerlich": 8635, "\u0120ueber": 8636, "\u0120erlebnis": 8637, "debatte": 8638, "\u0120bisschen": 8639, "agenda": 8640, "gir": 8641, "gner": 8642, "tv": 8643, "\u0120acc": 8644, "\u0120vierte": 8645, "\u0120king": 8646, "\u0120l\u00c3\u00bcck": 8647, "\u0120gegangen": 8648, "denten": 8649, "\u0120110": 8650, "\u0120schie": 8651, "\u0120cir": 8652, "\u0120call": 8653, "sprache": 8654, "\u0120alpen": 8655, "iker": 8656, "\u0120nachdenken": 8657, "gerien": 8658, "\u0120vielzahl": 8659, "\u012091": 8660, "hai": 8661, "\u0120minim": 8662, "ips": 8663, "\u0120blu": 8664, "minuten": 8665, "\u0120norden": 8666, "\u0120korea": 8667, "\u0120antr\u00c3\u00a4ge": 8668, "\u0120rio": 8669, "\u0120submit": 8670, "\u0120entdecke": 8671, "\u0120zugestimmt": 8672, "\u0120publik": 8673, "\u0120wochenende": 8674, "\u0120kolleginnen": 8675, "krieg": 8676, "\u0120lateinamerika": 8677, "\u0120z\u00c3\u00bcrich": 8678, "101": 8679, "ao": 8680, "\u0120sd": 8681, "\u0120brief": 8682, "\u0120unann": 8683, "\u0120erhaltung": 8684, "andlungs": 8685, "\u0120ausdr\u00c3\u00bccklich": 8686, "\u0120r\u00c3\u00b6": 8687, "\u0120entweder": 8688, "fad": 8689, "steuropa": 8690, "mater": 8691, "\u0120para": 8692, "\u012057": 8693, "geb\u00c3\u00bchren": 8694, "ici": 8695, "ska": 8696, "\u0120hauses": 8697, "\u0120reda": 8698, "51752": 8699, "\u0120nat\u00c3\u00bcrliche": 8700, "\u0120besseren": 8701, "\u0120offenen": 8702, "dates": 8703, "cijan": 8704, "tisiert": 8705, "\u0120old": 8706, "\u0120olymp": 8707, "schreiben": 8708, "\u0120schlie\u00c3\u0141t": 8709, "ologien": 8710, "ights": 8711, "\u0120modelle": 8712, "normen": 8713, "90403": 8714, "\u0120zivilgesellschaft": 8715, "\u0120wild": 8716, "\u0120investieren": 8717, "\u0120leichte": 8718, "funk": 8719, "\u0120retten": 8720, "\u0120cookies": 8721, "\u0120unannehm": 8722, "cijancic": 8723, "810": 8724, "bor": 8725, "g\u00c3\u00a4": 8726, "kal": 8727, "mi": 8728, "ofern": 8729, "rand": 8730, "ton": 8731, "xx": 8732, "erweiterung": 8733, "\u0120sitzen": 8734, "\u0120edit": 8735, "\u0120ml": 8736, "\u0120mur": 8737, "anlagen": 8738, "\u0120fat": 8739, "\u0120fig": 8740, "\u0120kinn": 8741, "\u0120ner": 8742, "red": 8743, "\u0120zigar": 8744, "ason": 8745, "\u0120einrichtungen": 8746, "\u0120zugriff": 8747, "\u0120close": 8748, "r\u00c3\u00a4glich": 8749, "\u0120hoh": 8750, "\u012056": 8751, "\u0120intervention": 8752, "\u0120thun": 8753, "\u0120sech": 8754, "\u0120stammt": 8755, "\u0120gewissen": 8756, "\u0120gemeinde": 8757, "\u0120kocijancic": 8758, "\u0120insofern": 8759, "\u0120only": 8760, "\u0120produziert": 8761, "\u0120langer": 8762, "\u0120halle": 8763, "\u0120vogel": 8764, "weitere": 8765, "\u0120rechtsstaat": 8766, "\u00c3\u00a4dchen": 8767, "883": 8768, "\u0120handelsbeziehungen": 8769, "\u0120komplette": 8770, "\u0120friedensprozess": 8771, "\u0120billigt": 8772, "\u0120fanta": 8773, "----": 8774, "\u0120reservieren": 8775, "\u0120hamer": 8776, "\u0120historische": 8777, "winden": 8778, "\u0120maschine": 8779, "kontrollen": 8780, "selben": 8781, "\u0120kriminalit\u00c3\u00a4t": 8782, "\u0120erneuerbare": 8783, "\u0120getr\u00c3\u00a4nke": 8784, "\u0120vorgeschichte": 8785, "\u0120beantragt": 8786, "cn": 8787, "fischen": 8788, "oder": 8789, "uft": 8790, "ved": 8791, "via": 8792, "\u0120ut": 8793, "char": 8794, "\u0120doha": 8795, "\u0120sis": 8796, "gest": 8797, "\u0120fuss": 8798, "\u0120vit": 8799, "ichert": 8800, "\u0120anreise": 8801, "\u0120ansehen": 8802, "\u0120erb": 8803, "\u0120erwei": 8804, "\u0120erm\u00c3\u00a4\u00c3\u0141igung": 8805, "anno": 8806, "\u0120vorstellen": 8807, "\u0120abf\u00c3\u00a4lle": 8808, "\u0120klaus": 8809, "eku": 8810, "\u0120\u00c3\u00b6st": 8811, "\u0120moel": 8812, "\u0120webcam": 8813, "\u0120plat": 8814, "\u0120plattform": 8815, "\u0120apost": 8816, "zahlung": 8817, "\u0120stufen": 8818, "\u0120f\u00c3\u00bchrer": 8819, "\u0120taxi": 8820, "\u0120ergibt": 8821, "\u0120dritter": 8822, "\u0120raums": 8823, "fristen": 8824, "sektors": 8825, "\u0120alternativen": 8826, "\u0120kooperations": 8827, "\u0120wechseln": 8828, "\u0120j\u00c3\u00a4hrliche": 8829, "\u0120identit\u00c3\u00a4t": 8830, "\u0120schreyer": 8831, "\u0120hilfreich": 8832, "\u0120bedrohung": 8833, "\u0120anregungen": 8834, "furt": 8835, "oc": 8836, "of": 8837, "otel": 8838, "prechen": 8839, "typ": 8840, "von": 8841, "eiger": 8842, "tek": 8843, "\u0120zin": 8844, "\u0120gy": 8845, "\u0120zuk\u00c3\u00bcnf": 8846, "\u0120\u00c3\u00bcbergang": 8847, "\u0120day": 8848, "\u0120unsinn": 8849, "\u0120prop": 8850, "\u0120hingegen": 8851, "\u0120hinblick": 8852, "\u0120faq": 8853, "statisti": 8854, "\u0120statist": 8855, "\u0120ger\u00c3\u00a4te": 8856, "\u0120verbindungen": 8857, "\u0120urheber": 8858, "\u0120tit": 8859, "fahrer": 8860, "\u0120ebenen": 8861, "\u0120suites": 8862, "felder": 8863, "\u0120govern": 8864, "\u0120s\u00c3\u00bcden": 8865, "\u0120innovative": 8866, "presserefer": 8867, "\u0120palacio": 8868, "\u0120based": 8869, "\u0120antnio": 8870, "\u0120ivan": 8871, "\u0120separ": 8872, "\u0120konsum": 8873, "\u0120erlebt": 8874, "\u0120downloaden": 8875, "\u0120gesetze": 8876, "\u0120gef\u00c3\u00a4hrliche": 8877, "\u0120unabh\u00c3\u00a4ngigkeit": 8878, "\u0120jeweiligen": 8879, "\u0120beschr\u00c3\u00a4nkt": 8880, "bezogene": 8881, "\u0120keineswegs": 8882, "instrumente": 8883, "\u0120anwesend": 8884, "gemeinschaft": 8885, "\u0120mysql": 8886, "\u0120mandelson": 8887, "780": 8888, "kul": 8889, "papier": 8890, "zut": 8891, "\u0120\u00c3\u00a4t": 8892, "\u0120stig": 8893, "\u0120echt": 8894, "\u0120nizza": 8895, "alts": 8896, "iso": 8897, "euert": 8898, "\u0120voraussch": 8899, "ehrt": 8900, "\u0120projekten": 8901, "\u0120r\u00c3\u00bc": 8902, "\u0120wieso": 8903, "\u0120ministerpr\u00c3\u00a4sident": 8904, "\u0120angewand": 8905, "\u0120\u00c3\u00b6konom": 8906, "gebracht": 8907, "\u0120neuesten": 8908, "\u0120feat": 8909, "\u0120natas": 8910, "ventionen": 8911, "\u0120aktualisierung": 8912, "richtet": 8913, "\u0120helene": 8914, "\u0120\u0120\u0120": 8915, "\u0120krebs": 8916, "gute": 8917, "\u0120wohlstand": 8918, "\u00c3\u00a4dt": 8919, "\u0120appell": 8920, "gleichheit": 8921, "\u0120abstimmungen": 8922, "\u0120\u00c3\u00bcberrascht": 8923, "\u0120langfristige": 8924, "\u0120kolum": 8925, "\u0120angenehm": 8926, "\u0120hervorragend": 8927, "prachen": 8928, "\u0120kyoto": 8929, "\u0120geldbu\u00c3\u0141en": 8930, "\u0120gottes": 8931, "\u0120au\u00c3\u0141erordentlich": 8932, "tum": 8933, "yr": 8934, "\u0120dos": 8935, "\u0120etik": 8936, "\u0120econ": 8937, "\u0120vel": 8938, "tif": 8939, "rea": 8940, "urce": 8941, "\u0120insp": 8942, "\u0120einfuhren": 8943, "\u0120einschr\u00c3\u00a4n": 8944, "hro": 8945, "\u0120erwer": 8946, "uminister": 8947, "\u0120coll": 8948, "\u0120\u00c3\u00bcberzeugen": 8949, "besch": 8950, "r\u00c3\u00a4umen": 8951, "\u0120rauch": 8952, "schaffung": 8953, "\u00c3\u00a4nderungen": 8954, "\u0120aussage": 8955, "\u0120genannten": 8956, "\u01202016": 8957, "gesundheit": 8958, "\u0120vivi": 8959, "\u0120urteile": 8960, "\u0120dahin": 8961, "\u0120haar": 8962, "schieben": 8963, "st\u00c3\u00a4nden": 8964, "peri": 8965, "\u0120fortsetzen": 8966, "\u0120einzelne": 8967, "\u0120rechtsgrundlage": 8968, "\u0120kapazit\u00c3\u00a4t": 8969, "\u0120innovations": 8970, "\u0120generalanw": 8971, "\u0120spass": 8972, "ible": 8973, "mitgliedstaaten": 8974, "texte": 8975, "\u0120humanressourcen": 8976, "\u0120konkreten": 8977, "\u0120sektoren": 8978, "\u0120erdgas": 8979, "mlaga": 8980, "\u0120normalerweise": 8981, "\u0120fordere": 8982, "\u0120gen\u00c3\u00bcgt": 8983, "\u0120haupts\u00c3\u00a4chlich": 8984, "\u0120html": 8985, "\u0120redakteure": 8986, ")?": 8987, "drucken": 8988, "eva": 8989, "gga": 8990, "hein": 8991, "kk": 8992, "\u0120sachen": 8993, "andern": 8994, "irland": 8995, "empf": 8996, "\u0120ersatz": 8997, "umer": 8998, "ience": 8999, "\u00c3\u00a4nen": 9000, "\u0120vorfeld": 9001, "\u0120umsatz": 9002, "\u0120run": 9003, "\u0120unterst": 9004, "\u0120m\u00c3\u00b6gen": 9005, "chez": 9006, "later": 9007, "edia": 9008, "\u0120mario": 9009, "\u0120front": 9010, "\u0120besorgt": 9011, "\u012061": 9012, "\u0120guest": 9013, "\u0120tironi": 9014, "\u0120schwed": 9015, "zahlt": 9016, "\u0120atom": 9017, "handelskommissar": 9018, "iums": 9019, "\u0120juncker": 9020, "\u0120\u00e2\u0124\u00ac.": 9021, "\u0120bildschirm": 9022, "\u0120filter": 9023, "\u0120handelsfragen": 9024, "\u0120subst": 9025, "!!!": 9026, "\u0120fu\u00c3\u0141ball": 9027, "sschreiben": 9028, "justiz": 9029, "\u0120methoden": 9030, "\u0120liberalisierung": 9031, "\u0120kontinent": 9032, "\u0120brenn": 9033, "\u0120qualifiz": 9034, "\u0120effektiv": 9035, "mechanismus": 9036, "\u0120alexandre": 9037, "\u0120thailand": 9038, "86570": 9039, "\u0120seezunge": 9040, "ky": 9041, "m\u00c3\u00a4ch": 9042, "\u0120bog": 9043, "ania": 9044, "\u0120vw": 9045, "\u0120hunde": 9046, "lles": 9047, "\u0120einstimm": 9048, "\u0120lot": 9049, "\u0120gearbeitet": 9050, "\u0120anrei": 9051, "\u0120tolle": 9052, "\u0120erteilen": 9053, "rol": 9054, "\u0120ji": 9055, "ismen": 9056, "ellschaften": 9057, "\u0120speisen": 9058, "\u0120entsteht": 9059, "zim": 9060, "\u0120geschah": 9061, "\u0120posselt": 9062, "\u0120irre": 9063, "\u0120solar": 9064, "\u0120m\u00c3\u00b6glicherweise": 9065, "\u0120ausgesprochen": 9066, "\u0120ausgezeichnet": 9067, "\u0120vollst\u00c3\u00a4ndigen": 9068, "\u0120stud": 9069, "r\u00c3\u00a4nde": 9070, "\u0120h\u00c3\u00b6rt": 9071, "\u0120g\u00c3\u00bcnstig": 9072, "\u0120know": 9073, "\u0120stabilit\u00c3\u00a4tsprogramm": 9074, "\u0120domin": 9075, "\u0120what": 9076, "\u0120burg": 9077, "\u0120sprecher": 9078, "ktivit\u00c3\u00a4t": 9079, "\u0120gebeten": 9080, "\u0120psych": 9081, "\u0120hindernisse": 9082, "\u0120vorl\u00c3\u00a4uf": 9083, "g\u00c3\u00a4nge": 9084, "ialien": 9085, "\u0120fle": 9086, "\u0120kde": 9087, "urm": 9088, "itar": 9089, "\u0120gekenn": 9090, "\u0120geblieben": 9091, "\u0120jord": 9092, "\u0120aufs": 9093, "\u0120aufh\u00c3\u00b6ren": 9094, "isieren": 9095, "\u0120clan": 9096, "igungen": 9097, "spr\u00c3\u00a4": 9098, "\u0120umfa\u00c3\u0141t": 9099, "\u0120rind": 9100, "\u0120weisen": 9101, "\u0120habt": 9102, "\u0120hinnehmbar": 9103, "\u0120marco": 9104, "frau": 9105, "\u012067": 9106, "\u012072": 9107, "\u0120gegenstand": 9108, "protokoll": 9109, "\u0120exeku": 9110, "\u0120beschrieben": 9111, "sproblem": 9112, "\u0120bereitgestellt": 9113, "\u0120aktive": 9114, "\u0120grafik": 9115, "bois": 9116, "\u0120klarheit": 9117, "\u0120verst\u00c3\u00b6": 9118, "\u0120internationales": 9119, "\u0120gestartet": 9120, "\u00c3\u00a4ngst": 9121, "programms": 9122, "\u0120fotograf": 9123, "\u0120weitgehend": 9124, "\u0120kapit": 9125, "\u0120dialogs": 9126, "\u0120bauern": 9127, "\u0120schweizer": 9128, "spl\u00c3\u00a4ne": 9129, "\u0120enorm": 9130, "\u0120letztlich": 9131, "\u0120wwu": 9132, "\u0120argentinien": 9133, "\u0120kinnock": 9134, "bul": 9135, "binnenmarkt": 9136, "immt": 9137, "runde": 9138, "\u0120w\u00c3\u00a4r": 9139, "\u0120zit": 9140, "\u0120einschlie\u00c3\u0141lich": 9141, "\u0120gepf": 9142, "\u0120bearbeiten": 9143, "\u0120verste": 9144, "\u00c3\u00bcbertrag": 9145, "\u0120vorne": 9146, "\u0120sou": 9147, "\u0120ram": 9148, "weile": 9149, "tigte": 9150, "\u0120chf": 9151, "\u0120seen": 9152, "geb\u00c3\u00a4ude": 9153, "wendet": 9154, "\u0120landschaft": 9155, "\u0120ausw\u00c3\u00a4rtiges": 9156, "\u0120fl\u00c3\u00a4che": 9157, "\u0120erfolge": 9158, "\u0120vereinten": 9159, "\u0120klaren": 9160, "\u0120pressekonferenz": 9161, "\u0120hochwer": 9162, "\u0120double": 9163, "informationen": 9164, "\u0120bush": 9165, "m\u00c3\u00a4\u00c3\u0141ige": 9166, "\u0120beteiligen": 9167, "\u0120registriert": 9168, "\u0120betrachtet": 9169, "\u0120verhaltenskodex": 9170, "\u0120erhebliche": 9171, "\u0120voraussetzungen": 9172, "\u0120jahrhunder": 9173, "\u0120fl\u00c3\u00bcchtlinge": 9174, "\u0120ticket": 9175, "\u0120bem\u00c3\u00bchen": 9176, "\u0120ber\u00c3\u00bchm": 9177, "\u0120optimal": 9178, "gol": 9179, "sbe": 9180, "\u0120ie": 9181, "\u0120bug": 9182, "\u0120hom": 9183, "schte": 9184, "\u0120unn\u00c3\u00b6": 9185, "reten": 9186, "\u0120l\u00c3\u00bc": 9187, "\u0120anf": 9188, "\u0120anf\u00c3\u00bchren": 9189, "\u0120beschlu\u00c3\u0141": 9190, "atlan": 9191, "\u0120mitge": 9192, "\u0120class": 9193, "\u0120werfen": 9194, "oche": 9195, "\u0120unterwegs": 9196, "ungsma\u00c3\u0141nahmen": 9197, "\u0120hiermit": 9198, "oth": 9199, "\u0120tee": 9200, "\u0120forst": 9201, "ppt": 9202, "\u0120stamm": 9203, "\u0120dublin": 9204, "\u0120dubois": 9205, "\u0120gegend": 9206, "\u0120wirkliche": 9207, "\u0120belg": 9208, "\u0120entwicklungspolitik": 9209, "\u0120haiti": 9210, "\u0120ruf": 9211, "\u0120vous": 9212, "design": 9213, "\u0120adam": 9214, "\u00c3\u00a4mpft": 9215, "\u0120besonderes": 9216, "\u0120portal": 9217, "odor": 9218, "\u0120santer": 9219, "oppen": 9220, "\u0120planung": 9221, "\u0120metall": 9222, "\u0120bundesministerium": 9223, "\u0120etc": 9224, "\u0120lehre": 9225, "\u0120erh\u00c3\u00b6hung": 9226, "work": 9227, "\u0120terrorismusbek\u00c3\u00a4mpfung": 9228, "\u0120m\u00c3\u00a4ngel": 9229, "\u0120erlauben": 9230, "\u0120anpass": 9231, "\u0120bananen": 9232, "\u0120ccile": 9233, "\u0120mittlere": 9234, "rianou": 9235, "\u0120gerechtigkeit": 9236, "\u0120frits": 9237, "\u0120kyprianou": 9238, "\u0120submitted": 9239, "ctor": 9240, "inute": 9241, "\u0120wc": 9242, "\u0120bak": 9243, "\u0120z\u00c3\u00a4h": 9244, "\u0120geil": 9245, "irtschaft": 9246, "\u0120bewa": 9247, "\u0120tap": 9248, "\u0120zugute": 9249, "\u0120erzeuger": 9250, "\u0120sch\u00c3\u00bc": 9251, "\u0120schein": 9252, "istischen": 9253, "\u0120vor\u00c3\u00bcber": 9254, "\u0120absch": 9255, "\u0120wieviel": 9256, "ollow": 9257, "sendung": 9258, "\u0120motiv": 9259, "\u012066": 9260, "\u0120f\u00c3\u00bcle": 9261, "\u0120comp": 9262, "vide": 9263, "\u0120st\u00c3\u00a4ndige": 9264, "404": 9265, "\u0120besseres": 9266, "griffe": 9267, "\u0120verteidig": 9268, "\u0120katzen": 9269, "\u0120unverz\u00c3\u00bcglich": 9270, "\u0120holen": 9271, "norwegische": 9272, "\u0120h\u00c3\u00b6here": 9273, "\u0120katastrophe": 9274, "\u0120existieren": 9275, "\u0120derzeitigen": 9276, "\u0120konflik": 9277, "\u0120streng": 9278, "\u0120renoviert": 9279, "\u0120wolfgang": 9280, "\u0120verordnungen": 9281, "bindung": 9282, "krank": 9283, "lesen": 9284, "tau": 9285, "upe": 9286, "vn": 9287, "erte": 9288, "\u0120halt": 9289, "\u0120eingang": 9290, "\u0120behoben": 9291, "\u0120beziehung": 9292, "\u0120()": 9293, "audit": 9294, "\u0120schatten": 9295, "ily": 9296, "\u0120\u00c3\u00bcbert": 9297, "\u0120\u00c3\u00bcberlegungen": 9298, "\u0120entstanden": 9299, "\u0120ray": 9300, "\u0120konjun": 9301, "tigkeiten": 9302, "\u0120arm": 9303, "f\u00c3\u00bcllen": 9304, "sagen": 9305, "same": 9306, "\u0120schlimmer": 9307, "\u0120teilt": 9308, "\u012068": 9309, "\u0120works": 9310, "geminute": 9311, "51883": 9312, "\u0120pl\u00c3\u00a4tze": 9313, "\u0120abgestimmt": 9314, "\u0120gleiches": 9315, "\u0120entspann": 9316, "pr\u00c3\u00bcfung": 9317, "\u0120place": 9318, "\u0120playa": 9319, "pez": 9320, "betrieb": 9321, "\u0120wertvoll": 9322, "\u0120anwendungen": 9323, "\u0120schweigeminute": 9324, "ziplin": 9325, "\u0120organisiert": 9326, "friedensprozess": 9327, "\u0120kennst": 9328, "\u0120werkzeug": 9329, "\u0120erheblich": 9330, "\u0120beruht": 9331, "\u0120vern\u00c3\u00bcnftig": 9332, "\u0120assoziationsrat": 9333, "\u0120w\u00c3\u00a4hler": 9334, "lag": 9335, "\u0120dr\u00c3\u00a4n": 9336, "\u0120ach": 9337, "steuern": 9338, "\u0120een": 9339, "\u0120eag": 9340, "\u0120edel": 9341, "\u0120bom": 9342, "\u0120mid": 9343, "\u0120fro": 9344, "\u0120fiel": 9345, "\u0120nom": 9346, "\u0120zeu": 9347, "\u0120geziel": 9348, "\u0120beam": 9349, "\u0120bewerb": 9350, "\u0120verf": 9351, "\u0120cab": 9352, "\u0120ausgleich": 9353, "\u0120zweites": 9354, "\u0120chile": 9355, "\u0120rock": 9356, "\u0120forma": 9357, "hou": 9358, "iday": 9359, "\u0120juan": 9360, "st\u00c3\u00bctzung": 9361, "\u0120brauche": 9362, "\u0120gefangen": 9363, "\u0120au\u00c3\u0141ergew\u00c3\u00b6hn": 9364, "\u0120caf": 9365, "\u0120kammer": 9366, "\u0120oliv": 9367, "legte": 9368, "\u0120appl": 9369, "\u0120gesetzgebung": 9370, "\u0120konsultationen": 9371, "gr\u00c3\u00b6\u00c3\u0141e": 9372, "\u0120berechnet": 9373, "\u0120spanischen": 9374, "\u0120plenum": 9375, "\u0120ereignisse": 9376, "\u0120harmonisierung": 9377, "\u0120gew\u00c3\u00bcnschte": 9378, "\u0120korrigiert": 9379, "\u0120tausend": 9380, "\u0120hyper": 9381, "\u0120royal": 9382, "\u0120negativ": 9383, "410": 9384, "av": 9385, "pension": 9386, "tp": 9387, "vit": 9388, "\u0120sz": 9389, "\u0120sucht": 9390, "stan": 9391, "stab": 9392, "\u0120m\u00c3\u00a4dchen": 9393, "anas": 9394, "schule": 9395, "tima": 9396, "\u0120inklusive": 9397, "\u0120einkauf": 9398, "\u0120gehandelt": 9399, "\u0120stop": 9400, "\u0120cs": 9401, "ulen": 9402, "\u0120nachfolger": 9403, "diges": 9404, "f\u00c3\u00bcllt": 9405, "\u0120leader": 9406, "\u0120rosa": 9407, "\u0120gemel": 9408, "artagung": 9409, "\u0120gumm": 9410, "\u0120eurozone": 9411, "\u0120eigenmittel": 9412, "mans": 9413, "\u0120orte": 9414, "\u0120lebensqualit\u00c3\u00a4t": 9415, "center": 9416, "\u0120bestimmter": 9417, "\u0120filme": 9418, "\u0120planen": 9419, "\u0120interessieren": 9420, "\u0120corpor": 9421, "\u0120unterschiedlich": 9422, "\u0120holiday": 9423, "\u0120wissenschaftliche": 9424, "\u0120koh\u00c3\u00a4sionsfonds": 9425, "\u0120krankheit": 9426, "\u0120potenzial": 9427, "\u0120regulierung": 9428, "\u0120multilater": 9429, "\u0120nukleare": 9430, "indikatoren": 9431, "\u0120glaubw\u00c3\u00bcrdigkeit": 9432, "\u0120provinz": 9433, "kter": 9434, "zeh": 9435, "zehn": 9436, "\u0120mller": 9437, "\u0120het": 9438, "\u0120ze": 9439, "\u0120incl": 9440, "\u0120l\u00c3\u00a4dt": 9441, "\u0120gekl\u00c3\u00a4rt": 9442, "\u0120diesel": 9443, "reibt": 9444, "\u0120\u00c3\u00bcberarbeitung": 9445, "veran": 9446, "\u0120algerien": 9447, "ikalien": 9448, "ger\u00c3\u00a4t": 9449, "322": 9450, "dule": 9451, "wendung": 9452, "\u0120lust": 9453, "\u012097": 9454, "\u0120wagen": 9455, "\u0120exklusi": 9456, "\u0120xp": 9457, "\u0120look": 9458, "\u0120klarstellen": 9459, "planung": 9460, "\u0120klimaanlage": 9461, "hause": 9462, "\u0120richtet": 9463, "\u0120allgemeines": 9464, "\u0120luftverkehrs": 9465, "\u0120chemische": 9466, "fl\u00c3\u00bcge": 9467, "\u0120ratsvorsitz": 9468, "\u0120ratsformationen": 9469, "\u0120leichter": 9470, "\u0120sammeln": 9471, "\u0120tickets": 9472, "beauftragter": 9473, "\u0120erwachsene": 9474, "\u0120administ": 9475, "\u0120vertretung": 9476, "\u0120anbieten": 9477, "\u0120abh\u00c3\u00a4ngig": 9478, "\u0120diamantopoul": 9479, "ester": 9480, "hard": 9481, "ior": 9482, "\u0120avi": 9483, "\u0120ehe": 9484, "\u0120mah": 9485, "\u0120ford": 9486, "\u0120fliegen": 9487, "ssler": 9488, "\u0120kau": 9489, "terin": 9490, "\u0120gla": 9491, "\u0120bele": 9492, "\u0120erhalte": 9493, "\u0120j\u00c3\u00bcr": 9494, "\u0120abente": 9495, "utze": 9496, "twick": 9497, "\u0120darunter": 9498, "\u0120schlicht": 9499, "mitglieder": 9500, "\u012073": 9501, "\u012074": 9502, "\u012076": 9503, "tour": 9504, "ypal": 9505, "\u0120count": 9506, "\u0120m\u00c3\u00b6glichen": 9507, "\u0120wof\u00c3\u00bcr": 9508, "ecd": 9509, "losen": 9510, "\u0120ergebnissen": 9511, "h\u00c3\u00a4l": 9512, "kons": 9513, "count": 9514, "\u0120schweine": 9515, "\u0120usb": 9516, "\u0120warenkorb": 9517, "\u0120termine": 9518, "\u0120erfolgs": 9519, "166": 9520, "\u0120gest\u00c3\u00a4r": 9521, "\u0120tschechischen": 9522, "\u0120bestimmen": 9523, "\u0120nachhaltigkeit": 9524, "\u0120anwendungs": 9525, "\u0120merk": 9526, "\u0120mix": 9527, "\u0120russlands": 9528, "\u0120organisationen": 9529, "f\u00c3\u00bchrende": 9530, "\u0120marketing": 9531, "\u0120ausf\u00c3\u00bchrliche": 9532, "\u0120einheitliche": 9533, "\u0120genetisch": 9534, "\u0120schnee": 9535, "\u0120makro\u00c3\u00b6konom": 9536, "\u0120unannehmbar": 9537, "jul": 9538, "mil": 9539, "politi": 9540, "uung": 9541, "\u0120dj": 9542, "\u0120w\u00c3\u00a4l": 9543, "\u0120mis": 9544, "anteil": 9545, "\u00c3\u00a4cht": 9546, "\u0120una": 9547, "\u0120uno": 9548, "\u0120unzul": 9549, "\u0120pic": 9550, "\u0120zauber": 9551, "\u00c3\u00bcrzt": 9552, "\u00c3\u00b6die": 9553, "\u0120zuhause": 9554, "\u0120repar": 9555, "\u0120cru": 9556, "spaket": 9557, "\u0120allah": 9558, "\u0120alias": 9559, "\u0120beige": 9560, "\u0120perf": 9561, "pfl": 9562, "\u0120register": 9563, "\u0120eig": 9564, "\u0120paypal": 9565, "vec": 9566, "\u0120express": 9567, "\u0120emp": 9568, "\u0120meg": 9569, "sprodu": 9570, "\u0120versicher": 9571, "\u0120polack": 9572, "\u0120karin": 9573, "ipe": 9574, "\u0120zur\u00c3\u00bcckzu": 9575, "\u0120gr\u00c3\u00bcndung": 9576, "\u0120obama": 9577, "\u0120arbeitsweise": 9578, "\u0120fahrplan": 9579, "\u0120gesamtkosten": 9580, "\u0120transparent": 9581, "\u0120updates": 9582, "\u0120unverb": 9583, "\u0120logik": 9584, "\u0120scre": 9585, "\u0120deinem": 9586, "\u0120nennt": 9587, "\u0120food": 9588, "\u0120ruhige": 9589, "\u0120unabh\u00c3\u00a4ngig": 9590, "play": 9591, "\u0120single": 9592, "\u0120zerst\u00c3\u00b6rt": 9593, "\u0120z\u00c3\u00b6gern": 9594, "\u0120florenz": 9595, "\u0120kompatibel": 9596, "\u0120governance": 9597, "537": 9598, "butt": 9599, "nov": 9600, "tl": 9601, "\u0120{": 9602, "\u0120adi": 9603, "\u0120blan": 9604, "gehalt": 9605, "\u0120pul": 9606, "\u0120inkl": 9607, "\u0120line": 9608, "\u0120gezogen": 9609, "\u0120verlei": 9610, "\u0120ersetzen": 9611, "ami": 9612, "amin": 9613, "\u0120mitentscheidung": 9614, "\u0120werbe": 9615, "ford": 9616, "\u0120sofor": 9617, "\u0120sobald": 9618, "\u0120entnehmen": 9619, "weif": 9620, "\u0120stefan": 9621, "barsch": 9622, "\u0120manager": 9623, "\u0120leder": 9624, "\u0120chris": 9625, "gliedern": 9626, "\u0120betont": 9627, "\u012069": 9628, "\u0120arbeitsk": 9629, "\u0120zusammenge": 9630, "kehren": 9631, "apie": 9632, "\u0120feder": 9633, "demie": 9634, "\u0120haft": 9635, "\u0120kurzem": 9636, "\u0120namens": 9637, "\u0120bildt": 9638, "\u0120positiven": 9639, "\u0120k\u00c3\u00bcsten": 9640, "\u0120central": 9641, "\u0120vorgeschlagenen": 9642, "\u0120britische": 9643, "beh\u00c3\u00b6rden": 9644, "\u0120steigerung": 9645, "\u0120hinsichtlich": 9646, "\u0120kooperationsabkommen": 9647, "\u0120erl\u00c3\u00a4utern": 9648, "\u0120chancengleichheit": 9649, "\u0120pilot": 9650, "\u0120gew\u00c3\u00bcnschten": 9651, "\u0120gemischter": 9652, "iwan": 9653, "windigkeit": 9654, "\u0120jugendherbergen": 9655, "\u0120einzigartig": 9656, "aa": 9657, "dik": 9658, "myan": 9659, "wart": 9660, "zil": 9661, "\u0120wand": 9662, "\u0120iz": 9663, "\u0120bien": 9664, "onie": 9665, "geladen": 9666, "\u0120h\u00c3\u00a4ndler": 9667, "regend": 9668, "asien": 9669, "\u0120eingeben": 9670, "\u0120ge\u00c3\u00a4u\u00c3\u0141": 9671, "eto": 9672, "\u0120\u00c3\u00bcbermittlung": 9673, "\u0120herstellung": 9674, "spolitische": 9675, "\u0120ou": 9676, "\u0120prob": 9677, "\u0120rent": 9678, "\u0120weiss": 9679, "agd": 9680, "\u0120weiterge": 9681, "otte": 9682, "stex": 9683, "\u0120dec": 9684, "\u0120giul": 9685, "\u0120lade": 9686, "quellen": 9687, "grad": 9688, "\u0120roberto": 9689, "\u0120durchsetzung": 9690, "\u0120rechtliche": 9691, "apest": 9692, "\u0120f\u00c3\u00bcgt": 9693, "\u0120miroslav": 9694, "\u0120rupel": 9695, "trol": 9696, "spieler": 9697, "\u0120phy": 9698, "stellungnahme": 9699, "\u0120conta": 9700, "\u0120portu": 9701, "\u0120f\u00c3\u00b6rdert": 9702, "\u0120kulturhaupt": 9703, "\u0120generation": 9704, "holt": 9705, "\u0120r\u00c3\u00bccken": 9706, "ynn": 9707, "\u0120stellungnahmen": 9708, "\u0120massage": 9709, "verbindung": 9710, "\u0120kontrolliert": 9711, "drej": 9712, "gnose": 9713, "funktion": 9714, "\u0120fl\u00c3\u00bcchtling": 9715, "br\u00c3\u00bcssel": 9716, "\u0120venedig": 9717, "\u0120ursprungs": 9718, "\u0120abonnieren": 9719, "\u0120photos": 9720, "\u0120dimitrij": 9721, "sb\u00c3\u00bcrgerschaft": 9722, "myanmar": 9723, "-,": 9724, "__": 9725, "cas": 9726, "claude": 9727, "ey": 9728, "ires": 9729, "name": 9730, "iew": 9731, "iehlt": 9732,
[...]
