{
  "version": "1.0",
  "truncation": null,
  "padding": null,
  "added_tokens": [
    {
      "id": 0,
      "content": "[PAD]",
      "single_word": false,
      "lstrip": false,
      "rstrip": false,
      "normalized": false,
      "special": true
    },
    {
      "id": 1,
      "content": "[BOS]",
      "single_word": false,
      "lstrip": false,
      "rstrip": false,
      "normalized": false,
      "special": true
    },
    {
      "id": 2,
      "content": "[EOS]",
      "single_word": false,
      "lstrip": false,
      "rstrip": false,
      "normalized": false,
      "special": true
    },
    {
      "id": 3,
      "content": "[UNK]",
      "single_word": false,
      "lstrip": false,
      "rstrip": false,
      "normalized": false,
      "special": true
    }
  ],
  "normalizer": null,
  "pre_tokenizer": {
    "type": "ByteLevel",
    "add_prefix_space": true,
    "trim_offsets": true,
    "use_regex": true
  },
  "post_processor": null,
  "decoder": null,
  "model": {
    "type": "BPE",
    "dropout": null,
    "unk_token": null,
    "continuing_subword_prefix": null,
    "end_of_word_suffix": null,
    "fuse_unk": false,
    "byte_fallback": false,
    "vocab": {
      "[PAD]": 0,
      "[BOS]": 1,
      "[EOS]": 2,
      "[UNK]": 3,
      "!": 4,
      "#": 5,
      "$": 6,
      "%": 7,
      "&": 8,
      "(": 9,
      ")": 10,
      "*": 11,
      "+": 12,
      ",": 13,
      "-": 14,
      ".": 15,
      "/": 16,
      "0": 17,
      "1": 18,
      "2": 19,
      "3": 20,
      "4": 21,
      "5": 22,
      "6": 23,
      "7": 24,
      "8": 25,
      "9": 26,
      ":": 27,
      ";": 28,
      "?": 29,
      "@": 30,
      "[": 31,
      "\\": 32,
      "]": 33,
      "_": 34,
      "a": 35,
      "b": 36,
      "c": 37,
      "d": 38,
      "e": 39,
      "f": 40,
      "g": 41,
      "h": 42,
      "i": 43,
      "j": 44,
      "k": 45,
      "l": 46,
      "m": 47,
      "n": 48,
      "o": 49,
      "p": 50,
      "q": 51,
      "r": 52,
      "s": 53,
      "t": 54,
      "u": 55,
      "v": 56,
      "w": 57,
      "x": 58,
      "y": 59,
      "z": 60,
      "{": 61,
      "|": 62,
      "}": 63,
      "£": 64,
      "¤": 65,
      "¥": 66,
      "¬": 67,
      "¶": 68,
      "¼": 69,
      "Â": 70,
      "Ã": 71,
      "â": 72,
      "Ġ": 73,
      "Ĥ": 74,
      "Ł": 75,
      "Ġt": 76,
      "Ġa": 77,
      "Ġth": 78,
      "re": 79,
      "in": 80,
      "on": 81,
      "Ġthe": 82,
      "is": 83,
      "er": 84,
      "Ġc": 85,
      "Ġs": 86,
      "Ġw": 87,
      "at": 88,
      "en": 89,
      "Ġp": 90,
      "or": 91,
      "Ġm": 92,
      "Ġf": 93,
      "an": 94,
      "ou": 95,
      "it": 96,
      "Ġb": 97,
      "ion": 98,
      "es": 99,
      "Ġo": 100,
      "Ġd": 101,
      "Ġin": 102,
      "Ġh": 103,
      "ro": 104,
      "al": 105,
      "ed": 106,
      "ar": 107,
      "Ġof": 108,
      "Ġe": 109,
      "Ġto": 110,
      "Ġn": 111,
      "Ġis": 112,
      "le": 113,
      "Ġan": 114,
      "ic": 115,
      "as": 116,
      "ent": 117,
      "Ġre": 118,
      "ing": 119,
      "om": 120,
      "il": 121,
      "Ġl": 122,
      "el": 123,
      "us": 124,
      "Ġfor": 125,
      "ot": 126,
      "Ġand": 127,
      "Ġi": 128,
      "Ġg": 129,
      "Ġy": 130,
      "ct": 131,
      "ation": 132,
      "Ġyou": 133,
      "ve": 134,
      "Ġbe": 135,
      "Ġv": 136,
      "Ġwe": 137,
      "Ġcom": 138,
      "Ġthis": 139,
      "Ġon": 140,
      "pe": 141,
      "res": 142,
      "Ġ2": 143,
      "Ġst": 144,
      "ment": 145,
      "ol": 146,
      "et": 147,
      "Ġit": 148,
      "ow": 149,
      "ac": 150,
      "os": 151,
      "id": 152,
      "un": 153,
      "ter": 154,
      "Ġwh": 155,
      "Ġcon": 156,
      "Ġeu": 157,
      "Ġare": 158,
      "Ġ(": 159,
      "Ġpro": 160,
      "ay": 161,
      "ly": 162,
      "Ġde": 163,
      "Ġ1": 164,
      "ra": 165,
      "ut": 166,
      "ri": 167,
      "Ġal": 168,
      "Ġthat": 169,
      "ur": 170,
      "ill": 171,
      "oun": 172,
      "ort": 173,
      "ch": 174,
      "ce": 175,
      "00": 176,
      "ul": 177,
      "Ġcomm": 178,
      "our": 179,
      "Ġeuro": 180,
      "Ġnot": 181,
      "ir": 182,
      "ore": 183,
      "sion": 184,
      "ke": 185,
      "Ġha": 186,
      "th": 187,
      "Ġse": 188,
      "ate": 189,
      "ig": 190,
      "pp": 191,
      "Ġmr": 192,
      "est": 193,
      "Ġne": 194,
      "ith": 195,
      "ld": 196,
      "Ġat": 197,
      "st": 198,
      "Ġ-": 199,
      "qu": 200,
      "Ġeurope": 201,
      "ver": 202,
      "im": 203,
      "em": 204,
      "Ġj": 205,
      "Ġwith": 206,
      "ia": 207,
      "ad": 208,
      "ust": 209,
      "Ġwill": 210,
      "Ġdo": 211,
      "Ġpres": 212,
      "ble": 213,
      "ission": 214,
      "ge": 215,
      "am": 216,
      "and": 217,
      "ould": 218,
      "Ġcommission": 219,
      "Ġhave": 220,
      "op": 221,
      "se": 222,
      "Ġex": 223,
      "ant": 224,
      "Ġch": 225,
      "Ġsu": 226,
      "ers": 227,
      "Ġeuropean": 228,
      "Ġun": 229,
      "Ġsh": 230,
      "Ġas": 231,
      "..": 232,
      "ain": 233,
      "ive": 234,
      "ff": 235,
      "Ġcan": 236,
      "ase": 237,
      "Ġk": 238,
      "ity": 239,
      "ere": 240,
      "for": 241,
      "ess": 242,
      "Ġthere": 243,
      "Ġen": 244,
      "out": 245,
      "od": 246,
      "port": 247,
      "art": 248,
      "ist": 249,
      "Ġmin": 250,
      "form": 251,
      "Ġr": 252,
      "Ġli": 253,
      "Ġwhat": 254,
      "Ġcont": 255,
      "rom": 256,
      "um": 257,
      "Ġus": 258,
      "Ġby": 259,
      "ci": 260,
      "ure": 261,
      "Ġmore": 262,
      "ack": 263,
      "Ġall": 264,
      "Ġag": 265,
      "Ġhas": 266,
      "Ġcoun": 267,
      "ions": 268,
      "Ġle": 269,
      "ound": 270,
      "Ġad": 271,
      "Ġyour": 272,
      "ice": 273,
      "Ġwas": 274,
      "ies": 275,
      "Ġinform": 276,
      "Ġfin": 277,
      "ect": 278,
      "Ġpl": 279,
      "ister": 280,
      "ht": 281,
      "Ġno": 282,
      "Ġinformation": 283,
      "ie": 284,
      "act": 285,
      "Ġcl": 286,
      "Ġta": 287,
      "Ġor": 288,
      "Ġqu": 289,
      "Ġwor": 290,
      "Ġim": 291,
      "Ġfrom": 292,
      "Ġso": 293,
      "ber": 294,
      "Ġour": 295,
      "ard": 296,
      "ail": 297,
      "end": 298,
      "Ġwould": 299,
      "lease": 300,
      "so": 301,
      "Ġ3": 302,
      "Ġpress": 303,
      "Ġab": 304,
      "Ġme": 305,
      "all": 306,
      "ran": 307,
      "ud": 308,
      "able": 309,
      "lo": 310,
      "Ġhow": 311,
      "Ġres": 312,
      "iv": 313,
      "Ġ200": 314,
      "Ġ:": 315,
      "Ġgo": 316,
      "ther": 317,
      "Ġver": 318,
      "ost": 319,
      "ome": 320,
      "Ġlike": 321,
      "ult": 322,
      "ary": 323,
      "cl": 324,
      "Ġvot": 325,
      "Ġminister": 326,
      "age": 327,
      "gr": 328,
      "ree": 329,
      "Ġdi": 330,
      "Ġam": 331,
      "cil": 332,
      "Ġapp": 333,
      "ak": 334,
      "ub": 335,
      "ations": 336,
      "Ġmar": 337,
      "Ġback": 338,
      "ast": 339,
      "Ġpol": 340,
      "Ġalso": 341,
      "pt": 342,
      "Ġthan": 343,
      "ments": 344,
      "ell": 345,
      "Ġcouncil": 346,
      "Ġnew": 347,
      "ite": 348,
      "Ġpart": 349,
      "Ġlo": 350,
      "ident": 351,
      "Ġhe": 352,
      "Ġro": 353,
      "ue": 354,
      "ish": 355,
      "cc": 356,
      "ace": 357,
      "ok": 358,
      "Ġ4": 359,
      "up": 360,
      "te": 361,
      "one": 362,
      "Ġvery": 363,
      "ren": 364,
      "con": 365,
      "ine": 366,
      "ag": 367,
      "els": 368,
      "air": 369,
      "...": 370,
      "de": 371,
      "ground": 372,
      "if": 373,
      "Ġper": 374,
      "ated": 375,
      "Ġbackground": 376,
      "Ġsa": 377,
      "Ġbut": 378,
      "Ġabout": 379,
      "ance": 380,
      "Ġdeb": 381,
      "ab": 382,
      "ip": 383,
      "cial": 384,
      "lic": 385,
      "int": 386,
      "uct": 387,
      "Ġhot": 388,
      "Ġcomp": 389,
      "Ġreg": 390,
      "ign": 391,
      "Ġ.": 392,
      "01": 393,
      "ap": 394,
      "Ġneed": 395,
      "her": 396,
      "Ġmust": 397,
      "32": 398,
      "ric": 399,
      "Ġpresident": 400,
      "Ġsp": 401,
      "Ġwhen": 402,
      "tern": 403,
      "land": 404,
      "Ġco": 405,
      "Ġreport": 406,
      "der": 407,
      "Ġman": 408,
      "Ġ5": 409,
      "Ġthese": 410,
      "Ġaff": 411,
      "Ġar": 412,
      "ally": 413,
      "Ġhere": 414,
      "Ġone": 415,
      "man": 416,
      "Ġtim": 417,
      "Ġrelease": 418,
      "Ġjust": 419,
      "Ġnow": 420,
      "Ġtra": 421,
      "Ġbeen": 422,
      "Ġser": 423,
      "Ġsee": 424,
      "ght": 425,
      "Ġmy": 426,
      "Ġshould": 427,
      "Ġup": 428,
      "Ġthey": 429,
      "Ġthank": 430,
      "ach": 431,
      "ry": 432,
      "Ġrep": 433,
      "Ġ0": 434,
      "ous": 435,
      "vel": 436,
      "Ġact": 437,
      "Ġquest": 438,
      "oint": 439,
      "Ġcontact": 440,
      "Ġdis": 441,
      "Ġhotel": 442,
      "Ġte": 443,
      "Ġav": 444,
      "Ġspe": 445,
      "ject": 446,
      "airs": 447,
      "oll": 448,
      "Ġoff": 449,
      "ram": 450,
      "Ġmem": 451,
      "bs": 452,
      "Ġma": 453,
      "Ġvote": 454,
      "99": 455,
      "la": 456,
      "Ġtake": 457,
      "ong": 458,
      "Ġri": 459,
      "Ġaffairs": 460,
      "are": 461,
      "Ġop": 462,
      "ition": 463,
      "Ġwork": 464,
      "Ġbr": 465,
      "rans": 466,
      "Ġtw": 467,
      "fore": 468,
      "Ġother": 469,
      "ures": 470,
      "pos": 471,
      "Ġtrans": 472,
      "Ġprog": 473,
      "itt": 474,
      "Ġclos": 475,
      "rect": 476,
      "uss": 477,
      "ely": 478,
      "Ġ(+": 479,
      "Ġits": 480,
      "ical": 481,
      "ved": 482,
      "ublic": 483,
      "day": 484,
      "Ġcommissioner": 485,
      "Ġacc": 486,
      "ck": 487,
      "ollow": 488,
      "Ġstay": 489,
      "og": 490,
      "Ġfollow": 491,
      "Ġtime": 492,
      "Ġdebate": 493,
      "pport": 494,
      "Ġpre": 495,
      "Ġproc": 496,
      "ates": 497,
      "ear": 498,
      "cre": 499,
      "ink": 500,
      "ight": 501,
      "Ġem": 502,
      "Ġ7": 503,
      "iew": 504,
      "Ġout": 505,
      "Ġbo": 506,
      "ame": 507,
      "Ġpar": 508,
      "ative": 509,
      "use": 510,
      "to": 511,
      "Ġpolic": 512,
      "ich": 513,
      "ide": 514,
      "Ġadd": 515,
      "Ġavail": 516,
      "Ġ6": 517,
      "ence": 518,
      "av": 519,
      "Ġstate": 520,
      "ens": 521,
      "Ġany": 522,
      "iz": 523,
      "reat": 524,
      "ang": 525,
      "Ġavailable": 526,
      "pl": 527,
      "Ġunion": 528,
      "Ġright": 529,
      "Ġplace": 530,
      "Ġfir": 531,
      "Ġbel": 532,
      "duct": 533,
      "Ġ29": 534,
      "eral": 535,
      "me": 536,
      "Ġonly": 537,
      "Ġgen": 538,
      "Ġcons": 539,
      "Ġgr": 540,
      "Ġfur": 541,
      "Ġpe": 542,
      "ian": 543,
      "Ġappro": 544,
      "ass": 545,
      "ug": 546,
      "Ġwant": 547,
      "ple": 548,
      "ution": 549,
      "ays": 550,
      "ings": 551,
      "Ġfe": 552,
      "ick": 553,
      "Ġyear": 554,
      "row": 555,
      "Ġmark": 556,
      "Ġfirst": 557,
      "ems": 558,
      "Ġdoes": 559,
      "Ġprogram": 560,
      "Ġpoint": 561,
      "ne": 562,
      "Ġpolicy": 563,
      "Ġdirect": 564,
      "Ġfore": 565,
      "Ġgood": 566,
      "Ġ8": 567,
      "Ġquestion": 568,
      "Ġplease": 569,
      "ov": 570,
      "Ġpri": 571,
      "Ġ9": 572,
      "velop": 573,
      "very": 574,
      "Ġcour": 575,
      "Ġfurther": 576,
      "now": 577,
      "Ġimport": 578,
      "Ġdevelop": 579,
      "com": 580,
      "ib": 581,
      "conom": 582,
      "Ġpos": 583,
      "xt": 584,
      "Ġ...": 585,
      "Ġph": 586,
      "ors": 587,
      "uch": 588,
      "ted": 589,
      "ven": 590,
      "lect": 591,
      "eren": 592,
      "ries": 593,
      "Ġwhy": 594,
      "Ġstr": 595,
      "Ġclosed": 596,
      "Ġeconom": 597,
      "ress": 598,
      "Ġ201": 599,
      "min": 600,
      "Ġtwo": 601,
      "Ġsaid": 602,
      "Ġserv": 603,
      "Ġagain": 604,
      "Ġpartic": 605,
      "gy": 606,
      "cy": 607,
      "Ġsome": 608,
      "Ġinv": 609,
      "Ġsy": 610,
      "Ġla": 611,
      "ph": 612,
      "Ġintern": 613,
      "ds": 614,
      "Ġconcl": 615,
      "Ġra": 616,
      "ise": 617,
      "ever": 618,
      "Ġgu": 619,
      "Ġcount": 620,
      "Ġforeign": 621,
      "Ġrel": 622,
      "ire": 623,
      "ern": 624,
      "gh": 625,
      "ert": 626,
      "ible": 627,
      "Ġpr": 628,
      "Ġ|": 629,
      "ons": 630,
      "ities": 631,
      "come": 632,
      "Ġwebs": 633,
      "pect": 634,
      "get": 635,
      "Ġknow": 636,
      "Ġhowever": 637,
      "ied": 638,
      "Ġmuch": 639,
      "Ġview": 640,
      "oc": 641,
      "Ġevery": 642,
      "Ġmember": 643,
      "Ġmarket": 644,
      "Ġsupport": 645,
      "Ġget": 646,
      "Ġfun": 647,
      "Ġif": 648,
      "Ġind": 649,
      "Ġroom": 650,
      "ational": 651,
      "ile": 652,
      "ru": 653,
      "uc": 654,
      "Ġproduct": 655,
      "Ġwere": 656,
      "ial": 657,
      "Ġaf": 658,
      "Ġtherefore": 659,
      "Ġpublic": 660,
      "Ġpropos": 661,
      "Ġ12": 662,
      "Ġwebsite": 663,
      "ms": 664,
      "Ġuse": 665,
      "Ġms": 666,
      "Ġagree": 667,
      "Ġcase": 668,
      "ep": 669,
      "Ġcle": 670,
      "Ġmad": 671,
      "Ġap": 672,
      "ces": 673,
      "Ġmon": 674,
      "Ġsub": 675,
      "resent": 676,
      "Ġimportant": 677,
      "Ġrepresent": 678,
      "Ġwho": 679,
      "Ġdec": 680,
      "ough": 681,
      "Ġsw": 682,
      "Ġgeneral": 683,
      "Ġiss": 684,
      "Ġover": 685,
      "Ġdes": 686,
      "Ġfind": 687,
      "ious": 688,
      "ility": 689,
      "hing": 690,
      "lia": 691,
      "ention": 692,
      "Ġ10": 693,
      "Ġpeop": 694,
      "Ġproble": 695,
      "ind": 696,
      "Ġmay": 697,
      "Ġcontacts": 698,
      "Ġmake": 699,
      "Ġitems": 700,
      "ild": 701,
      "mar": 702,
      "Ġass": 703,
      "ord": 704,
      "lause": 705,
      "ussels": 706,
      "Ġunder": 707,
      "Ġthem": 708,
      "cept": 709,
      "ft": 710,
      "Ġmo": 711,
      "Ġrequ": 712,
      "ange": 713,
      "Ġmod": 714,
      "Ġbet": 715,
      "Ġdevelopment": 716,
      "ful": 717,
      "Ġsit": 718,
      "Ġob": 719,
      "Ġmat": 720,
      "Ġconclus": 721,
      "Ġent": 722,
      "app": 723,
      "Ġwell": 724,
      "ulture": 725,
      "Ġcur": 726,
      "Ġbrussels": 727,
      "ans": 728,
      "eration": 729,
      "ory": 730,
      "rent": 731,
      "Ġpeople": 732,
      "10": 733,
      "000": 734,
      "Ġhel": 735,
      "Ġexp": 736,
      "Ġnet": 737,
      "Ġjustice": 738,
      "Ġtoday": 739,
      "Ġwr": 740,
      "Ġfinan": 741,
      "Ġeconomic": 742,
      "liament": 743,
      "erman": 744,
      "Ġinst": 745,
      "Ġprogramme": 746,
      "Ġlook": 747,
      "Ġmain": 748,
      "Ġmany": 749,
      "Ġwel": 750,
      "Ġdiff": 751,
      "own": 752,
      "Ġed": 753,
      "Ġlat": 754,
      "Ġtr": 755,
      "Ġworld": 756,
      "Ġlet": 757,
      "ual": 758,
      "ward": 759,
      "ose": 760,
      "Ġadop": 761,
      "Ġsol": 762,
      "Ġke": 763,
      "30": 764,
      "Ġvis": 765,
      "Ġcent": 766,
      "Ġcol": 767,
      "ants": 768,
      "Ġtoo": 769,
      "Ġwhich": 770,
      "wn": 771,
      "Ġconf": 772,
      "Ġsyst": 773,
      "iron": 774,
      "Ġimp": 775,
      "Ġenv": 776,
      "Ġfollowing": 777,
      "igh": 778,
      "Ġminut": 779,
      "Ġinter": 780,
      "Ġsim": 781,
      "Ġcar": 782,
      "Ġ19": 783,
      "uation": 784,
      ").": 785,
      "Ġthink": 786,
      "Ġcommun": 787,
      "Ġthen": 788,
      "cret": 789,
      "ux": 790,
      "Ġz": 791,
      "Ġbest": 792,
      "Ġjo": 793,
      "ium": 794,
      "Ġdef": 795,
      "Ġopen": 796,
      "Ġtheir": 797,
      "Ġwat": 798,
      "Ġhapp": 799,
      "als": 800,
      "ount": 801,
      "Ġsch": 802,
      "ironment": 803,
      "ues": 804,
      "ina": 805,
      "Ġhost": 806,
      "Ġac": 807,
      "ents": 808,
      "Ġdisc": 809,
      "ik": 810,
      "io": 811,
      "aly": 812,
      "Ġtrade": 813,
      "Ġconclusions": 814,
      "Ġenvironment": 815,
      "Ġprocess": 816,
      "Ġlong": 817,
      "Ġgerman": 818,
      "Ġ11": 819,
      "Ġsecret": 820,
      "Ġbu": 821,
      "Ġdep": 822,
      "Ġparticip": 823,
      "Ġfree": 824,
      "Ġval": 825,
      "200": 826,
      "Ġagric": 827,
      "Ġminutes": 828,
      "Ġ+": 829,
      "Ġway": 830,
      "ics": 831,
      "Ġsm": 832,
      "ks": 833,
      "Ġref": 834,
      "Ġfran": 835,
      "Ġconc": 836,
      "Ġstart": 837,
      "Ġprot": 838,
      "35": 839,
      "Ġinto": 840,
      "Ġloc": 841,
      "oup": 842,
      "Ġgreat": 843,
      "Ġcr": 844,
      "applause": 845,
      "Ġbook": 846,
      "rib": 847,
      "ified": 848,
      "Ġrem": 849,
      "les": 850,
      "Ġcurrent": 851,
      "Ġinte": 852,
      "Ġclear": 853,
      "Ġsocial": 854,
      "Ġcre": 855,
      "Ġeff": 856,
      "Ġcommit": 857,
      "ural": 858,
      "Ġbus": 859,
      "arge": 860,
      "Ġdet": 861,
      "Ġmost": 862,
      "Ġpers": 863,
      "Ġest": 864,
      "Ġ14": 865,
      "ec": 866,
      "not": 867,
      "Ġend": 868,
      "ady": 869,
      "Ġaction": 870,
      "bour": 871,
      "arch": 872,
      "Ġadopted": 873,
      "Ġrelations": 874,
      "Ġwhere": 875,
      "Ġproced": 876,
      "Ġbar": 877,
      "Ġincl": 878,
      "the": 879,
      "par": 880,
      "Ġprotect": 881,
      "Ġperman": 882,
      "ania": 883,
      "Ġter": 884,
      "Ġpermanent": 885,
      "Ġsc": 886,
      "Ġrepresentative": 887,
      "urn": 888,
      "Ġext": 889,
      "Ġtransport": 890,
      "fe": 891,
      "Ġdat": 892,
      "Ġfinancial": 893,
      "Ġmeas": 894,
      "Ġsec": 895,
      "ality": 896,
      "ustri": 897,
      "ages": 898,
      "Ġener": 899,
      "Ġfo": 900,
      "ices": 901,
      "Ġagainst": 902,
      "king": 903,
      "Ġlast": 904,
      "ives": 905,
      "Ġproject": 906,
      "Ġleg": 907,
      "Ġdem": 908,
      "Ġsecon": 909,
      "ency": 910,
      "Ġcor": 911,
      "Ġnum": 912,
      "Ġhome": 913,
      "Ġplay": 914,
      "Ġ199": 915,
      "Ġdel": 916,
      "Ġposs": 917,
      "Ġprov": 918,
      "Ġset": 919,
      "ited": 920,
      "Ġsituation": 921,
      "Ġresult": 922,
      "chn": 923,
      "ath": 924,
      "Ġsom": 925,
      "Ġspeak": 926,
      "Ġgroup": 927,
      "Ġatt": 928,
      "Ġenergy": 929,
      "Ġsay": 930,
      "ont": 931,
      "Ġwelcome": 932,
      "wor": 933,
      "Ġcost": 934,
      "Ġlist": 935,
      "Ġdecis": 936,
      "operation": 937,
      "Ġhigh": 938,
      "Ġden": 939,
      "Ġrec": 940,
      "ific": 941,
      "Ġyears": 942,
      "rest": 943,
      "Ġsystem": 944,
      "illion": 945,
      "Ġinf": 946,
      "ze": 947,
      "11": 948,
      "Ġthree": 949,
      "yp": 950,
      "ular": 951,
      "Ġresp": 952,
      "Ġ15": 953,
      "ism": 954,
      "Ġservice": 955,
      "loy": 956,
      "Ġsecretary": 957,
      "Ġmade": 958,
      "Ġdown": 959,
      "Ġform": 960,
      "Ġtom": 961,
      "ict": 962,
      "pet": 963,
      "Ġstill": 964,
      "Ġcannot": 965,
      "Ġarea": 966,
      "lish": 967,
      "Ġev": 968,
      "Ġinvest": 969,
      "Ġexam": 970,
      "Ġwithout": 971,
      "Ġslo": 972,
      "Ġproblem": 973,
      "Ġhelp": 974,
      "Ġhis": 975,
      "Ġ20": 976,
      "Ġconcern": 977,
      "Ġagreement": 978,
      "Ġinclud": 979,
      "Ġfl": 980,
      "way": 981,
      "Ġint": 982,
      "Ġchange": 983,
      "Ġamend": 984,
      "ner": 985,
      "Ġprior": 986,
      "Ġafter": 987,
      "cu": 988,
      "Ġstates": 989,
      "oth": 990,
      "Ġhostels": 991,
      "ier": 992,
      "eu": 993,
      "sw": 994,
      "Ġdid": 995,
      "Ġsecond": 996,
      "ieve": 997,
      "ploy": 998,
      "ef": 999,
      "Ġban": 1000,
      "Ġbas": 1001,
      "Ġmed": 1002,
      "Ġcourt": 1003,
      "Ġho": 1004,
      "Ġfact": 1005,
      "Ġfish": 1006,
      "Ġspain": 1007,
      "we": 1008,
      "Ġitaly": 1009,
      "Ġcountries": 1010,
      "ning": 1011,
      "Ġpay": 1012,
      "Ġcall": 1013,
      "lands": 1014,
      "Ġday": 1015,
      "Ġdifferen": 1016,
      "Ġnext": 1017,
      "Ġquestions": 1018,
      "Ġagriculture": 1019,
      "Ġfound": 1020,
      "Ġbre": 1021,
      "elf": 1022,
      "ii": 1023,
      "Ġtot": 1024,
      "Ġful": 1025,
      "Ġsomet": 1026,
      "rol": 1027,
      "Ġrest": 1028,
      "Ġsuch": 1029,
      "ract": 1030,
      "Ġair": 1031,
      "Ġaut": 1032,
      "ves": 1033,
      "Ġlux": 1034,
      "Ġtechn": 1035,
      "uty": 1036,
      "Ġgermany": 1037,
      "orrow": 1038,
      "Ġcourse": 1039,
      "Ġart": 1040,
      "âĤ": 1041,
      "âĤ¬": 1042,
      "Ġsame": 1043,
      "bourg": 1044,
      "line": 1045,
      "Ġfinance": 1046,
      "Ġfar": 1047,
      "Ġproducts": 1048,
      "Ġcould": 1049,
      "Ġparliament": 1050,
      "Ġcooperation": 1051,
      "12": 1052,
      "mark": 1053,
      "urity": 1054,
      "Ġbefore": 1055,
      "Ġvisit": 1056,
      "Ġstand": 1057,
      "pa": 1058,
      "Ġtomorrow": 1059,
      "Ġcomple": 1060,
      "Ġclick": 1061,
      "Ġcompet": 1062,
      "Ġown": 1063,
      "Ġfut": 1064,
      "Ġ13": 1065,
      "Ġbl": 1066,
      "Ġparticipants": 1067,
      "Ġ295": 1068,
      "Ġpage": 1069,
      "Ġaccess": 1070,
      "mm": 1071,
      "Ġissue": 1072,
      "ouse": 1073,
      "vers": 1074,
      "Ġapproved": 1075,
      "Ġviews": 1076,
      "ating": 1077,
      "Ġread": 1078,
      "Ġfre": 1079,
      "ca": 1080,
      "Ġansw": 1081,
      "Ġport": 1082,
      "Ġdone": 1083,
      "Ġ2009": 1084,
      "Ġdirective": 1085,
      "Ġanne": 1086,
      "Ġx": 1087,
      "Ġtak": 1088,
      "Ġmeasures": 1089,
      "Ġfuture": 1090,
      "ines": 1091,
      "Ġmeet": 1092,
      "Ġbelg": 1093,
      "Ġsect": 1094,
      "Ġher": 1095,
      "Ġresol": 1096,
      "Ġsecurity": 1097,
      "iness": 1098,
      "Ġcap": 1099,
      "Ġdetail": 1100,
      "Ġeven": 1101,
      "ros": 1102,
      "Ġcontin": 1103,
      "Ġregion": 1104,
      "Ġnumber": 1105,
      "Ġel": 1106,
      "Ġcommitte": 1107,
      "Ġshall": 1108,
      "Ġrom": 1109,
      "Ġreas": 1110,
      "Ġaustri": 1111,
      "its": 1112,
      "hip": 1113,
      "comm": 1114,
      "Ġmatter": 1115,
      "Ġeas": 1116,
      "Ġtel": 1117,
      "ung": 1118,
      "Ġfund": 1119,
      "Ġhum": 1120,
      "ale": 1121,
      "ready": 1122,
      "ix": 1123,
      "Ġmet": 1124,
      "Ġbud": 1125,
      "Ġire": 1126,
      "raph": 1127,
      "Ġalready": 1128,
      "Ġhad": 1129,
      "Ġpolit": 1130,
      "Ġer": 1131,
      "20": 1132,
      "Ġdata": 1133,
      "Ġche": 1134,
      "Ġcompan": 1135,
      "Ġannex": 1136,
      "ways": 1137,
      "Ġcome": 1138,
      "ption": 1139,
      "Ġireland": 1140,
      "Ġmillion": 1141,
      "Ġpossible": 1142,
      "embourg": 1143,
      "old": 1144,
      "he": 1145,
      "ered": 1146,
      "Ġred": 1147,
      "olog": 1148,
      "ving": 1149,
      "Ġtotal": 1150,
      "Ġbelgium": 1151,
      "Ġplan": 1152,
      "Ġpo": 1153,
      "Ġprotection": 1154,
      "Ġluxembourg": 1155,
      "red": 1156,
      "Ġaustria": 1157,
      "ger": 1158,
      "Ġask": 1159,
      "minister": 1160,
      "Ġrepublic": 1161,
      "qui": 1162,
      "gan": 1163,
      "Ġsomething": 1164,
      "Ã¼": 1165,
      "Ġcert": 1166,
      "Ġrights": 1167,
      "Ġcommittee": 1168,
      "eden": 1169,
      "itting": 1170,
      "Ġ18": 1171,
      "Ġbusiness": 1172,
      "Ġfav": 1173,
      "ulation": 1174,
      "Ġant": 1175,
      "herlands": 1176,
      "ules": 1177,
      "Ġadv": 1178,
      "Ã¶": 1179,
      "Ġmrs": 1180,
      "alth": 1181,
      "Ġemploy": 1182,
      "Ġwar": 1183,
      "Ġobject": 1184,
      "Ġ30": 1185,
      "Ġreal": 1186,
      "ession": 1187,
      "work": 1188,
      "Ġhappen": 1189,
      "Ġrev": 1190,
      "Ġproposal": 1191,
      "Ġip": 1192,
      "per": 1193,
      "ases": 1194,
      "led": 1195,
      "Ġnetherlands": 1196,
      "ital": 1197,
      "Ġca": 1198,
      "bers": 1199,
      "Ġstrate": 1200,
      "Ġ,": 1201,
      "ately": 1202,
      "ten": 1203,
      "Ġfig": 1204,
      "Ġ2007": 1205,
      "co": 1206,
      "Ġhuman": 1207,
      "Ġkey": 1208,
      "ternal": 1209,
      "Ġbudget": 1210,
      "Ġreally": 1211,
      "Ġsumm": 1212,
      "Ġorder": 1213,
      "Ġpack": 1214,
      "Ġsubject": 1215,
      "Ġ25": 1216,
      "Ġperson": 1217,
      "Ġsitting": 1218,
      "Ġlang": 1219,
      "Ġselect": 1220,
      "Ġ16": 1221,
      "Ġchild": 1222,
      "Ġbal": 1223,
      "Ġspecial": 1224,
      "Ġalways": 1225,
      "str": 1226,
      "ily": 1227,
      "iel": 1228,
      "ins": 1229,
      "Ġsur": 1230,
      "Ġsweden": 1231,
      "Ġeach": 1232,
      "Ġvotes": 1233,
      "Ġfinland": 1234,
      "Ġnat": 1235,
      "Ġfr": 1236,
      "Ġprocedure": 1237,
      "ised": 1238,
      "Ġdifferent": 1239,
      "ows": 1240,
      "Ġhope": 1241,
      "ĠâĤ¬": 1242,
      "Ġur": 1243,
      "ety": 1244,
      "Ġaid": 1245,
      "Ġcommon": 1246,
      "Ġexternal": 1247,
      "Ġvoted": 1248,
      "bal": 1249,
      "Ġu": 1250,
      "Ġboth": 1251,
      "Ġservices": 1252,
      "Ġann": 1253,
      "Ġcontrol": 1254,
      "40": 1255,
      "Ġrooms": 1256,
      "search": 1257,
      "eng": 1258,
      "Ġrules": 1259,
      "Ġbreak": 1260,
      "nt": 1261,
      "Ġhealth": 1262,
      "ower": 1263,
      "Ġshe": 1264,
      "Ġresearch": 1265,
      "Ġbetter": 1266,
      "fort": 1267,
      "ains": 1268,
      "Ġdocu": 1269,
      "ird": 1270,
      "Ġdenmark": 1271,
      "Ġresolution": 1272,
      "Ġsk": 1273,
      "iting": 1274,
      "Ġbeing": 1275,
      "Ġtext": 1276,
      "Ġgrow": 1277,
      "Ġword": 1278,
      "Ġtax": 1279,
      "Ġ17": 1280,
      "gar": 1281,
      "Ġpoints": 1282,
      "Ġinternational": 1283,
      "Ġupd": 1284,
      "Ġcust": 1285,
      "Ġsign": 1286,
      "Ġrequest": 1287,
      "Ġfavour": 1288,
      "ners": 1289,
      "ince": 1290,
      "Ġeng": 1291,
      "Ġhouse": 1292,
      "Ġlangu": 1293,
      "Ġpresent": 1294,
      "mail": 1295,
      "Ġoper": 1296,
      "Ġide": 1297,
      "Ġprev": 1298,
      "Ġcustom": 1299,
      "Ġcam": 1300,
      "Ġinn": 1301,
      "Ġes": 1302,
      "Ġput": 1303,
      "Ġrece": 1304,
      "Ġ2010": 1305,
      "Ġpur": 1306,
      "vern": 1307,
      "Ġmob": 1308,
      "Ġimpro": 1309,
      "Ġben": 1310,
      "Ġelect": 1311,
      "Ġreform": 1312,
      "ient": 1313,
      "Ġdist": 1314,
      "Ġsmall": 1315,
      "Ġjan": 1316,
      "Ġspeci": 1317,
      "Ġforward": 1318,
      "iss": 1319,
      "itter": 1320,
      "):": 1321,
      "ration": 1322,
      "Ġonline": 1323,
      "Ġwish": 1324,
      "Ġresults": 1325,
      "ek": 1326,
      "Ġthose": 1327,
      "Ġcountry": 1328,
      "Ġlink": 1329,
      "Ġthr": 1330,
      "Ġoffer": 1331,
      "Ġcho": 1332,
      "Ġneeds": 1333,
      "Ġincre": 1334,
      "Ġfew": 1335,
      "Ġexc": 1336,
      "Ġexpl": 1337,
      "other": 1338,
      "Ġeduc": 1339,
      "Ġ2008": 1340,
      "Ġyet": 1341,
      "Ġthings": 1342,
      "Ġaccept": 1343,
      "load": 1344,
      "Ġbelieve": 1345,
      "Ġcertain": 1346,
      "ond": 1347,
      "Ġstep": 1348,
      "Ġju": 1349,
      "Ġtal": 1350,
      "Ġeffect": 1351,
      "quiries": 1352,
      "Ġchar": 1353,
      "bo": 1354,
      "Ġdebated": 1355,
      "Ġtreat": 1356,
      "Ġret": 1357,
      "Ġanswer": 1358,
      "Ġach": 1359,
      "Ġgre": 1360,
      "thing": 1361,
      "Ġ*": 1362,
      "Ġused": 1363,
      "ased": 1364,
      "erence": 1365,
      "Ġlife": 1366,
      "itten": 1367,
      "Ġcut": 1368,
      "ocr": 1369,
      "Ġprom": 1370,
      "15": 1371,
      "Ġaddress": 1372,
      "ring": 1373,
      "az": 1374,
      "Ġrequire": 1375,
      "Ġgive": 1376,
      "Ġconsum": 1377,
      "Ġdeputy": 1378,
      "Ġ[": 1379,
      "Ġmak": 1380,
      "ols": 1381,
      "eries": 1382,
      "oney": 1383,
      "Ġfri": 1384,
      "uring": 1385,
      "Ġins": 1386,
      "Ġparticular": 1387,
      "Ġfam": 1388,
      "Ġsucc": 1389,
      "ards": 1390,
      "Ġwritten": 1391,
      "ced": 1392,
      "Ġdecision": 1393,
      "Ġfull": 1394,
      "ral": 1395,
      "Ġpass": 1396,
      "oy": 1397,
      "Ġge": 1398,
      "ior": 1399,
      "Ġ!": 1400,
      "iven": 1401,
      "Ġhand": 1402,
      "Ġnor": 1403,
      "Ġthrough": 1404,
      "mber": 1405,
      "plement": 1406,
      "Ġchang": 1407,
      "Ġpolitical": 1408,
      "Ġlaw": 1409,
      "Ġhol": 1410,
      "ban": 1411,
      "Ġtour": 1412,
      "Ġwin": 1413,
      "Ġsta": 1414,
      "Ġchr": 1415,
      "Ġdetails": 1416,
      "Ġequ": 1417,
      "Ġeducation": 1418,
      "ween": 1419,
      "Ġsince": 1420,
      "une": 1421,
      "Ġtaken": 1422,
      "ting": 1423,
      "Ġthird": 1424,
      "Ġtrain": 1425,
      "Ġmembers": 1426,
      "Ġfrance": 1427,
      "Ġbetween": 1428,
      "Ġcity": 1429,
      "Ġpa": 1430,
      "ps": 1431,
      "Ġsuccess": 1432,
      "02": 1433,
      "Ġnever": 1434,
      "Ġcommunic": 1435,
      "Ġgovern": 1436,
      "onia": 1437,
      "ware": 1438,
      "Ġpoland": 1439,
      "atic": 1440,
      "iter": 1441,
      "Ġtwitter": 1442,
      "Ġgoing": 1443,
      "ibility": 1444,
      "Ġinterest": 1445,
      "Ġpat": 1446,
      "46": 1447,
      "ember": 1448,
      "Ġjud": 1449,
      "acy": 1450,
      "Ġissues": 1451,
      "Ġimplement": 1452,
      "Ġexample": 1453,
      "Ġstrategy": 1454,
      "Ġfil": 1455,
      "ts": 1456,
      "Ġinternal": 1457,
      "Ġassist": 1458,
      "Ġemployment": 1459,
      "Ġhung": 1460,
      "Ġflo": 1461,
      "Ġorgan": 1462,
      "Ġturn": 1463,
      "Ġsite": 1464,
      "Ġprice": 1465,
      "Ġinquiries": 1466,
      "Ġshort": 1467,
      "hor": 1468,
      "Ġsing": 1469,
      "Ġamendment": 1470,
      "ars": 1471,
      "rus": 1472,
      "Ġmoney": 1473,
      "iti": 1474,
      "isation": 1475,
      "Ġ/": 1476,
      "Ġnational": 1477,
      "Ġlab": 1478,
      "Ġfigures": 1479,
      "Ġname": 1480,
      "Ġpriority": 1481,
      "ys": 1482,
      "Ġapart": 1483,
      "ests": 1484,
      "Ġfisheries": 1485,
      "Ġvi": 1486,
      "Ġcommunity": 1487,
      "ann": 1488,
      "Ġfa": 1489,
      "Ġrespons": 1490,
      "Ġ24": 1491,
      "Ġfour": 1492,
      "Ġdays": 1493,
      "men": 1494,
      "go": 1495,
      "arn": 1496,
      "ute": 1497,
      "09": 1498,
      "Ġmer": 1499,
      "Ġinde": 1500,
      "ty": 1501,
      "Ġnews": 1502,
      "Ġlot": 1503,
      "Ġdemocr": 1504,
      "via": 1505,
      "Ġquite": 1506,
      "Ġexpect": 1507,
      "Ġenough": 1508,
      "Ġanother": 1509,
      "Ġpric": 1510,
      "Ġquality": 1511,
      "Ġve": 1512,
      "Ġyes": 1513,
      "Ġcompetition": 1514,
      "ari": 1515,
      "Ġnothing": 1516,
      "Ġnoon": 1517,
      "Ġactiv": 1518,
      "13": 1519,
      "Ġglo": 1520,
      "Ġsou": 1521,
      "Ġpet": 1522,
      "Ġphone": 1523,
      "Ġchildren": 1524,
      "Ġprin": 1525,
      "Ġii": 1526,
      "Ġconsid": 1527,
      "Ġunited": 1528,
      "Ġweb": 1529,
      "Ġ22": 1530,
      "Ġcyp": 1531,
      "Ġbul": 1532,
      "Ġdr": 1533,
      "alog": 1534,
      "Ġinvestment": 1535,
      "Ġcontrib": 1536,
      "Ġwater": 1537,
      "pres": 1538,
      "Ġold": 1539,
      "Ġspecif": 1540,
      "vak": 1541,
      "Ġris": 1542,
      "Ġchrist": 1543,
      "Ġnote": 1544,
      "orth": 1545,
      "Ġversion": 1546,
      "Ġ28": 1547,
      "Ġless": 1548,
      "Ġbri": 1549,
      "ather": 1550,
      "got": 1551,
      "ability": 1552,
      "Ġ45": 1553,
      "Ġmot": 1554,
      "Ġmaj": 1555,
      "Ġaddition": 1556,
      "Ġdownload": 1557,
      "Ġcyprus": 1558,
      "ually": 1559,
      "Ġrecomm": 1560,
      "Ġlim": 1561,
      "03": 1562,
      "Ġaud": 1563,
      "Ġapproach": 1564,
      "eri": 1565,
      "ided": 1566,
      "Ġcheck": 1567,
      "Ġtur": 1568,
      "Ġsector": 1569,
      "Ġfinal": 1570,
      "Ġprojects": 1571,
      "Ġrecommend": 1572,
      "Ġcit": 1573,
      "org": 1574,
      "que": 1575,
      "Ġreason": 1576,
      "df": 1577,
      "Ġdou": 1578,
      "ash": 1579,
      "Ġinternet": 1580,
      "Ġunt": 1581,
      "Ġhungary": 1582,
      "Ġmanage": 1583,
      "Ġproblems": 1584,
      "dit": 1585,
      "98": 1586,
      "Ã¤": 1587,
      "ize": 1588,
      "gin": 1589,
      "zech": 1590,
      "cess": 1591,
      "ides": 1592,
      "na": 1593,
      "Ġfood": 1594,
      "Ġmeeting": 1595,
      "ock": 1596,
      "Ġdra": 1597,
      "ension": 1598,
      "utions": 1599,
      "enda": 1600,
      "Ġtop": 1601,
      "Ġcurrently": 1602,
      "stand": 1603,
      "Ġlead": 1604,
      "Ġprof": 1605,
      "Ġpriv": 1606,
      "Ġrun": 1607,
      "Ġstud": 1608,
      "Ġspeaker": 1609,
      "Ġlevel": 1610,
      "Ġterr": 1611,
      "Ġprogress": 1612,
      ".:": 1613,
      "16": 1614,
      "Ġfriend": 1615,
      "Ġtri": 1616,
      "Ġenter": 1617,
      "uff": 1618,
      "parliament": 1619,
      "Ġpost": 1620,
      "Ġwind": 1621,
      "Ġrele": 1622,
      "dom": 1623,
      "Ġphot": 1624,
      "Ġsloven": 1625,
      "Ġassistance": 1626,
      "ype": 1627,
      "med": 1628,
      "Ġczech": 1629,
      "urs": 1630,
      "Ġenl": 1631,
      "club": 1632,
      "Ġglobal": 1633,
      "itor": 1634,
      "Ġbed": 1635,
      "ists": 1636,
      "Ġauthor": 1637,
      "Ġeasy": 1638,
      "Ġregulation": 1639,
      "Ġprices": 1640,
      "ah": 1641,
      "lation": 1642,
      "Ġconsult": 1643,
      "imate": 1644,
      "ithu": 1645,
      "Ġareas": 1646,
      "Ġprinci": 1647,
      "75": 1648,
      "352": 1649,
      "Ġinnov": 1650,
      "Ġfac": 1651,
      "Ġsl": 1652,
      "Ġpap": 1653,
      "ott": 1654,
      "ica": 1655,
      "Ġaccount": 1656,
      "Ġtrue": 1657,
      "Ġindust": 1658,
      "Ġbuild": 1659,
      "erv": 1660,
      "Ġcod": 1661,
      "Ġid": 1662,
      "Ġpartners": 1663,
      "Ġcomments": 1664,
      "Ġwaters": 1665,
      "Ġcitiz": 1666,
      "14": 1667,
      "ler": 1668,
      "Ġregional": 1669,
      "Ġbeh": 1670,
      "Ġdeal": 1671,
      "Ġoffice": 1672,
      "Ġslovenia": 1673,
      "Ġmove": 1674,
      "be": 1675,
      "Ġjuly": 1676,
      "Ġfiel": 1677,
      "Ġdesign": 1678,
      "Ġcris": 1679,
      "Ġcompany": 1680,
      "Ġbro": 1681,
      "Ġagenda": 1682,
      "Ġaround": 1683,
      "Ġsingle": 1684,
      "Ġjune": 1685,
      "itted": 1686,
      "joy": 1687,
      "Ġstat": 1688,
      "Ġsupp": 1689,
      "Ġallow": 1690,
      "Ġruss": 1691,
      "Ġexperi": 1692,
      "Ġbig": 1693,
      "ness": 1694,
      "Ġlanguage": 1695,
      "Ġenjoy": 1696,
      "Ġhostelsclub": 1697,
      "Ġuni": 1698,
      "Ġshare": 1699,
      "Ġwa": 1700,
      "Ġapplic": 1701,
      "Ġpract": 1702,
      "fast": 1703,
      "Ġworking": 1704,
      "ples": 1705,
      "ceed": 1706,
      "97": 1707,
      "Ġmich": 1708,
      "Ġgrowth": 1709,
      "Ġmal": 1710,
      "Ġ&": 1711,
      "ithuania": 1712,
      "rency": 1713,
      "Ġking": 1714,
      "Ġartic": 1715,
      "96": 1716,
      "leg": 1717,
      "Ġgl": 1718,
      "Ġsea": 1719,
      "22": 1720,
      "Ġmil": 1721,
      "Ġuntil": 1722,
      "Ġlegis": 1723,
      "Ġmention": 1724,
      "ross": 1725,
      "val": 1726,
      "Ġmonth": 1727,
      "Ġ?": 1728,
      "pr": 1729,
      "cri": 1730,
      "Ġ21": 1731,
      "Ġtele": 1732,
      "ters": 1733,
      "Ġestonia": 1734,
      "Ġculture": 1735,
      "Ġfram": 1736,
      "Ġaim": 1737,
      "Ġcontents": 1738,
      "Ġslovak": 1739,
      "50": 1740,
      "Ġopin": 1741,
      "Ġwom": 1742,
      "ought": 1743,
      "Ġsal": 1744,
      "Ġlithuania": 1745,
      "ification": 1746,
      "Ġcomment": 1747,
      "Ġmeans": 1748,
      "ultural": 1749,
      "Ġposition": 1750,
      "Ġrespect": 1751,
      "Ġiniti": 1752,
      "Ġlitt": 1753,
      "Ġconference": 1754,
      "Ġcontinue": 1755,
      "Ġbreakfast": 1756,
      "Ġbank": 1757,
      "mb": 1758,
      "ime": 1759,
      "Ġnon": 1760,
      "Ġbecome": 1761,
      "Ġhead": 1762,
      "Ġregions": 1763,
      "ply": 1764,
      "Ġblo": 1765,
      "Ġvice": 1766,
      "Ġhim": 1767,
      "Ġbulgar": 1768,
      "Ġprod": 1769,
      "Ġdate": 1770,
      "Ġmid": 1771,
      "Ġlatvia": 1772,
      "ias": 1773,
      "ense": 1774,
      "Ġlooking": 1775,
      "Ġpict": 1776,
      "ood": 1777,
      "Ġlittle": 1778,
      "itive": 1779,
      "Ġromania": 1780,
      "Ġear": 1781,
      "Ġcrisis": 1782,
      "Ġec": 1783,
      "Ġmean": 1784,
      "Ġabs": 1785,
      "Ġste": 1786,
      "ources": 1787,
      "Ġeur": 1788,
      "Ġdecl": 1789,
      "ruct": 1790,
      "Ġmajor": 1791,
      "Ġpower": 1792,
      "Ġmanagement": 1793,
      "Ġlatest": 1794,
      "Ġthing": 1795,
      "Ġmobile": 1796,
      "Ġindustry": 1797,
      "Ġstaff": 1798,
      "Ġdri": 1799,
      "vention": 1800,
      "Ġce": 1801,
      "gest": 1802,
      "und": 1803,
      "ody": 1804,
      "Ġenlarge": 1805,
      "ove": 1806,
      "Ġsaf": 1807,
      "Ġreach": 1808,
      "mes": 1809,
      "ote": 1810,
      "Ġsimply": 1811,
      "president": 1812,
      "Ġsat": 1813,
      "Ġchina": 1814,
      "Ġappl": 1815,
      "Ġportug": 1816,
      "ustain": 1817,
      "Ġcitizens": 1818,
      "Ġframe": 1819,
      "),": 1820,
      "Ġmom": 1821,
      "Ġnecess": 1822,
      "Ġspecific": 1823,
      "95": 1824,
      "lex": 1825,
      "Ġpresid": 1826,
      "Ġoffers": 1827,
      "Ġtechnical": 1828,
      "Ġjudg": 1829,
      "ology": 1830,
      "Ġcat": 1831,
      "Ġstruct": 1832,
      "Ġtools": 1833,
      "Ġ296": 1834,
      "Ġbenef": 1835,
      "Ġmarch": 1836,
      "Ġfloor": 1837,
      "Ġpdf": 1838,
      "Ġbulgaria": 1839,
      "ling": 1840,
      "Ġdim": 1841,
      "Ġcare": 1842,
      "Ġgraph": 1843,
      "Ġwhole": 1844,
      "Ġdoing": 1845,
      "Ġeconomy": 1846,
      "over": 1847,
      "Ġple": 1848,
      "Ġpal": 1849,
      "rem": 1850,
      "Ġnight": 1851,
      "Ġgent": 1852,
      "Ġpresidency": 1853,
      "oura": 1854,
      "Ġ299": 1855,
      "Ġmor": 1856,
      "Ġinstit": 1857,
      "Ġtranspa": 1858,
      "86": 1859,
      "Ġpackage": 1860,
      "Ġleft": 1861,
      "Ġstatements": 1862,
      "wards": 1863,
      "Ġcop": 1864,
      "Ġ50": 1865,
      "Ġ@": 1866,
      "esc": 1867,
      "cing": 1868,
      "Ġslovakia": 1869,
      "br": 1870,
      "Ġfed": 1871,
      "33": 1872,
      "Ġrole": 1873,
      "Ġemail": 1874,
      "Ġcentre": 1875,
      "Ġholid": 1876,
      "room": 1877,
      "Ġland": 1878,
      "Ġshow": 1879,
      "Ġconcerns": 1880,
      "Ġtest": 1881,
      "Ġgreen": 1882,
      "Ġcal": 1883,
      "Ġmess": 1884,
      "Ġafric": 1885,
      "Ġreturn": 1886,
      "Ġaway": 1887,
      "Ġdocuments": 1888,
      "lin": 1889,
      "ave": 1890,
      "Ġwal": 1891,
      "nes": 1892,
      "Ġroad": 1893,
      "Ġtraining": 1894,
      "Ġtar": 1895,
      "Ġ2000": 1896,
      "201": 1897,
      "Ġ27": 1898,
      "Ġele": 1899,
      "istry": 1900,
      "ision": 1901,
      "li": 1902,
      "ential": 1903,
      "ites": 1904,
      "Ġenlargement": 1905,
      "Ġsend": 1906,
      "Ġguests": 1907,
      "Ġsoft": 1908,
      "nect": 1909,
      "Ġduring": 1910,
      "va": 1911,
      "Ġonce": 1912,
      "ises": 1913,
      "Ġ000": 1914,
      "Ġvalue": 1915,
      "raq": 1916,
      "Ġdialog": 1917,
      "ma": 1918,
      "icult": 1919,
      "Ġtype": 1920,
      "Ġdifficult": 1921,
      "Ġmen": 1922,
      "Ġamer": 1923,
      "Ġreview": 1924,
      "Ġ%": 1925,
      "ination": 1926,
      "Ġwords": 1927,
      "Ġopinion": 1928,
      "Ġmus": 1929,
      "ets": 1930,
      "Ġlegal": 1931,
      "45": 1932,
      "ator": 1933,
      "Ġlad": 1934,
      "den": 1935,
      "Ġsustain": 1936,
      "Ġsever": 1937,
      "iod": 1938,
      "ently": 1939,
      "Ġweek": 1940,
      "Ġpop": 1941,
      "Ġopport": 1942,
      "key": 1943,
      "Ġtimes": 1944,
      "Ġjoint": 1945,
      "Ġadded": 1946,
      "Ġeurop": 1947,
      "Ġopt": 1948,
      "Ġmemo": 1949,
      "aps": 1950,
      "orn": 1951,
      "Ġportugal": 1952,
      "Ġintegr": 1953,
      "Ġsan": 1954,
      "ante": 1955,
      "Ġsolution": 1956,
      "Ġopportun": 1957,
      "gu": 1958,
      "ction": 1959,
      "Ġeverything": 1960,
      "Ġremain": 1961,
      "ĠĠ": 1962,
      "Ġhour": 1963,
      "Ġmodified": 1964,
      "Ġproposals": 1965,
      "goti": 1966,
      "ki": 1967,
      "Ġhist": 1968,
      "ocus": 1969,
      "ril": 1970,
      "Ġchall": 1971,
      "self": 1972,
      "Ġhard": 1973,
      "ean": 1974,
      "Ġrate": 1975,
      "Ġframework": 1976,
      "Ġlive": 1977,
      "Ġinterior": 1978,
      "Ġdefence": 1979,
      "ino": 1980,
      "Ġstatement": 1981,
      "Ġ23": 1982,
      "Ġ2006": 1983,
      "Ġkeep": 1984,
      "Ġclimate": 1985,
      "ource": 1986,
      "Ġappe": 1987,
      "Ġwithin": 1988,
      "Ġdiscuss": 1989,
      "Ġcorrect": 1990,
      "Ġcosts": 1991,
      "Ġfile": 1992,
      "alf": 1993,
      "Ġnegoti": 1994,
      "18": 1995,
      "303": 1996,
      "wh": 1997,
      "Ġdecisions": 1998,
      "Ġmoment": 1999,
      "rad": 2000,
      "Ġprocessed": 2001,
      "Ġir": 2002,
      "Ġinclude": 2003,
      "25": 2004,
      "Ġ100": 2005,
      "rule": 2006,
      "ussion": 2007,
      "af": 2008,
      "Ġvide": 2009,
      "Ġgame": 2010,
      "Ġdeli": 2011,
      "Ġunderstand": 2012,
      "Ġstrong": 2013,
      "Ġkingdom": 2014,
      "17": 2015,
      "by": 2016,
      "Ġpot": 2017,
      "Ġlearn": 2018,
      "Ġseveral": 2019,
      "Ġcommunication": 2020,
      "Ġappoint": 2021,
      "Ġlocated": 2022,
      "Ġcentral": 2023,
      "ij": 2024,
      "Ġgiven": 2025,
      "Ġbeach": 2026,
      "05": 2027,
      "mitted": 2028,
      "Ġministry": 2029,
      "Ġlocation": 2030,
      "Ġnecessary": 2031,
      "Ġvill": 2032,
      "Ġconclud": 2033,
      "Ġdiscussion": 2034,
      "Ġstuff": 2035,
      "stat": 2036,
      "Ġline": 2037,
      "fect": 2038,
      "unately": 2039,
      "Ġnice": 2040,
      "Ġfeel": 2041,
      "04": 2042,
      "ka": 2043,
      "Ġdont": 2044,
      "Ġhar": 2045,
      "Ġkind": 2046,
      "Ġinstall": 2047,
      "Ġmac": 2048,
      "Ġserious": 2049,
      "cause": 2050,
      "Ġbecause": 2051,
      "Ġregard": 2052,
      "gether": 2053,
      "Ġtogether": 2054,
      "Ġnotified": 2055,
      "Ġtrad": 2056,
      "Ġjudgment": 2057,
      "ared": 2058,
      "Ġgentle": 2059,
      "Ġtry": 2060,
      "Ġprocedures": 2061,
      "Ġlarge": 2062,
      "aut": 2063,
      "imum": 2064,
      "Ġgraphics": 2065,
      "ule": 2066,
      "Ġpeace": 2067,
      "Ġsearch": 2068,
      "27": 2069,
      "Ġ4303": 2070,
      "Ġassess": 2071,
      "Ġconsider": 2072,
      "Ġinnovation": 2073,
      ".)": 2074,
      "oul": 2075,
      "ats": 2076,
      "Ġclean": 2077,
      "Ġfamily": 2078,
      "Ġwomen": 2079,
      "fer": 2080,
      "Ġadds": 2081,
      "Ġ2001": 2082,
      "ta": 2083,
      "Ġsimple": 2084,
      "Ġgovernment": 2085,
      "reng": 2086,
      "ene": 2087,
      "Ġber": 2088,
      "sh": 2089,
      "Ġeast": 2090,
      "ili": 2091,
      "Ġpriorities": 2092,
      "Ġladies": 2093,
      "Ġbelow": 2094,
      "Ġdece": 2095,
      "Ġneeded": 2096,
      "Ġnear": 2097,
      "Ġapril": 2098,
      "thers": 2099,
      "Ġarticle": 2100,
      "sp": 2101,
      "Ġ75": 2102,
      "Ġtransparency": 2103,
      "arity": 2104,
      "Ġanim": 2105,
      "hn": 2106,
      "Ġunfort": 2107,
      "itors": 2108,
      "Ġ99": 2109,
      "Ġconst": 2110,
      "Ġconnect": 2111,
      "Ġsoon": 2112,
      "Ġdom": 2113,
      "Ġrussia": 2114,
      "Ġoct": 2115,
      "Ġlight": 2116,
      "Ġimprove": 2117,
      "ged": 2118,
      "Ġsil": 2119,
      "elie": 2120,
      "Ġvan": 2121,
      "Ġ)": 2122,
      "Ġperfect": 2123,
      "ilities": 2124,
      "Ġexist": 2125,
      "Ġresources": 2126,
      "Ġattention": 2127,
      "Ġgentlemen": 2128,
      "uary": 2129,
      "elves": 2130,
      "Ġlocal": 2131,
      "Ġconsumer": 2132,
      "Ġsure": 2133,
      "Ġitself": 2134,
      "aur": 2135,
      "eur": 2136,
      "ising": 2137,
      "Ġpurpos": 2138,
      "Ġperiod": 2139,
      "au": 2140,
      "duction": 2141,
      "Ġbegin": 2142,
      "rict": 2143,
      "Ġmakes": 2144,
      "Ġcommissions": 2145,
      "Ġimplementation": 2146,
      "Ġ2005": 2147,
      "ames": 2148,
      "Ġ2003": 2149,
      "ha": 2150,
      "Ġeurostat": 2151,
      "Ġ32": 2152,
      "Ġcapital": 2153,
      "Ġsafety": 2154,
      "Ġmult": 2155,
      "ived": 2156,
      "Ġcertainly": 2157,
      "Ġusing": 2158,
      "Ġwrong": 2159,
      "let": 2160,
      "Ġorig": 2161,
      "Ġreasons": 2162,
      "Ġcontribution": 2163,
      "ined": 2164,
      "06": 2165,
      "Ġcard": 2166,
      "Ġclose": 2167,
      "Ġinvol": 2168,
      "Ġiv": 2169,
      "Ġexcell": 2170,
      "Ġtable": 2171,
      "Ġlonger": 2172,
      "Ġbug": 2173,
      "Ġvol": 2174,
      "Ġrue": 2175,
      "Ġvar": 2176,
      "Ġusers": 2177,
      "ception": 2178,
      "Ġsun": 2179,
      "Ġsession": 2180,
      "ery": 2181,
      "euro": 2182,
      "lished": 2183,
      "Ġsci": 2184,
      "Ġstop": 2185,
      "Ġtreaty": 2186,
      "Ġadditional": 2187,
      "ury": 2188,
      "Ġaccom": 2189,
      "Ġturkey": 2190,
      "Ġexperience": 2191,
      "ized": 2192,
      "Ġothers": 2193,
      "Ġbrief": 2194,
      "Ġpaper": 2195,
      "31": 2196,
      "ng": 2197,
      "roes": 2198,
      "Ġcomfort": 2199,
      "Ġ35": 2200,
      "Ġuk": 2201,
      "Ġfederal": 2202,
      "Ġtas": 2203,
      "do": 2204,
      "Ġopp": 2205,
      "Ġess": 2206,
      "Ġcas": 2207,
      "Ġsport": 2208,
      "07": 2209,
      "atives": 2210,
      "Ġsubs": 2211,
      "unch": 2212,
      "Ġproceed": 2213,
      "Ġrefer": 2214,
      "Ġoffic": 2215,
      "Ġexplan": 2216,
      "Ġocc": 2217,
      "Ġdecember": 2218,
      "Ġsouth": 2219,
      "Ġjanuary": 2220,
      "Ġguar": 2221,
      "Ġdemocracy": 2222,
      "rength": 2223,
      "37": 2224,
      "Ġcomb": 2225,
      "Ġeveryone": 2226,
      "Ġestab": 2227,
      "Ġintro": 2228,
      "Ġenglish": 2229,
      "Ġaspect": 2230,
      "Ġprivate": 2231,
      "Ġig": 2232,
      "Ġrestaur": 2233,
      "Ġobjectives": 2234,
      "Ġgree": 2235,
      "Ġ2002": 2236,
      "Ġclearly": 2237,
      "Ġachieve": 2238,
      "Ġabsol": 2239,
      "ateg": 2240,
      "Ġamount": 2241,
      "ump": 2242,
      "ano": 2243,
      "Ġhotels": 2244,
      "Ġfield": 2245,
      "Ġmedia": 2246,
      "Ġcompanies": 2247,
      "Ġrisk": 2248,
      "gs": 2249,
      "Ġunfortunately": 2250,
      "Ġ2004": 2251,
      "Ġmadam": 2252,
      "Ġprepar": 2253,
      "Ġtarget": 2254,
      "Ġmodern": 2255,
      "Ġchoose": 2256,
      "Ġdialogue": 2257,
      "of": 2258,
      "Ġteam": 2259,
      "Ġbased": 2260,
      "Ġorigin": 2261,
      "dp": 2262,
      "Ġciv": 2263,
      "idence": 2264,
      "Ġextrem": 2265,
      "Ġlabour": 2266,
      "ss": 2267,
      "Ġet": 2268,
      "Ġindeed": 2269,
      "Ġadmin": 2270,
      "dle": 2271,
      "Ġpersonal": 2272,
      "Ġguarante": 2273,
      "Ġ297": 2274,
      "ron": 2275,
      "Ġcases": 2276,
      "Ġneelie": 2277,
      "Ġkm": 2278,
      "Ġafrica": 2279,
      "Ġbi": 2280,
      "Ġoften": 2281,
      "Ġ26": 2282,
      "!!": 2283,
      "Ġthanks": 2284,
      "most": 2285,
      "Ġquick": 2286,
      "Ġ]": 2287,
      "Ġ..": 2288,
      "Ġnetwork": 2289,
      "ivid": 2290,
      "Ġmax": 2291,
      "Ġsystems": 2292,
      "uel": 2293,
      "Ġairport": 2294,
      "gen": 2295,
      "Ġcro": 2296,
      "Ġprogrammes": 2297,
      "355": 2298,
      "soci": 2299,
      "Ġapplause": 2300,
      "Ġapartment": 2301,
      "Ġrad": 2302,
      "ana": 2303,
      "ically": 2304,
      "Ġpromot": 2305,
      "Ġrapport": 2306,
      "ba": 2307,
      "ober": 2308,
      "Ġsustainable": 2309,
      "08": 2310,
      "Ġlater": 2311,
      "Ġfront": 2312,
      "mon": 2313,
      "Ġfunction": 2314,
      "Ġfight": 2315,
      "Ġdig": 2316,
      "Ġstrength": 2317,
      "Ġapply": 2318,
      "Ġable": 2319,
      "pping": 2320,
      "Ġvia": 2321,
      "Ġremains": 2322,
      "19": 2323,
      "Ġsoci": 2324,
      "Ġinfring": 2325,
      "Ġcri": 2326,
      "Ġclass": 2327,
      "Ġassoci": 2328,
      "Ġ2015": 2329,
      "ech": 2330,
      "ained": 2331,
      "Ġcontent": 2332,
      "Ġ93": 2333,
      "Ġtalk": 2334,
      "ify": 2335,
      "ret": 2336,
      "arian": 2337,
      "ither": 2338,
      "mental": 2339,
      "Ġarri": 2340,
      "Ġprevious": 2341,
      "24": 2342,
      "Ġcode": 2343,
      "Ġsoftware": 2344,
      "Ġvoting": 2345,
      "Ġcivil": 2346,
      "Ġinfringe": 2347,
      "Ġdan": 2348,
      "Ġwriting": 2349,
      "Ġlinks": 2350,
      "Ġforum": 2351,
      "Ġrespon": 2352,
      "uced": 2353,
      "bon": 2354,
      "Ġkroes": 2355,
      "Ġlu": 2356,
      "Ġfinally": 2357,
      "Ġcomplet": 2358,
      "Ġachie": 2359,
      "Ġholiday": 2360,
      "hes": 2361,
      "rast": 2362,
      "Ġapplies": 2363,
      "Ġoctober": 2364,
      "ming": 2365,
      "Ġside": 2366,
      "Ġexcellent": 2367,
      "ences": 2368,
      "Ġdocument": 2369,
      "199": 2370,
      "Ġpolicies": 2371,
      "ditions": 2372,
      "Ġcateg": 2373,
      "Ġbra": 2374,
      "Ġregist": 2375,
      "Ġupdates": 2376,
      "Ġproposed": 2377,
      "Ġtem": 2378,
      "Ġmanag": 2379,
      "Ġeib": 2380,
      "quis": 2381,
      "Ġimpact": 2382,
      "Ġbuy": 2383,
      "Ġfair": 2384,
      "Ġdeclar": 2385,
      "che": 2386,
      "Ġamendments": 2387,
      "Ġanti": 2388,
      "Ġmiddle": 2389,
      "za": 2390,
      "Ġresponse": 2391,
      "34": 2392,
      "Ġoil": 2393,
      "Ġindic": 2394,
      "grat": 2395,
      "Ġamb": 2396,
      "Ġactions": 2397,
      "Ġworks": 2398,
      "Ġcomes": 2399,
      "Ġtown": 2400,
      "att": 2401,
      "Ġenc": 2402,
      "Ġprovide": 2403,
      "oud": 2404,
      "ended": 2405,
      "Ġvideo": 2406,
      "Ġextremely": 2407,
      "Ġ3355": 2408,
      "Ġhappy": 2409,
      "Ġscho": 2410,
      "cent": 2411,
      "pped": 2412,
      "Ġfeat": 2413,
      "Ġfreed": 2414,
      "igation": 2415,
      "igration": 2416,
      "Ġfollows": 2417,
      "Ġcongrat": 2418,
      "ensive": 2419,
      "Ġprinciple": 2420,
      "Ġsource": 2421,
      "Ġ02": 2422,
      "Ġpositive": 2423,
      "Ġcolom": 2424,
      "Ġtell": 2425,
      "struct": 2426,
      "Ġcongratul": 2427,
      "Ġcreate": 2428,
      "Ġadminist": 2429,
      "Ġrequired": 2430,
      "atory": 2431,
      "Ġmag": 2432,
      "Ġhours": 2433,
      "erial": 2434,
      "Ġdu": 2435,
      "Ġimage": 2436,
      "Ġreceive": 2437,
      "ream": 2438,
      "Ġfail": 2439,
      "Ġobs": 2440,
      "ici": 2441,
      "Ġandr": 2442,
      "Ġpark": 2443,
      "Ġhear": 2444,
      "Ġreceived": 2445,
      "Ġindivid": 2446,
      "Ġdescri": 2447,
      "Ġincluded": 2448,
      "Ġbuilding": 2449,
      "Ġpartnership": 2450,
      "ton": 2451,
      "zer": 2452,
      "Ġitem": 2453,
      "Ġexact": 2454,
      "Ġwaste": 2455,
      "Ġactivities": 2456,
      "Ġmonths": 2457,
      "Ġdiv": 2458,
      "ones": 2459,
      "Ġeesc": 2460,
      "Ġheart": 2461,
      "ires": 2462,
      "Ġfive": 2463,
      "Ġbad": 2464,
      "aster": 2465,
      "Ġpan": 2466,
      "Ġfocus": 2467,
      "Ġsuper": 2468,
      "istics": 2469,
      "iet": 2470,
      "Ġhon": 2471,
      "Ġconditions": 2472,
      "fact": 2473,
      "Ġaug": 2474,
      "Ġbath": 2475,
      "urg": 2476,
      "pri": 2477,
      "Ġoption": 2478,
      "Ġguid": 2479,
      "Ġjob": 2480,
      "eless": 2481,
      "Ġassessment": 2482,
      "Ġfreedom": 2483,
      "Ġconvention": 2484,
      "hod": 2485,
      "icient": 2486,
      "Ġregul": 2487,
      "21": 2488,
      "Ġevent": 2489,
      "Ġnegotiations": 2490,
      "ll": 2491,
      "Ġeus": 2492,
      "Ġlog": 2493,
      "Ġapplication": 2494,
      "well": 2495,
      "Ġurg": 2496,
      "Ġmessage": 2497,
      "Ġ546": 2498,
      "Ġthus": 2499,
      "ening": 2500,
      "ively": 2501,
      "Ġtyp": 2502,
      "Ġgener": 2503,
      "Ġproduction": 2504,
      "iation": 2505,
      "iful": 2506,
      "Ġpub": 2507,
      "Ġresponsibility": 2508,
      "Ġmusic": 2509,
      "Ġhappened": 2510,
      "Ġlar": 2511,
      "Ġcollect": 2512,
      "Ġlegislation": 2513,
      "Ġpurpose": 2514,
      "Ġenvironmental": 2515,
      "enn": 2516,
      "Ġder": 2517,
      "ja": 2518,
      "Ġexch": 2519,
      "less": 2520,
      "Ġbeaut": 2521,
      "Ġabove": 2522,
      "Ġsent": 2523,
      "Ġsubmitted": 2524,
      "Ġrent": 2525,
      "Ġyouth": 2526,
      "26": 2527,
      "Ġforce": 2528,
      "Ġdev": 2529,
      "Ġreports": 2530,
      "Ġchanges": 2531,
      "36": 2532,
      "ators": 2533,
      "Ġcla": 2534,
      "Ġaccord": 2535,
      "Ġdistrib": 2536,
      "Ġleast": 2537,
      "head": 2538,
      "Ġfis": 2539,
      "Ġlove": 2540,
      "ances": 2541,
      "Ġhor": 2542,
      "Ġyoung": 2543,
      "Ġuseful": 2544,
      "Ġmentioned": 2545,
      "unic": 2546,
      "ptember": 2547,
      "Ġdouble": 2548,
      "bru": 2549,
      "Ġmarkets": 2550,
      "Ġexamples": 2551,
      "Ġentire": 2552,
      "Ġbell": 2553,
      "Ġsafe": 2554,
      "Ġsolid": 2555,
      "Ġrapporteur": 2556,
      "Ġpros": 2557,
      "Ġchristop": 2558,
      "Ġsociety": 2559,
      "ini": 2560,
      "Ġbeautiful": 2561,
      "Ġdemand": 2562,
      "Ġasked": 2563,
      "uge": 2564,
      "Ġpie": 2565,
      "Ġmov": 2566,
      "Ġexpected": 2567,
      "yl": 2568,
      "Ġreject": 2569,
      "Ġgroups": 2570,
      "Ġmethod": 2571,
      "Ġcompletely": 2572,
      "%.": 2573,
      "Ġstock": 2574,
      "Ġnove": 2575,
      "Ġfax": 2576,
      "Ġda": 2577,
      "Ġmaking": 2578,
      "2001": 2579,
      "Ġwes": 2580,
      "Ġnorth": 2581,
      "Ġeffort": 2582,
      "28": 2583,
      "Ġmaria": 2584,
      "Ġ298": 2585,
      "Ġterror": 2586,
      "Ġstandard": 2587,
      "Ġtakes": 2588,
      "Ġinitiative": 2589,
      "Ġsuff": 2590,
      "pro": 2591,
      "itch": 2592,
      "Ġcalled": 2593,
      "ade": 2594,
      "Ġfiles": 2595,
      "Ġq": 2596,
      "Ġwon": 2597,
      "Ġgot": 2598,
      "Ġnovember": 2599,
      "Ġgdp": 2600,
      "Ġcomplete": 2601,
      "Ġeuropes": 2602,
      "Ġtick": 2603,
      "Ġwall": 2604,
      "Ġwindows": 2605,
      "Ġchoice": 2606,
      "Ġcopy": 2607,
      "Ġconcludes": 2608,
      "Ġgra": 2609,
      "Ġreser": 2610,
      "Ġsteps": 2611,
      "Ġoppos": 2612,
      "Ġexport": 2613,
      "Ġdg": 2614,
      "ably": 2615,
      "Ġbasis": 2616,
      "Ġpayment": 2617,
      "Ġsound": 2618,
      "Ġfunds": 2619,
      "Ġgeorg": 2620,
      "Ġunivers": 2621,
      "Ġgas": 2622,
      "utely": 2623,
      "por": 2624,
      "Ġseptember": 2625,
      "Ġdefin": 2626,
      "Ġidea": 2627,
      "Ġbon": 2628,
      "ogn": 2629,
      "Ġgreece": 2630,
      "Ġindividual": 2631,
      "side": 2632,
      "Ġtre": 2633,
      "Ġanything": 2634,
      "38": 2635,
      "rid": 2636,
      "Ġdam": 2637,
      "olf": 2638,
      "medi": 2639,
      "Ġagricultural": 2640,
      "Ġol": 2641,
      "Ġ04": 2642,
      "Ġtechnology": 2643,
      "Ġnature": 2644,
      "istan": 2645,
      "Ġannual": 2646,
      "Ġupdate": 2647,
      "Ġage": 2648,
      "Ġadj": 2649,
      "ada": 2650,
      "Ġ07": 2651,
      "Ġchristopher": 2652,
      "Ġcharge": 2653,
      "Ġcustoms": 2654,
      "Ġspace": 2655,
      "yn": 2656,
      "Ġmatters": 2657,
      "Ġmart": 2658,
      "Ġsummit": 2659,
      "Ġtowards": 2660,
      "Ġreply": 2661,
      "Ġfully": 2662,
      "Ġabsolutely": 2663,
      "Ġunac": 2664,
      "body": 2665,
      "ira": 2666,
      "Ġalb": 2667,
      "Ġagreements": 2668,
      "Ġelse": 2669,
      "Ġobjective": 2670,
      "bruary": 2671,
      "mod": 2672,
      "sequ": 2673,
      "Ġperform": 2674,
      "Ġsummer": 2675,
      "order": 2676,
      "ured": 2677,
      "ging": 2678,
      "wa": 2679,
      "Ġic": 2680,
      "ization": 2681,
      "Ġdigital": 2682,
      "rastruct": 2683,
      "Ġmonitor": 2684,
      "Ġsize": 2685,
      "Ġever": 2686,
      "Ġboard": 2687,
      "Ġforest": 2688,
      "ervation": 2689,
      "Ġident": 2690,
      "Ġpast": 2691,
      "Ġstandards": 2692,
      "Ġcross": 2693,
      "coming": 2694,
      "Ġrecogn": 2695,
      "Ġanto": 2696,
      "ga": 2697,
      "Ġexcl": 2698,
      "Ġstability": 2699,
      "Ġrail": 2700,
      "lear": 2701,
      "Ġincrease": 2702,
      "Ġunaccept": 2703,
      "bar": 2704,
      "ograph": 2705,
      "Ġapproval": 2706,
      "Ġfebruary": 2707,
      "Ġinstru": 2708,
      "Ġprop": 2709,
      "Ġinfrastruct": 2710,
      "Ġachieved": 2711,
      "iveness": 2712,
      "ished": 2713,
      "Ġready": 2714,
      "Ġwhite": 2715,
      "strÃ¶": 2716,
      "Ġtask": 2717,
      "Ġantoine": 2718,
      "ots": 2719,
      "Ġleave": 2720,
      "Ġchanged": 2721,
      "cel": 2722,
      "crib": 2723,
      "hol": 2724,
      "isa": 2725,
      "Ġmaterial": 2726,
      "haps": 2727,
      "Ġimm": 2728,
      "Ġoperational": 2729,
      "Ġpeter": 2730,
      "Ġwed": 2731,
      "Ġunacceptable": 2732,
      "39": 2733,
      "44": 2734,
      "Ġmind": 2735,
      "Ġtravel": 2736,
      "Ġdeclaration": 2737,
      "Ġfren": 2738,
      "Ġinc": 2739,
      "Ġalmost": 2740,
      "Ġrestaurant": 2741,
      "comes": 2742,
      "Ġwestern": 2743,
      "off": 2744,
      "uk": 2745,
      "Ġagency": 2746,
      "Ġperhaps": 2747,
      "page": 2748,
      "Ġquot": 2749,
      "Ġdispl": 2750,
      "inister": 2751,
      "Ġcrit": 2752,
      "Ġfunda": 2753,
      "Ġcast": 2754,
      "Ġmount": 2755,
      "Ġbur": 2756,
      "ursday": 2757,
      "Ġ40": 2758,
      "Ġsection": 2759,
      "Ġsho": 2760,
      "Ġpicture": 2761,
      "Ġseen": 2762,
      "Ġround": 2763,
      "Ġfill": 2764,
      "ouch": 2765,
      "aces": 2766,
      "Ġtit": 2767,
      "Ġmach": 2768,
      "Ġstation": 2769,
      "Ġseems": 2770,
      "Ġrates": 2771,
      "Ġnatural": 2772,
      "Ġthursday": 2773,
      "Ġwest": 2774,
      "Ġdirection": 2775,
      "ita": 2776,
      "Ġarch": 2777,
      "ark": 2778,
      "Ġmiss": 2779,
      "Ġdest": 2780,
      "Ġaccording": 2781,
      "ued": 2782,
      "bani": 2783,
      "vious": 2784,
      "Ġil": 2785,
      "Ġdang": 2786,
      "new": 2787,
      "Ġconsultation": 2788,
      "Ġvo": 2789,
      "Ġspeech": 2790,
      "ians": 2791,
      "Ġreleases": 2792,
      "ony": 2793,
      "Ġfer": 2794,
      "Ġreality": 2795,
      "Ġagre": 2796,
      "Ġemer": 2797,
      "Ġcolombani": 2798,
      "Ġsale": 2799,
      "Ġexplanations": 2800,
      "bia": 2801,
      "Ġsix": 2802,
      "ude": 2803,
      "Ġfret": 2804,
      "Ġexactly": 2805,
      "Ġvict": 2806,
      "Ġuser": 2807,
      "ona": 2808,
      "Ġterms": 2809,
      "Ġbrow": 2810,
      "Ġren": 2811,
      "Ġactually": 2812,
      "Ġdirector": 2813,
      "Ġinfringement": 2814,
      "Ġiii": 2815,
      "Ġut": 2816,
      "Ġcond": 2817,
      "Ġdirectly": 2818,
      "Ġopening": 2819,
      "Ġtalking": 2820,
      "Ġhistory": 2821,
      "Ġdeleg": 2822,
      "Ġbring": 2823,
      "hesion": 2824,
      "Ġfretwell": 2825,
      "Ġworth": 2826,
      "hib": 2827,
      "Ġlin": 2828,
      "Ġ31": 2829,
      "Ġ2011": 2830,
      "hic": 2831,
      "Ġmand": 2832,
      "Ġsubst": 2833,
      "Ġopportunity": 2834,
      "Ġcroat": 2835,
      "55": 2836,
      "iard": 2837,
      "Ġcompu": 2838,
      "Ġextra": 2839,
      "view": 2840,
      "Ġgoes": 2841,
      "Ġbugt": 2842,
      "Ġfall": 2843,
      "Ġcriter": 2844,
      "Ġdoub": 2845,
      "Ġlos": 2846,
      "Ġsummary": 2847,
      "Ġpreparation": 2848,
      "Ġmodel": 2849,
      "Ġ1999": 2850,
      "Ġexchange": 2851,
      "ges": 2852,
      "uce": 2853,
      "asing": 2854,
      "resh": 2855,
      "Ġens": 2856,
      "roso": 2857,
      "Ġlic": 2858,
      "Ġappropri": 2859,
      "Ġobvious": 2860,
      "88": 2861,
      "Ġdatab": 2862,
      "Ġbroad": 2863,
      "Ġofficial": 2864,
      "ned": 2865,
      "Ġvir": 2866,
      "Ġevents": 2867,
      "Ġelements": 2868,
      "ael": 2869,
      "Ġmis": 2870,
      "Ġvass": 2871,
      "Ġactive": 2872,
      "Ġ2013": 2873,
      "Ġpool": 2874,
      "Ġcir": 2875,
      "ova": 2876,
      "istic": 2877,
      "lax": 2878,
      "ola": 2879,
      "Ġgrand": 2880,
      "iterran": 2881,
      "Ġessential": 2882,
      "phone": 2883,
      "vi": 2884,
      "Ġfacts": 2885,
      "Ġflex": 2886,
      "Ġcohesion": 2887,
      "eter": 2888,
      "Ġdepend": 2889,
      "Ġill": 2890,
      "Ġsug": 2891,
      "Ġpath": 2892,
      "Ġtaxation": 2893,
      "light": 2894,
      "nis": 2895,
      "Ġnotes": 2896,
      "Ġimmedi": 2897,
      "Ġground": 2898,
      "Ġfunding": 2899,
      "29": 2900,
      "49": 2901,
      "ilt": 2902,
      "Ġconver": 2903,
      "Ġparts": 2904,
      "Ġprep": 2905,
      "Ġsolutions": 2906,
      "Ġstatistics": 2907,
      "Ġbelliard": 2908,
      "itions": 2909,
      "itarian": 2910,
      "Ġpayments": 2911,
      "60": 2912,
      "Ġlis": 2913,
      "ired": 2914,
      "Ġten": 2915,
      "Ġhalf": 2916,
      "Ġdiscussed": 2917,
      "inary": 2918,
      "Ġalone": 2919,
      "ledge": 2920,
      "Ġfriendly": 2921,
      "Ġfan": 2922,
      "Ġaugust": 2923,
      "Ġdav": 2924,
      "Ġupon": 2925,
      "Ġvehic": 2926,
      "Ġameric": 2927,
      "iterranean": 2928,
      "fin": 2929,
      "uted": 2930,
      "Ġgoods": 2931,
      "Ġrecord": 2932,
      "Ġsolidarity": 2933,
      "ilar": 2934,
      "Ġconstruct": 2935,
      "Ġsave": 2936,
      "apan": 2937,
      "fully": 2938,
      "Ġbugtraq": 2939,
      "Ġcru": 2940,
      "enge": 2941,
      "Ġconclusion": 2942,
      "Ġparticularly": 2943,
      "Ġallowed": 2944,
      "Ġfundamental": 2945,
      "Ġfra": 2946,
      "ex": 2947,
      "gins": 2948,
      "Ġface": 2949,
      "Ġconcerned": 2950,
      "amb": 2951,
      "Ġ80": 2952,
      "Ġstarted": 2953,
      "Ġideal": 2954,
      "Ġpictures": 2955,
      "Ġaffect": 2956,
      "Ġdepart": 2957,
      "Ġrestrict": 2958,
      "anced": 2959,
      "Ġvii": 2960,
      "Ġapprox": 2961,
      "Ġschool": 2962,
      "strÃ¶m": 2963,
      "Ġrule": 2964,
      "Ġours": 2965,
      "Ġamong": 2966,
      "raine": 2967,
      "Ġjour": 2968,
      "Ġvalid": 2969,
      "Ġfriends": 2970,
      "Ġpropert": 2971,
      "Ġcroatia": 2972,
      "Ġsens": 2973,
      "Ġwatch": 2974,
      "Ġsatis": 2975,
      "Ġdanger": 2976,
      "80": 2977,
      "Ġmi": 2978,
      "2007": 2979,
      "Ġviol": 2980,
      "Ġpartner": 2981,
      "Ġ09": 2982,
      "Ġ70": 2983,
      "Ġprint": 2984,
      "Ġeval": 2985,
      "Ġpractice": 2986,
      "Ġstructural": 2987,
      "Ġassociation": 2988,
      "Ġfrench": 2989,
      "ob": 2990,
      "Ġpen": 2991,
      "Ġsitu": 2992,
      "Ġconsequ": 2993,
      "Ġcredit": 2994,
      "65": 2995,
      "uclear": 2996,
      "Ġsignific": 2997,
      "rested": 2998,
      "elling": 2999,
      "Ġpurch": 3000,
      "Ġship": 3001,
      "ixed": 3002,
      "po": 3003,
      "Ġkar": 3004,
      "Ġprovided": 3005,
      "Ġchallenge": 3006,
      "Ġdatabase": 3007,
      "47": 3008,
      "Ġvac": 3009,
      "Ġlegisl": 3010,
      "Ġaspects": 3011,
      "ein": 3012,
      "Ġtook": 3013,
      "emb": 3014,
      "Ġshop": 3015,
      "Ġton": 3016,
      "Ġahead": 3017,
      "Ġparking": 3018,
      "Ġindustri": 3019,
      "Ġappointments": 3020,
      "berg": 3021,
      "lav": 3022,
      "Ġvalues": 3023,
      "Ġequip": 3024,
      "Ġencoura": 3025,
      "Ġinfrastructure": 3026,
      "Ġmist": 3027,
      "Ġdia": 3028,
      "ims": 3029,
      "ival": 3030,
      "Ġknown": 3031,
      "Ġcreat": 3032,
      "ane": 3033,
      "Ġautom": 3034,
      ");": 3035,
      "Ġsam": 3036,
      "Ġtaking": 3037,
      "Ġfeed": 3038,
      "Ġphotos": 3039,
      "cal": 3040,
      "Ġ2014": 3041,
      "Ġincludes": 3042,
      "Ġmerger": 3043,
      "iture": 3044,
      "Ġdead": 3045,
      "cies": 3046,
      "1040": 3047,
      "Ġeffective": 3048,
      "Ġprofession": 3049,
      "Ġagreed": 3050,
      "Ġclub": 3051,
      "pective": 3052,
      "ext": 3053,
      "Ġyourself": 3054,
      "range": 3055,
      "Ġfinancing": 3056,
      "Ġcharact": 3057,
      "Ġbehind": 3058,
      "Ġcriteria": 3059,
      "Ġsuggest": 3060,
      "Ġlow": 3061,
      "Ġgon": 3062,
      "ored": 3063,
      "Ġrather": 3064,
      "Ġjobs": 3065,
      "Ġcreated": 3066,
      "Ġurban": 3067,
      "Ġwalk": 3068,
      "cast": 3069,
      "Ġgard": 3070,
      "see": 3071,
      "Ġheld": 3072,
      "Ġlanguages": 3073,
      "ories": 3074,
      "Ġbit": 3075,
      "Ġlate": 3076,
      "uth": 3077,
      "Ġfishing": 3078,
      "Ġblack": 3079,
      "Ġcapac": 3080,
      "ried": 3081,
      "Ġsimilar": 3082,
      "umping": 3083,
      "Ġfast": 3084,
      "Ġrelax": 3085,
      "Ġaltern": 3086,
      "Ġregister": 3087,
      "communic": 3088,
      "issions": 3089,
      "Ġelectric": 3090,
      "Ġberlin": 3091,
      "Ġcomfortable": 3092,
      "ley": 3093,
      "chan": 3094,
      "Ġmichael": 3095,
      "ee": 3096,
      "ror": 3097,
      "Ġthought": 3098,
      "Ġmass": 3099,
      "Ġnuclear": 3100,
      "Ġsett": 3101,
      "Ġwarm": 3102,
      "Ġtourism": 3103,
      "Ġenterpr": 3104,
      "eth": 3105,
      "Ġphil": 3106,
      "Ġadopt": 3107,
      "Ġcategory": 3108,
      "Ġsense": 3109,
      "Ġmight": 3110,
      "Ġcommer": 3111,
      "Ġseas": 3112,
      "works": 3113,
      "Ġsecondly": 3114,
      "Ġadvant": 3115,
      "Ġconstit": 3116,
      "ls": 3117,
      "mal": 3118,
      "word": 3119,
      "Ġcham": 3120,
      "Ġmotion": 3121,
      "Ġblog": 3122,
      "pend": 3123,
      "Ġdon": 3124,
      "Ġdie": 3125,
      "Ġhumanitarian": 3126,
      "where": 3127,
      "Ġscience": 3128,
      "--": 3129,
      "wise": 3130,
      "Ġcontract": 3131,
      "Ġhelpful": 3132,
      "Ġcy": 3133,
      "Ġeither": 3134,
      "bert": 3135,
      "Ġopened": 3136,
      "Ġschem": 3137,
      "Ġ142": 3138,
      "Ġcontains": 3139,
      "Ġlaunch": 3140,
      "Ġpleased": 3141,
      "Ġrepl": 3142,
      "Ġ2012": 3143,
      "Ġbalance": 3144,
      "Ġconfir": 3145,
      "Ġfarm": 3146,
      "itable": 3147,
      "Ġkos": 3148,
      "employ": 3149,
      "Ġpersons": 3150,
      "Ġiraq": 3151,
      "Ġstage": 3152,
      "Ġsepar": 3153,
      "Ġtrack": 3154,
      "Ġbasic": 3155,
      "Ġcustomers": 3156,
      "Ġaccommod": 3157,
      "Ġ65": 3158,
      "Ġintegration": 3159,
      "ering": 3160,
      "Ġhold": 3161,
      "Ġcover": 3162,
      "Ġimportance": 3163,
      "Ġcenter": 3164,
      "Ġblue": 3165,
      "Ġindustrial": 3166,
      "2000": 3167,
      "Ġang": 3168,
      "Ġneigh": 3169,
      "Ġdrug": 3170,
      "Ġlam": 3171,
      "Ġhappens": 3172,
      "Ġauditors": 3173,
      "Ġreached": 3174,
      "Ġimpos": 3175,
      "Ġ9396": 3176,
      "Ġlimited": 3177,
      "Ġmenu": 3178,
      "85": 3179,
      "Ġtor": 3180,
      "Ġey": 3181,
      "Ġdeep": 3182,
      "Ġund": 3183,
      "23": 3184,
      "Ġexec": 3185,
      "Ġserver": 3186,
      "Ġbox": 3187,
      "Ġguarantee": 3188,
      "Ġquickly": 3189,
      "Ġdisplay": 3190,
      "Ġlisbon": 3191,
      "Ġnav": 3192,
      "Ġgonz": 3193,
      "Ġanswers": 3194,
      "Ġamerica": 3195,
      "mas": 3196,
      "itzer": 3197,
      "Ġstra": 3198,
      "Ġ64": 3199,
      "Ġsimpl": 3200,
      "Ġsus": 3201,
      "ena": 3202,
      "ether": 3203,
      "Ġliving": 3204,
      "Ġcomprom": 3205,
      "Ġknowledge": 3206,
      "Ġtv": 3207,
      "Ġselector": 3208,
      "wal": 3209,
      "ero": 3210,
      "Ġwonder": 3211,
      "Ġtun": 3212,
      "Ġstar": 3213,
      "Ġequipment": 3214,
      "Ġjapan": 3215,
      "Ġshows": 3216,
      "Ġreading": 3217,
      "Ġchalleng": 3218,
      "70": 3219,
      "ison": 3220,
      "Ġoutside": 3221,
      "Ġmichel": 3222,
      "Ġinvolved": 3223,
      "Ġsubsid": 3224,
      "Ġlegislative": 3225,
      "Ġhig": 3226,
      "Ġreact": 3227,
      "Ġlack": 3228,
      "Ġbooking": 3229,
      "Ġdraft": 3230,
      "Ġscre": 3231,
      "lement": 3232,
      "Ġcoord": 3233,
      "Ġrequirements": 3234,
      "sis": 3235,
      "Ġtraff": 3236,
      "Ġwanted": 3237,
      "Ġfirstly": 3238,
      "ovo": 3239,
      "Ġplayer": 3240,
      "Ġpleas": 3241,
      "Ġmonitoring": 3242,
      "Ġthough": 3243,
      "elines": 3244,
      "Ġclar": 3245,
      "ya": 3246,
      "Ġfoot": 3247,
      "Ġapartments": 3248,
      "ti": 3249,
      "Ġmap": 3250,
      "Ġbillion": 3251,
      "Ġdin": 3252,
      "Ġbenefits": 3253,
      "Ġdavid": 3254,
      "ico": 3255,
      "Ġrout": 3256,
      "Ġaccession": 3257,
      "Ġ149": 3258,
      "Ġmaximum": 3259,
      "Ġourselves": 3260,
      "reg": 3261,
      "Ġrural": 3262,
      "Ġnorway": 3263,
      "Ġearly": 3264,
      "Ġinstitutions": 3265,
      "Ġukraine": 3266,
      "Ġisland": 3267,
      "Ġsty": 3268,
      "Ġdeath": 3269,
      "Ġparag": 3270,
      "Ġdimension": 3271,
      "Ġhigher": 3272,
      "Ġconsumers": 3273,
      "Ġauthority": 3274,
      "Ġmovement": 3275,
      "Ġsignificant": 3276,
      "Ġago": 3277,
      "Ġfine": 3278,
      "Ġoral": 3279,
      "Ġprem": 3280,
      "Ġshar": 3281,
      "aily": 3282,
      "deb": 3283,
      "Ġlies": 3284,
      "Ġresponsible": 3285,
      "Ġstudy": 3286,
      "Ġpages": 3287,
      "Ġdifference": 3288,
      "iliou": 3289,
      "Ġwine": 3290,
      "ened": 3291,
      "Ġdaily": 3292,
      "Ġcontext": 3293,
      "Ġ34": 3294,
      "Ġcapacity": 3295,
      "81": 3296,
      "Ġanaly": 3297,
      "Ġstre": 3298,
      "Ġprec": 3299,
      "Ġaccepted": 3300,
      "Ġos": 3301,
      "Ġjos": 3302,
      "Ġsupported": 3303,
      "Ġprovides": 3304,
      "Ġdraw": 3305,
      "Ġterrorism": 3306,
      "mos": 3307,
      "usion": 3308,
      "Ġmechan": 3309,
      "ift": 3310,
      "Ġcomputer": 3311,
      "Ġpra": 3312,
      "Ġparties": 3313,
      "Ġparis": 3314,
      "Ġmotor": 3315,
      "Ġfru": 3316,
      "ria": 3317,
      "Ġunit": 3318,
      "Ġ67": 3319,
      "Ġstrateg": 3320,
      "son": 3321,
      "ula": 3322,
      "marquis": 3323,
      "Ġski": 3324,
      "Ġcustomer": 3325,
      "book": 3326,
      "Ġfisch": 3327,
      "Ġcirc": 3328,
      "vant": 3329,
      "Ġba": 3330,
      "Ġliber": 3331,
      "Ġ58": 3332,
      "Ġinterested": 3333,
      "nesday": 3334,
      "put": 3335,
      "Ġdream": 3336,
      "right": 3337,
      "Ġrange": 3338,
      "lu": 3339,
      "Ġhans": 3340,
      "Ġgod": 3341,
      "Ġgames": 3342,
      "Ġlear": 3343,
      "ses": 3344,
      "Ġwto": 3345,
      "Ġborn": 3346,
      "Ġparty": 3347,
      "mer": 3348,
      "Ġgal": 3349,
      "vert": 3350,
      "Ġmanu": 3351,
      "ney": 3352,
      "Ġvarious": 3353,
      "itzerland": 3354,
      "mit": 3355,
      "ser": 3356,
      "Ġdemocratic": 3357,
      "Ġproperty": 3358,
      "imes": 3359,
      "Ġcomplex": 3360,
      "Ġcame": 3361,
      "itation": 3362,
      "uses": 3363,
      "Ġbathroom": 3364,
      "Ġwednesday": 3365,
      "Ġcultural": 3366,
      "ato": 3367,
      "itiveness": 3368,
      "Ġcalls": 3369,
      "Ġbenefit": 3370,
      "Ġfire": 3371,
      "ara": 3372,
      "Ġoptions": 3373,
      "Ġbos": 3374,
      "Ġhaving": 3375,
      "Ġimages": 3376,
      "Ġtreatment": 3377,
      "ox": 3378,
      "Ġphoto": 3379,
      "Ġ33": 3380,
      "Ġavo": 3381,
      "Ġmobility": 3382,
      "Ġguidelines": 3383,
      "Ġpublished": 3384,
      "ml": 3385,
      "Ġaware": 3386,
      "Ġmic": 3387,
      "Ġord": 3388,
      "9586": 3389,
      "ake": 3390,
      "ador": 3391,
      "Ġcompetitiveness": 3392,
      "89": 3393,
      "ending": 3394,
      "Ġcommitments": 3395,
      "Ġbrand": 3396,
      "Ġoverall": 3397,
      "Ġtruth": 3398,
      "Ã¼n": 3399,
      "ien": 3400,
      "Ġtob": 3401,
      "Ġmeasure": 3402,
      "Ġlev": 3403,
      "Ġdise": 3404,
      "Ġtypes": 3405,
      "Ġmanufact": 3406,
      "Ġtransfer": 3407,
      "Ġoutcome": 3408,
      "Ġtrust": 3409,
      "Ġsurve": 3410,
      "Ġcamp": 3411,
      "Ġfields": 3412,
      "Ġbeginning": 3413,
      "Ġrich": 3414,
      "Ġtechnolog": 3415,
      "Ġunemploy": 3416,
      "Ġbalk": 3417,
      "state": 3418,
      "Ġtab": 3419,
      "Ġtelecommunic": 3420,
      "Ġopportunities": 3421,
      "zo": 3422,
      "Ġ48": 3423,
      "Ġdescription": 3424,
      "Ġtitle": 3425,
      "Ġjoin": 3426,
      "Ġselection": 3427,
      "Ġcommunications": 3428,
      "debate": 3429,
      "Ġisra": 3430,
      "ctions": 3431,
      "aced": 3432,
      "Ġestablish": 3433,
      "cell": 3434,
      "Ġeuros": 3435,
      "Ġmadrid": 3436,
      "Ġjohn": 3437,
      "net": 3438,
      "Ġaward": 3439,
      "ression": 3440,
      "Ġtren": 3441,
      "pecial": 3442,
      "Ġbuilt": 3443,
      "Ġparagraph": 3444,
      "pid": 3445,
      "read": 3446,
      "Ġpc": 3447,
      "Ġbir": 3448,
      "Ġminimum": 3449,
      "Ġotherwise": 3450,
      "87": 3451,
      "fr": 3452,
      "Ġsor": 3453,
      "Ġbody": 3454,
      "Ġseries": 3455,
      "Ġnetworks": 3456,
      "Ġtac": 3457,
      "Ġpas": 3458,
      "elt": 3459,
      "ama": 3460,
      "Ġannoun": 3461,
      "Ġunique": 3462,
      "term": 3463,
      "Ġintroduction": 3464,
      "Ġcompromise": 3465,
      "oo": 3466,
      "ills": 3467,
      "Ġchair": 3468,
      "Ġheard": 3469,
      "Ġemph": 3470,
      "Ġexpress": 3471,
      "iles": 3472,
      "Ġspa": 3473,
      "Ġincreased": 3474,
      "Ġurgent": 3475,
      "nd": 3476,
      "sa": 3477,
      "wide": 3478,
      "ater": 3479,
      "Ġiran": 3480,
      "etary": 3481,
      "aint": 3482,
      "Ġthreat": 3483,
      "Ġcards": 3484,
      "Ġlost": 3485,
      "Ġseem": 3486,
      "imb": 3487,
      "Ġ1998": 3488,
      "board": 3489,
      "Ġfeatures": 3490,
      "Ġevaluation": 3491,
      "41": 3492,
      "Ġways": 3493,
      "orm": 3494,
      "rop": 3495,
      "Ġprinciples": 3496,
      "Ġanimal": 3497,
      "42": 3498,
      "Ġalex": 3499,
      "Ġmigration": 3500,
      "utional": 3501,
      "Ġdiscover": 3502,
      "Ġpractical": 3503,
      "67": 3504,
      "Ġcolle": 3505,
      "Ġbarroso": 3506,
      "Ġhistor": 3507,
      "Ġself": 3508,
      "ques": 3509,
      "Ġargu": 3510,
      "Ġobl": 3511,
      "alez": 3512,
      "Ġpassword": 3513,
      "Ġestablished": 3514,
      "Ġtelecommunications": 3515,
      "Ġtouch": 3516,
      "Ġmail": 3517,
      "Ġwhile": 3518,
      "Ġprevention": 3519,
      "Ġigles": 3520,
      "Ġcongratulate": 3521,
      "office": 3522,
      "Ġgonzalez": 3523,
      "Ġcoming": 3524,
      "Ġplat": 3525,
      "arel": 3526,
      "Ġparticipation": 3527,
      "Ġattract": 3528,
      "europa": 3529,
      "43": 3530,
      "uri": 3531,
      "Ġreduction": 3532,
      "Ġalong": 3533,
      "Ġplans": 3534,
      "Ġmarisa": 3535,
      "Ġ500": 3536,
      "Ġserved": 3537,
      "Ġ60": 3538,
      "Ġ$": 3539,
      "erc": 3540,
      "akes": 3541,
      "Ġconcerning": 3542,
      "Ġindepend": 3543,
      "Ġgold": 3544,
      "Ġguest": 3545,
      "Ġhighlight": 3546,
      "Ġsays": 3547,
      "Ġbab": 3548,
      "Ġreception": 3549,
      "Ġfrank": 3550,
      "Ġiglesias": 3551,
      "Ġ).": 3552,
      "Ġwhether": 3553,
      "ume": 3554,
      "ster": 3555,
      "isions": 3556,
      "Ġrepe": 3557,
      "Ġgi": 3558,
      "Ġvat": 3559,
      "theless": 3560,
      "Ġjean": 3561,
      "Ġrequires": 3562,
      "Ġintervention": 3563,
      "Ġnevertheless": 3564,
      "era": 3565,
      "Ġstory": 3566,
      "okes": 3567,
      "Ġswitzerland": 3568,
      "Ġespecial": 3569,
      "Ġimproving": 3570,
      "Ġdoubt": 3571,
      "Ġsant": 3572,
      "Ġstated": 3573,
      "Ġconv": 3574,
      "Ġgoal": 3575,
      "cks": 3576,
      "Ġsurpr": 3577,
      "Ġimproved": 3578,
      "ients": 3579,
      "ko": 3580,
      "Ġtool": 3581,
      "Ġ(%": 3582,
      "Ġbehalf": 3583,
      "Ġpotential": 3584,
      "Ġchallenges": 3585,
      "Ġjav": 3586,
      "Ġlives": 3587,
      "Ġgar": 3588,
      "Ġ06": 3589,
      "Ġideas": 3590,
      "Ġinteresting": 3591,
      "Ġnone": 3592,
      "Ġrein": 3593,
      "Ġrenew": 3594,
      "Ġlay": 3595,
      "iab": 3596,
      "Ġspir": 3597,
      "more": 3598,
      "Ġproduc": 3599,
      "Ġadministr": 3600,
      "Ġefforts": 3601,
      "tain": 3602,
      "Ġbat": 3603,
      "Ġdates": 3604,
      "ush": 3605,
      "Ġdrive": 3606,
      "yer": 3607,
      "Ġ00": 3608,
      "Ġcd": 3609,
      "Ġ37": 3610,
      "Ġyester": 3611,
      "Ġsupply": 3612,
      "Ġdrink": 3613,
      "Ġespecially": 3614,
      "Ġyesterday": 3615,
      "Ġsole": 3616,
      "Ġax": 3617,
      "verty": 3618,
      "Ã¼r": 3619,
      "Ġhappening": 3620,
      "Ġneighbour": 3621,
      "burg": 3622,
      "cd": 3623,
      "gi": 3624,
      "ches": 3625,
      "Ġexhib": 3626,
      "Ġadvert": 3627,
      "cont": 3628,
      "Ġoperation": 3629,
      "Ġfounded": 3630,
      "Ġpoverty": 3631,
      "Ġprevent": 3632,
      "Ġsteel": 3633,
      "Ġnic": 3634,
      "Ġterm": 3635,
      "Ġsometimes": 3636,
      "oulla": 3637,
      "Ġemissions": 3638,
      "Ġintrod": 3639,
      "Ġandroulla": 3640,
      "Ġprepared": 3641,
      "Ġisrael": 3642,
      "Ġandre": 3643,
      "Ġ1997": 3644,
      "Ġdelegation": 3645,
      "member": 3646,
      "Ġconsist": 3647,
      "Ġsituated": 3648,
      "Ġara": 3649,
      "Ġbott": 3650,
      "otel": 3651,
      "Ġresort": 3652,
      "Ġbrit": 3653,
      "Ġcommercial": 3654,
      "ids": 3655,
      "Ġqual": 3656,
      "Ġconfig": 3657,
      "Ġcheap": 3658,
      "Ġsheet": 3659,
      "48": 3660,
      "rs": 3661,
      "Ġdue": 3662,
      "Ġarrange": 3663,
      "Ġtrip": 3664,
      "Ġvilla": 3665,
      "Ġregistration": 3666,
      "Ġital": 3667,
      "Ġlik": 3668,
      "Ġcontain": 3669,
      "hern": 3670,
      "Ġcolor": 3671,
      "Ġfrequ": 3672,
      "down": 3673,
      "oke": 3674,
      "Ġlake": 3675,
      "Ġdeter": 3676,
      "Ġincluding": 3677,
      "Ġincreasing": 3678,
      "dam": 3679,
      "zl": 3680,
      "Ġmill": 3681,
      "Ġhy": 3682,
      "Ġvari": 3683,
      "Ġshi": 3684,
      "Ġenh": 3685,
      "Ġquiet": 3686,
      "Ġcompl": 3687,
      "Ġexpert": 3688,
      "Ġformer": 3689,
      "Ġrecommendation": 3690,
      "Ġrejected": 3691,
      "Ġsand": 3692,
      "oking": 3693,
      "Ġprize": 3694,
      "Ġ92": 3695,
      "Ġsuccessful": 3696,
      "Ġpromotion": 3697,
      "Ġkosovo": 3698,
      "col": 3699,
      "Ġthems": 3700,
      "Ġsi": 3701,
      "Ġpu": 3702,
      "Ġchem": 3703,
      "Ġsud": 3704,
      "Ġspeed": 3705,
      "Ġbalkans": 3706,
      "Ġthemselves": 3707,
      "Ġstri": 3708,
      "Ġ46": 3709,
      "Ġaviation": 3710,
      "Ġrespond": 3711,
      "Ġcause": 3712,
      "Ġoriginal": 3713,
      "zy": 3714,
      "Ġmission": 3715,
      "Ġeg": 3716,
      "Ġasyl": 3717,
      "Ġstarting": 3718,
      "Ġmeetings": 3719,
      "Ġasylum": 3720,
      "Ġawa": 3721,
      "Ġrub": 3722,
      "Ġconflic": 3723,
      "Ġdetailed": 3724,
      "Ġanimals": 3725,
      "2005": 3726,
      "Ġmediterranean": 3727,
      "ns": 3728,
      "Ġcou": 3729,
      "itary": 3730,
      "Ġball": 3731,
      "antic": 3732,
      "ugh": 3733,
      "Ġdeveloping": 3734,
      "lines": 3735,
      "minal": 3736,
      "Ġpopulation": 3737,
      "Ġecu": 3738,
      "vered": 3739,
      "iving": 3740,
      "Ġhomepage": 3741,
      "Ġcart": 3742,
      "Ġgolf": 3743,
      "ius": 3744,
      "Ġpension": 3745,
      "Ġje": 3746,
      "Ġgrant": 3747,
      "Ġengine": 3748,
      "Ġadjust": 3749,
      "Ġimmediately": 3750,
      "bott": 3751,
      "oon": 3752,
      "Ġped": 3753,
      "Ġworkers": 3754,
      "Ġgetting": 3755,
      "Ġspeaking": 3756,
      "Ġequal": 3757,
      "Ġwaiting": 3758,
      "Ġwood": 3759,
      "Ġcolour": 3760,
      "Ġvin": 3761,
      "Ġthats": 3762,
      "Ġexception": 3763,
      "aking": 3764,
      "Ġexpend": 3765,
      "Ġvillage": 3766,
      "Ġemphas": 3767,
      "Ġtru": 3768,
      "Ġwee": 3769,
      "Ġcounter": 3770,
      "Ġtransl": 3771,
      "Ġ74": 3772,
      "Ġwindow": 3773,
      "Ġinitiatives": 3774,
      "Ġpopular": 3775,
      "Ġconnection": 3776,
      "Ġdangerous": 3777,
      "Ġlearning": 3778,
      "hood": 3779,
      "mus": 3780,
      "Ġcand": 3781,
      "iable": 3782,
      "Ġbuff": 3783,
      "Ġwinter": 3784,
      "66": 3785,
      "ault": 3786,
      "eland": 3787,
      "Ġoverview": 3788,
      "Ġgreater": 3789,
      "Ġformat": 3790,
      "Ġgarden": 3791,
      "Ġsorry": 3792,
      "93": 3793,
      "di": 3794,
      "Ġwid": 3795,
      "Ġkr": 3796,
      "Ġtradition": 3797,
      "Ġprofessional": 3798,
      "mp": 3799,
      "Ġsell": 3800,
      "Ġmas": 3801,
      "ese": 3802,
      "Ġni": 3803,
      "Ġbrings": 3804,
      "Ġpaid": 3805,
      "hu": 3806,
      "Ġconcept": 3807,
      "ables": 3808,
      "Ġindia": 3809,
      "Ġselected": 3810,
      "Ġappear": 3811,
      "ank": 3812,
      "Ġgall": 3813,
      "unt": 3814,
      "anto": 3815,
      "force": 3816,
      "Ġprime": 3817,
      "mination": 3818,
      "Ġconfidence": 3819,
      "Ġflight": 3820,
      "Ġmedic": 3821,
      "Ġstatus": 3822,
      "Ġsales": 3823,
      "Ġseason": 3824,
      "Ġdoll": 3825,
      "Ġgives": 3826,
      "astic": 3827,
      "ecsp": 3828,
      "Ġnewslet": 3829,
      "Ġviolence": 3830,
      "Ġtu": 3831,
      "Ġlargest": 3832,
      "Ġtodays": 3833,
      "Ġflash": 3834,
      "Ġfruit": 3835,
      "nia": 3836,
      "Ġmuse": 3837,
      "verage": 3838,
      "Ġimports": 3839,
      "Ġrecent": 3840,
      "Ġlimit": 3841,
      "Ġglad": 3842,
      "Ġearth": 3843,
      "77": 3844,
      "sc": 3845,
      "rep": 3846,
      "Ġsort": 3847,
      "encies": 3848,
      "Ġbear": 3849,
      "rance": 3850,
      "Ġmonetary": 3851,
      "Ġdeser": 3852,
      "atically": 3853,
      "Ġvehicles": 3854,
      "back": 3855,
      "Ġpoor": 3856,
      "europe": 3857,
      "cribe": 3858,
      "Ġweeks": 3859,
      "sch": 3860,
      "Ġ--": 3861,
      "imately": 3862,
      "Ġrelated": 3863,
      "Ġbedroom": 3864,
      "vote": 3865,
      "Ġplus": 3866,
      "Ġ96": 3867,
      "marks": 3868,
      "Ġassemb": 3869,
      "Ġacross": 3870,
      "Ġsmes": 3871,
      "Ġfacilities": 3872,
      "Ġoptim": 3873,
      "Ġtrading": 3874,
      "Ġunemployment": 3875,
      "ez": 3876,
      "Ġplant": 3877,
      "Ġcosta": 3878,
      "Ġelections": 3879,
      "Ġfilm": 3880,
      "Ġmilk": 3881,
      "iciency": 3882,
      "Ġappropriate": 3883,
      "Ġ90": 3884,
      "Ġinterp": 3885,
      "ika": 3886,
      "Ġbarcel": 3887,
      "Ġcampa": 3888,
      "pan": 3889,
      "sen": 3890,
      "urd": 3891,
      "Ġthinking": 3892,
      "Ġtelephone": 3893,
      "Ġradio": 3894,
      "Ġinstruments": 3895,
      "Ġsn": 3896,
      "Ġnotice": 3897,
      "Ġsha": 3898,
      "Ġcovered": 3899,
      "Ġreserved": 3900,
      "Ġconstruction": 3901,
      "Ġexpenditure": 3902,
      "gue": 3903,
      "Ġvirt": 3904,
      "dumping": 3905,
      "Ġwide": 3906,
      "Ġpact": 3907,
      "Ġjoe": 3908,
      "Ġwait": 3909,
      "Ġcommented": 3910,
      "Ġopposite": 3911,
      "Ġphilip": 3912,
      "mission": 3913,
      "ature": 3914,
      "Ġwhe": 3915,
      "0000": 3916,
      "Ġsugar": 3917,
      "Ġreforms": 3918,
      "Ġactivity": 3919,
      "Ġslow": 3920,
      "Ġstructure": 3921,
      "Ġmorning": 3922,
      "Ġcopyright": 3923,
      "Ġscheme": 3924,
      "Ġwent": 3925,
      "Ġhuge": 3926,
      "urance": 3927,
      "Ġeasily": 3928,
      "Ġdelivery": 3929,
      "Ġobser": 3930,
      "Ġperformance": 3931,
      "Ġstreet": 3932,
      "dra": 3933,
      "acco": 3934,
      "92": 3935,
      "Ġlou": 3936,
      "Ġmarit": 3937,
      "Ġcompos": 3938,
      "Ġmyself": 3939,
      "Ġelectron": 3940,
      "Ġinterests": 3941,
      "Ġrelevant": 3942,
      "Ġcondition": 3943,
      "face": 3944,
      "ws": 3945,
      "Ġls": 3946,
      "Ġstav": 3947,
      "Ġshown": 3948,
      "Ġkill": 3949,
      "Ġrunning": 3950,
      "Ġcrime": 3951,
      "90": 3952,
      "Ġforget": 3953,
      "Ġstore": 3954,
      "Ġja": 3955,
      "Ġjac": 3956,
      "Ġfigure": 3957,
      "Ġcampaign": 3958,
      "Ġdv": 3959,
      "aries": 3960,
      "Ġasia": 3961,
      "Ġcharacter": 3962,
      "cul": 3963,
      "Ġhall": 3964,
      "Ġweak": 3965,
      "Ġmargins": 3966,
      "Ġspan": 3967,
      "Ġguide": 3968,
      "Ġdimas": 3969,
      "Ġmuseum": 3970,
      "61": 3971,
      "Ġfear": 3972,
      "Ġbase": 3973,
      "Ġada": 3974,
      "Ġregular": 3975,
      "Ġspring": 3976,
      "ead": 3977,
      "kt": 3978,
      "Ġlas": 3979,
      "Ġregistered": 3980,
      "Ġadministration": 3981,
      "Ġobviously": 3982,
      "sk": 3983,
      "olution": 3984,
      "Ġabst": 3985,
      "Ġ85": 3986,
      "Ġrecommendations": 3987,
      "mbh": 3988,
      "Ġintegrated": 3989,
      "eurs": 3990,
      "ique": 3991,
      "pal": 3992,
      "Ġson": 3993,
      "Ġsupports": 3994,
      "quipped": 3995,
      "ourable": 3996,
      "inas": 3997,
      "Ġoj": 3998,
      "Ġdefic": 3999,
      "Ġspecies": 4000,
      "Ġcasino": 4001,
      "68": 4002,
      "doc": 4003,
      "lad": 4004,
      "....": 4005,
      "Ġbarn": 4006,
      "Ġaddressed": 4007,
      "Ġaccommodation": 4008,
      "52": 4009,
      "vis": 4010,
      "Ġcoll": 4011,
      "used": 4012,
      "Ġwants": 4013,
      "Ġconduct": 4014,
      "Ġpressure": 4015,
      "Ġanyone": 4016,
      "Ġsites": 4017,
      "Ġrestrictive": 4018,
      "iro": 4019,
      "lier": 4020,
      "tic": 4021,
      "iding": 4022,
      "Ġexerc": 4023,
      "Ġalloc": 4024,
      "Ġdecided": 4025,
      "Ġdiscount": 4026,
      "Ġattack": 4027,
      "2013": 4028,
      "Ġtobacco": 4029,
      "ev": 4030,
      "Ġprob": 4031,
      "Ġsex": 4032,
      "Ġload": 4033,
      "Ġentry": 4034,
      "Ġreflect": 4035,
      "Ġflat": 4036,
      "Ġadvance": 4037,
      "Ġmembership": 4038,
      "Ġmalm": 4039,
      "Ġnewsletter": 4040,
      "Ġbarcelona": 4041,
      "nor": 4042,
      "Ġpow": 4043,
      "Ġbol": 4044,
      "Ġdub": 4045,
      "Ġknows": 4046,
      "Ġcostas": 4047,
      "Ġexisting": 4048,
      "Ġlevels": 4049,
      "Ġalexand": 4050,
      "bu": 4051,
      "Ġgmbh": 4052,
      "ands": 4053,
      "Ġreservation": 4054,
      "agen": 4055,
      "ibilities": 4056,
      "orders": 4057,
      "Ġcrucial": 4058,
      "fish": 4059,
      "Ġ89": 4060,
      "Ġmanaging": 4061,
      "Ġuniversity": 4062,
      "Ġimmigration": 4063,
      "Ġmaritime": 4064,
      "ho": 4065,
      "rel": 4066,
      "Ġep": 4067,
      "Ġequipped": 4068,
      "Ġko": 4069,
      "Ġkore": 4070,
      "Ġpolice": 4071,
      "Ġefficient": 4072,
      "Ġlisten": 4073,
      "iction": 4074,
      "Ġdistance": 4075,
      "Ġapplied": 4076,
      "Ġregulations": 4077,
      "Ġentirely": 4078,
      "Ġalternative": 4079,
      "Ġsad": 4080,
      "usive": 4081,
      "Ġchance": 4082,
      "engen": 4083,
      "Ġdistributed": 4084,
      "gl": 4085,
      "ios": 4086,
      "Ġsle": 4087,
      "Ġfort": 4088,
      "Ġkarel": 4089,
      "Ġpoll": 4090,
      "Ġfurn": 4091,
      "Ġsched": 4092,
      "Ġefficiency": 4093,
      "Ġmilitary": 4094,
      "Ġcci": 4095,
      "Ġkin": 4096,
      "Ġminor": 4097,
      "Ġcompon": 4098,
      "Ġcritic": 4099,
      "hold": 4100,
      "rd": 4101,
      "Ġsqu": 4102,
      "Ġnort": 4103,
      "Ġproper": 4104,
      "Ġrat": 4105,
      "Ġcoast": 4106,
      "balgs": 4107,
      "Ġpiebalgs": 4108,
      "cs": 4109,
      "jan": 4110,
      "reci": 4111,
      "Ġfest": 4112,
      "Ġbeds": 4113,
      "Ġensure": 4114,
      "Ġlszl": 4115,
      "Ġpad": 4116,
      "Ġinstead": 4117,
      "Ġextension": 4118,
      "Ġstands": 4119,
      "Ġmartin": 4120,
      "lim": 4121,
      "Ġtast": 4122,
      "reh": 4123,
      "Ġsuitable": 4124,
      "ube": 4125,
      "assador": 4126,
      "94": 4127,
      "vision": 4128,
      "orge": 4129,
      "Ġfit": 4130,
      "Ġfly": 4131,
      "Ġinvestigation": 4132,
      "Ġpackages": 4133,
      "Ġmm": 4134,
      "ghan": 4135,
      "Ġcarry": 4136,
      "Ġreference": 4137,
      "Ġsco": 4138,
      "ervations": 4139,
      "Ġluck": 4140,
      "Ġcoordination": 4141,
      "ateral": 4142,
      "Ġeth": 4143,
      "Ġ03": 4144,
      "Ġgovernance": 4145,
      "Ġsatisf": 4146,
      "Ġpain": 4147,
      "Ġbern": 4148,
      "Ġduty": 4149,
      "umn": 4150,
      "Ġteach": 4151,
      "Ġcurrency": 4152,
      "Ġschengen": 4153,
      "Ġacceptable": 4154,
      "Ġinside": 4155,
      "Ġ285": 4156,
      "Ġstyle": 4157,
      "ees": 4158,
      "zz": 4159,
      "Ġ44": 4160,
      "Ġcommitment": 4161,
      "Ġtotally": 4162,
      "Ġevening": 4163,
      "aza": 4164,
      "Ġstake": 4165,
      "Ġrailway": 4166,
      "Ġvictims": 4167,
      "Ġadoption": 4168,
      "Ġcostasur": 4169,
      "ially": 4170,
      "no": 4171,
      "Ġfresh": 4172,
      "ille": 4173,
      "Ġlines": 4174,
      "ĠgÃ¼n": 4175,
      "ode": 4176,
      "Ġ36": 4177,
      "Ġ41": 4178,
      "Ġregret": 4179,
      "Ġafghan": 4180,
      "Ġerror": 4181,
      "ariat": 4182,
      "Ġcele": 4183,
      "Ġpurchase": 4184,
      "Ġexecut": 4185,
      "Ġspanish": 4186,
      "cle": 4187,
      "overy": 4188,
      "Ġcant": 4189,
      "Ġven": 4190,
      "Ġmoreover": 4191,
      "cco": 4192,
      "Ġdeveloped": 4193,
      "Ġinvites": 4194,
      "Ġswim": 4195,
      "Ġ2020": 4196,
      "Ġreleased": 4197,
      "Ġshipping": 4198,
      "Ġphilippe": 4199,
      "Ġadapt": 4200,
      "rate": 4201,
      "Ġborder": 4202,
      "Ġok": 4203,
      "uration": 4204,
      "Ġdevelopments": 4205,
      "Ġremember": 4206,
      "Ġsaying": 4207,
      "ifications": 4208,
      "ength": 4209,
      "Ġassembly": 4210,
      "91": 4211,
      "Ġlond": 4212,
      "stein": 4213,
      "Ġhostel": 4214,
      "Ġpolitics": 4215,
      "Ġhands": 4216,
      "Ġarticles": 4217,
      "Ġaims": 4218,
      "Ġlinux": 4219,
      "57": 4220,
      "equ": 4221,
      "fa": 4222,
      "Ġfu": 4223,
      "Ġly": 4224,
      "Ġ300": 4225,
      "Ġmanuel": 4226,
      "Ġdisp": 4227,
      "Ġmedium": 4228,
      "Ġmatch": 4229,
      "Ġminute": 4230,
      "Ġcars": 4231,
      "Ġhighly": 4232,
      "Ġeras": 4233,
      "Ġpresented": 4234,
      "Ġthroughout": 4235,
      "2010": 4236,
      "Ġconsequences": 4237,
      "Ġdrugs": 4238,
      "Ġ#": 4239,
      "Ġmir": 4240,
      "Ġbag": 4241,
      "enty": 4242,
      "Ġ(âĤ¬": 4243,
      "Ġ475": 4244,
      "Ġfourth": 4245,
      "Ġvoice": 4246,
      "Ġeditors": 4247,
      "Ġreduced": 4248,
      "Ġrisks": 4249,
      "Ġmalta": 4250,
      "Ġtickets": 4251,
      "Ġspirit": 4252,
      "51": 4253,
      "ura": 4254,
      "Ġmig": 4255,
      "Ġyoull": 4256,
      "chise": 4257,
      "Ġjun": 4258,
      "ptive": 4259,
      "Ġphp": 4260,
      "Ġcred": 4261,
      "Ġcompleted": 4262,
      "Ġpm": 4263,
      "Ġones": 4264,
      "Ġsto": 4265,
      "Ġproto": 4266,
      "oper": 4267,
      "Ġappreci": 4268,
      "Ġsecretariat": 4269,
      "Ġconfirm": 4270,
      "Ġadministrative": 4271,
      "ken": 4272,
      "Ġ01": 4273,
      "Ġstor": 4274,
      "ends": 4275,
      "Ġbutton": 4276,
      "Ġraised": 4277,
      "Ġwrite": 4278,
      "Ġbanks": 4279,
      "Ġoperations": 4280,
      "Ġpromote": 4281,
      "Ġapplications": 4282,
      "Ġdeliver": 4283,
      "Ġbrowser": 4284,
      "Ġfat": 4285,
      "arm": 4286,
      "iev": 4287,
      "oker": 4288,
      "crete": 4289,
      "Ġcarl": 4290,
      "Ġcriminal": 4291,
      "Ġfischler": 4292,
      "bit": 4293,
      "Ġmos": 4294,
      "Ġdut": 4295,
      "Ġstress": 4296,
      "00352": 4297,
      "Ġplanning": 4298,
      "Ġmajority": 4299,
      "Ġimprovement": 4300,
      "Ġanalysis": 4301,
      "estic": 4302,
      "Ġheav": 4303,
      "Ġserbia": 4304,
      "gypt": 4305,
      "Ġrepresentatives": 4306,
      "uesday": 4307,
      "Ġfranchise": 4308,
      "Ġsetting": 4309,
      "Ġpaul": 4310,
      "Ġarrival": 4311,
      "su": 4312,
      "enna": 4313,
      "Ġislands": 4314,
      "ilateral": 4315,
      "Ġministerial": 4316,
      "Ġvisitors": 4317,
      "Ġcongratulations": 4318,
      "Ġchemical": 4319,
      "rary": 4320,
      "ivered": 4321,
      "Ġcoff": 4322,
      "2002": 4323,
      "Ġplayers": 4324,
      "Ġleaders": 4325,
      "Ġseparate": 4326,
      "Ġaverage": 4327,
      "Ġthous": 4328,
      "onik": 4329,
      "Ġgrate": 4330,
      "erences": 4331,
      "Ġnumbers": 4332,
      "Ġdelivered": 4333,
      "Ġanton": 4334,
      "Ġconstant": 4335,
      "Ġamerican": 4336,
      "Ġcandid": 4337,
      "Ġlt": 4338,
      "ife": 4339,
      "Ġholidays": 4340,
      "Ġstavros": 4341,
      "64": 4342,
      "83": 4343,
      "Ġna": 4344,
      "Ġprovisions": 4345,
      "Ġveget": 4346,
      "Ġproceedings": 4347,
      "Ġmountain": 4348,
      "Ġoblig": 4349,
      "Ġerasmus": 4350,
      "isely": 4351,
      "Ġcore": 4352,
      "Ġbey": 4353,
      "verse": 4354,
      "Ġeuropeans": 4355,
      "Ġgets": 4356,
      "Ġwelcomes": 4357,
      "Ġauthorities": 4358,
      "Ġsubsidi": 4359,
      "Ġlondon": 4360,
      "Ġconcrete": 4361,
      "Ġinflu": 4362,
      "versity": 4363,
      "Ġmachine": 4364,
      "Ġstrategic": 4365,
      "cer": 4366,
      "Ġtro": 4367,
      "Ġfif": 4368,
      "Ġfab": 4369,
      "Ġborders": 4370,
      "Ġix": 4371,
      "Ġconven": 4372,
      "Ġsav": 4373,
      "Ġplaying": 4374,
      "Ġupdated": 4375,
      "Ġsusp": 4376,
      "Ġavoid": 4377,
      "Ġgrateful": 4378,
      "54": 4379,
      "my": 4380,
      "Ġult": 4381,
      "Ġpure": 4382,
      "Ġfixed": 4383,
      "Ġcarried": 4384,
      "Ġrefuge": 4385,
      "Ġprotected": 4386,
      "Ġorganisation": 4387,
      "Ġscient": 4388,
      "Ġsong": 4389,
      "enh": 4390,
      "Ġlength": 4391,
      "Ġbuffet": 4392,
      "inated": 4393,
      "Ġcontrols": 4394,
      "Ġexports": 4395,
      "Ġalbum": 4396,
      "Ġroute": 4397,
      "eg": 4398,
      "under": 4399,
      "rian": 4400,
      "Ġdebt": 4401,
      "Ġcook": 4402,
      "ously": 4403,
      "Ġtransition": 4404,
      "Ġsets": 4405,
      "Ġcollection": 4406,
      "ecspokes": 4407,
      "62": 4408,
      "82": 4409,
      "da": 4410,
      "Ġspr": 4411,
      "Ġ52": 4412,
      "Ġentrep": 4413,
      "Ġworldwide": 4414,
      "Ġwinners": 4415,
      "Ġiceland": 4416,
      "Ġfraud": 4417,
      "Ġentrepren": 4418,
      "%)": 4419,
      "round": 4420,
      "Ġhous": 4421,
      "Ġegypt": 4422,
      "Ġvess": 4423,
      "Ġ1000": 4424,
      "aging": 4425,
      "Ġbrought": 4426,
      "Ġrapid": 4427,
      "Ġlessons": 4428,
      "Ġnights": 4429,
      "Ġappeal": 4430,
      "Ġprospective": 4431,
      "Ġtraffic": 4432,
      "zil": 4433,
      "Ġcities": 4434,
      "Ġque": 4435,
      "Ġsecure": 4436,
      "Ġ1996": 4437,
      "Ġnormal": 4438,
      "Ġterrace": 4439,
      "Ġeffects": 4440,
      "Ġharmon": 4441,
      "Ġnavigation": 4442,
      "focus": 4443,
      "ny": 4444,
      "Ġgir": 4445,
      "rade": 4446,
      "ivity": 4447,
      "Ġministers": 4448,
      "ugos": 4449,
      "Ã¶r": 4450,
      "Ġcatalog": 4451,
      "Ġpromoting": 4452,
      "Ġitalian": 4453,
      "antoine": 4454,
      "ecspokesantoine": 4455,
      "Ġfol": 4456,
      "osen": 4457,
      "Ġfirm": 4458,
      "Ġmarked": 4459,
      "Ġvision": 4460,
      "Ġprobably": 4461,
      "Ġbeyond": 4462,
      "sman": 4463,
      "Ġtuesday": 4464,
      "enminister": 4465,
      "Ġ55": 4466,
      "Ġ08": 4467,
      "Ġprefer": 4468,
      "Ġletter": 4469,
      "Ġacp": 4470,
      "Ġattach": 4471,
      "Ġafghanistan": 4472,
      "aid": 4473,
      "press": 4474,
      "vii": 4475,
      "Ġforms": 4476,
      "raft": 4477,
      "Ġplaces": 4478,
      "Ġphys": 4479,
      "Ġstring": 4480,
      "Ġsymb": 4481,
      "Ġetc": 4482,
      "Ġvassiliou": 4483,
      "bre": 4484,
      "Ġdoor": 4485,
      "Ġchur": 4486,
      "Ġchap": 4487,
      "Ġru": 4488,
      "Ġ47": 4489,
      "Ġparad": 4490,
      "Ġdefault": 4491,
      "Ġdeliber": 4492,
      "Ġmistake": 4493,
      "Ġtack": 4494,
      "Ġht": 4495,
      "abil": 4496,
      "Ġriver": 4497,
      "Ġmont": 4498,
      "Ġadvice": 4499,
      "Ġchristian": 4500,
      "Ġdiam": 4501,
      "Ġpick": 4502,
      "Ġcouncils": 4503,
      "aga": 4504,
      "Ġ05": 4505,
      "Ġ1995": 4506,
      "Ġdesigned": 4507,
      "Ġhoriz": 4508,
      "Ġquotas": 4509,
      "Ġimposs": 4510,
      "Ġelectronic": 4511,
      "Ġbarnier": 4512,
      "Ġhu": 4513,
      "Ġexplain": 4514,
      "Ġconsidered": 4515,
      "Ġdescriptive": 4516,
      "Ġenterprise": 4517,
      "ork": 4518,
      "Ġmut": 4519,
      "eld": 4520,
      "Ġdeg": 4521,
      "Ġjon": 4522,
      "Ġtranslation": 4523,
      "Ġsecurityfocus": 4524,
      "Ġtonnes": 4525,
      "Ġpina": 4526,
      "Ġbatt": 4527,
      "Ġhyp": 4528,
      "Ġgrad": 4529,
      "iano": 4530,
      "Ġstarts": 4531,
      "Ġforestry": 4532,
      "Ġnorthern": 4533,
      "100": 4534,
      "Ġbay": 4535,
      "Ġyugos": 4536,
      "Ġkal": 4537,
      "ief": 4538,
      "Ġgoog": 4539,
      "ips": 4540,
      "aves": 4541,
      "Ġconsists": 4542,
      "Ġcorpor": 4543,
      "Ġcontinu": 4544,
      "Ġbudgetary": 4545,
      "Ġimplemented": 4546,
      "hr": 4547,
      "iers": 4548,
      "ience": 4549,
      "just": 4550,
      "Ġsnow": 4551,
      "Ġsides": 4552,
      "Ġdispos": 4553,
      "cession": 4554,
      "Ġgrowing": 4555,
      "Ġorganis": 4556,
      "Ġseriously": 4557,
      "wald": 4558,
      "Ġtechnologies": 4559,
      "asbourg": 4560,
      "anda": 4561,
      "Ġresum": 4562,
      "Ġ43": 4563,
      "Ġoffered": 4564,
      "Ġdoesnt": 4565,
      "Ġphase": 4566,
      "Ġinstitutional": 4567,
      "Ġcolleag": 4568,
      "Ġomb": 4569,
      "oph": 4570,
      "Ġdebian": 4571,
      "mann": 4572,
      "Ġraise": 4573,
      "Ġswiss": 4574,
      "Ġscri": 4575,
      "ological": 4576,
      "Ġdistribution": 4577,
      "Ġsufficient": 4578,
      "Ġshopping": 4579,
      "Ġbaby": 4580,
      "Ġconflict": 4581,
      "Ġcoffee": 4582,
      "Ġimpossible": 4583,
      "nal": 4584,
      "Ġmel": 4585,
      "itude": 4586,
      "Ġhi": 4587,
      "Ġnames": 4588,
      "Ġdele": 4589,
      "Ġneg": 4590,
      "Ġparam": 4591,
      "Ġforecast": 4592,
      "Ġseconds": 4593,
      "Ġrecovery": 4594,
      "Ġwishes": 4595,
      "Ġproduced": 4596,
      "Ġtargets": 4597,
      "Ġdamage": 4598,
      "Ġprecisely": 4599,
      "Ġprotocol": 4600,
      "mo": 4601,
      "arus": 4602,
      "iger": 4603,
      "abled": 4604,
      "Ġrepresented": 4605,
      "Ġhonourable": 4606,
      "Ġinstrument": 4607,
      "Ġcelebr": 4608,
      "Ġcos": 4609,
      "Ġhal": 4610,
      "Ġremarks": 4611,
      "Ġrepresents": 4612,
      "Ġlooks": 4613,
      "Ġcentury": 4614,
      "Ġplayed": 4615,
      "Ġformal": 4616,
      "box": 4617,
      "Ġcarefully": 4618,
      "Ġoccur": 4619,
      "Ġstrengthening": 4620,
      "Ġelectricity": 4621,
      "Ġfarmers": 4622,
      "Ġombud": 4623,
      "cia": 4624,
      "lantic": 4625,
      "Ġnam": 4626,
      "Ġrob": 4627,
      "Ġinflation": 4628,
      "Ġblock": 4629,
      "Ġadvantage": 4630,
      "house": 4631,
      "eds": 4632,
      "Ġusually": 4633,
      "Ġpercent": 4634,
      "cript": 4635,
      "Ġbrazil": 4636,
      "ora": 4637,
      "Ġspl": 4638,
      "Ġarms": 4639,
      "Ġlimits": 4640,
      "european": 4641,
      "84": 4642,
      "eec": 4643,
      "pdo": 4644,
      "Ġau": 4645,
      "Ġcash": 4646,
      "roy": 4647,
      "icial": 4648,
      "Ġwithdra": 4649,
      "Ġsuc": 4650,
      "Ġpresentation": 4651,
      "Ġcharter": 4652,
      "Ġreferred": 4653,
      "Ġwonderful": 4654,
      "Ġadvertising": 4655,
      "Ġdeficit": 4656,
      "Ġram": 4657,
      "Ġlower": 4658,
      "charge": 4659,
      "elson": 4660,
      "dep": 4661,
      "Ġtrav": 4662,
      "Ġeditor": 4663,
      "Ġlets": 4664,
      "Ġplanned": 4665,
      "vent": 4666,
      "Ġpoker": 4667,
      "Ġrecon": 4668,
      "Ġles": 4669,
      "Ġchosen": 4670,
      "Ġrh": 4671,
      "aged": 4672,
      "...?": 4673,
      "Ġmarketing": 4674,
      "Ġdefinition": 4675,
      "Ġpenal": 4676,
      "Ġplatform": 4677,
      "Ġexecutive": 4678,
      "Ġombudsman": 4679,
      "Ġneither": 4680,
      "Ġcool": 4681,
      "Ġ76": 4682,
      "Ġbaltic": 4683,
      "Ġpotonik": 4684,
      "Ġinstallation": 4685,
      "Ġdepends": 4686,
      "Ġjourney": 4687,
      "wer": 4688,
      "Ġcors": 4689,
      "itious": 4690,
      "Ġgn": 4691,
      "Ġunf": 4692,
      "Ġnobody": 4693,
      "Ġcompar": 4694,
      "Ġ73": 4695,
      "Ġproud": 4696,
      "ariff": 4697,
      "Ġaudit": 4698,
      "Ġaccounts": 4699,
      "Ġregarding": 4700,
      "Ġbriefly": 4701,
      "Ġmaterials": 4702,
      "Ġferre": 4703,
      "Ġemerg": 4704,
      "Ġstraight": 4705,
      "Ġcab": 4706,
      "Ġsources": 4707,
      "aria": 4708,
      "Ġkitch": 4709,
      "Ġusa": 4710,
      "Ġbelong": 4711,
      "Ġinfo": 4712,
      "Ġjanez": 4713,
      "Ġmultip": 4714,
      "Ġforums": 4715,
      "Ġfeature": 4716,
      "Ġsucceed": 4717,
      "72": 4718,
      "itely": 4719,
      "asion": 4720,
      "pper": 4721,
      "amic": 4722,
      "Ġuns": 4723,
      "Ġmex": 4724,
      "Ġlisted": 4725,
      "Ġbreakdown": 4726,
      "Ġfamous": 4727,
      "Ġliberal": 4728,
      "Ġscript": 4729,
      "bel": 4730,
      "yal": 4731,
      "Ġcere": 4732,
      "road": 4733,
      "Ġweap": 4734,
      "resp": 4735,
      "Ġclient": 4736,
      "Ġdisapp": 4737,
      "Ġworked": 4738,
      "Ġcreation": 4739,
      "Ġsurround": 4740,
      "Ġsports": 4741,
      "Ġaffected": 4742,
      "Ġbosnia": 4743,
      "Ġaxis": 4744,
      "Ġgoogle": 4745,
      "71": 4746,
      "ois": 4747,
      "ancy": 4748,
      "Ġpla": 4749,
      "Ġ88": 4750,
      "Ġsupplement": 4751,
      "56": 4752,
      "dd": 4753,
      "Ġfant": 4754,
      "Ġhom": 4755,
      "urt": 4756,
      "Ġplug": 4757,
      "Ġinstruct": 4758,
      "Ġvisa": 4759,
      "Ġcontinues": 4760,
      "Ġcontinued": 4761,
      "Ġnatur": 4762,
      "atherine": 4763,
      "Ġilleg": 4764,
      "Ġchairman": 4765,
      "Ġkorea": 4766,
      "ham": 4767,
      "Ġhes": 4768,
      "ull": 4769,
      "ella": 4770,
      "Ġinvestments": 4771,
      "Ġwalking": 4772,
      "came": 4773,
      "fare": 4774,
      "Ġhen": 4775,
      "Ġist": 4776,
      "Ġ84": 4777,
      "Ġsurely": 4778,
      "Ġflexibility": 4779,
      "Ġscreen": 4780,
      "Ġmechanism": 4781,
      "Ġsurvey": 4782,
      "Ġneighbourhood": 4783,
      "Ġswimming": 4784,
      "Ġbor": 4785,
      "Ġlose": 4786,
      "Ġ56": 4787,
      "Ġclosure": 4788,
      "Ġdecide": 4789,
      "Ġbusinesses": 4790,
      "Ġinsurance": 4791,
      "Ġeuropol": 4792,
      "Ġmethods": 4793,
      "miss": 4794,
      "Ġcatherine": 4795,
      "Ġfle": 4796,
      "Ġbecomes": 4797,
      "Ġvon": 4798,
      "Ġdepos": 4799,
      "utes": 4800,
      "Ġcompreh": 4801,
      "Ġregime": 4802,
      "rich": 4803,
      "Ġexcess": 4804,
      "Ġchanging": 4805,
      "Ġpatent": 4806,
      "Ġappears": 4807,
      "ughter": 4808,
      "Ġexercise": 4809,
      "ea": 4810,
      "Ġola": 4811,
      "Ġchann": 4812,
      "Ġkat": 4813,
      "Ġcontrary": 4814,
      "Ġ51": 4815,
      "Ġworlds": 4816,
      "Ġcommunities": 4817,
      "Ġpersonally": 4818,
      "Ġtours": 4819,
      "ai": 4820,
      "car": 4821,
      "Ġtheme": 4822,
      "Ġbecame": 4823,
      "Ġlif": 4824,
      "Ġmargin": 4825,
      "Ġsomeone": 4826,
      "Ġintended": 4827,
      "Ġprofile": 4828,
      "Ġmoving": 4829,
      "Ġlicense": 4830,
      "iability": 4831,
      "Ġcouple": 4832,
      "Ġemergency": 4833,
      "Ġcell": 4834,
      "outh": 4835,
      "Ġnations": 4836,
      "Ġinvite": 4837,
      "cape": 4838,
      "Ġreding": 4839,
      "59": 4840,
      "Ġmere": 4841,
      "Ġband": 4842,
      "ops": 4843,
      "Ġky": 4844,
      "Ġlift": 4845,
      "Ġzone": 4846,
      "standing": 4847,
      "Ġinnovative": 4848,
      "Ġgalile": 4849,
      "Ġexhibition": 4850,
      "Ġech": 4851,
      "Ġ39": 4852,
      "Ġfollowed": 4853,
      "Ġdiscri": 4854,
      "Ġscen": 4855,
      "Ġeastern": 4856,
      "Ġfrid": 4857,
      "Ġticket": 4858,
      "Ġalbania": 4859,
      "Ġapproximately": 4860,
      "Ġdisease": 4861,
      "Ġindependent": 4862,
      "Ġgallery": 4863,
      "ĠmalmstrÃ¶m": 4864,
      "Ġdisappoint": 4865,
      "fi": 4866,
      "Ġrot": 4867,
      "Ġfurthermore": 4868,
      "Ġambitious": 4869,
      "Ġscope": 4870,
      "ball": 4871,
      "Ġger": 4872,
      "ugg": 4873,
      "Ġeverybody": 4874,
      "Ġscore": 4875,
      "Ġfactor": 4876,
      "Ġrevolution": 4877,
      "Ġcamera": 4878,
      "Ġelection": 4879,
      "Ġ282": 4880,
      "Ġvassil": 4881,
      "Ġinterpret": 4882,
      "Ġsatisfied": 4883,
      "jo": 4884,
      "occo": 4885,
      "ras": 4886,
      "Ġ;": 4887,
      "illa": 4888,
      "Ġdemon": 4889,
      "Ġemployees": 4890,
      "53": 4891,
      "Ġtheres": 4892,
      "Ġcott": 4893,
      "Ġmix": 4894,
      "ancing": 4895,
      "ette": 4896,
      "ender": 4897,
      "Ġspend": 4898,
      "Ġdecor": 4899,
      "zeg": 4900,
      "Ġelement": 4901,
      "Ġsanctions": 4902,
      "Ġcritical": 4903,
      "74": 4904,
      "fs": 4905,
      "ql": 4906,
      "Ġtariff": 4907,
      "enary": 4908,
      "Ġlan": 4909,
      "Ġweight": 4910,
      "Ġfinish": 4911,
      "Ġproposes": 4912,
      "weg": 4913,
      "Ã¼b": 4914,
      "Ġreturns": 4915,
      "Ġtrying": 4916,
      "Ġvariety": 4917,
      "Ġvessels": 4918,
      "Ġkitchen": 4919,
      "zen": 4920,
      "Ġcm": 4921,
      "Ġgone": 4922,
      "Ġshower": 4923,
      "Ġmeant": 4924,
      "Ġcovers": 4925,
      "Ġrecently": 4926,
      "english": 4927,
      "Ġfailure": 4928,
      "Ġdivided": 4929,
      "Ġgeorgia": 4930,
      "Ġdepartment": 4931,
      "Ġadvantages": 4932,
      "bby": 4933,
      "can": 4934,
      "una": 4935,
      "rap": 4936,
      "Ġsum": 4937,
      "Ġenorm": 4938,
      "Ġpret": 4939,
      "Ġparticipate": 4940,
      "Ġ150": 4941,
      "inese": 4942,
      "ield": 4943,
      "Ġoccup": 4944,
      "Ġgalileo": 4945,
      "nos": 4946,
      "Ġrise": 4947,
      "Ġadult": 4948,
      "Ġupg": 4949,
      "Ġbelarus": 4950,
      "Ġinstance": 4951,
      "Ġfranz": 4952,
      "Ġfamil": 4953,
      "Ġfrequently": 4954,
      "Ġsleep": 4955,
      "fl": 4956,
      "gence": 4957,
      "onte": 4958,
      "Ġmcc": 4959,
      "Ġasking": 4960,
      "Ġgoals": 4961,
      "Ġboot": 4962,
      "Ġbalcon": 4963,
      "Ġsunday": 4964,
      "Ġfestival": 4965,
      "Ġnaturally": 4966,
      "Ġ{": 4967,
      "itate": 4968,
      "empt": 4969,
      "Ġplenary": 4970,
      "thern": 4971,
      "Ġtopic": 4972,
      "Ġtrend": 4973,
      "tes": 4974,
      "Ġtests": 4975,
      "Ġyoure": 4976,
      "olo": 4977,
      "0027": 4978,
      "Ġcontest": 4979,
      "umb": 4980,
      "Ġ97": 4981,
      "Ġdelay": 4982,
      "Ġmeters": 4983,
      "Ġskin": 4984,
      "Ġphotograph": 4985,
      "Ġexplanation": 4986,
      "Ġadjour": 4987,
      "Ġmissing": 4988,
      "Ġencourage": 4989,
      "border": 4990,
      "free": 4991,
      "Ġlibr": 4992,
      "Ġ1994": 4993,
      "Ġherring": 4994,
      "Ġpalest": 4995,
      "Ġchamber": 4996,
      "500": 4997,
      "met": 4998,
      "nel": 4999,
      "Ġcu": 5000,
      "enger": 5001,
      "Ġpier": 5002,
      "Ġbod": 5003,
      "Ġgran": 5004,
      "izes": 5005,
      "phere": 5006,
      "Ġconsumption": 5007,
      "Ġsouthern": 5008,
      "Ġcomposition": 5009,
      "63": 5010,
      "bl": 5011,
      "eib": 5012,
      "Ġborg": 5013,
      "Ġinh": 5014,
      "alia": 5015,
      "Ġatmos": 5016,
      "Ġchinese": 5017,
      "Ġrace": 5018,
      "cker": 5019,
      "ertain": 5020,
      "ruption": 5021,
      "Ġanna": 5022,
      "Ġprodi": 5023,
      "Ġautomatically": 5024,
      "Ġstorage": 5025,
      "Ġchurch": 5026,
      "tle": 5027,
      "ying": 5028,
      "Ġpak": 5029,
      "iling": 5030,
      "Ġlag": 5031,
      "Ġgave": 5032,
      "oss": 5033,
      "Ġseven": 5034,
      "Ġdoc": 5035,
      "berto": 5036,
      "Ġpref": 5037,
      "Ġze": 5038,
      "going": 5039,
      "Ġdefinitely": 5040,
      "mr": 5041,
      "Ġhence": 5042,
      "Ġluc": 5043,
      "Ġvital": 5044,
      "Ġclosely": 5045,
      "Ġcold": 5046,
      "Ġgeorge": 5047,
      "Ġinvolve": 5048,
      "Ġcategories": 5049,
      "Ġenterprises": 5050,
      "Ġscientific": 5051,
      "time": 5052,
      "Ġfal": 5053,
      "vere": 5054,
      "ado": 5055,
      "Ġsuites": 5056,
      "Ġaccident": 5057,
      "ovina": 5058,
      "Ġrequests": 5059,
      "Ġirish": 5060,
      "Ġfailed": 5061,
      "loud": 5062,
      "rant": 5063,
      "tained": 5064,
      "Ġmaster": 5065,
      "Ġuses": 5066,
      "Ġimag": 5067,
      "vely": 5068,
      "Ġkept": 5069,
      "Ġstudio": 5070,
      "Ġglass": 5071,
      "Ġcecil": 5072,
      "Ġjournal": 5073,
      "Ġconstitution": 5074,
      "sterdam": 5075,
      "contin": 5076,
      "Ġcec": 5077,
      "ata": 5078,
      "atively": 5079,
      "Ġbegan": 5080,
      "Ġcommitted": 5081,
      "Ġka": 5082,
      "Ġ38": 5083,
      "Ġorganised": 5084,
      "Ġprivacy": 5085,
      "porary": 5086,
      "Ġarrangements": 5087,
      "Ġsubsidiarity": 5088,
      "Ġresumption": 5089,
      "Ġcecilia": 5090,
      "Ġfem": 5091,
      "Ġhit": 5092,
      "acious": 5093,
      "sec": 5094,
      "Ġagencies": 5095,
      "Ġdebates": 5096,
      "Ġcourses": 5097,
      "Ġdennis": 5098,
      "Ġ202": 5099,
      "Ġmedical": 5100,
      "Ġtexts": 5101,
      "Ġhonest": 5102,
      "Ġpiece": 5103,
      "Ġreserve": 5104,
      "Ġflexible": 5105,
      "Ġdinner": 5106,
      "Ġtruly": 5107,
      "Ġferrero": 5108,
      "Ġak": 5109,
      "Ġcub": 5110,
      "Ġpil": 5111,
      "Ġremark": 5112,
      "Ġamsterdam": 5113,
      "Ġmanual": 5114,
      "icking": 5115,
      "Ġmaintain": 5116,
      "Ġvienna": 5117,
      "Ġfacing": 5118,
      "Ġmandate": 5119,
      "Ġsatisfact": 5120,
      "Ġeyes": 5121,
      "Ġded": 5122,
      "Ġgift": 5123,
      "Ġweather": 5124,
      "Ġalt": 5125,
      "Ġchinas": 5126,
      "Ġwhats": 5127,
      "Ġ83": 5128,
      "Ġsupporting": 5129,
      "Ġswe": 5130,
      "Ġmodels": 5131,
      "Ġerk": 5132,
      "Ġdriving": 5133,
      "Ġhearing": 5134,
      "Ġpleasant": 5135,
      "Ġillegal": 5136,
      "iance": 5137,
      "entions": 5138,
      "Ġclients": 5139,
      "elles": 5140,
      "Ġrock": 5141,
      "Ġcompat": 5142,
      "Ġmonday": 5143,
      "Ġrecommended": 5144,
      "Ġleader": 5145,
      "Ġbattle": 5146,
      "zegovina": 5147,
      "ris": 5148,
      "Ġfell": 5149,
      "Ġgross": 5150,
      "Ġros": 5151,
      "Ġserve": 5152,
      "Ġrare": 5153,
      "Ġacquis": 5154,
      "Ġprovision": 5155,
      "Ġfulf": 5156,
      "Ġthirdly": 5157,
      "Ġrestaurants": 5158,
      "76": 5159,
      "hl": 5160,
      "ky": 5161,
      "Ġpin": 5162,
      "Ġpill": 5163,
      "Ġmik": 5164,
      "Ġeat": 5165,
      "osp": 5166,
      "Ġspoke": 5167,
      "Ġperspective": 5168,
      "Ġhighest": 5169,
      "Ġcontribute": 5170,
      "win": 5171,
      "Ġbill": 5172,
      "Ġhorn": 5173,
      "Ġearn": 5174,
      "omas": 5175,
      "Ġwhom": 5176,
      "Ġexcept": 5177,
      "Ġcompli": 5178,
      "2003": 5179,
      "Ġdimit": 5180,
      "Ġfiscal": 5181,
      "forcement": 5182,
      "waldner": 5183,
      "Ġdemonstr": 5184,
      "Ġpi": 5185,
      "Ġabbott": 5186,
      "ache": 5187,
      "Ġdirectives": 5188,
      "Ġrelates": 5189,
      "Ġentries": 5190,
      "Ġxii": 5191,
      "Ġshared": 5192,
      "Ġperfectly": 5193,
      "Ġtasks": 5194,
      "Ġpleasure": 5195,
      "Ġtill": 5196,
      "Ġcup": 5197,
      "Ġdyn": 5198,
      "Ġdark": 5199,
      "Ġcomplic": 5200,
      "Ġfindings": 5201,
      "Ġexpand": 5202,
      "Ġwelfare": 5203,
      "Ġruns": 5204,
      "Ġmacro": 5205,
      "Ġdevice": 5206,
      "Ġeye": 5207,
      "Ġbirth": 5208,
      "Ġbritish": 5209,
      "73": 5210,
      "79": 5211,
      "Ġwo": 5212,
      "Ġcommand": 5213,
      "Ġworse": 5214,
      "Ġdefined": 5215,
      "Ġrome": 5216,
      "Ġdiscussions": 5217,
      "Ġaccordingly": 5218,
      "Ġentrepreneurs": 5219,
      "Ġfi": 5220,
      "ider": 5221,
      "Ġspot": 5222,
      "Ġwebsites": 5223,
      "Ġexpensive": 5224,
      "Ġrelationship": 5225,
      "Ġportal": 5226,
      "Ġleading": 5227,
      "Ġstudents": 5228,
      "Ġmessages": 5229,
      "Ġcombating": 5230,
      "Ġamounts": 5231,
      "Ġsubstances": 5232,
      "Ġchamp": 5233,
      "Ġcandidate": 5234,
      "Ġot": 5235,
      "Ġdina": 5236,
      "Ġnut": 5237,
      "Ġreci": 5238,
      "Ġeuropeaid": 5239,
      "Ġchat": 5240,
      "Ġsuite": 5241,
      "Ġasht": 5242,
      "Ġmeat": 5243,
      "Ġ400": 5244,
      "Ġguard": 5245,
      "Ġfinances": 5246,
      "Ġintend": 5247,
      "Ġbiggest": 5248,
      "Ġearlier": 5249,
      "Ġsatell": 5250,
      "Ġappointment": 5251,
      "Ġsilence": 5252,
      "Ġrental": 5253,
      "Ġprospect": 5254,
      "Ġcomprehensive": 5255,
      "58": 5256,
      "78": 5257,
      "night": 5258,
      "Ġice": 5259,
      "enture": 5260,
      "adt": 5261,
      "amp": 5262,
      "Ġallows": 5263,
      "Ġrose": 5264,
      "Ġ49": 5265,
      "ager": 5266,
      "Ġspread": 5267,
      "Ġsyn": 5268,
      "2006": 5269,
      "Ġbarri": 5270,
      "Ġbanking": 5271,
      "Ġcalcul": 5272,
      "general": 5273,
      "imbab": 5274,
      "deputy": 5275,
      "Ġcecaf": 5276,
      "Ġerkki": 5277,
      "bb": 5278,
      "pm": 5279,
      "ining": 5280,
      "ione": 5281,
      "ental": 5282,
      "Ġgiving": 5283,
      "Ġavra": 5284,
      "Ġsyria": 5285,
      "Ġcreative": 5286,
      "Ġpossibility": 5287,
      "Ġmetres": 5288,
      "Ġreasonable": 5289,
      "Ġmeaning": 5290,
      "1999": 5291,
      "Ġsudan": 5292,
      "Ġdeliberation": 5293,
      "based": 5294,
      "vo": 5295,
      "Ġml": 5296,
      "Ġmixed": 5297,
      "Ġlunch": 5298,
      "Ġexit": 5299,
      "Ġinformed": 5300,
      "rupt": 5301,
      "Ġzimbab": 5302,
      "Ġconcent": 5303,
      "Ġestate": 5304,
      "Ġeasier": 5305,
      "Ġgovernments": 5306,
      "Ġign": 5307,
      "Ġcastle": 5308,
      "Ġargument": 5309,
      "Ġsquare": 5310,
      "Ġdisposal": 5311,
      "Ġfamilies": 5312,
      "inem": 5313,
      "Ġleban": 5314,
      "Ġbooks": 5315,
      "Ġflow": 5316,
      "Ġmerc": 5317,
      "Ġlots": 5318,
      "Ġvacation": 5319,
      "Ġmicro": 5320,
      "Ġmexico": 5321,
      "Ġvassilious": 5322,
      "Ġenormous": 5323,
      "ax": 5324,
      "fo": 5325,
      "Ġps": 5326,
      "itz": 5327,
      "rometer": 5328,
      "Ġleon": 5329,
      "Ġoutput": 5330,
      "Ġmode": 5331,
      "Ġscand": 5332,
      "Ġpatten": 5333,
      "Ġshortly": 5334,
      "Ġappreciate": 5335,
      "Ġltd": 5336,
      "enhagen": 5337,
      "Ġavraam": 5338,
      "iff": 5339,
      "table": 5340,
      "isms": 5341,
      "Ġsir": 5342,
      "enced": 5343,
      "Ġpun": 5344,
      "Ġhop": 5345,
      "Ġcanada": 5346,
      "Ġkall": 5347,
      "Ġcontrad": 5348,
      "Ġquar": 5349,
      "Ġtimet": 5350,
      "Ġdischarge": 5351,
      "Ġbrid": 5352,
      "Ġ66": 5353,
      "Ġfee": 5354,
      "Ġpeoples": 5355,
      "Ġequality": 5356,
      "Ġrussian": 5357,
      "Ġdomestic": 5358,
      "Ġcombat": 5359,
      "Ġolaf": 5360,
      "Ġmold": 5361,
      "Ġhenn": 5362,
      "Ġeight": 5363,
      "uled": 5364,
      "Ġdog": 5365,
      "Ġkg": 5366,
      "Ġspacious": 5367,
      "Ġupload": 5368,
      "Ġboat": 5369,
      "Ġgenu": 5370,
      "Ġswitch": 5371,
      "Ġpalace": 5372,
      "Ġinstalled": 5373,
      "Ġtreas": 5374,
      "Ġdvd": 5375,
      "Ġsymbol": 5376,
      "han": 5377,
      "Ġinit": 5378,
      "Ġnom": 5379,
      "look": 5380,
      "Ġdied": 5381,
      "Ġcompens": 5382,
      "Ġadvis": 5383,
      "Ġfunctioning": 5384,
      "Ġindicators": 5385,
      "Ġdevices": 5386,
      "Ġstocks": 5387,
      "Ġreplace": 5388,
      "Ġmanufacture": 5389,
      "Ġlouis": 5390,
      "Ġty": 5391,
      "Ġbang": 5392,
      "rock": 5393,
      "Ġeuroba": 5394,
      "2008": 5395,
      "Ġevidence": 5396,
      "Ġhealthy": 5397,
      "Ġtourist": 5398,
      "Ġleads": 5399,
      "Ġ753": 5400,
      "Ġdeposit": 5401,
      "Ġashton": 5402,
      "Ġled": 5403,
      "Ġforgot": 5404,
      "Ġyork": 5405,
      "Ġbecoming": 5406,
      "ista": 5407,
      "Ġparlia": 5408,
      "Ġluxury": 5409,
      "Ġjacques": 5410,
      "Ġzimbabwe": 5411,
      "Ġparliaments": 5412,
      "itect": 5413,
      "Ġgain": 5414,
      "001": 5415,
      "opoul": 5416,
      "cccc": 5417,
      "Ġremove": 5418,
      "Ġextended": 5419,
      "Ġmorocco": 5420,
      "Ġtesting": 5421,
      "Ġvolume": 5422,
      "Ġaccompan": 5423,
      "Ġpublish": 5424,
      "Ġrecognition": 5425,
      "Ġdeparture": 5426,
      "Ġvirtual": 5427,
      "holders": 5428,
      "Ġtaste": 5429,
      "Ġweapons": 5430,
      "eesc": 5431,
      "yt": 5432,
      "Ġcrow": 5433,
      "Ġbes": 5434,
      "Ġbure": 5435,
      "ida": 5436,
      "Ġexists": 5437,
      "Ġamaz": 5438,
      "Ġopens": 5439,
      "Ġprim": 5440,
      "inding": 5441,
      "Ġnumer": 5442,
      "Ġdelight": 5443,
      "Ġadvoc": 5444,
      "Ġexplore": 5445,
      "Ġsafegu": 5446,
      "Ġ0475": 5447,
      "Ġdisplayed": 5448,
      "Ġeurobarometer": 5449,
      "Ġsen": 5450,
      "Ġtold": 5451,
      "rak": 5452,
      "Ġquant": 5453,
      "Ġworry": 5454,
      "cla": 5455,
      "Ġpropose": 5456,
      "Ġwelcom": 5457,
      "Ġsectors": 5458,
      "Ġsigned": 5459,
      "Ġinspect": 5460,
      "presse": 5461,
      "Ġdomain": 5462,
      "Ġsubscribe": 5463,
      "Ġatmosphere": 5464,
      "vy": 5465,
      "Ġdry": 5466,
      "Ġlind": 5467,
      "Ġandor": 5468,
      "Ġunc": 5469,
      "cons": 5470,
      "Ġsaw": 5471,
      "iann": 5472,
      "Ġdescrib": 5473,
      "Ġlatin": 5474,
      "Ġintel": 5475,
      "Ġversions": 5476,
      "Ġproduce": 5477,
      "Ġvideos": 5478,
      "Ġguaranteed": 5479,
      "Ġmovie": 5480,
      "Ġappropriations": 5481,
      "Ġbalcony": 5482,
      "jud": 5483,
      "Ġoce": 5484,
      "Ġseat": 5485,
      "Ġrid": 5486,
      "Ġplaced": 5487,
      "Ġemb": 5488,
      "Ġrain": 5489,
      "Ġcorner": 5490,
      "Ġrequested": 5491,
      "Ġlabelling": 5492,
      "Ġdestroy": 5493,
      "Ġarab": 5494,
      "Ġmun": 5495,
      "Ġhair": 5496,
      "Ġ71": 5497,
      "appro": 5498,
      "Ġsold": 5499,
      "Ġreduce": 5500,
      "Ġstudies": 5501,
      "Ġcreating": 5502,
      "Ġorders": 5503,
      "Ġdiscrimination": 5504,
      ".(": 5505,
      "gent": 5506,
      "hann": 5507,
      "ker": 5508,
      "rum": 5509,
      "orf": 5510,
      "ils": 5511,
      "oto": 5512,
      "ctor": 5513,
      "Ġbegins": 5514,
      "quir": 5515,
      "Ġsolve": 5516,
      "Ġfoundation": 5517,
      "Ġwarning": 5518,
      "Ġinfringements": 5519,
      "Ġbonus": 5520,
      "Ġsimplification": 5521,
      "Ġrenewable": 5522,
      "69": 5523,
      "Ġib": 5524,
      "Ġjack": 5525,
      "lock": 5526,
      "Ġtaxes": 5527,
      "Ġoperating": 5528,
      "ĠĠĠĠ": 5529,
      "ĠwallstrÃ¶m": 5530,
      "Ġinterpretation": 5531,
      "Ġwelcomed": 5532,
      "cz": 5533,
      "zone": 5534,
      "Ġwild": 5535,
      "Ġiia": 5536,
      "osed": 5537,
      "Ġplants": 5538,
      "active": 5539,
      "Ġtransact": 5540,
      "Ġmaybe": 5541,
      "Ġposted": 5542,
      "Ġslight": 5543,
      "Ġmaced": 5544,
      "Ġexclusive": 5545,
      "holm": 5546,
      "Ġwheel": 5547,
      "Ġexcessive": 5548,
      "oved": 5549,
      "Ġah": 5550,
      "Ġcra": 5551,
      "ila": 5552,
      "urement": 5553,
      "Ġverhe": 5554,
      "Ġcarlo": 5555,
      "Ġestim": 5556,
      "Ġsatur": 5557,
      "Ġcopenhagen": 5558,
      "Ġcalend": 5559,
      "Ġhardly": 5560,
      "Ġarchitect": 5561,
      "Ġconvergence": 5562,
      "Ġvehicle": 5563,
      "Ġpremium": 5564,
      "Ġsatellite": 5565,
      "rors": 5566,
      "Ġ77": 5567,
      "Ġundert": 5568,
      "2004": 5569,
      "Ġmetro": 5570,
      "Ġstrongly": 5571,
      "Ġgeorgiev": 5572,
      "Ġestablishment": 5573,
      "bus": 5574,
      "ray": 5575,
      "Ġaust": 5576,
      "Ġsight": 5577,
      "anas": 5578,
      "Ġbeg": 5579,
      "Ġenforcement": 5580,
      "Ġcooper": 5581,
      "cycl": 5582,
      "Ġskills": 5583,
      "Ġinsp": 5584,
      "Ġimplementing": 5585,
      "Ġlibrary": 5586,
      "Ġlebanon": 5587,
      "Ġhennon": 5588,
      "lie": 5589,
      "itage": 5590,
      "Ġintention": 5591,
      "Ġfactors": 5592,
      "Ġxiv": 5593,
      "Ġparent": 5594,
      "Ġtopics": 5595,
      "Ġmanager": 5596,
      "Ġangel": 5597,
      "Ġantonio": 5598,
      "ding": 5599,
      "atch": 5600,
      "Ġbm": 5601,
      "iminister": 5602,
      "Ġunions": 5603,
      "Ġresource": 5604,
      "Ġlogo": 5605,
      "rick": 5606,
      "Ġmoved": 5607,
      "Ġheritage": 5608,
      "Ġbalanced": 5609,
      "Ġcharges": 5610,
      "Ġpurposes": 5611,
      "Ġcasa": 5612,
      "Ġschools": 5613,
      "Ġburma": 5614,
      "Ġsuggestions": 5615,
      "Ġhistoric": 5616,
      "build": 5617,
      "Ġcriticism": 5618,
      "Ġsupplementary": 5619,
      "Ġadjourn": 5620,
      "Ġgeorgievas": 5621,
      "german": 5622,
      "eding": 5623,
      "Ġliability": 5624,
      "ett": 5625,
      "Ġalco": 5626,
      "Ġbyr": 5627,
      "Ġnoise": 5628,
      "Ġresidence": 5629,
      "ivian": 5630,
      "Ġ59": 5631,
      "Ġcloser": 5632,
      "Ġextent": 5633,
      "Ã¶n": 5634,
      "azza": 5635,
      "Ġtransparent": 5636,
      "Ġandris": 5637,
      "onym": 5638,
      "Ġimmediate": 5639,
      "Ġrepeat": 5640,
      "Ġfriday": 5641,
      "Ġast": 5642,
      "anen": 5643,
      "ito": 5644,
      "Ġbse": 5645,
      "Ġmemory": 5646,
      "Ġherzegovina": 5647,
      "Ġafrican": 5648,
      "Ġarchive": 5649,
      "Ġcomponents": 5650,
      "Ġpakistan": 5651,
      "Ġverheug": 5652,
      "Ġadjournment": 5653,
      "je": 5654,
      "icy": 5655,
      "inea": 5656,
      "Ġconcert": 5657,
      "Ġdelic": 5658,
      "Ġinvestig": 5659,
      "ourage": 5660,
      "Ġtemper": 5661,
      "Ġregulatory": 5662,
      "Ġlaunched": 5663,
      "Ġbottom": 5664,
      "Ġcatalogue": 5665,
      "Ġchapter": 5666,
      "Ġpretty": 5667,
      "Ġtimetable": 5668,
      "Ġinitial": 5669,
      "pol": 5670,
      "Ġcow": 5671,
      "ords": 5672,
      "Ġmol": 5673,
      "Ġef": 5674,
      "elle": 5675,
      "ige": 5676,
      "Ġ42": 5677,
      "Ġspect": 5678,
      "Ġtranspos": 5679,
      "Ġprocurement": 5680,
      "ibly": 5681,
      "Ġcauses": 5682,
      "Ġoccasion": 5683,
      "379": 5684,
      "Ġrenov": 5685,
      "Ġviii": 5686,
      "Ġgranted": 5687,
      "Ġforth": 5688,
      "Ġstick": 5689,
      "Ġstrict": 5690,
      "Ġrac": 5691,
      "Ġactual": 5692,
      "Ġeverywhere": 5693,
      "Ġdesk": 5694,
      "2009": 5695,
      "Ġskype": 5696,
      "Ġolder": 5697,
      "Ġbright": 5698,
      "Ġaudi": 5699,
      "Ġcatch": 5700,
      "Ġinstitute": 5701,
      "Ġimprovements": 5702,
      "Ġarrived": 5703,
      "Ġsettings": 5704,
      "Ġhistorical": 5705,
      "Ġnegative": 5706,
      "Ġplaice": 5707,
      "ares": 5708,
      "pes": 5709,
      "pers": 5710,
      "onom": 5711,
      "atis": 5712,
      "Ġnord": 5713,
      "olid": 5714,
      "Ġfavor": 5715,
      "Ġpattern": 5716,
      "Ġabsolute": 5717,
      "Ġurgently": 5718,
      "Ġdemands": 5719,
      "Ġsaturday": 5720,
      "km": 5721,
      "kest": 5722,
      "Ġdro": 5723,
      "Ġdas": 5724,
      "uts": 5725,
      "Ġkil": 5726,
      "Ġenem": 5727,
      "Ġdisaster": 5728,
      "Ġ79": 5729,
      "Ġ800": 5730,
      "Ġrelig": 5731,
      "Ġvalley": 5732,
      "Ġamended": 5733,
      "Ġnorm": 5734,
      "Ġlaws": 5735,
      "Ġdiseases": 5736,
      "Ġpollution": 5737,
      "Ġmultiple": 5738,
      "Ġcompatible": 5739,
      "Ġmacedonia": 5740,
      "Ġdun": 5741,
      "Ġdies": 5742,
      "stood": 5743,
      "Ġkaz": 5744,
      "Ġlie": 5745,
      "ucht": 5746,
      "Ġmainly": 5747,
      "Ġscale": 5748,
      "Ġspeakers": 5749,
      "Ġfacility": 5750,
      "Ġofficer": 5751,
      "Ġcircum": 5752,
      "Ġpowers": 5753,
      "econom": 5754,
      "gos": 5755,
      "year": 5756,
      "Ġcry": 5757,
      "Ġmu": 5758,
      "aru": 5759,
      "illed": 5760,
      "Ġplenty": 5761,
      "Ġrol": 5762,
      "Ġfees": 5763,
      "Ġaudio": 5764,
      "Ġpractices": 5765,
      "Ġpanel": 5766,
      "Ġhorse": 5767,
      "Ġolive": 5768,
      "wegian": 5769,
      "Ġverheugen": 5770,
      "cam": 5771,
      "craft": 5772,
      "ded": 5773,
      "etic": 5774,
      "stadt": 5775,
      "Ġdipl": 5776,
      "Ġ53": 5777,
      "Ġempt": 5778,
      "Ġmonica": 5779,
      "athan": 5780,
      "Ġdealing": 5781,
      "Ġ2731": 5782,
      "Ġmountains": 5783,
      "Ġtraditional": 5784,
      "fers": 5785,
      "ua": 5786,
      "vass": 5787,
      "Ġaqu": 5788,
      "Ġanca": 5789,
      "Ġseeing": 5790,
      "Ġ600": 5791,
      "Ġresolved": 5792,
      "Ġcommittees": 5793,
      "Ġ250": 5794,
      "Ġsigns": 5795,
      "Ġstrengthen": 5796,
      "Ġtemporary": 5797,
      "Ġmanaged": 5798,
      "Ġincor": 5799,
      "Ġcharacters": 5800,
      "Ġlamy": 5801,
      "Ġallocation": 5802,
      "Ġcolleagues": 5803,
      "kestein": 5804,
      "dis": 5805,
      "war": 5806,
      "Ġburn": 5807,
      "omen": 5808,
      "Ġgy": 5809,
      "Ġnoted": 5810,
      "Ġrss": 5811,
      "Ġfinished": 5812,
      "Ġreservations": 5813,
      "Ġprograms": 5814,
      "Ġsmart": 5815,
      "Ġattend": 5816,
      "Ġfunded": 5817,
      "Ġwinner": 5818,
      "Ġbuildings": 5819,
      "Ġkarl": 5820,
      "Ġannounce": 5821,
      "Ġconvin": 5822,
      "Ġbolkestein": 5823,
      "quiry": 5824,
      "()": 5825,
      "ÃŁ": 5826,
      "inn": 5827,
      "Ġsac": 5828,
      "Ġwolf": 5829,
      "Ġhun": 5830,
      "Ġhund": 5831,
      "Ġye": 5832,
      "Ġbea": 5833,
      "eters": 5834,
      "Ġprohib": 5835,
      "ima": 5836,
      "Ġroma": 5837,
      "Ġpassed": 5838,
      "Ġnoneth": 5839,
      "Ġgenerally": 5840,
      "Ġexclud": 5841,
      "Ġlikely": 5842,
      "Ġmutual": 5843,
      "Ġcalendar": 5844,
      "Ġalcohol": 5845,
      "Ġnonetheless": 5846,
      "des": 5847,
      "erto": 5848,
      "Ġcourage": 5849,
      "Ġwik": 5850,
      "Ġbeat": 5851,
      "irt": 5852,
      "ando": 5853,
      "akis": 5854,
      "Ġafford": 5855,
      "Ġacts": 5856,
      "Ġjohann": 5857,
      "Ġcorruption": 5858,
      "Ġroman": 5859,
      "engers": 5860,
      "mediterranean": 5861,
      "Ġsuppl": 5862,
      "Ġcycl": 5863,
      "Ġjavas": 5864,
      "Ġvegetables": 5865,
      "Ġcomplicated": 5866,
      "ught": 5867,
      "Ġum": 5868,
      "ĠfÃ¼": 5869,
      "ario": 5870,
      "arily": 5871,
      "Ġnick": 5872,
      "Ġwhiting": 5873,
      "Ġkn": 5874,
      "Ġnov": 5875,
      "oken": 5876,
      "Ġmodule": 5877,
      "commission": 5878,
      "Ġunderstanding": 5879,
      "Ġuniversal": 5880,
      "Ġrefugees": 5881,
      "pu": 5882,
      "Ġwire": 5883,
      "Ġdress": 5884,
      "alle": 5885,
      "Ġgam": 5886,
      "Ġva": 5887,
      "chen": 5888,
      "Ġprejud": 5889,
      "Ġ95": 5890,
      "Ġstrasbourg": 5891,
      "Ġtrou": 5892,
      "ifying": 5893,
      "Ġfrag": 5894,
      "Ġencouraging": 5895,
      "Ġintroduced": 5896,
      "Ġduties": 5897,
      "Ġheavy": 5898,
      "Ġorganisations": 5899,
      "Ġfantastic": 5900,
      "Ġjavascript": 5901,
      "inen": 5902,
      "Ġoh": 5903,
      "Ġhosp": 5904,
      "ederal": 5905,
      "Ġtoler": 5906,
      "Ġnos": 5907,
      "Ġstars": 5908,
      "Ġseg": 5909,
      "ciliation": 5910,
      "Ġdisabled": 5911,
      "Ġ61": 5912,
      "Ġedition": 5913,
      "Ġflag": 5914,
      "Ġesc": 5915,
      "Ġopinions": 5916,
      "Ġnearly": 5917,
      "Ġopposed": 5918,
      "Ġsubstant": 5919,
      "Ġamericas": 5920,
      "Ġproducers": 5921,
      "Ġchemicals": 5922,
      "Ġcorporate": 5923,
      "Ġath": 5924,
      "Ġthomas": 5925,
      "Ġcs": 5926,
      "Ġsaint": 5927,
      "Ġincome": 5928,
      "Ġremin": 5929,
      "ades": 5930,
      "portion": 5931,
      "Ġmini": 5932,
      "Ġusual": 5933,
      "Ġmonten": 5934,
      "Ġjoined": 5935,
      "Ġremoved": 5936,
      "Ġ1993": 5937,
      "Ġfacil": 5938,
      "Ġconsiderable": 5939,
      "Ġconnected": 5940,
      "Ġburden": 5941,
      "**": 5942,
      "ben": 5943,
      "Ġawards": 5944,
      "Ġduration": 5945,
      "rot": 5946,
      "Ġeco": 5947,
      "Ġling": 5948,
      "Ġwear": 5949,
      "oren": 5950,
      "igible": 5951,
      "Ġenquiries": 5952,
      "abor": 5953,
      "Ġcents": 5954,
      "Ġsmoking": 5955,
      "Ġcorresp": 5956,
      "Ġautumn": 5957,
      "Ġsky": 5958,
      "what": 5959,
      "Ġconsequently": 5960,
      "Ġtunis": 5961,
      "Ġjonathan": 5962,
      "Ġinhab": 5963,
      "Ġdimitri": 5964,
      "Ġmoldova": 5965,
      "Ġaustral": 5966,
      "Ġbmw": 5967,
      "bor": 5968,
      "Ġul": 5969,
      "Ġfern": 5970,
      "Ġfather": 5971,
      "Ġeleg": 5972,
      "raid": 5973,
      "Ġboost": 5974,
      "Ġdirectory": 5975,
      "Ġdesp": 5976,
      "Ġrealistic": 5977,
      "Ġrevision": 5978,
      "Ġsurv": 5979,
      "Ġjudicial": 5980,
      "ashion": 5981,
      "Ġheading": 5982,
      "Ġarrive": 5983,
      "Ġcondem": 5984,
      "Ġsettlement": 5985,
      "Ġtacs": 5986,
      "Ġattractive": 5987,
      "Ġkallas": 5988,
      "economic": 5989,
      "bast": 5990,
      "lam": 5991,
      "inal": 5992,
      "Ġod": 5993,
      "Ġvul": 5994,
      "Ġvoc": 5995,
      "eta": 5996,
      "Ġalm": 5997,
      "Ġran": 5998,
      "Ġmarc": 5999,
      "aret": 6000,
      "Ġbrux": 6001,
      "avi": 6002,
      "Ġfunctions": 6003,
      "Ġafraid": 6004,
      "Ġprocessing": 6005,
      "Ġdifferences": 6006,
      "Ġpackaging": 6007,
      "Ġpassengers": 6008,
      "Ġtrafficking": 6009,
      "ilioueu": 6010,
      "Ġconvenient": 6011,
      "Ġempty": 6012,
      "vassilioueu": 6013,
      "card": 6014,
      "here": 6015,
      "Ġpor": 6016,
      "Ġkor": 6017,
      "Ġroyal": 6018,
      "abilities": 6019,
      "Ġmys": 6020,
      "Ġaccessible": 6021,
      "Ġpassenger": 6022,
      "Ġconsideration": 6023,
      "Ġlesson": 6024,
      "ambassador": 6025,
      "Ġbruxelles": 6026,
      "hotel": 6027,
      "tr": 6028,
      "wan": 6029,
      "reme": 6030,
      "Ġing": 6031,
      "uraru": 6032,
      "Ġring": 6033,
      "group": 6034,
      "Ġguinea": 6035,
      "Ġsignal": 6036,
      "Ġlabel": 6037,
      "Ġdealt": 6038,
      "Ġdaniel": 6039,
      "Ġtorres": 6040,
      "Ġattached": 6041,
      "Ġmonteneg": 6042,
      "set": 6043,
      "Ġti": 6044,
      "Ġtrib": 6045,
      "iny": 6046,
      "anim": 6047,
      "Ġga": 6048,
      "Ġstable": 6049,
      "rain": 6050,
      "Ġshut": 6051,
      "Ġyours": 6052,
      "Ġpolish": 6053,
      "Ġarm": 6054,
      "Ġboy": 6055,
      "ensus": 6056,
      "Ġentered": 6057,
      "Ġpossibilities": 6058,
      "govern": 6059,
      "Ġtelevision": 6060,
      "Ġpowerful": 6061,
      "Ġlearned": 6062,
      "Ġdestination": 6063,
      "Ġarguments": 6064,
      "Ġphysical": 6065,
      "Ġupgrade": 6066,
      "Ġbarriers": 6067,
      "ele": 6068,
      "Ġdol": 6069,
      "Ġnik": 6070,
      "Ġlen": 6071,
      "Ġongoing": 6072,
      "Ġatlantic": 6073,
      "Ġplays": 6074,
      "Ġsaved": 6075,
      "Ġaftern": 6076,
      "Ġ1992": 6077,
      "Ġbanner": 6078,
      "Ġaids": 6079,
      "Ġturned": 6080,
      "Ġsoul": 6081,
      "Ġpaduraru": 6082,
      "Ġfifth": 6083,
      "Ġocean": 6084,
      "Ġought": 6085,
      "Ġsv": 6086,
      "acht": 6087,
      "Ġchan": 6088,
      "alled": 6089,
      "Ġcompr": 6090,
      "erent": 6091,
      "Ġfranc": 6092,
      "Ġanswered": 6093,
      "Ġdrag": 6094,
      "Ġposts": 6095,
      "Ġcareful": 6096,
      "Ġweekend": 6097,
      "Ġsounds": 6098,
      "Ġscheduled": 6099,
      "Ġdedic": 6100,
      "link": 6101,
      "sm": 6102,
      "Ġthresh": 6103,
      "Ġmes": 6104,
      "Ġfont": 6105,
      "Ġbreat": 6106,
      "Ġlod": 6107,
      "Ġgucht": 6108,
      "Ġvary": 6109,
      "Ġstano": 6110,
      "Ġstream": 6111,
      "Ġproof": 6112,
      "Ġresist": 6113,
      "reevy": 6114,
      "Ġlobby": 6115,
      "Ġ62": 6116,
      "Ġfranco": 6117,
      "Ġrestruct": 6118,
      "Ġcapt": 6119,
      "Ġdrivers": 6120,
      "unicip": 6121,
      "Ġpedro": 6122,
      "Ġmunich": 6123,
      "Ġmontenegro": 6124,
      "Ġafternoon": 6125,
      "Ġthreshold": 6126,
      "band": 6127,
      "nl": 6128,
      "nik": 6129,
      "Ġtan": 6130,
      "inations": 6131,
      "Ġwi": 6132,
      "Ġtodd": 6133,
      "asse": 6134,
      "Ġreven": 6135,
      "Ġrul": 6136,
      "Ġliby": 6137,
      "Ġabol": 6138,
      "Ġdiversity": 6139,
      "Ġmarine": 6140,
      "Ġrelation": 6141,
      "ucing": 6142,
      "Ġentrance": 6143,
      "Ġscr": 6144,
      "Ġcompetitive": 6145,
      "Ġorganic": 6146,
      "Ġdeserves": 6147,
      "Ġmerely": 6148,
      "Ġprimary": 6149,
      "Ġfix": 6150,
      "Ġbio": 6151,
      "Ġgap": 6152,
      "utor": 6153,
      "Ġliik": 6154,
      "Ġlovely": 6155,
      "Ġroll": 6156,
      "Ġspoken": 6157,
      "Ġworksh": 6158,
      "anges": 6159,
      "Ġswed": 6160,
      "Ġaccessed": 6161,
      "Ġmetal": 6162,
      "Ġindex": 6163,
      "Ġdriver": 6164,
      "Ġfighting": 6165,
      "Ġmachines": 6166,
      "Ġwesteren": 6167,
      "Ġleadership": 6168,
      "Ġpenalty": 6169,
      "how": 6170,
      "Ġou": 6171,
      "ĠfÃ¼r": 6172,
      "ales": 6173,
      "Ġstef": 6174,
      "Ġken": 6175,
      "appe": 6176,
      "Ġmann": 6177,
      "lavia": 6178,
      "Ġ63": 6179,
      "aving": 6180,
      "Ġimpress": 6181,
      "Ġcontributions": 6182,
      "Ġbike": 6183,
      "Ġquota": 6184,
      "Ġdeadlines": 6185,
      "Ġsurprise": 6186,
      "nam": 6187,
      "Ġtib": 6188,
      "Ġcf": 6189,
      "Ġmunicip": 6190,
      "Ġbom": 6191,
      "Ġdar": 6192,
      "rote": 6193,
      "asc": 6194,
      "Ġliter": 6195,
      "stan": 6196,
      "Ġrelating": 6197,
      "Ġimplic": 6198,
      "Ġparliamentary": 6199,
      "Ġtextiles": 6200,
      "Ġwordpress": 6201,
      "Ġlabor": 6202,
      "Ġresponsibilities": 6203,
      "Ġbrian": 6204,
      "Ġvolunt": 6205,
      "Ġclassic": 6206,
      "Ġcomplain": 6207,
      "Ġecho": 6208,
      "building": 6209,
      "eff": 6210,
      "inos": 6211,
      "Ġisol": 6212,
      "ctic": 6213,
      "Ġvers": 6214,
      "Ġalp": 6215,
      "aminister": 6216,
      "Ġgrass": 6217,
      "Ġvisible": 6218,
      "Ġbarbar": 6219,
      "Ġterritor": 6220,
      "Ġlands": 6221,
      "gaard": 6222,
      "Ġillust": 6223,
      "Ġdetermin": 6224,
      "Ġdeserve": 6225,
      "ĠgÃ¼nther": 6226,
      "Ġsavings": 6227,
      "Ġgenuine": 6228,
      "water": 6229,
      "ych": 6230,
      "Ġpip": 6231,
      "Ġfashion": 6232,
      "ĠhÃ¼b": 6233,
      "Ġhamb": 6234,
      "Ġtransfers": 6235,
      "Ġsolar": 6236,
      "Ġprocesses": 6237,
      "Ġvisits": 6238,
      "Ġtrial": 6239,
      "Ġblood": 6240,
      "Ġstronger": 6241,
      "Ġfeeling": 6242,
      "Ġ....": 6243,
      "Ġassociated": 6244,
      "Ġloss": 6245,
      "Ġfeedback": 6246,
      "Ġdispute": 6247,
      "Ġthousand": 6248,
      "Ġmccreevy": 6249,
      "Ġcircumst": 6250,
      "Ġcad": 6251,
      "Ġcongo": 6252,
      "rif": 6253,
      "Ġcha": 6254,
      "Ġcancer": 6255,
      "Ġmonti": 6256,
      "Ġlatter": 6257,
      "Ġconfident": 6258,
      "Ġgreatest": 6259,
      "Ġwoman": 6260,
      "Ġiron": 6261,
      "Ġhesitate": 6262,
      "Ġcotton": 6263,
      "Ġentrepreneurship": 6264,
      "ĠhÃ¼bner": 6265,
      "hof": 6266,
      "lan": 6267,
      "Ġ),": 6268,
      "Ġthor": 6269,
      "Ġsail": 6270,
      "Ġsara": 6271,
      "Ġbot": 6272,
      "Ġlord": 6273,
      "Ġverified": 6274,
      "Ġregards": 6275,
      "Ġexpression": 6276,
      "Ġedu": 6277,
      "Ġera": 6278,
      "Ġgeograph": 6279,
      "Ġchristmas": 6280,
      "Ġdiscussing": 6281,
      "Ġunfair": 6282,
      "Ġsafeguard": 6283,
      "Ġliikanen": 6284,
      "uz": 6285,
      "Ġpia": 6286,
      "Ġbran": 6287,
      "elia": 6288,
      "Ġiphone": 6289,
      "Ġonto": 6290,
      "Ġdeals": 6291,
      "adem": 6292,
      "Ġnovak": 6293,
      "Ġcoal": 6294,
      "Ġtrail": 6295,
      "place": 6296,
      "Ġobst": 6297,
      "Ġedps": 6298,
      "Ġscan": 6299,
      "Ġhelps": 6300,
      "Ġdidnt": 6301,
      "Ġadvanced": 6302,
      "Ġcharlie": 6303,
      "while": 6304,
      "Ġirina": 6305,
      "Ġsilver": 6306,
      "Ġclaim": 6307,
      "Ġtechnological": 6308,
      "Ġexperts": 6309,
      "continuation": 6310,
      "Ġintellect": 6311,
      "Ġcult": 6312,
      "Ġom": 6313,
      "Ġisnt": 6314,
      "Ġvlad": 6315,
      "idden": 6316,
      "izing": 6317,
      "Ġ94": 6318,
      "Ġdesired": 6319,
      "Ġunderstood": 6320,
      "Ġvalu": 6321,
      "Ġextract": 6322,
      "Ġspecifically": 6323,
      "Ġtypical": 6324,
      "Ġlarger": 6325,
      "Ġannounced": 6326,
      "Ġandreas": 6327,
      "Ġshares": 6328,
      "Ġobserved": 6329,
      "Ġobligations": 6330,
      "Ġnumerous": 6331,
      "Ġadvocate": 6332,
      "__": 6333,
      "pap": 6334,
      "spe": 6335,
      "Ġaus": 6336,
      "inter": 6337,
      "Ġmother": 6338,
      "ala": 6339,
      "Ġeb": 6340,
      "Ġrehn": 6341,
      "Ġforces": 6342,
      "Ġgh": 6343,
      "ulf": 6344,
      "Ġjul": 6345,
      "Ġloan": 6346,
      "Ġheat": 6347,
      "Ġcoh": 6348,
      "Ġrelatively": 6349,
      "Ġrepresentation": 6350,
      "Ġthemes": 6351,
      "Ġobtain": 6352,
      "Ġmainten": 6353,
      "Ġzero": 6354,
      "Ġtried": 6355,
      "Ġstructures": 6356,
      "Ġidentified": 6357,
      "Ġclarification": 6358,
      "Ġbatter": 6359,
      "Ġdiplom": 6360,
      ")?": 6361,
      "ole": 6362,
      "Ġtam": 6363,
      "Ġtrem": 6364,
      "Ġwont": 6365,
      "Ġfaster": 6366,
      "Ġdram": 6367,
      "ste": 6368,
      "Ġjer": 6369,
      "Ġjose": 6370,
      "Ġleaves": 6371,
      "Ġadequ": 6372,
      "laughter": 6373,
      "Ġ72": 6374,
      "Ġconsensus": 6375,
      "Ġprison": 6376,
      "Ġindones": 6377,
      "Ġsubmit": 6378,
      "Ġ1990": 6379,
      "Ġlists": 6380,
      "Ġoperate": 6381,
      "Ġ229": 6382,
      "Ġstein": 6383,
      "Ġnearby": 6384,
      "Ġfilled": 6385,
      "Ġsensitive": 6386,
      "Ġlayer": 6387,
      "Ġkinds": 6388,
      "410": 6389,
      "Ġmit": 6390,
      "Ġloun": 6391,
      "Ġplaza": 6392,
      "Ġpoly": 6393,
      "Ġcreates": 6394,
      "Ġports": 6395,
      "Ġcertific": 6396,
      "owski": 6397,
      "Ġturning": 6398,
      "Ġexpectations": 6399,
      "Ġreturned": 6400,
      "2012": 6401,
      "Ġharm": 6402,
      "iliar": 6403,
      "Ġclaims": 6404,
      "Ġrestrictions": 6405,
      "Ġrichard": 6406,
      "Ġpascal": 6407,
      "Ġflights": 6408,
      "Ġscandal": 6409,
      "Ġforgotten": 6410,
      "Ġdescribed": 6411,
      "uck": 6412,
      "vest": 6413,
      "Ġpg": 6414,
      "Ġmouse": 6415,
      "Ġdir": 6416,
      "Ġvb": 6417,
      "Ġstard": 6418,
      "Ġstabil": 6419,
      "Ġdecre": 6420,
      "rie": 6421,
      "Ġclock": 6422,
      "Ġargent": 6423,
      "Ġsomewhat": 6424,
      "Ġlooked": 6425,
      "Ġcolors": 6426,
      "Ġauth": 6427,
      "Ġsurf": 6428,
      "Ġpurs": 6429,
      "Ġexplained": 6430,
      "Ġshape": 6431,
      "ĠgÃ¼nter": 6432,
      "Ġyugoslavia": 6433,
      "Ġintellectual": 6434,
      "hel": 6435,
      "hne": 6436,
      "know": 6437,
      "Ġpoul": 6438,
      "Ġdor": 6439,
      "Ġdish": 6440,
      "Ġhell": 6441,
      "icians": 6442,
      "Ġsem": 6443,
      "Ġdogs": 6444,
      "Ġshock": 6445,
      "ardo": 6446,
      "Ġrobert": 6447,
      "abbott": 6448,
      "rics": 6449,
      "comp": 6450,
      "Ġsincere": 6451,
      "Ġfloors": 6452,
      "Ġorganization": 6453,
      "Ġapplicable": 6454,
      "dennis": 6455,
      "Ġmulti": 6456,
      "Ġdeclarations": 6457,
      "Ġmagn": 6458,
      "Ġolli": 6459,
      "Ġutc": 6460,
      "Ġstrategies": 6461,
      "Ġtabled": 6462,
      "Ġgolden": 6463,
      "Ġyesterdays": 6464,
      "Ġpuerto": 6465,
      "Ġmosc": 6466,
      "Ġpierre": 6467,
      "germany": 6468,
      "Ġbeauty": 6469,
      "Ġinhabit": 6470,
      "Ġlibya": 6471,
      "Ġcircumstances": 6472,
      "Ġnovakova": 6473,
      "dennisabbott": 6474,
      "bur": 6475,
      "ooth": 6476,
      "point": 6477,
      "Ġbound": 6478,
      "ional": 6479,
      "Ġhat": 6480,
      "Ġnar": 6481,
      "oster": 6482,
      "Ġdear": 6483,
      "Ġunanim": 6484,
      "Ġlogin": 6485,
      "agg": 6486,
      "Ġdiss": 6487,
      "Ġpred": 6488,
      "Ġembar": 6489,
      "Ġavailability": 6490,
      "Ġanyway": 6491,
      "Ġraw": 6492,
      "Ġ120": 6493,
      "Ġimpression": 6494,
      "Ġinterim": 6495,
      "Ġzur": 6496,
      "Ġobjects": 6497,
      "Ġcamps": 6498,
      "Ġexciting": 6499,
      "Ġhimself": 6500,
      "Ġambassador": 6501,
      "Ġsharrock": 6502,
      "Ġrubber": 6503,
      "Ġhorizont": 6504,
      "Ġcuba": 6505,
      "Ġrestructuring": 6506,
      "Ġobstac": 6507,
      "300": 6508,
      "bi": 6509,
      "bes": 6510,
      "dr": 6511,
      "gn": 6512,
      "irect": 6513,
      "rit": 6514,
      "Ġbought": 6515,
      "ela": 6516,
      "Ġwilling": 6517,
      "Ġusd": 6518,
      "Ġalliance": 6519,
      "aken": 6520,
      "ellig": 6521,
      "Ġroot": 6522,
      "Ġpermitted": 6523,
      "Ġjustified": 6524,
      "minute": 6525,
      "Ġproposing": 6526,
      "Ġvisited": 6527,
      "Ġvisiting": 6528,
      "Ġsurface": 6529,
      "uffs": 6530,
      "Ġcorrected": 6531,
      "Ġappointed": 6532,
      "Ġdrinks": 6533,
      "Ġfolder": 6534,
      "Ġmaintenance": 6535,
      "*)": 6536,
      "dro": 6537,
      "kas": 6538,
      "Ġcig": 6539,
      "eline": 6540,
      "Ġkids": 6541,
      "Ġdisappe": 6542,
      "Ġgeneration": 6543,
      "Ġ98": 6544,
      "Ġinterview": 6545,
      "iking": 6546,
      "Ġcrist": 6547,
      "Ġfratt": 6548,
      "Ġgreet": 6549,
      "Ġconclude": 6550,
      "Ġprague": 6551,
      "Ġvincent": 6552,
      "Ġbedrooms": 6553,
      "Ġtree": 6554,
      "Ġwil": 6555,
      "anmar": 6556,
      "Ġbak": 6557,
      "Ġgun": 6558,
      "Ġspent": 6559,
      "Ġattitude": 6560,
      "Ġelim": 6561,
      "Ġadventure": 6562,
      "Ġtaxi": 6563,
      "Ġpromise": 6564,
      "Ġwinning": 6565,
      "Ġtreated": 6566,
      "Ġconfirmed": 6567,
      "Ġtrends": 6568,
      "Ġhouses": 6569,
      "Ġinstructions": 6570,
      "Ġvoluntary": 6571,
      "Ġeea": 6572,
      "Ġproved": 6573,
      "quin": 6574,
      "Ġorient": 6575,
      "ague": 6576,
      "law": 6577,
      "Ġ82": 6578,
      "Ġacqu": 6579,
      "Ġincred": 6580,
      "Ġequally": 6581,
      "annis": 6582,
      "Ġguarantees": 6583,
      "Ġcolours": 6584,
      "Ġabstained": 6585,
      "Ġpalestin": 6586,
      "Ġbyrne": 6587,
      "Ġhamburg": 6588,
      "france": 6589,
      "pgi": 6590,
      "Ġmur": 6591,
      "Ġfuel": 6592,
      "Ġhug": 6593,
      "Ġvit": 6594,
      "Ġjes": 6595,
      "Ġdoors": 6596,
      "Ġcancell": 6597,
      "Ġfines": 6598,
      "Ġmeg": 6599,
      "cond": 6600,
      "Ġseek": 6601,
      "Ġpharm": 6602,
      "Ġattempt": 6603,
      "Ġcalling": 6604,
      "Ġtalks": 6605,
      "Ġrequirement": 6606,
      "Ġjudge": 6607,
      "Ġdifficulties": 6608,
      "Ġdocumentation": 6609,
      "Ġmagaz": 6610,
      "Ġobservation": 6611,
      "Ġsanta": 6612,
      "Ġinfluence": 6613,
      "Ġdelete": 6614,
      "Ġtunisia": 6615,
      "Ġstardoll": 6616,
      "cic": 6617,
      "iot": 6618,
      "Ġcable": 6619,
      "Ġmc": 6620,
      "Ġein": 6621,
      "Ġchi": 6622,
      "Ġshame": 6623,
      "Ġkon": 6624,
      "Ġride": 6625,
      "Ġamelia": 6626,
      "Ġ700": 6627,
      "Ġinterface": 6628,
      "Ġcarbon": 6629,
      "Ġwarrant": 6630,
      "Ġenjoyed": 6631,
      "Ġabsurd": 6632,
      "Ġgreek": 6633,
      "Ġdirectorate": 6634,
      "Ġpensions": 6635,
      "Ġfurniture": 6636,
      "Ġmiguel": 6637,
      "Ġtackle": 6638,
      "Ġdegree": 6639,
      "Ġamazing": 6640,
      "fra": 6641,
      "sl": 6642,
      "wes": 6643,
      "zes": 6644,
      "Ġcul": 6645,
      "Ġpir": 6646,
      "Ġeve": 6647,
      "Ġstone": 6648,
      "ulled": 6649,
      "Ġado": 6650,
      "eller": 6651,
      "ovis": 6652,
      "Ġserves": 6653,
      "Ġexplo": 6654,
      "Ġplanet": 6655,
      "Ġretail": 6656,
      "Ġcleaning": 6657,
      "Ġshops": 6658,
      "Ġreaction": 6659,
      "Ġalexander": 6660,
      "Ġproperly": 6661,
      "Ġbernard": 6662,
      "Ġthousands": 6663,
      "Ġchannel": 6664,
      "Ġparents": 6665,
      "Ġvaluable": 6666,
      "gress": 6667,
      "hand": 6668,
      "oni": 6669,
      "Ġci": 6670,
      "orse": 6671,
      "rov": 6672,
      "oli": 6673,
      "Ġeuropa": 6674,
      "Ġsemin": 6675,
      "Ġkong": 6676,
      "Ġtag": 6677,
      "Ġimf": 6678,
      "Ġdismiss": 6679,
      "ittings": 6680,
      "Ġinvitation": 6681,
      "Ġdetect": 6682,
      "Ġextend": 6683,
      "Ġexamine": 6684,
      "Ġeligible": 6685,
      "Ġtreaties": 6686,
      "Ġinsert": 6687,
      "Ã¤r": 6688,
      "Ġglobalisation": 6689,
      "Ġcodec": 6690,
      "Ġcitizen": 6691,
      "sson": 6692,
      "Ġobservations": 6693,
      "Ġdelegations": 6694,
      "Ġschemes": 6695,
      "Ġmedicine": 6696,
      "Ġcompensation": 6697,
      "Ġinhabitants": 6698,
      "fri": 6699,
      "making": 6700,
      "yle": 6701,
      "Ġack": 6702,
      "Ġcinem": 6703,
      "Ġfelt": 6704,
      "Ġhem": 6705,
      "omio": 6706,
      "Ġalf": 6707,
      "Ġseats": 6708,
      "Ġkern": 6709,
      "acks": 6710,
      "Ġcoin": 6711,
      "Ġrig": 6712,
      "Ġ1991": 6713,
      "Ġsomalia": 6714,
      "Ġerrors": 6715,
      "Ġurmas": 6716,
      "Ġfamiliar": 6717,
      "Ġtradem": 6718,
      "rosoft": 6719,
      "Ġsensible": 6720,
      "Ġmicrosoft": 6721,
      "Ġexpressed": 6722,
      "Ġcollege": 6723,
      "Ġsplit": 6724,
      "pi": 6725,
      "inst": 6726,
      "Ġpy": 6727,
      "Ġbog": 6728,
      "Ġbilateral": 6729,
      "Ġtow": 6730,
      "Ġgri": 6731,
      "Ġgmos": 6732,
      "Ġvel": 6733,
      "pez": 6734,
      "Ġproportion": 6735,
      "Ġalc": 6736,
      "Ġexceed": 6737,
      "Ġkl": 6738,
      "connect": 6739,
      "phan": 6740,
      "102": 6741,
      "Ġdefe": 6742,
      "Ġintellig": 6743,
      "roslav": 6744,
      "Ġupper": 6745,
      "Ġdistrict": 6746,
      "Ġaddresses": 6747,
      "Ġpaet": 6748,
      "Ġturk": 6749,
      "Ġsupposed": 6750,
      "Ġsafer": 6751,
      "iciary": 6752,
      "Ġpanor": 6753,
      "Ġlicens": 6754,
      "Ġmisunder": 6755,
      "Ġprepare": 6756,
      "Ġrecorded": 6757,
      "Ġdeadline": 6758,
      "Ġclarify": 6759,
      "Ġliked": 6760,
      "Ġtuomio": 6761,
      "Ġstopped": 6762,
      "Ġsuspended": 6763,
      "Ġpercentage": 6764,
      "Ġhenri": 6765,
      "Ġhorizontal": 6766,
      "hi": 6767,
      "nio": 6768,
      "xx": 6769,
      "isine": 6770,
      "Ġmb": 6771,
      "Ġbinding": 6772,
      "Ġhus": 6773,
      "Ġiso": 6774,
      "Ġanders": 6775,
      "Ġgender": 6776,
      "Ġpresence": 6777,
      "Ġmargot": 6778,
      "Ġspam": 6779,
      "Ġ54": 6780,
      "Ġoutstanding": 6781,
      "anged": 6782,
      "Ġcentres": 6783,
      "cretary": 6784,
      "Ġjoy": 6785,
      "Ġdemo": 6786,
      "Ġcomplement": 6787,
      "Ġowners": 6788,
      "Ġromano": 6789,
      "Ġrevised": 6790,
      "Ġbudgets": 6791,
      "Ġbench": 6792,
      "Ġmaja": 6793,
      "urious": 6794,
      "Ġadjustment": 6795,
      "Ġfortunately": 6796,
      "Ġprospects": 6797,
      "Ġjohannes": 6798,
      "Ġdedicated": 6799,
      "Ġimplications": 6800,
      "101": 6801,
      "federal": 6802,
      "Ġts": 6803,
      "Ġsar": 6804,
      "Ġsizes": 6805,
      "Ġwit": 6806,
      "Ġbicy": 6807,
      "Ġive": 6808,
      "Ġvista": 6809,
      "acher": 6810,
      "Ġexpos": 6811,
      "Ġunto": 6812,
      "Ġends": 6813,
      "reness": 6814,
      "Ġ91": 6815,
      "Ġ1989": 6816,
      "Ġsheep": 6817,
      "Ġholds": 6818,
      "Ġcorrectly": 6819,
      "Ġmagic": 6820,
      "Ġmechanisms": 6821,
      "Ġcamping": 6822,
      "Ġtables": 6823,
      "Ġjava": 6824,
      "Ġqualifications": 6825,
      "Ġconfigur": 6826,
      "Ġawareness": 6827,
      "Ġcomponent": 6828,
      "Ġcereals": 6829,
      "Ġhorny": 6830,
      "Ġindonesia": 6831,
      "bed": 6832,
      "mine": 6833,
      "onic": 6834,
      "Ġther": 6835,
      "Ġmp": 6836,
      "Ġio": 6837,
      "quer": 6838,
      "Ġroger": 6839,
      "Ġpresidents": 6840,
      "Ġtransform": 6841,
      "Ġpreced": 6842,
      "Ġzu": 6843,
      "Ġendorse": 6844,
      "Ġviet": 6845,
      "Ġbroken": 6846,
      "Ġbeaches": 6847,
      "Ġidentity": 6848,
      "Ġholding": 6849,
      "Ġkrist": 6850,
      "Ġparadise": 6851,
      "Ġslightly": 6852,
      "Ġtransposition": 6853,
      "Ġvulner": 6854,
      "Ġbarbara": 6855,
      "list": 6856,
      "any": 6857,
      "itory": 6858,
      "Ġoly": 6859,
      "Ġinput": 6860,
      "Ġbeef": 6861,
      "etically": 6862,
      "stuffs": 6863,
      "opol": 6864,
      "Ġplain": 6865,
      "Ġaccur": 6866,
      "Ġoutlook": 6867,
      "Ġaircraft": 6868,
      "Ġfaq": 6869,
      "Ġpostal": 6870,
      "Ġconsulting": 6871,
      "Ġreinfor": 6872,
      "Ġconsistent": 6873,
      "Ġfurnished": 6874,
      "Ġcuisine": 6875,
      "Ġsweet": 6876,
      "known": 6877,
      "Ġolymp": 6878,
      "gers": 6879,
      "ju": 6880,
      "mel": 6881,
      "tar": 6882,
      "isy": 6883,
      "Ġsie": 6884,
      "edia": 6885,
      "Ġniger": 6886,
      "Ġanonym": 6887,
      "Ġoffices": 6888,
      "Ġemu": 6889,
      "Ġletters": 6890,
      "Ġfores": 6891,
      "Ġcorazza": 6892,
      "Ġrecords": 6893,
      "Ġputin": 6894,
      "Ġprosper": 6895,
      "Ġvacc": 6896,
      "Ġgirls": 6897,
      "Ġdelighted": 6898,
      "Ġswedish": 6899,
      "ovisual": 6900,
      "ao": 6901,
      "gic": 6902,
      "si": 6903,
      "yst": 6904,
      "yard": 6905,
      "Ġpod": 6906,
      "Ġrecycl": 6907,
      "Ġlit": 6908,
      "Ġjur": 6909,
      "Ġsuit": 6910,
      "Ġunits": 6911,
      "Ġcoins": 6912,
      "Ġtea": 6913,
      "ussia": 6914,
      "Ġ68": 6915,
      "Ġgene": 6916,
      "Ġconsolid": 6917,
      "ovi": 6918,
      "Ġphen": 6919,
      "Ġedit": 6920,
      "Ġcarri": 6921,
      "Ġended": 6922,
      "Ġreader": 6923,
      "tenstein": 6924,
      "Ġurge": 6925,
      "Ġdistin": 6926,
      "Ġlinked": 6927,
      "Ġincreases": 6928,
      "Ġ!!": 6929,
      "Ġchecks": 6930,
      "Ġdrawn": 6931,
      "Ġindependence": 6932,
      "Ġcookies": 6933,
      "Ġreconstruct": 6934,
      "Ġforthcoming": 6935,
      "Ġchancell": 6936,
      ".,": 6937,
      "aw": 6938,
      "aff": 6939,
      "cr": 6940,
      "dri": 6941,
      "map": 6942,
      "part": 6943,
      "Ġmall": 6944,
      "Ġreve": 6945,
      "Ġry": 6946,
      "Ġliech": 6947,
      "Ġpositions": 6948,
      "Ġtray": 6949,
      "Ġbush": 6950,
      "Ġsmaller": 6951,
      "Ġequival": 6952,
      "Ġresponses": 6953,
      "Ġdownloaded": 6954,
      "Ġcitizenship": 6955,
      "Ġpalac": 6956,
      "Ġcorrection": 6957,
      "Ġperiods": 6958,
      "!!!": 6959,
      "Ġmistakes": 6960,
      "Ġcreature": 6961,
      "Ġmassage": 6962,
      "Ġfootball": 6963,
      "Ġfischer": 6964,
      "Ġengineering": 6965,
      "Ġdublin": 6966,
      "Ġparameter": 6967,
      "Ġadults": 6968,
      "Ġconfigurations": 6969,
      "Ġliechtenstein": 6970,
      "arest": 6971,
      "furt": 6972,
      "lor": 6973,
      "Ġthrow": 6974,
      "Ġpig": 6975,
      "Ġbj": 6976,
      "Ġdance": 6977,
      "Ġdrop": 6978,
      "alis": 6979,
      "Ġvig": 6980,
      "Ġstim": 6981,
      "Ġconciliation": 6982,
      "Ġtransit": 6983,
      "Ġdeskt": 6984,
      "Ġentit": 6985,
      "Ġdefine": 6986,
      "Ġblame": 6987,
      "Ġfilter": 6988,
      "Ġbroch": 6989,
      "Ġbrown": 6990,
      "Ġsubstance": 6991,
      "Ġdollpage": 6992,
      "Ġslowly": 6993,
      "Ġconstantly": 6994,
      "Ġpilot": 6995,
      "Ġtreasury": 6996,
      "Ġconvinced": 6997,
      "Ġmysql": 6998,
      "Ġlounge": 6999,
      "kes": 7000,
      "Ġale": 7001,
      "Ġincent": 7002,
      "Ġvic": 7003,
      "illance": 7004,
      "chi": 7005,
      "Ġcommod": 7006,
      "Ġpreser": 7007,
      "istical": 7008,
      "Ġprelim": 7009,
      "Ġconservation": 7010,
      "ordan": 7011,
      "Ġremov": 7012,
      "Ġowner": 7013,
      "Ġspecified": 7014,
      "Ġprivat": 7015,
      "Ġcontracts": 7016,
      "Ġdreams": 7017,
      "Ġsurveillance": 7018,
      "Ġcorrespond": 7019,
      "Ġaustralia": 7020,
      "tp": 7021,
      "Ġtend": 7022,
      "Ġsme": 7023,
      "Ġpac": 7024,
      "orah": 7025,
      "Ġbild": 7026,
      "Ġbiod": 7027,
      "Ġhong": 7028,
      "Ġvil": 7029,
      "Ġcommend": 7030,
      "Ġhahn": 7031,
      "Ġkyp": 7032,
      "Ġmarg": 7033,
      "elsen": 7034,
      "Ġsap": 7035,
      "Ġmodules": 7036,
      "Ġextreme": 7037,
      "Ġcourts": 7038,
      "geria": 7039,
      "Ġhandle": 7040,
      "Ġcareer": 7041,
      "Ġdomin": 7042,
      "Ġinvolves": 7043,
      "Ġachievement": 7044,
      "1998": 7045,
      "Ġforests": 7046,
      "Ġfacebook": 7047,
      "Ġsample": 7048,
      "Ġsuggestion": 7049,
      "Ġenhanced": 7050,
      "Ġegf": 7051,
      "Ġliberalisation": 7052,
      "Ġacquisition": 7053,
      "Ġdynamic": 7054,
      "Ġrenovated": 7055,
      "Ġaudiovisual": 7056,
      "Ġprejudge": 7057,
      "bod": 7058,
      "ppe": 7059,
      "rey": 7060,
      "Ġdup": 7061,
      "Ġlakes": 7062,
      "adop": 7063,
      "secretary": 7064,
      "aine": 7065,
      "Ġray": 7066,
      "Ġleather": 7067,
      "Ġtai": 7068,
      "Ġdeborah": 7069,
      "Ġcoach": 7070,
      "Ġapost": 7071,
      "Ġmaintained": 7072,
      "Ġwelcoming": 7073,
      "Ġprofit": 7074,
      "Ġsubsidies": 7075,
      "Ġordered": 7076,
      "Ġexceptional": 7077,
      "Ġkilled": 7078,
      "Ġnamed": 7079,
      "approx": 7080,
      "Ġacknow": 7081,
      ".-": 7082,
      "coun": 7083,
      "nen": 7084,
      "Ġtort": 7085,
      "Ġtenn": 7086,
      "Ġfib": 7087,
      "Ġble": 7088,
      "Ġdj": 7089,
      "accession": 7090,
      "Ġwhate": 7091,
      "Ġchile": 7092,
      "Ġunne": 7093,
      "Ġku": 7094,
      "cijan": 7095,
      "Ġlobs": 7096,
      "ogne": 7097,
      "Ġguy": 7098,
      "Ġbars": 7099,
      "Ġcontrolled": 7100,
      "Ġfaith": 7101,
      "Ġexperienced": 7102,
      "Ġmiles": 7103,
      "Ġsilent": 7104,
      "Ġlogic": 7105,
      "Ġgenerated": 7106,
      "----": 7107,
      "Ġmanufacturing": 7108,
      "Ġattacks": 7109,
      "Ġteaching": 7110,
      "Ġcontinuing": 7111,
      "Ġelegant": 7112,
      "Ġpreliminary": 7113,
      "Ġwhatever": 7114,
      "cijancic": 7115,
      "gang": 7116,
      "iversity": 7117,
      "rants": 7118,
      "ship": 7119,
      "Ġaer": 7120,
      "enza": 7121,
      "Ġbert": 7122,
      "Ġhed": 7123,
      "Ġnap": 7124,
      "otal": 7125,
      "Ġgro": 7126,
      "Ġprove": 7127,
      "Ġmrpresident": 7128,
      "Ġtraged": 7129,
      "Ġoutdo": 7130,
      "Ġmarks": 7131,
      "Ġreliable": 7132,
      "Ġassign": 7133,
      "Ġprotecting": 7134,
      "Ġconsultations": 7135,
      "Ġdeclared": 7136,
      "Ġsustainability": 7137,
      "enez": 7138,
      "Ġstrengthened": 7139,
      "Ġtempl": 7140,
      "Ġcomputers": 7141,
      "Ġmotorway": 7142,
      "Ġincreasingly": 7143,
      "Ġkocijancic": 7144,
      "Ġschedule": 7145,
      "Ġcredibility": 7146,
      "rianou": 7147,
      "Ġkyprianou": 7148,
      "??": 7149,
      "ties": 7150,
      "Ġtip": 7151,
      "ald": 7152,
      "alm": 7153,
      "Ġnine": 7154,
      "omet": 7155,
      "Ġstored": 7156,
      "Ġmario": 7157,
      "Ġdisag": 7158,
      "Ġbooth": 7159,
      "Ġdecent": 7160,
      "Ġentertain": 7161,
      "Ġsimon": 7162,
      "Ġtermin": 7163,
      "kingdom": 7164,
      "Ġwebcam": 7165,
      "Ġivan": 7166,
      "Ġachievements": 7167,
      "Ġmoves": 7168,
      "Ġtrees": 7169,
      "Ġincident": 7170,
      "Ġintroduce": 7171,
      "Ġdutch": 7172,
      "Ġyugoslav": 7173,
      "Ġbridge": 7174,
      "Ġdespite": 7175,
      "Ġadobe": 7176,
      "isen": 7177,
      "Ġcoup": 7178,
      "Ġsis": 7179,
      "Ġspp": 7180,
      "Ġgaza": 7181,
      "uls": 7182,
      "opia": 7183,
      "Ġunable": 7184,
      "Ġminim": 7185,
      "cient": 7186,
      "cious": 7187,
      "Ġreporting": 7188,
      "Ġemp": 7189,
      "Ġparalle": 7190,
      "Ġfeet": 7191,
      "Ġ2016": 7192,
      "Ġinvent": 7193,
      "Ġvisual": 7194,
      "Ġflu": 7195,
      "Ġfloren": 7196,
      "Ġfactory": 7197,
      "Ġmeets": 7198,
      "Ġflood": 7199,
      "Ġshareholders": 7200,
      "Ġmilan": 7201,
      "Ġcommenting": 7202,
      "Ġcalm": 7203,
      "Ġhydro": 7204,
      "Ġnielson": 7205,
      "Ġconfirmation": 7206,
      "Ġfalse": 7207,
      "Ġfrattini": 7208,
      "Ġdesktop": 7209,
      "hus": 7210,
      "Ġthail": 7211,
      "Ġsel": 7212,
      "Ġwines": 7213,
      "Ġpush": 7214,
      "Ġmt": 7215,
      "Ġfans": 7216,
      "Ġnons": 7217,
      "Ġvitor": 7218,
      "unity": 7219,
      "umin": 7220,
      "Ġ81": 7221,
      "Ġissued": 7222,
      "Ġhelene": 7223,
      "Ġsmooth": 7224,
      "Ġremed": 7225,
      "Ġinfect": 7226,
      "Ġhelping": 7227,
      "Ġpoliticians": 7228,
      "hein": 7229,
      "Ġelected": 7230,
      "Ġtested": 7231,
      "Ġremained": 7232,
      "Ġweakness": 7233,
      "Ġhousing": 7234,
      "Ġimagine": 7235,
      "adopted": 7236,
      "Ġunnecess": 7237,
      "Ġtragedy": 7238,
      "fol": 7239,
      "ivers": 7240,
      "ĠÃ¶": 7241,
      "Ġtran": 7242,
      "Ġtight": 7243,
      "Ġcord": 7244,
      "Ġinland": 7245,
      "Ġei": 7246,
      "Ġreverse": 7247,
      "Ġandors": 7248,
      "Ġbeij": 7249,
      "ayer": 7250,
      "ounted": 7251,
      "Ġsebast": 7252,
      "Ġexem": 7253,
      "odor": 7254,
      "akh": 7255,
      "Ġrio": 7256,
      "Ġanywhere": 7257,
      "Ġcounts": 7258,
      "Ġcolumn": 7259,
      "Ġstanding": 7260,
      "Ã¤ki": 7261,
      "Ġheads": 7262,
      "Ġecb": 7263,
      "chez": 7264,
      "Ġextraord": 7265,
      "Ġenhance": 7266,
      "Ġgirl": 7267,
      "Ġbodies": 7268,
      "Ġtemperature": 7269,
      "Ġtennis": 7270,
      "cor": 7271,
      "kov": 7272,
      "lik": 7273,
      "van": 7274,
      "Ġict": 7275,
      "rej": 7276,
      "Ġsd": 7277,
      "Ġfasc": 7278,
      "Ġ()": 7279,
      "Ġkla": 7280,
      "Ġliqu": 7281,
      "Ġadam": 7282,
      "Ġworst": 7283,
      "Ġroof": 7284,
      "Ġsaving": 7285,
      "Ġspending": 7286,
      "Ġreported": 7287,
      "Ġ292": 7288,
      "Ġgenetically": 7289,
      "Ġschre": 7290,
      "Ġlistening": 7291,
      "Ġobjections": 7292,
      "Ġannulled": 7293,
      "anni": 7294,
      "Ġindustries": 7295,
      "Ġbigger": 7296,
      "Ġconcluded": 7297,
      "Ġcombined": 7298,
      "Ġindicator": 7299,
      "Ġicon": 7300,
      "Ġshoes": 7301,
      "Ġcircle": 7302,
      "Ġpassion": 7303,
      "Ġkyoto": 7304,
      "governmental": 7305,
      "Ġcomplaints": 7306,
      "Ġvladim": 7307,
      "Ġcodecision": 7308,
      "Ġkernel": 7309,
      "ket": 7310,
      "real": 7311,
      "ener": 7312,
      "Ġpour": 7313,
      "Ġmaps": 7314,
      "Ġbis": 7315,
      "Ġnation": 7316,
      "using": 7317,
      "otic": 7318,
      "Ġvent": 7319,
      "Ġ110": 7320,
      "uta": 7321,
      "Ġkde": 7322,
      "Ġenable": 7323,
      "Ġspons": 7324,
      "Ġ87": 7325,
      "Ġwellness": 7326,
      "Ġintens": 7327,
      "Ġnato": 7328,
      "Ġeffectiveness": 7329,
      "Ġrising": 7330,
      "ahn": 7331,
      "cription": 7332,
      "Ġinstitution": 7333,
      "Ġremaining": 7334,
      "Ġclause": 7335,
      "Ġopposition": 7336,
      "Ġprinting": 7337,
      "Ġsituations": 7338,
      "aneous": 7339,
      "Ġtuna": 7340,
      "mlaga": 7341,
      "Ġrepeated": 7342,
      "Ġsongs": 7343,
      "Ġhtml": 7344,
      "Ġplugin": 7345,
      "Ġscoreboard": 7346,
      "Ġexcluded": 7347,
      "400": 7348,
      "kil": 7349,
      "nock": 7350,
      "Ġtiron": 7351,
      "Ġsul": 7352,
      "Ġgate": 7353,
      "Ġbeer": 7354,
      "osis": 7355,
      "cha": 7356,
      "ulous": 7357,
      "aming": 7358,
      "Ġchal": 7359,
      "Ġcontrast": 7360,
      "Ġquote": 7361,
      "Ġabroad": 7362,
      "Ġmarco": 7363,
      "Ġheight": 7364,
      "Ġcock": 7365,
      "Ġstrugg": 7366,
      "Ġsym": 7367,
      "Ġdesire": 7368,
      "Ġhello": 7369,
      "Ġspeaks": 7370,
      "Ġexamined": 7371,
      "Ġantnio": 7372,
      "Ġfrits": 7373,
      "Ġreceiving": 7374,
      "otechn": 7375,
      "Ġdanish": 7376,
      "Ġsupervision": 7377,
      "Ġmandelson": 7378,
      "Ġthailand": 7379,
      "Ġtironi": 7380,
      "ni": 7381,
      "nings": 7382,
      "zi": 7383,
      "Ġcens": 7384,
      "Ġpays": 7385,
      "oria": 7386,
      "ani": 7387,
      "italy": 7388,
      "Ġhur": 7389,
      "aling": 7390,
      "Ġgear": 7391,
      "Ġstig": 7392,
      "urb": 7393,
      "Ġchain": 7394,
      "Ġrup": 7395,
      "Ġ57": 7396,
      "Ġtex": 7397,
      "Ġreferen": 7398,
      "Ġlocations": 7399,
      "Ġbooked": 7400,
      "Ġblan": 7401,
      "Ġaustrian": 7402,
      "Ġoperators": 7403,
      "Ġstockholm": 7404,
      "Ġsuffering": 7405,
      "Ġbritain": 7406,
      "Ġemphasise": 7407,
      "Ġtransitional": 7408,
      "Ġchampions": 7409,
      "ais": 7410,
      "gas": 7411,
      "gely": 7412,
      "life": 7413,
      "wood": 7414,
      "oned": 7415,
      "isk": 7416,
      "oral": 7417,
      "Ġmary": 7418,
      "Ġinquiry": 7419,
      "Ġvw": 7420,
      "Ġ(*)": 7421,
      "cht": 7422,
      "Ġhabit": 7423,
      "Ġchart": 7424,
      "Ġchief": 7425,
      "Ġapple": 7426,
      "Ġheating": 7427,
      "Ġtwin": 7428,
      "Ġbelie": 7429,
      "Ġlaure": 7430,
      "Ġdefense": 7431,
      "Ġacadem": 7432,
      "Ġinclusion": 7433,
      "Ġscene": 7434,
      "Ġposselt": 7435,
      "Ġdecisive": 7436,
      "Ġresolve": 7437,
      "Ġcertification": 7438,
      "Ġpets": 7439,
      "Ġsalz": 7440,
      "Ġsanter": 7441,
      "Ġmacke": 7442,
      "Ġbathrooms": 7443,
      "Ġalexandre": 7444,
      "Ġkinnock": 7445,
      "Ġsatisfaction": 7446,
      "Ġlandscape": 7447,
      "Ġschreyer": 7448,
      "een": 7449,
      "Ġces": 7450,
      "Ġcath": 7451,
      "Ġsittings": 7452,
      "Ġfoster": 7453,
      "Ġhet": 7454,
      "ulate": 7455,
      "igu": 7456,
      "Ġpresents": 7457,
      "Ġcommissioners": 7458,
      "Ġusb": 7459,
      "Ġsoil": 7460,
      "Ġprogramming": 7461,
      "Ġsolved": 7462,
      "Ġmostly": 7463,
      "Ġextensive": 7464,
      "Ġlegit": 7465,
      "Ġwars": 7466,
      "Ġchris": 7467,
      "Ġsessions": 7468,
      "Ġprinted": 7469,
      "Ġminority": 7470,
      "Ġhyper": 7471,
      "Ġbegun": 7472,
      "Ġwireless": 7473,
      "Ġargentina": 7474,
      "Ġmagazine": 7475,
      "Ġvietnam": 7476,
      "Ġphenomen": 7477,
      "cp": 7478,
      "culation": 7479,
      "lt": 7480,
      "Ġdign": 7481,
      "Ġhill": 7482,
      "Ġgb": 7483,
      "Ġalg": 7484,
      "ours": 7485,
      "Ġdoha": 7486,
      "Ġclin": 7487,
      "sole": 7488,
      "cles": 7489,
      "ifies": 7490,
      "Ġacceding": 7491,
      "Ġartist": 7492,
      "Ġcamer": 7493,
      "Ġmobil": 7494,
      "Ġpatient": 7495,
      "Ġroads": 7496,
      "Ġessence": 7497,
      "Ġcrops": 7498,
      "Ġdamages": 7499,
      "Ġrecognise": 7500,
      "Ġconversion": 7501,
      "Ġaffects": 7502,
      "Ġevalu": 7503,
      "Ġdeeply": 7504,
      "related": 7505,
      "Ġvenice": 7506,
      "Ġjuncker": 7507,
      "Ġharmonisation": 7508,
      "Ġdiamant": 7509,
      "Ġhypocr": 7510,
      "Ġcomparison": 7511,
      "rated": 7512,
      "russia": 7513,
      "}:": 7514,
      "Ġsz": 7515,
      "Ġpix": 7516,
      "alities": 7517,
      "Ġtower": 7518,
      "Ġancient": 7519,
      "Ġreward": 7520,
      "Ġhaz": 7521,
      "stal": 7522,
      "oda": 7523,
      "Ġmine": 7524,
      "Ġrou": 7525,
      "rome": 7526,
      "Ġcloth": 7527,
      "Ġtwenty": 7528,
      "Ġ78": 7529,
      "Ġgreatly": 7530,
      "ecd": 7531,
      "Ġputting": 7532,
      "Ġcharged": 7533,
      "Ġfaces": 7534,
      "Ġstatistical": 7535,
      "Ġelsewhere": 7536,
      "Ġexclus": 7537,
      "Ġspeeches": 7538,
      "Ġcycle": 7539,
      "Ġprecise": 7540,
      "Ġhighlights": 7541,
      "Ġawait": 7542,
      "Ġdubois": 7543,
      "Ġccile": 7544,
      "Ġfitness": 7545,
      "Ġfellow": 7546,
      "Ġadequate": 7547,
      "Ġmoscow": 7548,
      "Ġobstacles": 7549,
      "friend": 7550,
      "Ġreconstruction": 7551,
      "Ġdisagree": 7552,
      "ament": 7553,
      "case": 7554,
      "vin": 7555,
      "Ġtough": 7556,
      "Ġhang": 7557,
      "Ġnu": 7558,
      "Ġrect": 7559,
      "Ġvenez": 7560,
      "emann": 7561,
      "Ġlived": 7562,
      "endo": 7563,
      "Ġresident": 7564,
      "ubb": 7565,
      "Ġloved": 7566,
      "Ġarray": 7567,
      "Ġannexes": 7568,
      "Ġreferring": 7569,
      "Ġpreparing": 7570,
      "Ġguidance": 7571,
      "Ġphilos": 7572,
      "Ġawarded": 7573,
      "Ġminorities": 7574,
      "Ġfemale": 7575,
      "Ġquarter": 7576,
      "opoulou": 7577,
      "Ġsubstantial": 7578,
      "council": 7579,
      "Ġnonsense": 7580,
      "Ġbeijing": 7581,
      "bc": 7582,
      "bek": 7583,
      "run": 7584,
      "inate": 7585,
      "Ġford": 7586,
      "acle": 7587,
      "Ġalgeria": 7588,
      "ursion": 7589,
      "Ġhaiti": 7590,
      "Ġneut": 7591,
      "Ġkid": 7592,
      "ounds": 7593,
      "Ġmarina": 7594,
      "Ġcompared": 7595,
      "Ġfirms": 7596,
      "Ġpublication": 7597,
      "Ġpaying": 7598,
      "Ġartists": 7599,
      "Ġhero": 7600,
      "Ġcaused": 7601,
      "Ġoperates": 7602,
      "Ġfilms": 7603,
      "Ġfault": 7604,
      "Ġtrips": 7605,
      "Ġexperiences": 7606,
      "Ġshowing": 7607,
      "Ġcombination": 7608,
      "Ġtalked": 7609,
      "Ġfocused": 7610,
      "Ġbroadcast": 7611,
      "Ġautomatic": 7612,
      "Ġwarmly": 7613,
      "Ġsharing": 7614,
      "Ġgiul": 7615,
      "Ġmatching": 7616,
      "Ġdestroyed": 7617,
      "Ġwolfgang": 7618,
      "gel": 7619,
      "las": 7620,
      "Ġtips": 7621,
      "atom": 7622,
      "Ġpom": 7623,
      "orter": 7624,
      "orca": 7625,
      "Ġdal": 7626,
      "Ġinev": 7627,
      "Ġalth": 7628,
      "Ġham": 7629,
      "Ġkit": 7630,
      "cipl": 7631,
      "Ġnovel": 7632,
      "Ġguided": 7633,
      "Ġapolog": 7634,
      "Ġclicking": 7635,
      "Ġforwarded": 7636,
      "Ġoffering": 7637,
      "Ġexcursion": 7638,
      "Ġveter": 7639,
      "Ġharbour": 7640,
      "Ġpreparations": 7641,
      "Ġteams": 7642,
      "Ġachieving": 7643,
      "Ġbuying": 7644,
      "Ġmissed": 7645,
      "Ġofficials": 7646,
      "Ġships": 7647,
      "Ġdiag": 7648,
      "Ġ(%)": 7649,
      "Ġdollar": 7650,
      "Ġscenario": 7651,
      "Ġestimated": 7652,
      "Ġvocational": 7653,
      "Ġequivalent": 7654,
      "kin": 7655,
      "pre": 7656,
      "Ġthir": 7657,
      "Ġsla": 7658,
      "enburg": 7659,
      "Ġdos": 7660,
      "asis": 7661,
      "inger": 7662,
      "Ġiz": 7663,
      "Ġvouch": 7664,
      "ido": 7665,
      "Ġalph": 7666,
      "Ġcancel": 7667,
      "Ġabuse": 7668,
      "Ġservers": 7669,
      "Ġstays": 7670,
      "Ġanymore": 7671,
      "Ġschul": 7672,
      "words": 7673,
      "Ġformats": 7674,
      "roll": 7675,
      "Ġpromises": 7676,
      "Ġtopical": 7677,
      "Ġdesigns": 7678,
      "Ġstatute": 7679,
      "overed": 7680,
      "Ġfrontiers": 7681,
      "adequ": 7682,
      "Ġmandatory": 7683,
      "Ġgrounds": 7684,
      "Ġcommerce": 7685,
      "Ġcollabor": 7686,
      "Ġhorizon": 7687,
      "Ġmller": 7688,
      "Ġburea": 7689,
      "Ġnormally": 7690,
      "utorial": 7691,
      "Ġbiodiversity": 7692,
      "fig": 7693,
      "vb": 7694,
      "Ġern": 7695,
      "Ġsin": 7696,
      "Ġfrans": 7697,
      "Ġinadequ": 7698,
      "Ġhil": 7699,
      "acov": 7700,
      "ading": 7701,
      "Ġadm": 7702,
      "Ġimpl": 7703,
      "Ġmeals": 7704,
      "elli": 7705,
      "ishing": 7706,
      "Ġinstant": 7707,
      "Ġpaypal": 7708,
      "iii": 7709,
      "Ġowned": 7710,
      "Ġreducing": 7711,
      "Ġdistort": 7712,
      "Ġchecked": 7713,
      "Ġenlar": 7714,
      "Ġdecline": 7715,
      "Ġelev": 7716,
      "Ġkarin": 7717,
      "Ġsurprised": 7718,
      "Ġbathing": 7719,
      "Ġpreferences": 7720,
      "Ġfavorite": 7721,
      "Ġcomprises": 7722,
      "Ġimpressive": 7723,
      "Ġentitled": 7724,
      "Ġextraordinary": 7725,
      "Ġalthough": 7726,
      "arent": 7727,
      "count": 7728,
      "ville": 7729,
      "inating": 7730,
      "Ġcer": 7731,
      "Ġmort": 7732,
      "Ġmouth": 7733,
      "Ġbung": 7734,
      "Ġhan": 7735,
      "entially": 7736,
      "Ġlars": 7737,
      "acing": 7738,
      "utsch": 7739,
      "chant": 7740,
      "Ġjn": 7741,
      "Ġjordan": 7742,
      "ads": 7743,
      "essler": 7744,
      "odes": 7745,
      "Ġric": 7746,
      "Ġallah": 7747,
      "Ġleaving": 7748,
      "Ġpolack": 7749,
      "apest": 7750,
      "Ġmyth": 7751,
      "Ġpara": 7752,
      "Ġrightly": 7753,
      "Ġmoder": 7754,
      "Ġobama": 7755,
      "Ġexpan": 7756,
      "Ġeconomics": 7757,
      "Ġprocedural": 7758,
      "Ġplaya": 7759,
      "Ġopera": 7760,
      "Ġoldest": 7761,
      "Ġsupervis": 7762,
      "Ġlargely": 7763,
      "Ġshoot": 7764,
      "Ġthoughts": 7765,
      "Ġdining": 7766,
      "Ġroutes": 7767,
      "Ġfrankfurt": 7768,
      "Ġenhancing": 7769,
      "Ġemphasis": 7770,
      "Ġcompliance": 7771,
      "Ġcontradict": 7772,
      "ĠfÃ¼le": 7773,
      "Ġterritorial": 7774,
      "Ġbildt": 7775,
      "Ġlobster": 7776,
      "aa": 7777,
      "div": 7778,
      "hou": 7779,
      "kan": 7780,
      "Ġtutorial": 7781,
      "encia": 7782,
      "rog": 7783,
      "Ġtoile": 7784,
      "asi": 7785,
      "Ġyang": 7786,
      "Ġknew": 7787,
      "grace": 7788,
      "Ġapparent": 7789,
      "apore": 7790,
      "ensen": 7791,
      "Ġeveryday": 7792,
      "Ġmayor": 7793,
      "Ġbasically": 7794,
      "Ġblind": 7795,
      "Ġxp": 7796,
      "Ġcaf": 7797,
      "Ġescape": 7798,
      "Ġmotiv": 7799,
      "Ġfoodstuffs": 7800,
      "Ġwomens": 7801,
      "Ġmultilateral": 7802,
      "Ġdivision": 7803,
      "Ġobligation": 7804,
      "Ġgarage": 7805,
      "Ġtranslated": 7806,
      "Ġregularly": 7807,
      "Ġethi": 7808,
      "claude": 7809,
      "Ġarchitecture": 7810,
      "Ġstefan": 7811,
      "Ġcigaret": 7812,
      "Ġwitness": 7813,
      "Ġvulnerable": 7814,
      "mont": 7815,
      "oning": 7816,
      "Ġtherap": 7817,
      "Ġdair": 7818,
      "Ġini": 7819,
      "Ġyacht": 7820,
      "Ġvita": 7821,
      "Ġstations": 7822,
      "Ġstrange": 7823,
      "acs": 7824,
      "ulated": 7825,
      "ails": 7826,
      "Ġmeal": 7827,
      "log": 7828,
      "Ġhein": 7829,
      "abri": 7830,
      "Ġmana": 7831,
      "Ġrepair": 7832,
      "cket": 7833,
      "Ġmaystadt": 7834,
      "Ġassets": 7835,
      "Ġproviding": 7836,
      "Ġinvestors": 7837,
      "Ġafterwards": 7838,
      "Ġnorwegian": 7839,
      "Ġrespected": 7840,
      "Ġkeeping": 7841,
      "Ġexistence": 7842,
      "Ġrapporteurs": 7843,
      "Ġderog": 7844,
      "Ġsuffer": 7845,
      "Ġmiroslav": 7846,
      "Ġrelaxing": 7847,
      "Ġcarlos": 7848,
      "vereign": 7849,
      "Ġuncertain": 7850,
      "Ġdimitrij": 7851,
      "Ġgeneva": 7852,
      "Ġunnecessary": 7853,
      "Ġrupel": 7854,
      "Ġphenomenon": 7855,
      "Ġdiamantopoulou": 7856,
      "Ġinadequate": 7857,
      "Ġdairy": 7858,
      "600": 7859,
      "bted": 7860,
      "kar": 7861,
      "mat": 7862,
      "Ġtrop": 7863,
      "Ġtheory": 7864,
      "Ġwise": 7865,
      "Ġhier": 7866,
      "Ġhidden": 7867,
      "aled": 7868,
      "iced": 7869,
      "Ġlady": 7870,
      "vet": 7871,
      "emen": 7872,
      "Ġjak": 7873,
      "Ġdoctor": 7874,
      "Ġwashing": 7875,
      "Ġresid": 7876,
      "aceut": 7877,
      "Ġsauna": 7878,
      "eputy": 7879,
      "Ġcologne": 7880,
      "Ġimper": 7881,
      "Ġdefend": 7882,
      "uese": 7883,
      "Ġremote": 7884,
      "Ġrecru": 7885,
      "Ġformula": 7886,
      "Ġurl": 7887,
      "Ġengland": 7888,
      "Ġbehavi": 7889,
      "Ġmoments": 7890,
      "ija": 7891,
      "Ġwalls": 7892,
      "Ġbonn": 7893,
      "Ġvictory": 7894,
      "Ġlacking": 7895,
      "Ġmedicines": 7896,
      "Ġparadox": 7897,
      "justice": 7898,
      "Ġinvolvement": 7899,
      "Ġincorrect": 7900,
      "Ġprohibited": 7901,
      "Ġtibet": 7902,
      "Ġgeographical": 7903,
      "Ġparallel": 7904,
      "Ġbungal": 7905,
      "dum": 7906,
      "field": 7907,
      "wing": 7908,
      "Ġpaint": 7909,
      "itis": 7910,
      "ente": 7911,
      "ingu": 7912,
      "Ġwealth": 7913,
      "Ġstages": 7914,
      "Ġkom": 7915,
      "Ġcloud": 7916,
      "Ġsovereign": 7917,
      "Ġability": 7918,
      "Ġroberto": 7919,
      "Ġmanner": 7920,
      "Ġdisgrace": 7921,
      "ocol": 7922,
      "Ġ1040": 7923,
      "Ġhelped": 7924,
      "Ġengines": 7925,
      "Ġprompt": 7926,
      "Ġtourna": 7927,
      "Ġfaced": 7928,
      "Ġmonthly": 7929,
      "Ġgentoo": 7930,
      "Ġpotato": 7931,
      "Ġsurprising": 7932,
      "Ġmillions": 7933,
      "Ġexceptions": 7934,
      "Ġfrancis": 7935,
      "Ġworkshop": 7936,
      "Ġprosperity": 7937,
      "Ġtaiwan": 7938,
      "Ġexpansion": 7939,
      "aj": 7940,
      "fold": 7941,
      "feld": 7942,
      "hen": 7943,
      "wr": 7944,
      "Ġtid": 7945,
      "atlantic": 7946,
      "Ġpag": 7947,
      "Ġbout": 7948,
      "Ġbik": 7949,
      "Ġdict": 7950,
      "ominister": 7951,
      "Ġbei": 7952,
      "Ġvivian": 7953,
      "etch": 7954,
      "Ġseed": 7955,
      "este": 7956,
      "ami": 7957,
      "Ġchic": 7958,
      "Ġshift": 7959,
      "Ġplot": 7960,
      "Ġsof": 7961,
      "Ġaband": 7962,
      "alling": 7963,
      "aks": 7964,
      "Ġmango": 7965,
      "Ġclosing": 7966,
      "Ġprizes": 7967,
      "Ġinvited": 7968,
      "Ġfinding": 7969,
      "Ġobtained": 7970,
      "Ġtrace": 7971,
      "Ġfarming": 7972,
      "Ġcompetence": 7973,
      "Ġbelgian": 7974,
      "Ġpolitically": 7975,
      "207": 7976,
      "Ġkeys": 7977,
      "Ġtextile": 7978,
      "Ġbenita": 7979,
      "Ġjuan": 7980,
      "annual": 7981,
      "brussels": 7982,
      "Ġgreenland": 7983,
      "Ġreviewed": 7984,
      "Ġinstallations": 7985,
      "Ġfalls": 7986,
      "Ġimposed": 7987,
      "Ġjapanese": 7988,
      "Ġdimensions": 7989,
      "Ġconfiguration": 7990,
      "Ġgladly": 7991,
      "Ġallocated": 7992,
      "Ġtravelling": 7993,
      "Ġbelongs": 7994,
      "Ġtrouble": 7995,
      "aceutical": 7996,
      "Ġbehaviour": 7997,
      "aug": 7998,
      "hop": 7999,
      "nas": 8000,
      "site": 8001,
      "yes": 8002,
      "ati": 8003,
      "Ġpul": 8004,
      "Ġdk": 8005,
      "Ġlv": 8006,
      "Ġstories": 8007,
      "Ġjam": 8008,
      "Ġrating": 8009,
      "udi": 8010,
      "Ġdisk": 8011,
      "Ġmare": 8012,
      "ucr": 8013,
      "uces": 8014,
      "Ġsubsequ": 8015,
      "Ġassent": 8016,
      "Ġbusquin": 8017,
      "Ġevil": 8018,
      "162": 8019,
      "Ġdiving": 8020,
      "Ġflying": 8021,
      "Ġauf": 8022,
      "Ġchannels": 8023,
      "Ġtransaction": 8024,
      "Ġhundred": 8025,
      "Ġdetermined": 8026,
      "Ġcertificate": 8027,
      "Ġtrademark": 8028,
      "Ġtraynor": 8029,
      "hard": 8030,
      "rition": 8031,
      "west": 8032,
      "Ġug": 8033,
      "atures": 8034,
      "oring": 8035,
      "Ġbund": 8036,
      "Ġdre": 8037,
      "Ġdur": 8038,
      "Ġnh": 8039,
      "level": 8040,
      "oles": 8041,
      "Ġsequ": 8042,
      "star": 8043,
      "Ġshad": 8044,
      "Ġker": 8045,
      "aki": 8046,
      "elled": 8047,
      "Ġ621": 8048,
      "Ġinvo": 8049,
      "Ġintergovernmental": 8050,
      "Ġdepth": 8051,
      "Ġinclusive": 8052,
      "Ġautonom": 8053,
      "Ġerdf": 8054,
      "Ġeffectively": 8055,
      "Ġwake": 8056,
      "Ġportuguese": 8057,
      "Ġcopies": 8058,
      "Ġnegotiation": 8059,
      "Ġairports": 8060,
      "Ġfairly": 8061,
      "Ġterrorist": 8062,
      "Ġdoubts": 8063,
      "Ġrapidly": 8064,
      "Ġcells": 8065,
      "Ġcontradiction": 8066,
      "Ġworrying": 8067,
      "Ġanonymous": 8068,
      "otechnology": 8069,
      "Ġmackerel": 8070,
      "sized": 8071,
      "Ġaik": 8072,
      "olt": 8073,
      "Ġmineral": 8074,
      "Ġplastic": 8075,
      "Ġclimb": 8076,
      "Ġcompact": 8077,
      "Ġspokes": 8078,
      "Ġmaur": 8079,
      "erner": 8080,
      "Ġgenerals": 8081,
      "Ġlegally": 8082,
      "Ġamending": 8083,
      "Ġbless": 8084,
      "Ġcapabilities": 8085,
      "hips": 8086,
      "Ġoperator": 8087,
      "Ġesp": 8088,
      "Ġsingapore": 8089,
      "Ġpeaceful": 8090,
      "Ġageing": 8091,
      "Ġdestruct": 8092,
      "Ġconstitutional": 8093,
      "saw": 8094,
      "Ġjew": 8095,
      "Ġwider": 8096,
      "Ġsadly": 8097,
      "myanmar": 8098,
      "Ġannouncement": 8099,
      "Ġthorough": 8100,
      "Ġpharmaceutical": 8101,
      "Ġpalacio": 8102,
      "Ġreferendum": 8103,
      "Ġbureaucr": 8104,
      "bat": 8105,
      "bach": 8106,
      "code": 8107,
      "Ġtang": 8108,
      "Ġwins": 8109,
      "Ġpiet": 8110,
      "oured": 8111,
      "Ġbow": 8112,
      "alt": 8113,
      "iders": 8114,
      "Ġalias": 8115,
      "cher": 8116,
      "Ġjames": 8117,
      "Ġshot": 8118,
      "Ġkre": 8119,
      "alls": 8120,
      "Ġpartition": 8121,
      "Ġlock": 8122,
      "upo": 8123,
      "comings": 8124,
      "Ġcarib": 8125,
      "Ġzones": 8126,
      "strasbourg": 8127,
      "Ġpursu": 8128,
      "Ġturns": 8129,
      "Ġnewsroom": 8130,
      "Ġbehold": 8131,
      "lined": 8132,
      "Ġsearching": 8133,
      "Ġsunny": 8134,
      "Ġambition": 8135,
      "Ġcolombia": 8136,
      "Ġelectrical": 8137,
      "Ġinterpre": 8138,
      "Ġdeleted": 8139,
      "Ġoccurred": 8140,
      "Ġzeal": 8141,
      "Ġaccidents": 8142,
      "Ġsatisfactory": 8143,
      "Ġdelicious": 8144,
      "fraud": 8145,
      "Ġioannis": 8146,
      "Ġoutdoor": 8147,
      "Ġphilosoph": 8148,
      "Ġveterinary": 8149,
      "Ġethiopia": 8150,
      "Ġviviane": 8151,
      "cn": 8152,
      "ders": 8153,
      "Ġcz": 8154,
      "Ġfold": 8155,
      "ouminister": 8156,
      "itals": 8157,
      "Ġinequ": 8158,
      "Ġhect": 8159,
      "iled": 8160,
      "Ġvib": 8161,
      "olas": 8162,
      "utt": 8163,
      "uting": 8164,
      "keep": 8165,
      "Ġchf": 8166,
      "Ġshell": 8167,
      "ford": 8168,
      "Ġrum": 8169,
      "Ġrational": 8170,
      "Ġrough": 8171,
      "Ġrank": 8172,
      "ellow": 8173,
      "tek": 8174,
      "Ġarran": 8175,
      "Ġtimor": 8176,
      "Ġaccel": 8177,
      "Ġapprove": 8178,
      "Ġlaid": 8179,
      "Ġfinanced": 8180,
      "Ġedge": 8181,
      "Ġsmile": 8182,
      "Ġreferences": 8183,
      "Ġbuses": 8184,
      "Ġlastly": 8185,
      "Ġengage": 8186,
      "Ġputs": 8187,
      "Ġgreens": 8188,
      "Ġshortcomings": 8189,
      "Ġterritory": 8190,
      "Ġpostp": 8191,
      "bean": 8192,
      "Ġblocks": 8193,
      "Ġmoral": 8194,
      "Ġreviews": 8195,
      "Ġcorrections": 8196,
      "Ġradical": 8197,
      "Ġluis": 8198,
      "Ġpieces": 8199,
      "Ġgrave": 8200,
      "Ġoliv": 8201,
      "Ġinfrastructures": 8202,
      "Ġsixth": 8203,
      "Ġconvert": 8204,
      "Ġrelaxation": 8205,
      "Ġscreens": 8206,
      "Ġbirds": 8207,
      "Ġdollars": 8208,
      "Ġcosy": 8209,
      "Ġceremon": 8210,
      "Ġfleet": 8211,
      "Ġshuttle": 8212,
      "fur": 8213,
      "lat": 8214,
      "pay": 8215,
      "Ġaw": 8216,
      "Ġcure": 8217,
      "Ġpic": 8218,
      "Ġpent": 8219,
      "Ġpity": 8220,
      "esth": 8221,
      "Ġox": 8222,
      "aring": 8223,
      "Ġislam": 8224,
      "Ġiacov": 8225,
      "Ġyouve": 8226,
      "etting": 8227,
      "Ġ130": 8228,
      "rim": 8229,
      "Ġunb": 8230,
      "Ġclarity": 8231,
      "Ġmarie": 8232,
      "Ġmarian": 8233,
      "ifs": 8234,
      "abel": 8235,
      "Ġunderground": 8236,
      "Ġjoa": 8237,
      "Ġprotest": 8238,
      "Ġbarb": 8239,
      "Ġlistened": 8240,
      "Ġblank": 8241,
      "Ġsections": 8242,
      "peri": 8243,
      "Ġcutting": 8244,
      "Ġpatients": 8245,
      "Ġactivate": 8246,
      "Ġdownloads": 8247,
      "Ġauthorised": 8248,
      "Ġrussias": 8249,
      "Ġconnections": 8250,
      "haus": 8251,
      "Ġmovies": 8252,
      "Ġmiscell": 8253,
      "Ġconstructive": 8254,
      "Ġtracks": 8255,
      "belg": 8256,
      "Ġconcentrate": 8257,
      "Ġmanufacturers": 8258,
      "Ġenemy": 8259,
      "Ġkenya": 8260,
      "Ġcinema": 8261,
      "akhstan": 8262,
      "Ġdignity": 8263,
      "called": 8264,
      "mt": 8265,
      "pack": 8266,
      "sv": 8267,
      "Ġfert": 8268,
      "Ġherman": 8269,
      "Ġanch": 8270,
      "oms": 8271,
      "Ġlud": 8272,
      "unds": 8273,
      "igi": 8274,
      "Ġkov": 8275,
      "Ġarmen": 8276,
      "ckling": 8277,
      "plus": 8278,
      "Ġovernight": 8279,
      "Ġdesert": 8280,
      "Ġadopts": 8281,
      "Ġinvestor": 8282,
      "Ġhole": 8283,
      "mma": 8284,
      "Ġcontinent": 8285,
      "heim": 8286,
      "Ġhandling": 8287,
      "Ġpatch": 8288,
      "Ġconsulted": 8289,
      "Ġsanchez": 8290,
      "Ġindicated": 8291,
      "Ġlogical": 8292,
      "Ġclaus": 8293,
      "Ġindividuals": 8294,
      "Ġproducer": 8295,
      "Ġsudden": 8296,
      "scale": 8297,
      "Ġparameters": 8298,
      "Ġcelebrate": 8299,
      "Ġdecorated": 8300,
      "Ġinspection": 8301,
      "Ġtransactions": 8302,
      "Ġeibs": 8303,
      "Ġschulz": 8304,
      "bul": 8305,
      "cat": 8306,
      "gg": 8307,
      "lang": 8308,
      "merman": 8309,
      "sing": 8310,
      "trans": 8311,
      "Ġari": 8312,
      "Ġcv": 8313,
      "Ġhide": 8314,
      "Ġhiking": 8315,
      "Ġnero": 8316,
      "lets": 8317,
      "Ġbeings": 8318,
      "uli": 8319,
      "iam": 8320,
      "Ġunch": 8321,
      "Ġtail": 8322,
      "Ġrow": 8323,
      "ached": 8324,
      "Ġdiscipl": 8325,
      "Ġdirections": 8326,
      "marily": 8327,
      "Ġscot": 8328,
      "Ġbudapest": 8329,
      "Ġantar": 8330,
      "Ġadvise": 8331,
      "150": 8332,
      "Ġpatents": 8333,
      "Ġsalmon": 8334,
      "Ġmeanwhile": 8335,
      "Ġnecessarily": 8336,
      "Ġstructured": 8337,
      "Ġaccompl": 8338,
      "Ġtargeted": 8339,
      "Ġclasses": 8340,
      "Ġpreviously": 8341,
      "Ġemerging": 8342,
      "Ġshipbuilding": 8343,
      "Ġsimplified": 8344,
      "Ġproduces": 8345,
      "Ġdrinking": 8346,
      "Ġearthqu": 8347,
      "Ġwithdrawn": 8348,
      "Ġmeantime": 8349,
      "Ġmacroeconomic": 8350,
      "Ġhopes": 8351,
      "Ġbureau": 8352,
      "utsche": 8353,
      "Ġsupplies": 8354,
      "Ġlodge": 8355,
      "Ġjuris": 8356,
      "Ġtemplate": 8357,
      "Ġexclusively": 8358,
      "bekistan": 8359,
      "dor": 8360,
      "dorf": 8361,
      "mot": 8362,
      "pass": 8363,
      "total": 8364,
      "upe": 8365,
      "Ġauct": 8366,
      "incl": 8367,
      "inery": 8368,
      "Ġwer": 8369,
      "Ġpv": 8370,
      "Ġnl": 8371,
      "Ġreass": 8372,
      "Ġlav": 8373,
      "Ġgessler": 8374,
      "Ġali": 8375,
      "Ġuna": 8376,
      "Ġinformal": 8377,
      "Ġclip": 8378,
      "Ġclancy": 8379,
      "Ġloans": 8380,
      "agn": 8381,
      "iza": 8382,
      "Ġ86": 8383,
      "Ġprimarily": 8384,
      "Ġphare": 8385,
      "Ġconfusion": 8386,
      "Ġbread": 8387,
      "Ġaccessibility": 8388,
      "heet": 8389,
      "Ġsubjects": 8390,
      "Ġnewspap": 8391,
      "Ġdifficulty": 8392,
      "Ġreplaced": 8393,
      "Ġavoided": 8394,
      "Ġcounterfe": 8395,
      "Ġwidely": 8396,
      "Ġteachers": 8397,
      "Ġcolleague": 8398,
      "Ġguardian": 8399,
      "opoulos": 8400,
      "iannual": 8401,
      "Ġzurich": 8402,
      "Ġpalestinian": 8403,
      "Ġturkish": 8404,
      "Ġrecycling": 8405,
      "Ġmiscellaneous": 8406,
      "hem": 8407,
      "kelsen": 8408,
      "may": 8409,
      "Ġub": 8410,
      "inet": 8411,
      "Ġsq": 8412,
      "Ġwc": 8413,
      "Ġwis": 8414,
      "Ġpid": 8415,
      "Ġfel": 8416,
      "Ġbah": 8417,
      "Ġepp": 8418,
      "ican": 8419,
      "Ġlul": 8420,
      "lying": 8421,
      "Ġdeutsch": 8422,
      "rible": 8423,
      "opes": 8424,
      "Ġtap": 8425,
      "Ġmarri": 8426,
      "teen": 8427,
      "Ġtransatlantic": 8428,
      "Ġdescribe": 8429,
      "Ġenthus": 8430,
      "Ġconferences": 8431,
      "Ġzo": 8432,
      "Ġscar": 8433,
      "Ġresolutions": 8434,
      "Ġcheese": 8435,
      "Ġuz": 8436,
      "Ġfavourite": 8437,
      "Ġorganized": 8438,
      "Ġspecify": 8439,
      "Ġwaite": 8440,
      "Ġtelecom": 8441,
      "Ġfederation": 8442,
      "ijn": 8443,
      "Ġmultiannual": 8444,
      "Ġ352": 8445,
      "Ġhonour": 8446,
      "Ġrecognised": 8447,
      "Ġproperties": 8448,
      "Ġseemed": 8449,
      "Ġlayout": 8450,
      "direct": 8451,
      "Ġlyrics": 8452,
      "Ġinfluenza": 8453,
      "Ġultimately": 8454,
      "Ġpsych": 8455,
      "Ġrevenue": 8456,
      "110": 8457,
      "date": 8458,
      "yr": 8459,
      "Ġtent": 8460,
      "Ġtheat": 8461,
      "Ġselling": 8462,
      "Ġfare": 8463,
      "Ġhiv": 8464,
      "arth": 8465,
      "Ġgained": 8466,
      "ctors": 8467,
      "iration": 8468,
      "esta": 8469,
      "ĠjÃ¼r": 8470,
      "Ġjnos": 8471,
      "Ġunity": 8472,
      "Ġunfor": 8473,
      "Ġkim": 8474,
      "arted": 8475,
      "Ġrand": 8476,
      "Ġfinn": 8477,
      "Ġverification": 8478,
      "Ġmarried": 8479,
      "Ġarc": 8480,
      "Ġacting": 8481,
      "Ġbritt": 8482,
      "Ġstaying": 8483,
      "Ġemot": 8484,
      "Ġmarkos": 8485,
      "Ġ900": 8486,
      "Ġswift": 8487,
      "Ġassum": 8488,
      "Ġschm": 8489,
      "Ġdeploy": 8490,
      "Ġendors": 8491,
      "Ġevident": 8492,
      "Ġcertified": 8493,
      "Ġprivile": 8494,
      "Ġauthorisation": 8495,
      "Ġdeclare": 8496,
      "Ġkeeps": 8497,
      "Ġidentify": 8498,
      "ukan": 8499,
      "Ġhansen": 8500,
      "aterini": 8501,
      "Ġbottle": 8502,
      "Ġconflicts": 8503,
      "Ġepis": 8504,
      "Ġratification": 8505,
      "Ġregrettable": 8506,
      "Ġultimate": 8507,
      "Ġrefugee": 8508,
      "Ġstrictly": 8509,
      "Ġcondemn": 8510,
      "aggf": 8511,
      "Ġapostola": 8512,
      "Ġaikaterini": 8513,
      "belgium": 8514,
      "bn": 8515,
      "cur": 8516,
      "db": 8517,
      "long": 8518,
      "tical": 8519,
      "Ġtus": 8520,
      "Ġfro": 8521,
      "itar": 8522,
      "ester": 8523,
      "Ġoecd": 8524,
      "Ġdh": 8525,
      "Ġhors": 8526,
      "asters": 8527,
      "elong": 8528,
      "acin": 8529,
      "Ġprox": 8530,
      "chair": 8531,
      "Ġprest": 8532,
      "Ġunw": 8533,
      "Ġkam": 8534,
      "Ġquery": 8535,
      "Ġresc": 8536,
      "ago": 8537,
      "Ġtwice": 8538,
      "Ġboats": 8539,
      "Ġ881": 8540,
      "Ġbeta": 8541,
      "Ġenvis": 8542,
      "Ġprovince": 8543,
      "Ġbanned": 8544,
      "Ġurs": 8545,
      "Ġesf": 8546,
      "Ġrecei": 8547,
      "Ġpricing": 8548,
      "Ġactivated": 8549,
      "Ġsectoral": 8550,
      "Ġglance": 8551,
      "Ġroadmap": 8552,
      "Ġ%.": 8553,
      "auer": 8554,
      "Ġcivilian": 8555,
      "Ġpartnerships": 8556,
      "Ġurgency": 8557,
      "Ġdemanding": 8558,
      "product": 8559,
      "Ġgasperi": 8560,
      "Ġperformed": 8561,
      "Ġexclusion": 8562,
      "Ġensuring": 8563,
      "Ġfiref": 8564,
      "Ġcomplaint": 8565,
      "Ġconditioning": 8566,
      "Ġsplend": 8567,
      "Ġwoj": 8568,
      "Ġcalculated": 8569,
      "condition": 8570,
      "Ġalcide": 8571,
      "Ġtuomioja": 8572,
      "Ġexemption": 8573,
      "dric": 8574,
      "gre": 8575,
      "nic": 8576,
      "Ġtric": 8577,
      "Ġtired": 8578,
      "Ġthin": 8579,
      "Ġwerner": 8580,
      "Ġpere": 8581,
      "Ġpace": 8582,
      "Ġbin": 8583,
      "Ġdall": 8584,
      "Ġgut": 8585,
      "Ġwet": 8586,
      "Ġstorm": 8587,
      "Ġcongress": 8588,
      "Ġchocol": 8589,
      "istent": 8590,
      "Ġriding": 8591,
      "avan": 8592,
      "iana": 8593,
      "Ġlisting": 8594,
      "Ġinvesting": 8595,
      "Ġrestric": 8596,
      "Ġwarsaw": 8597,
      "Ġfrdric": 8598,
      "Ġannem": 8599,
      "Ġannivers": 8600,
      "Ġsuccessfully": 8601,
      "Ġchildrens": 8602,
      "Ġbrother": 8603,
      "Ġhardware": 8604,
      "Ġconsiderations": 8605,
      "Ġlights": 8606,
      "Ġvariable": 8607,
      "Ġbrain": 8608,
      "Ġoptional": 8609,
      "Ġexchanges": 8610,
      "Ġreserves": 8611,
      "holds": 8612,
      "Ġfallen": 8613,
      "Ġskiing": 8614,
      "Ġqualified": 8615,
      "Ġloaded": 8616,
      "Ġlifelong": 8617,
      "Ġsynth": 8618,
      "Ġignore": 8619,
      "Ġbangemann": 8620,
      "Ġquantity": 8621,
      "Ġingred": 8622,
      "Ġjesus": 8623,
      "Ġnigeria": 8624,
      "Ġchancellor": 8625,
      "Ġflorence": 8626,
      "Ġliquid": 8627,
      "Ġenlarged": 8628,
      "1000": 8629,
      "198": 8630,
      "700": 8631,
      "cen": 8632,
      "city": 8633,
      "uro": 8634,
      "Ġtl": 8635,
      "Ġahern": 8636,
      "Ġthick": 8637,
      "Ġcache": 8638,
      "Ġsr": 8639,
      "Ġfires": 8640,
      "Ġflav": 8641,
      "Ġbid": 8642,
      "esh": 8643,
      "Ġeld": 8644,
      "Ġana": 8645,
      "Ġrevers": 8646,
      "Ġyemen": 8647,
      "unk": 8648,
      "Ġalle": 8649,
      "Ġalps": 8650,
      "Ġune": 8651,
      "Ġunde": 8652,
      "Ġrice": 8653,
      "umps": 8654,
      "Ġplate": 8655,
      "Ġbackup": 8656,
      "agne": 8657,
      "ifi": 8658,
      "Ġriv": 8659,
      "Ġstayed": 8660,
      "Ġemission": 8661,
      "Ġasset": 8662,
      "Ġtrump": 8663,
      "Ġopenness": 8664,
      "Ġrefers": 8665,
      "Ġflows": 8666,
      "iera": 8667,
      "Ġrompu": 8668,
      "Ġpersonnel": 8669,
      "Ġgrey": 8670,
      "Ġwave": 8671,
      "hai": 8672,
      "Ġmodernisation": 8673,
      "Ġsuperior": 8674,
      "oboda": 8675,
      "Ġseparately": 8676,
      "Ġordinary": 8677,
      "Ġnicola": 8678,
      "Ġpurely": 8679,
      "Ġforecasts": 8680,
      "Ġfulfil": 8681,
      "Ġkazakhstan": 8682,
      "Ġconfidential": 8683,
      "Ġintelligent": 8684,
      "Ġzealand": 8685,
      "210": 8686,
      "bot": 8687,
      "cm": 8688,
      "dan": 8689,
      "ey": 8690,
      "kka": 8691,
      "mak": 8692,
      "rust": 8693,
      "vit": 8694,
      "Ġbou": 8695,
      "Ġbiz": 8696,
      "Ġdb": 8697,
      "Ġeaggf": 8698,
      "ication": 8699,
      "ason": 8700,
      "Ġrena": 8701,
      "Ġyoun": 8702,
      "0001": 8703,
      "Ġseeds": 8704,
      "artic": 8705,
      "Ġpressing": 8706,
      "ints": 8707,
      "Ġarrest": 8708,
      "Ġguys": 8709,
      "Ġmatt": 8710,
      "Ġbusy": 8711,
      "Ġauto": 8712,
      "Ġblu": 8713,
      "Ġerik": 8714,
      "Ġcaution": 8715,
      "160": 8716,
      "Ġprincipal": 8717,
      "Ġsupplier": 8718,
      "Ġsending": 8719,
      "Ġsearched": 8720,
      "1995": 8721,
      "Ġsentence": 8722,
      "Ġidentification": 8723,
      "Ġdisplays": 8724,
      "finan": 8725,
      "Ġpurchasing": 8726,
      "Ġboxes": 8727,
      "Ġexpertise": 8728,
      "Ġfirmly": 8729,
      "Ġhtel": 8730,
      "Ġpillar": 8731,
      "Ġleni": 8732,
      "Ġisolated": 8733,
      "Ġincentives": 8734,
      "Ġrecruit": 8735,
      "Ġarranged": 8736,
      "Ġfirefox": 8737,
      "900": 8738,
      "gm": 8739,
      "vivian": 8740,
      "Ġaz": 8741,
      "Ġmul": 8742,
      "Ġoetting": 8743,
      "Ġdive": 8744,
      "Ġnad": 8745,
      "ingeu": 8746,
      "usal": 8747,
      "Ġont": 8748,
      "unia": 8749,
      "add": 8750,
      "Ġcontro": 8751,
      "Ġorange": 8752,
      "ishment": 8753,
      "Ġrepro": 8754,
      "Ġraim": 8755,
      "Ġindirect": 8756,
      "ierra": 8757,
      "Ġbasel": 8758,
      "eredingeu": 8759,
      "Ã¼ss": 8760,
      "Ġresearchers": 8761,
      "Ġpetitions": 8762,
      "Ġentering": 8763,
      "Ġsalt": 8764,
      "Ġstops": 8765,
      "uela": 8766,
      "Ġdanube": 8767,
      "Ġindicates": 8768,
      "Ġcollective": 8769,
      "Ġvirtually": 8770,
      "Ġratio": 8771,
      "Ġmirror": 8772,
      "Ġobliged": 8773,
      "Ġadvisory": 8774,
      "Ġridic": 8775,
      "Ġtoilet": 8776,
      "Ġdestruction": 8777,
      "vivianeredingeu": 8778,
      "Ġoettinger": 8779,
      "iant": 8780,
      "iques": 8781,
      "ool": 8782,
      "pc": 8783,
      "wall": 8784,
      "zio": 8785,
      "Ġort": 8786,
      "Ġich": 8787,
      "atz": 8788,
      "Ġbil": 8789,
      "Ġozone": 8790,
      "Ġhire": 8791,
      "Ġeaf": 8792,
      "Ġnit": 8793,
      "Ġik": 8794,
      "Ġya": 8795,
      "Ġyellow": 8796,
      "Ġvs": 8797,
      "Ġkale": 8798,
      "Ġenabled": 8799,
      "Ġrt": 8800,
      "ective": 8801,
      "Ġverd": 8802,
      "Ġdile": 8803,
      "Ġpartly": 8804,
      "Ġroots": 8805,
      "Ġtimmerman": 8806,
      "Ġnowhere": 8807,
      "Ġboel": 8808,
      "Ġraises": 8809,
      "Ġportfol": 8810,
      "Ġ180": 8811,
      "Ġdifferently": 8812,
      "Ġesdp": 8813,
      "Ġorganiz": 8814,
      "Ġadditionally": 8815,
      "Ġstudent": 8816,
      "ĠĠĠ": 8817,
      "Ġgenerate": 8818,
      "Ġcrossroad": 8819,
      "Ġquoted": 8820,
      "Ġmachinery": 8821,
      "Ġbringing": 8822,
      "Ġsignificantly": 8823,
      "Ġstreets": 8824,
      "Ġmanufactured": 8825,
      "Ġpcs": 8826,
      "Ġadvertise": 8827,
      "Ġdishes": 8828,
      "Ġstruggle": 8829,
      "Ġuzbekistan": 8830,
      "Ġrescue": 8831,
      "financial": 8832,
      "Ġeafrd": 8833,
      "Ġtimmermans": 8834,
      "ae": 8835,
      "fu": 8836,
      "gal": 8837,
      "lis": 8838,
      "xi": 8839,
      "Ġtat": 8840,
      "Ġtank": 8841,
      "rees": 8842,
      "Ġsms": 8843,
      "itas": 8844,
      "Ġhoney": 8845,
      "Ġloud": 8846,
      "Ġvas": 8847,
      "rims": 8848,
      "Ġeurojust": 8849,
      "Ġjump": 8850,
      "Ġshap": 8851,
      "Ġaster": 8852,
      "Ġcanary": 8853,
      "Ġspare": 8854,
      "Ġindices": 8855,
      "Ġaponte": 8856,
      "Ġmonte": 8857,
      "Ġintermedi": 8858,
      "Ġ155": 8859,
      "Ġexamination": 8860,
      "Ġcontinental": 8861,
      "Ġcharles": 8862,
      "Ġpromised": 8863,
      "161": 8864,
      "Ġuniform": 8865,
      "mester": 8866,
      "Ġjudgments": 8867,
      "liers": 8868,
      "Ġnegotiating": 8869,
      "Ġirre": 8870,
      "spain": 8871,
      "Ġsubscription": 8872,
      "Ġutmost": 8873,
      "Ġlicence": 8874,
      "Ġmillenn": 8875,
      "Ġwidth": 8876,
      "Ġsexual": 8877,
      "Ġhubert": 8878,
      "Ġdisappointed": 8879,
      "Ġsummar": 8880,
      "Ġbesides": 8881,
      "Ġseminar": 8882,
      "Ġbrochure": 8883,
      "Ġentertainment": 8884,
      "Ġhyperlink": 8885,
      "Ġtherapy": 8886,
      "Ġtropical": 8887,
      "4379": 8888,
      "800": 8889,
      "bet": 8890,
      "gor": 8891,
      "mant": 8892,
      "Ġcot": 8893,
      "enz": 8894,
      "Ġmons": 8895,
      "Ġbren": 8896,
      "Ġbold": 8897,
      "Ġincoming": 8898,
      "arre": 8899,
      "Ġgulf": 8900,
      "aco": 8901,
      "Ġsemester": 8902,
      "stream": 8903,
      "Ġunus": 8904,
      "Ġrd": 8905,
      "Ġagri": 8906,
      "Ġleague": 8907,
      "Ġfinds": 8908,
      "uding": 8909,
      "Ġ4379": 8910,
      "Ġperu": 8911,
      "Ġspaces": 8912,
      "Ġtrains": 8913,
      "arer": 8914,
      "Ġprecious": 8915,
      "meier": 8916,
      "Ġdirected": 8917,
      "Ġmonu": 8918,
      "Ġhelen": 8919,
      "Ġbookings": 8920,
      "Ġpaula": 8921,
      "Ġhungarian": 8922,
      "Ġtrig": 8923,
      "Ġglobalization": 8924,
      "Ġbriefing": 8925,
      "Ġoppose": 8926,
      "Ġlogistics": 8927,
      "Ġundou": 8928,
      "Ġdetermine": 8929,
      "Ġoptimistic": 8930,
      "Ġabstain": 8931,
      "Ġconducted": 8932,
      "Ġsurrounded": 8933,
      "Ġborne": 8934,
      "Ġbirthday": 8935,
      "Ġfernando": 8936,
      "Ġruling": 8937,
      "Ġscrut": 8938,
      "Ġbranch": 8939,
      "Ġbattery": 8940,
      "Ġstabilisation": 8941,
      "Ġdecentral": 8942,
      "Ġklaus": 8943,
      "Ġboutique": 8944,
      "Ġunchanged": 8945,
      "Ġunforget": 8946,
      "Ġanniversary": 8947,
      "Ġrompuy": 8948,
      "Ġcontrovers": 8949,
      "aud": 8950,
      "bant": 8951,
      "lers": 8952,
      "Ġwife": 8953,
      "Ġpt": 8954,
      "Ġowe": 8955,
      "Ġinner": 8956,
      "Ġny": 8957,
      "othing": 8958,
      "Ġgord": 8959,
      "Ġvie": 8960,
      "idas": 8961,
      "idad": 8962,
      "united": 8963,
      "Ġnepal": 8964,
      "Ġron": 8965,
      "Ġages": 8966,
      "Ġagent": 8967,
      "Ġtape": 8968,
      "Ġ350": 8969,
      "loc": 8970,
      "Ġdiox": 8971,
      "Ġpermit": 8972,
      "Ġspell": 8973,
      "Ġarbit": 8974,
      "Ġmaro": 8975,
      "Ġtransmission": 8976,
      "plan": 8977,
      "Ġraising": 8978,
      "Ġovercome": 8979,
      "Ġrefund": 8980,
      "Ġfrances": 8981,
      "Ġlegend": 8982,
      "Ġfreight": 8983,
      "Ġdistingu": 8984,
      "Ġpeters": 8985,
      "being": 8986,
      "beek": 8987,
      "Ġbroek": 8988,
      "Ġtowns": 8989,
      "Ġarchives": 8990,
      "Ġarrangement": 8991,
      "Ġlaser": 8992,
      "Ġadaptation": 8993,
      "Ġsurroundings": 8994,
      "ontex": 8995,
      "Ġpalestine": 8996,
      "ilingual": 8997,
      "Ġinvestigations": 8998,
      "Ġathens": 8999,
      "Ġmallorca": 9000,
      "Ġclothes": 9001,
      "Ġphilosophy": 9002,
      "Ġantarctic": 9003,
      "ĠjÃ¼rgen": 9004,
      "cost": 9005,
      "har": 9006,
      "hot": 9007,
      "jk": 9008,
      "kel": 9009,
      "nn": 9010,
      "ping": 9011,
      "pcd": 9012,
      "Ġazer": 9013,
      "rec": 9014,
      "Ġsierra": 9015,
      "Ġbour": 9016,
      "Ġdres": 9017,
      "Ġngos": 9018,
      "ilÃ¤": 9019,
      "Ġforced": 9020,
      "Ġstad": 9021,
      "oler": 9022,
      "osur": 9023,
      "unate": 9024,
      "Ġ101": 9025,
      "rial": 9026,
      "Ġnearest": 9027,
      "adays": 9028,
      "Ġasp": 9029,
      "Ġende": 9030,
      "Ġavian": 9031,
      "izhou": 9032,
      "Ġphones": 9033,
      "Ġ106": 9034,
      "Ġmoz": 9035,
      "Ġsolbes": 9036,
      "Ġsmoke": 9037,
      "Ġcream": 9038,
      "Ġ140": 9039,
      "Ġbananas": 9040,
      "Ġhoyer": 9041,
      "Ã¼ck": 9042,
      "Ġantid": 9043,
      "Ġspecialist": 9044,
      "Ġfrontex": 9045,
      "Ġinsist": 9046,
      "Ġchristos": 9047,
      "Ġvaried": 9048,
      "!!!!": 9049,
      "1997": 9050,
      "Ġduan": 9051,
      "prot": 9052,
      "Ġdepending": 9053,
      "Ġwatching": 9054,
      "Ġpurchased": 9055,
      "Ġcreativity": 9056,
      "Ġbrands": 9057,
      "Ġgnu": 9058,
      "missible": 9059,
      "Ġmikkelsen": 9060,
      "Ġcompliment": 9061,
      "Ġnutrition": 9062,
      "Ġreligion": 9063,
      "Ġcrystal": 9064,
      "Ġhospital": 9065,
      "Ġfacilit": 9066,
      "Ġsurvive": 9067,
      "Ġhazard": 9068,
      "Ġcaribbean": 9069,
      "Ġarmenia": 9070,
      "Ġmillennium": 9071,
      "Ġundoubted": 9072,
      "pcdd": 9073,
      "fire": 9074,
      "gart": 9075,
      "oire": 9076,
      "rc": 9077,
      "tel": 9078,
      "Ġtub": 9079,
      "onds": 9080,
      "Ġsik": 9081,
      "Ġpam": 9082,
      "Ġpav": 9083,
      "Ġpull": 9084,
      "Ġnan": 9085,
      "Ġyizhou": 9086,
      "Ġalert": 9087,
      "china": 9088,
      "Ġsevere": 9089,
      "andre": 9090,
      "Ġsup": 9091,
      "Ġkel": 9092,
      "aila": 9093,
      "teq": 9094,
      "lich": 9095,
      "lick": 9096,
      "igned": 9097,
      "Ġaffili": 9098,
[...]
