{"[PAD]": 0, "[BOS]": 1, "[EOS]": 2, "[UNK]": 3, "!": 4, "#": 5, "$": 6, "%": 7, "&": 8, "(": 9, ")": 10, "*": 11, "+": 12, ",": 13, "-": 14, ".": 15, "/": 16, "0": 17, "1": 18, "2": 19, "3": 20, "4": 21, "5": 22, "6": 23, "7": 24, "8": 25, "9": 26, ":": 27, ";": 28, "?": 29, "@": 30, "[": 31, "\\": 32, "]": 33, "_": 34, "a": 35, "b": 36, "c": 37, "d": 38, "e": 39, "f": 40, "g": 41, "h": 42, "i": 43, "j": 44, "k": 45, "l": 46, "m": 47, "n": 48, "o": 49, "p": 50, "q": 51, "r": 52, "s": 53, "t": 54, "u": 55, "v": 56, "w": 57, "x": 58, "y": 59, "z": 60, "{": 61, "|": 62, "}": 63, "\u00a3": 64, "\u00a4": 65, "\u00a5": 66, "\u00ac": 67, "\u00b6": 68, "\u00bc": 69, "\u00c2": 70, "\u00c3": 71, "\u00e2": 72, "\u0120": 73, "\u0124": 74, "\u0141": 75, "\u0120t": 76, "\u0120a": 77, "\u0120th": 78, "re": 79, "in": 80, "on": 81, "\u0120the": 82, "is": 83, "er": 84, "\u0120c": 85, "\u0120s": 86, "\u0120w": 87, "at": 88, "en": 89, "\u0120p": 90, "or": 91, "\u0120m": 92, "\u0120f": 93, "an": 94, "ou": 95, "it": 96, "\u0120b": 97, "ion": 98, "es": 99, "\u0120o": 100, "\u0120d": 101, "\u0120in": 102, "\u0120h": 103, "ro": 104, "al": 105, "ed": 106, "ar": 107, "\u0120of": 108, "\u0120e": 109, "\u0120to": 110, "\u0120n": 111, "\u0120is": 112, "le": 113, "\u0120an": 114, "ic": 115, "as": 116, "ent": 117, "\u0120re": 118, "ing": 119, "om": 120, "il": 121, "\u0120l": 122, "el": 123, "us": 124, "\u0120for": 125, "ot": 126, "\u0120and": 127, "\u0120i": 128, "\u0120g": 129, "\u0120y": 130, "ct": 131, "ation": 132, "\u0120you": 133, "ve": 134, "\u0120be": 135, "\u0120v": 136, "\u0120we": 137, "\u0120com": 138, "\u0120this": 139, "\u0120on": 140, "pe": 141, "res": 142, "\u01202": 143, "\u0120st": 144, "ment": 145, "ol": 146, "et": 147, "\u0120it": 148, "ow": 149, "ac": 150, "os": 151, "id": 152, "un": 153, "ter": 154, "\u0120wh": 155, "\u0120con": 156, "\u0120eu": 157, "\u0120are": 158, "\u0120(": 159, "\u0120pro": 160, "ay": 161, "ly": 162, "\u0120de": 163, "\u01201": 164, "ra": 165, "ut": 166, "ri": 167, "\u0120al": 168, "\u0120that": 169, "ur": 170, "ill": 171, "oun": 172, "ort": 173, "ch": 174, "ce": 175, "00": 176, "ul": 177, "\u0120comm": 178, "our": 179, "\u0120euro": 180, "\u0120not": 181, "ir": 182, "ore": 183, "sion": 184, "ke": 185, "\u0120ha": 186, "th": 187, "\u0120se": 188, "ate": 189, "ig": 190, "pp": 191, "\u0120mr": 192, "est": 193, "\u0120ne": 194, "ith": 195, "ld": 196, "\u0120at": 197, "st": 198, "\u0120-": 199, "qu": 200, "\u0120europe": 201, "ver": 202, "im": 203, "em": 204, "\u0120j": 205, "\u0120with": 206, "ia": 207, "ad": 208, "ust": 209, "\u0120will": 210, "\u0120do": 211, "\u0120pres": 212, "ble": 213, "ission": 214, "ge": 215, "am": 216, "and": 217, "ould": 218, "\u0120commission": 219, "\u0120have": 220, "op": 221, "se": 222, "\u0120ex": 223, "ant": 224, "\u0120ch": 225, "\u0120su": 226, "ers": 227, "\u0120european": 228, "\u0120un": 229, "\u0120sh": 230, "\u0120as": 231, "..": 232, "ain": 233, "ive": 234, "ff": 235, "\u0120can": 236, "ase": 237, "\u0120k": 238, "ity": 239, "ere": 240, "for": 241, "ess": 242, "\u0120there": 243, "\u0120en": 244, "out": 245, "od": 246, "port": 247, "art": 248, "ist": 249, "\u0120min": 250, "form": 251, "\u0120r": 252, "\u0120li": 253, "\u0120what": 254, "\u0120cont": 255, "rom": 256, "um": 257, "\u0120us": 258, "\u0120by": 259, "ci": 260, "ure": 261, "\u0120more": 262, "ack": 263, "\u0120all": 264, "\u0120ag": 265, "\u0120has": 266, "\u0120coun": 267, "ions": 268, "\u0120le": 269, "ound": 270, "\u0120ad": 271, "\u0120your": 272, "ice": 273, "\u0120was": 274, "ies": 275, "\u0120inform": 276, "\u0120fin": 277, "ect": 278, "\u0120pl": 279, "ister": 280, "ht": 281, "\u0120no": 282, "\u0120information": 283, "ie": 284, "act": 285, "\u0120cl": 286, "\u0120ta": 287, "\u0120or": 288, "\u0120qu": 289, "\u0120wor": 290, "\u0120im": 291, "\u0120from": 292, "\u0120so": 293, "ber": 294, "\u0120our": 295, "ard": 296, "ail": 297, "end": 298, "\u0120would": 299, "lease": 300, "so": 301, "\u01203": 302, "\u0120press": 303, "\u0120ab": 304, "\u0120me": 305, "all": 306, "ran": 307, "ud": 308, "able": 309, "lo": 310, "\u0120how": 311, "\u0120res": 312, "iv": 313, "\u0120200": 314, "\u0120:": 315, "\u0120go": 316, "ther": 317, "\u0120ver": 318, "ost": 319, "ome": 320, "\u0120like": 321, "ult": 322, "ary": 323, "cl": 324, "\u0120vot": 325, "\u0120minister": 326, "age": 327, "gr": 328, "ree": 329, "\u0120di": 330, "\u0120am": 331, "cil": 332, "\u0120app": 333, "ak": 334, "ub": 335, "ations": 336, "\u0120mar": 337, "\u0120back": 338, "ast": 339, "\u0120pol": 340, "\u0120also": 341, "pt": 342, "\u0120than": 343, "ments": 344, "ell": 345, "\u0120council": 346, "\u0120new": 347, "ite": 348, "\u0120part": 349, "\u0120lo": 350, "ident": 351, "\u0120he": 352, "\u0120ro": 353, "ue": 354, "ish": 355, "cc": 356, "ace": 357, "ok": 358, "\u01204": 359, "up": 360, "te": 361, "one": 362, "\u0120very": 363, "ren": 364, "con": 365, "ine": 366, "ag": 367, "els": 368, "air": 369, "...": 370, "de": 371, "ground": 372, "if": 373, "\u0120per": 374, "ated": 375, "\u0120background": 376, "\u0120sa": 377, "\u0120but": 378, "\u0120about": 379, "ance": 380, "\u0120deb": 381, "ab": 382, "ip": 383, "cial": 384, "lic": 385, "int": 386, "uct": 387, "\u0120hot": 388, "\u0120comp": 389, "\u0120reg": 390, "ign": 391, "\u0120.": 392, "01": 393, "ap": 394, "\u0120need": 395, "her": 396, "\u0120must": 397, "32": 398, "ric": 399, "\u0120president": 400, "\u0120sp": 401, "\u0120when": 402, "tern": 403, "land": 404, "\u0120co": 405, "\u0120report": 406, "der": 407, "\u0120man": 408, "\u01205": 409, "\u0120these": 410, "\u0120aff": 411, "\u0120ar": 412, "ally": 413, "\u0120here": 414, "\u0120one": 415, "man": 416, "\u0120tim": 417, "\u0120release": 418, "\u0120just": 419, "\u0120now": 420, "\u0120tra": 421, "\u0120been": 422, "\u0120ser": 423, "\u0120see": 424, "ght": 425, "\u0120my": 426, "\u0120should": 427, "\u0120up": 428, "\u0120they": 429, "\u0120thank": 430, "ach": 431, "ry": 432, "\u0120rep": 433, "\u01200": 434, "ous": 435, "vel": 436, "\u0120act": 437, "\u0120quest": 438, "oint": 439, "\u0120contact": 440, "\u0120dis": 441, "\u0120hotel": 442, "\u0120te": 443, "\u0120av": 444, "\u0120spe": 445, "ject": 446, "airs": 447, "oll": 448, "\u0120off": 449, "ram": 450, "\u0120mem": 451, "bs": 452, "\u0120ma": 453, "\u0120vote": 454, "99": 455, "la": 456, "\u0120take": 457, "ong": 458, "\u0120ri": 459, "\u0120affairs": 460, "are": 461, "\u0120op": 462, "ition": 463, "\u0120work": 464, "\u0120br": 465, "rans": 466, "\u0120tw": 467, "fore": 468, "\u0120other": 469, "ures": 470, "pos": 471, "\u0120trans": 472, "\u0120prog": 473, "itt": 474, "\u0120clos": 475, "rect": 476, "uss": 477, "ely": 478, "\u0120(+": 479, "\u0120its": 480, "ical": 481, "ved": 482, "ublic": 483, "day": 484, "\u0120commissioner": 485, "\u0120acc": 486, "ck": 487, "ollow": 488, "\u0120stay": 489, "og": 490, "\u0120follow": 491, "\u0120time": 492, "\u0120debate": 493, "pport": 494, "\u0120pre": 495, "\u0120proc": 496, "ates": 497, "ear": 498, "cre": 499, "ink": 500, "ight": 501, "\u0120em": 502, "\u01207": 503, "iew": 504, "\u0120out": 505, "\u0120bo": 506, "ame": 507, "\u0120par": 508, "ative": 509, "use": 510, "to": 511, "\u0120polic": 512, "ich": 513, "ide": 514, "\u0120add": 515, "\u0120avail": 516, "\u01206": 517, "ence": 518, "av": 519, "\u0120state": 520, "ens": 521, "\u0120any": 522, "iz": 523, "reat": 524, "ang": 525, "\u0120available": 526, "pl": 527, "\u0120union": 528, "\u0120right": 529, "\u0120place": 530, "\u0120fir": 531, "\u0120bel": 532, "duct": 533, "\u012029": 534, "eral": 535, "me": 536, "\u0120only": 537, "\u0120gen": 538, "\u0120cons": 539, "\u0120gr": 540, "\u0120fur": 541, "\u0120pe": 542, "ian": 543, "\u0120appro": 544, "ass": 545, "ug": 546, "\u0120want": 547, "ple": 548, "ution": 549, "ays": 550, "ings": 551, "\u0120fe": 552, "ick": 553, "\u0120year": 554, "row": 555, "\u0120mark": 556, "\u0120first": 557, "ems": 558, "\u0120does": 559, "\u0120program": 560, "\u0120point": 561, "ne": 562, "\u0120policy": 563, "\u0120direct": 564, "\u0120fore": 565, "\u0120good": 566, "\u01208": 567, "\u0120question": 568, "\u0120please": 569, "ov": 570, "\u0120pri": 571, "\u01209": 572, "velop": 573, "very": 574, "\u0120cour": 575, "\u0120further": 576, "now": 577, "\u0120import": 578, "\u0120develop": 579, "com": 580, "ib": 581, "conom": 582, "\u0120pos": 583, "xt": 584, "\u0120...": 585, "\u0120ph": 586, "ors": 587, "uch": 588, "ted": 589, "ven": 590, "lect": 591, "eren": 592, "ries": 593, "\u0120why": 594, "\u0120str": 595, "\u0120closed": 596, "\u0120econom": 597, "ress": 598, "\u0120201": 599, "min": 600, "\u0120two": 601, "\u0120said": 602, "\u0120serv": 603, "\u0120again": 604, "\u0120partic": 605, "gy": 606, "cy": 607, "\u0120some": 608, "\u0120inv": 609, "\u0120sy": 610, "\u0120la": 611, "ph": 612, "\u0120intern": 613, "ds": 614, "\u0120concl": 615, "\u0120ra": 616, "ise": 617, "ever": 618, "\u0120gu": 619, "\u0120count": 620, "\u0120foreign": 621, "\u0120rel": 622, "ire": 623, "ern": 624, "gh": 625, "ert": 626, "ible": 627, "\u0120pr": 628, "\u0120|": 629, "ons": 630, "ities": 631, "come": 632, "\u0120webs": 633, "pect": 634, "get": 635, "\u0120know": 636, "\u0120however": 637, "ied": 638, "\u0120much": 639, "\u0120view": 640, "oc": 641, "\u0120every": 642, "\u0120member": 643, "\u0120market": 644, "\u0120support": 645, "\u0120get": 646, "\u0120fun": 647, "\u0120if": 648, "\u0120ind": 649, "\u0120room": 650, "ational": 651, "ile": 652, "ru": 653, "uc": 654, "\u0120product": 655, "\u0120were": 656, "ial": 657, "\u0120af": 658, "\u0120therefore": 659, "\u0120public": 660, "\u0120propos": 661, "\u012012": 662, "\u0120website": 663, "ms": 664, "\u0120use": 665, "\u0120ms": 666, "\u0120agree": 667, "\u0120case": 668, "ep": 669, "\u0120cle": 670, "\u0120mad": 671, "\u0120ap": 672, "ces": 673, "\u0120mon": 674, "\u0120sub": 675, "resent": 676, "\u0120important": 677, "\u0120represent": 678, "\u0120who": 679, "\u0120dec": 680, "ough": 681, "\u0120sw": 682, "\u0120general": 683, "\u0120iss": 684, "\u0120over": 685, "\u0120des": 686, "\u0120find": 687, "ious": 688, "ility": 689, "hing": 690, "lia": 691, "ention": 692, "\u012010": 693, "\u0120peop": 694, "\u0120proble": 695, "ind": 696, "\u0120may": 697, "\u0120contacts": 698, "\u0120make": 699, "\u0120items": 700, "ild": 701, "mar": 702, "\u0120ass": 703, "ord": 704, "lause": 705, "ussels": 706, "\u0120under": 707, "\u0120them": 708, "cept": 709, "ft": 710, "\u0120mo": 711, "\u0120requ": 712, "ange": 713, "\u0120mod": 714, "\u0120bet": 715, "\u0120development": 716, "ful": 717, "\u0120sit": 718, "\u0120ob": 719, "\u0120mat": 720, "\u0120conclus": 721, "\u0120ent": 722, "app": 723, "\u0120well": 724, "ulture": 725, "\u0120cur": 726, "\u0120brussels": 727, "ans": 728, "eration": 729, "ory": 730, "rent": 731, "\u0120people": 732, "10": 733, "000": 734, "\u0120hel": 735, "\u0120exp": 736, "\u0120net": 737, "\u0120justice": 738, "\u0120today": 739, "\u0120wr": 740, "\u0120finan": 741, "\u0120economic": 742, "liament": 743, "erman": 744, "\u0120inst": 745, "\u0120programme": 746, "\u0120look": 747, "\u0120main": 748, "\u0120many": 749, "\u0120wel": 750, "\u0120diff": 751, "own": 752, "\u0120ed": 753, "\u0120lat": 754, "\u0120tr": 755, "\u0120world": 756, "\u0120let": 757, "ual": 758, "ward": 759, "ose": 760, "\u0120adop": 761, "\u0120sol": 762, "\u0120ke": 763, "30": 764, "\u0120vis": 765, "\u0120cent": 766, "\u0120col": 767, "ants": 768, "\u0120too": 769, "\u0120which": 770, "wn": 771, "\u0120conf": 772, "\u0120syst": 773, "iron": 774, "\u0120imp": 775, "\u0120env": 776, "\u0120following": 777, "igh": 778, "\u0120minut": 779, "\u0120inter": 780, "\u0120sim": 781, "\u0120car": 782, "\u012019": 783, "uation": 784, ").": 785, "\u0120think": 786, "\u0120commun": 787, "\u0120then": 788, "cret": 789, "ux": 790, "\u0120z": 791, "\u0120best": 792, "\u0120jo": 793, "ium": 794, "\u0120def": 795, "\u0120open": 796, "\u0120their": 797, "\u0120wat": 798, "\u0120happ": 799, "als": 800, "ount": 801, "\u0120sch": 802, "ironment": 803, "ues": 804, "ina": 805, "\u0120host": 806, "\u0120ac": 807, "ents": 808, "\u0120disc": 809, "ik": 810, "io": 811, "aly": 812, "\u0120trade": 813, "\u0120conclusions": 814, "\u0120environment": 815, "\u0120process": 816, "\u0120long": 817, "\u0120german": 818, "\u012011": 819, "\u0120secret": 820, "\u0120bu": 821, "\u0120dep": 822, "\u0120particip": 823, "\u0120free": 824, "\u0120val": 825, "200": 826, "\u0120agric": 827, "\u0120minutes": 828, "\u0120+": 829, "\u0120way": 830, "ics": 831, "\u0120sm": 832, "ks": 833, "\u0120ref": 834, "\u0120fran": 835, "\u0120conc": 836, "\u0120start": 837, "\u0120prot": 838, "35": 839, "\u0120into": 840, "\u0120loc": 841, "oup": 842, "\u0120great": 843, "\u0120cr": 844, "applause": 845, "\u0120book": 846, "rib": 847, "ified": 848, "\u0120rem": 849, "les": 850, "\u0120current": 851, "\u0120inte": 852, "\u0120clear": 853, "\u0120social": 854, "\u0120cre": 855, "\u0120eff": 856, "\u0120commit": 857, "ural": 858, "\u0120bus": 859, "arge": 860, "\u0120det": 861, "\u0120most": 862, "\u0120pers": 863, "\u0120est": 864, "\u012014": 865, "ec": 866, "not": 867, "\u0120end": 868, "ady": 869, "\u0120action": 870, "bour": 871, "arch": 872, "\u0120adopted": 873, "\u0120relations": 874, "\u0120where": 875, "\u0120proced": 876, "\u0120bar": 877, "\u0120incl": 878, "the": 879, "par": 880, "\u0120protect": 881, "\u0120perman": 882, "ania": 883, "\u0120ter": 884, "\u0120permanent": 885, "\u0120sc": 886, "\u0120representative": 887, "urn": 888, "\u0120ext": 889, "\u0120transport": 890, "fe": 891, "\u0120dat": 892, "\u0120financial": 893, "\u0120meas": 894, "\u0120sec": 895, "ality": 896, "ustri": 897, "ages": 898, "\u0120ener": 899, "\u0120fo": 900, "ices": 901, "\u0120against": 902, "king": 903, "\u0120last": 904, "ives": 905, "\u0120project": 906, "\u0120leg": 907, "\u0120dem": 908, "\u0120secon": 909, "ency": 910, "\u0120cor": 911, "\u0120num": 912, "\u0120home": 913, "\u0120play": 914, "\u0120199": 915, "\u0120del": 916, "\u0120poss": 917, "\u0120prov": 918, "\u0120set": 919, "ited": 920, "\u0120situation": 921, "\u0120result": 922, "chn": 923, "ath": 924, "\u0120som": 925, "\u0120speak": 926, "\u0120group": 927, "\u0120att": 928, "\u0120energy": 929, "\u0120say": 930, "ont": 931, "\u0120welcome": 932, "wor": 933, "\u0120cost": 934, "\u0120list": 935, "\u0120decis": 936, "operation": 937, "\u0120high": 938, "\u0120den": 939, "\u0120rec": 940, "ific": 941, "\u0120years": 942, "rest": 943, "\u0120system": 944, "illion": 945, "\u0120inf": 946, "ze": 947, "11": 948, "\u0120three": 949, "yp": 950, "ular": 951, "\u0120resp": 952, "\u012015": 953, "ism": 954, "\u0120service": 955, "loy": 956, "\u0120secretary": 957, "\u0120made": 958, "\u0120down": 959, "\u0120form": 960, "\u0120tom": 961, "ict": 962, "pet": 963, "\u0120still": 964, "\u0120cannot": 965, "\u0120area": 966, "lish": 967, "\u0120ev": 968, "\u0120invest": 969, "\u0120exam": 970, "\u0120without": 971, "\u0120slo": 972, "\u0120problem": 973, "\u0120help": 974, "\u0120his": 975, "\u012020": 976, "\u0120concern": 977, "\u0120agreement": 978, "\u0120includ": 979, "\u0120fl": 980, "way": 981, "\u0120int": 982, "\u0120change": 983, "\u0120amend": 984, "ner": 985, "\u0120prior": 986, "\u0120after": 987, "cu": 988, "\u0120states": 989, "oth": 990, "\u0120hostels": 991, "ier": 992, "eu": 993, "sw": 994, "\u0120did": 995, "\u0120second": 996, "ieve": 997, "ploy": 998, "ef": 999, "\u0120ban": 1000, "\u0120bas": 1001, "\u0120med": 1002, "\u0120court": 1003, "\u0120ho": 1004, "\u0120fact": 1005, "\u0120fish": 1006, "\u0120spain": 1007, "we": 1008, "\u0120italy": 1009, "\u0120countries": 1010, "ning": 1011, "\u0120pay": 1012, "\u0120call": 1013, "lands": 1014, "\u0120day": 1015, "\u0120differen": 1016, "\u0120next": 1017, "\u0120questions": 1018, "\u0120agriculture": 1019, "\u0120found": 1020, "\u0120bre": 1021, "elf": 1022, "ii": 1023, "\u0120tot": 1024, "\u0120ful": 1025, "\u0120somet": 1026, "rol": 1027, "\u0120rest": 1028, "\u0120such": 1029, "ract": 1030, "\u0120air": 1031, "\u0120aut": 1032, "ves": 1033, "\u0120lux": 1034, "\u0120techn": 1035, "uty": 1036, "\u0120germany": 1037, "orrow": 1038, "\u0120course": 1039, "\u0120art": 1040, "\u00e2\u0124": 1041, "\u00e2\u0124\u00ac": 1042, "\u0120same": 1043, "bourg": 1044, "line": 1045, "\u0120finance": 1046, "\u0120far": 1047, "\u0120products": 1048, "\u0120could": 1049, "\u0120parliament": 1050, "\u0120cooperation": 1051, "12": 1052, "mark": 1053, "urity": 1054, "\u0120before": 1055, "\u0120visit": 1056, "\u0120stand": 1057, "pa": 1058, "\u0120tomorrow": 1059, "\u0120comple": 1060, "\u0120click": 1061, "\u0120compet": 1062, "\u0120own": 1063, "\u0120fut": 1064, "\u012013": 1065, "\u0120bl": 1066, "\u0120participants": 1067, "\u0120295": 1068, "\u0120page": 1069, "\u0120access": 1070, "mm": 1071, "\u0120issue": 1072, "ouse": 1073, "vers": 1074, "\u0120approved": 1075, "\u0120views": 1076, "ating": 1077, "\u0120read": 1078, "\u0120fre": 1079, "ca": 1080, "\u0120answ": 1081, "\u0120port": 1082, "\u0120done": 1083, "\u01202009": 1084, "\u0120directive": 1085, "\u0120anne": 1086, "\u0120x": 1087, "\u0120tak": 1088, "\u0120measures": 1089, "\u0120future": 1090, "ines": 1091, "\u0120meet": 1092, "\u0120belg": 1093, "\u0120sect": 1094, "\u0120her": 1095, "\u0120resol": 1096, "\u0120security": 1097, "iness": 1098, "\u0120cap": 1099, "\u0120detail": 1100, "\u0120even": 1101, "ros": 1102, "\u0120contin": 1103, "\u0120region": 1104, "\u0120number": 1105, "\u0120el": 1106, "\u0120committe": 1107, "\u0120shall": 1108, "\u0120rom": 1109, "\u0120reas": 1110, "\u0120austri": 1111, "its": 1112, "hip": 1113, "comm": 1114, "\u0120matter": 1115, "\u0120eas": 1116, "\u0120tel": 1117, "ung": 1118, "\u0120fund": 1119, "\u0120hum": 1120, "ale": 1121, "ready": 1122, "ix": 1123, "\u0120met": 1124, "\u0120bud": 1125, "\u0120ire": 1126, "raph": 1127, "\u0120already": 1128, "\u0120had": 1129, "\u0120polit": 1130, "\u0120er": 1131, "20": 1132, "\u0120data": 1133, "\u0120che": 1134, "\u0120compan": 1135, "\u0120annex": 1136, "ways": 1137, "\u0120come": 1138, "ption": 1139, "\u0120ireland": 1140, "\u0120million": 1141, "\u0120possible": 1142, "embourg": 1143, "old": 1144, "he": 1145, "ered": 1146, "\u0120red": 1147, "olog": 1148, "ving": 1149, "\u0120total": 1150, "\u0120belgium": 1151, "\u0120plan": 1152, "\u0120po": 1153, "\u0120protection": 1154, "\u0120luxembourg": 1155, "red": 1156, "\u0120austria": 1157, "ger": 1158, "\u0120ask": 1159, "minister": 1160, "\u0120republic": 1161, "qui": 1162, "gan": 1163, "\u0120something": 1164, "\u00c3\u00bc": 1165, "\u0120cert": 1166, "\u0120rights": 1167, "\u0120committee": 1168, "eden": 1169, "itting": 1170, "\u012018": 1171, "\u0120business": 1172, "\u0120fav": 1173, "ulation": 1174, "\u0120ant": 1175, "herlands": 1176, "ules": 1177, "\u0120adv": 1178, "\u00c3\u00b6": 1179, "\u0120mrs": 1180, "alth": 1181, "\u0120employ": 1182, "\u0120war": 1183, "\u0120object": 1184, "\u012030": 1185, "\u0120real": 1186, "ession": 1187, "work": 1188, "\u0120happen": 1189, "\u0120rev": 1190, "\u0120proposal": 1191, "\u0120ip": 1192, "per": 1193, "ases": 1194, "led": 1195, "\u0120netherlands": 1196, "ital": 1197, "\u0120ca": 1198, "bers": 1199, "\u0120strate": 1200, "\u0120,": 1201, "ately": 1202, "ten": 1203, "\u0120fig": 1204, "\u01202007": 1205, "co": 1206, "\u0120human": 1207, "\u0120key": 1208, "ternal": 1209, "\u0120budget": 1210, "\u0120really": 1211, "\u0120summ": 1212, "\u0120order": 1213, "\u0120pack": 1214, "\u0120subject": 1215, "\u012025": 1216, "\u0120person": 1217, "\u0120sitting": 1218, "\u0120lang": 1219, "\u0120select": 1220, "\u012016": 1221, "\u0120child": 1222, "\u0120bal": 1223, "\u0120special": 1224, "\u0120always": 1225, "str": 1226, "ily": 1227, "iel": 1228, "ins": 1229, "\u0120sur": 1230, "\u0120sweden": 1231, "\u0120each": 1232, "\u0120votes": 1233, "\u0120finland": 1234, "\u0120nat": 1235, "\u0120fr": 1236, "\u0120procedure": 1237, "ised": 1238, "\u0120different": 1239, "ows": 1240, "\u0120hope": 1241, "\u0120\u00e2\u0124\u00ac": 1242, "\u0120ur": 1243, "ety": 1244, "\u0120aid": 1245, "\u0120common": 1246, "\u0120external": 1247, "\u0120voted": 1248, "bal": 1249, "\u0120u": 1250, "\u0120both": 1251, "\u0120services": 1252, "\u0120ann": 1253, "\u0120control": 1254, "40": 1255, "\u0120rooms": 1256, "search": 1257, "eng": 1258, "\u0120rules": 1259, "\u0120break": 1260, "nt": 1261, "\u0120health": 1262, "ower": 1263, "\u0120she": 1264, "\u0120research": 1265, "\u0120better": 1266, "fort": 1267, "ains": 1268, "\u0120docu": 1269, "ird": 1270, "\u0120denmark": 1271, "\u0120resolution": 1272, "\u0120sk": 1273, "iting": 1274, "\u0120being": 1275, "\u0120text": 1276, "\u0120grow": 1277, "\u0120word": 1278, "\u0120tax": 1279, "\u012017": 1280, "gar": 1281, "\u0120points": 1282, "\u0120international": 1283, "\u0120upd": 1284, "\u0120cust": 1285, "\u0120sign": 1286, "\u0120request": 1287, "\u0120favour": 1288, "ners": 1289, "ince": 1290, "\u0120eng": 1291, "\u0120house": 1292, "\u0120langu": 1293, "\u0120present": 1294, "mail": 1295, "\u0120oper": 1296, "\u0120ide": 1297, "\u0120prev": 1298, "\u0120custom": 1299, "\u0120cam": 1300, "\u0120inn": 1301, "\u0120es": 1302, "\u0120put": 1303, "\u0120rece": 1304, "\u01202010": 1305, "\u0120pur": 1306, "vern": 1307, "\u0120mob": 1308, "\u0120impro": 1309, "\u0120ben": 1310, "\u0120elect": 1311, "\u0120reform": 1312, "ient": 1313, "\u0120dist": 1314, "\u0120small": 1315, "\u0120jan": 1316, "\u0120speci": 1317, "\u0120forward": 1318, "iss": 1319, "itter": 1320, "):": 1321, "ration": 1322, "\u0120online": 1323, "\u0120wish": 1324, "\u0120results": 1325, "ek": 1326, "\u0120those": 1327, "\u0120country": 1328, "\u0120link": 1329, "\u0120thr": 1330, "\u0120offer": 1331, "\u0120cho": 1332, "\u0120needs": 1333, "\u0120incre": 1334, "\u0120few": 1335, "\u0120exc": 1336, "\u0120expl": 1337, "other": 1338, "\u0120educ": 1339, "\u01202008": 1340, "\u0120yet": 1341, "\u0120things": 1342, "\u0120accept": 1343, "load": 1344, "\u0120believe": 1345, "\u0120certain": 1346, "ond": 1347, "\u0120step": 1348, "\u0120ju": 1349, "\u0120tal": 1350, "\u0120effect": 1351, "quiries": 1352, "\u0120char": 1353, "bo": 1354, "\u0120debated": 1355, "\u0120treat": 1356, "\u0120ret": 1357, "\u0120answer": 1358, "\u0120ach": 1359, "\u0120gre": 1360, "thing": 1361, "\u0120*": 1362, "\u0120used": 1363, "ased": 1364, "erence": 1365, "\u0120life": 1366, "itten": 1367, "\u0120cut": 1368, "ocr": 1369, "\u0120prom": 1370, "15": 1371, "\u0120address": 1372, "ring": 1373, "az": 1374, "\u0120require": 1375, "\u0120give": 1376, "\u0120consum": 1377, "\u0120deputy": 1378, "\u0120[": 1379, "\u0120mak": 1380, "ols": 1381, "eries": 1382, "oney": 1383, "\u0120fri": 1384, "uring": 1385, "\u0120ins": 1386, "\u0120particular": 1387, "\u0120fam": 1388, "\u0120succ": 1389, "ards": 1390, "\u0120written": 1391, "ced": 1392, "\u0120decision": 1393, "\u0120full": 1394, "ral": 1395, "\u0120pass": 1396, "oy": 1397, "\u0120ge": 1398, "ior": 1399, "\u0120!": 1400, "iven": 1401, "\u0120hand": 1402, "\u0120nor": 1403, "\u0120through": 1404, "mber": 1405, "plement": 1406, "\u0120chang": 1407, "\u0120political": 1408, "\u0120law": 1409, "\u0120hol": 1410, "ban": 1411, "\u0120tour": 1412, "\u0120win": 1413, "\u0120sta": 1414, "\u0120chr": 1415, "\u0120details": 1416, "\u0120equ": 1417, "\u0120education": 1418, "ween": 1419, "\u0120since": 1420, "une": 1421, "\u0120taken": 1422, "ting": 1423, "\u0120third": 1424, "\u0120train": 1425, "\u0120members": 1426, "\u0120france": 1427, "\u0120between": 1428, "\u0120city": 1429, "\u0120pa": 1430, "ps": 1431, "\u0120success": 1432, "02": 1433, "\u0120never": 1434, "\u0120communic": 1435, "\u0120govern": 1436, "onia": 1437, "ware": 1438, "\u0120poland": 1439, "atic": 1440, "iter": 1441, "\u0120twitter": 1442, "\u0120going": 1443, "ibility": 1444, "\u0120interest": 1445, "\u0120pat": 1446, "46": 1447, "ember": 1448, "\u0120jud": 1449, "acy": 1450, "\u0120issues": 1451, "\u0120implement": 1452, "\u0120example": 1453, "\u0120strategy": 1454, "\u0120fil": 1455, "ts": 1456, "\u0120internal": 1457, "\u0120assist": 1458, "\u0120employment": 1459, "\u0120hung": 1460, "\u0120flo": 1461, "\u0120organ": 1462, "\u0120turn": 1463, "\u0120site": 1464, "\u0120price": 1465, "\u0120inquiries": 1466, "\u0120short": 1467, "hor": 1468, "\u0120sing": 1469, "\u0120amendment": 1470, "ars": 1471, "rus": 1472, "\u0120money": 1473, "iti": 1474, "isation": 1475, "\u0120/": 1476, "\u0120national": 1477, "\u0120lab": 1478, "\u0120figures": 1479, "\u0120name": 1480, "\u0120priority": 1481, "ys": 1482, "\u0120apart": 1483, "ests": 1484, "\u0120fisheries": 1485, "\u0120vi": 1486, "\u0120community": 1487, "ann": 1488, "\u0120fa": 1489, "\u0120respons": 1490, "\u012024": 1491, "\u0120four": 1492, "\u0120days": 1493, "men": 1494, "go": 1495, "arn": 1496, "ute": 1497, "09": 1498, "\u0120mer": 1499, "\u0120inde": 1500, "ty": 1501, "\u0120news": 1502, "\u0120lot": 1503, "\u0120democr": 1504, "via": 1505, "\u0120quite": 1506, "\u0120expect": 1507, "\u0120enough": 1508, "\u0120another": 1509, "\u0120pric": 1510, "\u0120quality": 1511, "\u0120ve": 1512, "\u0120yes": 1513, "\u0120competition": 1514, "ari": 1515, "\u0120nothing": 1516, "\u0120noon": 1517, "\u0120activ": 1518, "13": 1519, "\u0120glo": 1520, "\u0120sou": 1521, "\u0120pet": 1522, "\u0120phone": 1523, "\u0120children": 1524, "\u0120prin": 1525, "\u0120ii": 1526, "\u0120consid": 1527, "\u0120united": 1528, "\u0120web": 1529, "\u012022": 1530, "\u0120cyp": 1531, "\u0120bul": 1532, "\u0120dr": 1533, "alog": 1534, "\u0120investment": 1535, "\u0120contrib": 1536, "\u0120water": 1537, "pres": 1538, "\u0120old": 1539, "\u0120specif": 1540, "vak": 1541, "\u0120ris": 1542, "\u0120christ": 1543, "\u0120note": 1544, "orth": 1545, "\u0120version": 1546, "\u012028": 1547, "\u0120less": 1548, "\u0120bri": 1549, "ather": 1550, "got": 1551, "ability": 1552, "\u012045": 1553, "\u0120mot": 1554, "\u0120maj": 1555, "\u0120addition": 1556, "\u0120download": 1557, "\u0120cyprus": 1558, "ually": 1559, "\u0120recomm": 1560, "\u0120lim": 1561, "03": 1562, "\u0120aud": 1563, "\u0120approach": 1564, "eri": 1565, "ided": 1566, "\u0120check": 1567, "\u0120tur": 1568, "\u0120sector": 1569, "\u0120final": 1570, "\u0120projects": 1571, "\u0120recommend": 1572, "\u0120cit": 1573, "org": 1574, "que": 1575, "\u0120reason": 1576, "df": 1577, "\u0120dou": 1578, "ash": 1579, "\u0120internet": 1580, "\u0120unt": 1581, "\u0120hungary": 1582, "\u0120manage": 1583, "\u0120problems": 1584, "dit": 1585, "98": 1586, "\u00c3\u00a4": 1587, "ize": 1588, "gin": 1589, "zech": 1590, "cess": 1591, "ides": 1592, "na": 1593, "\u0120food": 1594, "\u0120meeting": 1595, "ock": 1596, "\u0120dra": 1597, "ension": 1598, "utions": 1599, "enda": 1600, "\u0120top": 1601, "\u0120currently": 1602, "stand": 1603, "\u0120lead": 1604, "\u0120prof": 1605, "\u0120priv": 1606, "\u0120run": 1607, "\u0120stud": 1608, "\u0120speaker": 1609, "\u0120level": 1610, "\u0120terr": 1611, "\u0120progress": 1612, ".:": 1613, "16": 1614, "\u0120friend": 1615, "\u0120tri": 1616, "\u0120enter": 1617, "uff": 1618, "parliament": 1619, "\u0120post": 1620, "\u0120wind": 1621, "\u0120rele": 1622, "dom": 1623, "\u0120phot": 1624, "\u0120sloven": 1625, "\u0120assistance": 1626, "ype": 1627, "med": 1628, "\u0120czech": 1629, "urs": 1630, "\u0120enl": 1631, "club": 1632, "\u0120global": 1633, "itor": 1634, "\u0120bed": 1635, "ists": 1636, "\u0120author": 1637, "\u0120easy": 1638, "\u0120regulation": 1639, "\u0120prices": 1640, "ah": 1641, "lation": 1642, "\u0120consult": 1643, "imate": 1644, "ithu": 1645, "\u0120areas": 1646, "\u0120princi": 1647, "75": 1648, "352": 1649, "\u0120innov": 1650, "\u0120fac": 1651, "\u0120sl": 1652, "\u0120pap": 1653, "ott": 1654, "ica": 1655, "\u0120account": 1656, "\u0120true": 1657, "\u0120indust": 1658, "\u0120build": 1659, "erv": 1660, "\u0120cod": 1661, "\u0120id": 1662, "\u0120partners": 1663, "\u0120comments": 1664, "\u0120waters": 1665, "\u0120citiz": 1666, "14": 1667, "ler": 1668, "\u0120regional": 1669, "\u0120beh": 1670, "\u0120deal": 1671, "\u0120office": 1672, "\u0120slovenia": 1673, "\u0120move": 1674, "be": 1675, "\u0120july": 1676, "\u0120fiel": 1677, "\u0120design": 1678, "\u0120cris": 1679, "\u0120company": 1680, "\u0120bro": 1681, "\u0120agenda": 1682, "\u0120around": 1683, "\u0120single": 1684, "\u0120june": 1685, "itted": 1686, "joy": 1687, "\u0120stat": 1688, "\u0120supp": 1689, "\u0120allow": 1690, "\u0120russ": 1691, "\u0120experi": 1692, "\u0120big": 1693, "ness": 1694, "\u0120language": 1695, "\u0120enjoy": 1696, "\u0120hostelsclub": 1697, "\u0120uni": 1698, "\u0120share": 1699, "\u0120wa": 1700, "\u0120applic": 1701, "\u0120pract": 1702, "fast": 1703, "\u0120working": 1704, "ples": 1705, "ceed": 1706, "97": 1707, "\u0120mich": 1708, "\u0120growth": 1709, "\u0120mal": 1710, "\u0120&": 1711, "ithuania": 1712, "rency": 1713, "\u0120king": 1714, "\u0120artic": 1715, "96": 1716, "leg": 1717, "\u0120gl": 1718, "\u0120sea": 1719, "22": 1720, "\u0120mil": 1721, "\u0120until": 1722, "\u0120legis": 1723, "\u0120mention": 1724, "ross": 1725, "val": 1726, "\u0120month": 1727, "\u0120?": 1728, "pr": 1729, "cri": 1730, "\u012021": 1731, "\u0120tele": 1732, "ters": 1733, "\u0120estonia": 1734, "\u0120culture": 1735, "\u0120fram": 1736, "\u0120aim": 1737, "\u0120contents": 1738, "\u0120slovak": 1739, "50": 1740, "\u0120opin": 1741, "\u0120wom": 1742, "ought": 1743, "\u0120sal": 1744, "\u0120lithuania": 1745, "ification": 1746, "\u0120comment": 1747, "\u0120means": 1748, "ultural": 1749, "\u0120position": 1750, "\u0120respect": 1751, "\u0120initi": 1752, "\u0120litt": 1753, "\u0120conference": 1754, "\u0120continue": 1755, "\u0120breakfast": 1756, "\u0120bank": 1757, "mb": 1758, "ime": 1759, "\u0120non": 1760, "\u0120become": 1761, "\u0120head": 1762, "\u0120regions": 1763, "ply": 1764, "\u0120blo": 1765, "\u0120vice": 1766, "\u0120him": 1767, "\u0120bulgar": 1768, "\u0120prod": 1769, "\u0120date": 1770, "\u0120mid": 1771, "\u0120latvia": 1772, "ias": 1773, "ense": 1774, "\u0120looking": 1775, "\u0120pict": 1776, "ood": 1777, "\u0120little": 1778, "itive": 1779, "\u0120romania": 1780, "\u0120ear": 1781, "\u0120crisis": 1782, "\u0120ec": 1783, "\u0120mean": 1784, "\u0120abs": 1785, "\u0120ste": 1786, "ources": 1787, "\u0120eur": 1788, "\u0120decl": 1789, "ruct": 1790, "\u0120major": 1791, "\u0120power": 1792, "\u0120management": 1793, "\u0120latest": 1794, "\u0120thing": 1795, "\u0120mobile": 1796, "\u0120industry": 1797, "\u0120staff": 1798, "\u0120dri": 1799, "vention": 1800, "\u0120ce": 1801, "gest": 1802, "und": 1803, "ody": 1804, "\u0120enlarge": 1805, "ove": 1806, "\u0120saf": 1807, "\u0120reach": 1808, "mes": 1809, "ote": 1810, "\u0120simply": 1811, "president": 1812, "\u0120sat": 1813, "\u0120china": 1814, "\u0120appl": 1815, "\u0120portug": 1816, "ustain": 1817, "\u0120citizens": 1818, "\u0120frame": 1819, "),": 1820, "\u0120mom": 1821, "\u0120necess": 1822, "\u0120specific": 1823, "95": 1824, "lex": 1825, "\u0120presid": 1826, "\u0120offers": 1827, "\u0120technical": 1828, "\u0120judg": 1829, "ology": 1830, "\u0120cat": 1831, "\u0120struct": 1832, "\u0120tools": 1833, "\u0120296": 1834, "\u0120benef": 1835, "\u0120march": 1836, "\u0120floor": 1837, "\u0120pdf": 1838, "\u0120bulgaria": 1839, "ling": 1840, "\u0120dim": 1841, "\u0120care": 1842, "\u0120graph": 1843, "\u0120whole": 1844, "\u0120doing": 1845, "\u0120economy": 1846, "over": 1847, "\u0120ple": 1848, "\u0120pal": 1849, "rem": 1850, "\u0120night": 1851, "\u0120gent": 1852, "\u0120presidency": 1853, "oura": 1854, "\u0120299": 1855, "\u0120mor": 1856, "\u0120instit": 1857, "\u0120transpa": 1858, "86": 1859, "\u0120package": 1860, "\u0120left": 1861, "\u0120statements": 1862, "wards": 1863, "\u0120cop": 1864, "\u012050": 1865, "\u0120@": 1866, "esc": 1867, "cing": 1868, "\u0120slovakia": 1869, "br": 1870, "\u0120fed": 1871, "33": 1872, "\u0120role": 1873, "\u0120email": 1874, "\u0120centre": 1875, "\u0120holid": 1876, "room": 1877, "\u0120land": 1878, "\u0120show": 1879, "\u0120concerns": 1880, "\u0120test": 1881, "\u0120green": 1882, "\u0120cal": 1883, "\u0120mess": 1884, "\u0120afric": 1885, "\u0120return": 1886, "\u0120away": 1887, "\u0120documents": 1888, "lin": 1889, "ave": 1890, "\u0120wal": 1891, "nes": 1892, "\u0120road": 1893, "\u0120training": 1894, "\u0120tar": 1895, "\u01202000": 1896, "201": 1897, "\u012027": 1898, "\u0120ele": 1899, "istry": 1900, "ision": 1901, "li": 1902, "ential": 1903, "ites": 1904, "\u0120enlargement": 1905, "\u0120send": 1906, "\u0120guests": 1907, "\u0120soft": 1908, "nect": 1909, "\u0120during": 1910, "va": 1911, "\u0120once": 1912, "ises": 1913, "\u0120000": 1914, "\u0120value": 1915, "raq": 1916, "\u0120dialog": 1917, "ma": 1918, "icult": 1919, "\u0120type": 1920, "\u0120difficult": 1921, "\u0120men": 1922, "\u0120amer": 1923, "\u0120review": 1924, "\u0120%": 1925, "ination": 1926, "\u0120words": 1927, "\u0120opinion": 1928, "\u0120mus": 1929, "ets": 1930, "\u0120legal": 1931, "45": 1932, "ator": 1933, "\u0120lad": 1934, "den": 1935, "\u0120sustain": 1936, "\u0120sever": 1937, "iod": 1938, "ently": 1939, "\u0120week": 1940, "\u0120pop": 1941, "\u0120opport": 1942, "key": 1943, "\u0120times": 1944, "\u0120joint": 1945, "\u0120added": 1946, "\u0120europ": 1947, "\u0120opt": 1948, "\u0120memo": 1949, "aps": 1950, "orn": 1951, "\u0120portugal": 1952, "\u0120integr": 1953, "\u0120san": 1954, "ante": 1955, "\u0120solution": 1956, "\u0120opportun": 1957, "gu": 1958, "ction": 1959, "\u0120everything": 1960, "\u0120remain": 1961, "\u0120\u0120": 1962, "\u0120hour": 1963, "\u0120modified": 1964, "\u0120proposals": 1965, "goti": 1966, "ki": 1967, "\u0120hist": 1968, "ocus": 1969, "ril": 1970, "\u0120chall": 1971, "self": 1972, "\u0120hard": 1973, "ean": 1974, "\u0120rate": 1975, "\u0120framework": 1976, "\u0120live": 1977, "\u0120interior": 1978, "\u0120defence": 1979, "ino": 1980, "\u0120statement": 1981, "\u012023": 1982, "\u01202006": 1983, "\u0120keep": 1984, "\u0120climate": 1985, "ource": 1986, "\u0120appe": 1987, "\u0120within": 1988, "\u0120discuss": 1989, "\u0120correct": 1990, "\u0120costs": 1991, "\u0120file": 1992, "alf": 1993, "\u0120negoti": 1994, "18": 1995, "303": 1996, "wh": 1997, "\u0120decisions": 1998, "\u0120moment": 1999, "rad": 2000, "\u0120processed": 2001, "\u0120ir": 2002, "\u0120include": 2003, "25": 2004, "\u0120100": 2005, "rule": 2006, "ussion": 2007, "af": 2008, "\u0120vide": 2009, "\u0120game": 2010, "\u0120deli": 2011, "\u0120understand": 2012, "\u0120strong": 2013, "\u0120kingdom": 2014, "17": 2015, "by": 2016, "\u0120pot": 2017, "\u0120learn": 2018, "\u0120several": 2019, "\u0120communication": 2020, "\u0120appoint": 2021, "\u0120located": 2022, "\u0120central": 2023, "ij": 2024, "\u0120given": 2025, "\u0120beach": 2026, "05": 2027, "mitted": 2028, "\u0120ministry": 2029, "\u0120location": 2030, "\u0120necessary": 2031, "\u0120vill": 2032, "\u0120conclud": 2033, "\u0120discussion": 2034, "\u0120stuff": 2035, "stat": 2036, "\u0120line": 2037, "fect": 2038, "unately": 2039, "\u0120nice": 2040, "\u0120feel": 2041, "04": 2042, "ka": 2043, "\u0120dont": 2044, "\u0120har": 2045, "\u0120kind": 2046, "\u0120install": 2047, "\u0120mac": 2048, "\u0120serious": 2049, "cause": 2050, "\u0120because": 2051, "\u0120regard": 2052, "gether": 2053, "\u0120together": 2054, "\u0120notified": 2055, "\u0120trad": 2056, "\u0120judgment": 2057, "ared": 2058, "\u0120gentle": 2059, "\u0120try": 2060, "\u0120procedures": 2061, "\u0120large": 2062, "aut": 2063, "imum": 2064, "\u0120graphics": 2065, "ule": 2066, "\u0120peace": 2067, "\u0120search": 2068, "27": 2069, "\u01204303": 2070, "\u0120assess": 2071, "\u0120consider": 2072, "\u0120innovation": 2073, ".)": 2074, "oul": 2075, "ats": 2076, "\u0120clean": 2077, "\u0120family": 2078, "\u0120women": 2079, "fer": 2080, "\u0120adds": 2081, "\u01202001": 2082, "ta": 2083, "\u0120simple": 2084, "\u0120government": 2085, "reng": 2086, "ene": 2087, "\u0120ber": 2088, "sh": 2089, "\u0120east": 2090, "ili": 2091, "\u0120priorities": 2092, "\u0120ladies": 2093, "\u0120below": 2094, "\u0120dece": 2095, "\u0120needed": 2096, "\u0120near": 2097, "\u0120april": 2098, "thers": 2099, "\u0120article": 2100, "sp": 2101, "\u012075": 2102, "\u0120transparency": 2103, "arity": 2104, "\u0120anim": 2105, "hn": 2106, "\u0120unfort": 2107, "itors": 2108, "\u012099": 2109, "\u0120const": 2110, "\u0120connect": 2111, "\u0120soon": 2112, "\u0120dom": 2113, "\u0120russia": 2114, "\u0120oct": 2115, "\u0120light": 2116, "\u0120improve": 2117, "ged": 2118, "\u0120sil": 2119, "elie": 2120, "\u0120van": 2121, "\u0120)": 2122, "\u0120perfect": 2123, "ilities": 2124, "\u0120exist": 2125, "\u0120resources": 2126, "\u0120attention": 2127, "\u0120gentlemen": 2128, "uary": 2129, "elves": 2130, "\u0120local": 2131, "\u0120consumer": 2132, "\u0120sure": 2133, "\u0120itself": 2134, "aur": 2135, "eur": 2136, "ising": 2137, "\u0120purpos": 2138, "\u0120period": 2139, "au": 2140, "duction": 2141, "\u0120begin": 2142, "rict": 2143, "\u0120makes": 2144, "\u0120commissions": 2145, "\u0120implementation": 2146, "\u01202005": 2147, "ames": 2148, "\u01202003": 2149, "ha": 2150, "\u0120eurostat": 2151, "\u012032": 2152, "\u0120capital": 2153, "\u0120safety": 2154, "\u0120mult": 2155, "ived": 2156, "\u0120certainly": 2157, "\u0120using": 2158, "\u0120wrong": 2159, "let": 2160, "\u0120orig": 2161, "\u0120reasons": 2162, "\u0120contribution": 2163, "ined": 2164, "06": 2165, "\u0120card": 2166, "\u0120close": 2167, "\u0120invol": 2168, "\u0120iv": 2169, "\u0120excell": 2170, "\u0120table": 2171, "\u0120longer": 2172, "\u0120bug": 2173, "\u0120vol": 2174, "\u0120rue": 2175, "\u0120var": 2176, "\u0120users": 2177, "ception": 2178, "\u0120sun": 2179, "\u0120session": 2180, "ery": 2181, "euro": 2182, "lished": 2183, "\u0120sci": 2184, "\u0120stop": 2185, "\u0120treaty": 2186, "\u0120additional": 2187, "ury": 2188, "\u0120accom": 2189, "\u0120turkey": 2190, "\u0120experience": 2191, "ized": 2192, "\u0120others": 2193, "\u0120brief": 2194, "\u0120paper": 2195, "31": 2196, "ng": 2197, "roes": 2198, "\u0120comfort": 2199, "\u012035": 2200, "\u0120uk": 2201, "\u0120federal": 2202, "\u0120tas": 2203, "do": 2204, "\u0120opp": 2205, "\u0120ess": 2206, "\u0120cas": 2207, "\u0120sport": 2208, "07": 2209, "atives": 2210, "\u0120subs": 2211, "unch": 2212, "\u0120proceed": 2213, "\u0120refer": 2214, "\u0120offic": 2215, "\u0120explan": 2216, "\u0120occ": 2217, "\u0120december": 2218, "\u0120south": 2219, "\u0120january": 2220, "\u0120guar": 2221, "\u0120democracy": 2222, "rength": 2223, "37": 2224, "\u0120comb": 2225, "\u0120everyone": 2226, "\u0120estab": 2227, "\u0120intro": 2228, "\u0120english": 2229, "\u0120aspect": 2230, "\u0120private": 2231, "\u0120ig": 2232, "\u0120restaur": 2233, "\u0120objectives": 2234, "\u0120gree": 2235, "\u01202002": 2236, "\u0120clearly": 2237, "\u0120achieve": 2238, "\u0120absol": 2239, "ateg": 2240, "\u0120amount": 2241, "ump": 2242, "ano": 2243, "\u0120hotels": 2244, "\u0120field": 2245, "\u0120media": 2246, "\u0120companies": 2247, "\u0120risk": 2248, "gs": 2249, "\u0120unfortunately": 2250, "\u01202004": 2251, "\u0120madam": 2252, "\u0120prepar": 2253, "\u0120target": 2254, "\u0120modern": 2255, "\u0120choose": 2256, "\u0120dialogue": 2257, "of": 2258, "\u0120team": 2259, "\u0120based": 2260, "\u0120origin": 2261, "dp": 2262, "\u0120civ": 2263, "idence": 2264, "\u0120extrem": 2265, "\u0120labour": 2266, "ss": 2267, "\u0120et": 2268, "\u0120indeed": 2269, "\u0120admin": 2270, "dle": 2271, "\u0120personal": 2272, "\u0120guarante": 2273, "\u0120297": 2274, "ron": 2275, "\u0120cases": 2276, "\u0120neelie": 2277, "\u0120km": 2278, "\u0120africa": 2279, "\u0120bi": 2280, "\u0120often": 2281, "\u012026": 2282, "!!": 2283, "\u0120thanks": 2284, "most": 2285, "\u0120quick": 2286, "\u0120]": 2287, "\u0120..": 2288, "\u0120network": 2289, "ivid": 2290, "\u0120max": 2291, "\u0120systems": 2292, "uel": 2293, "\u0120airport": 2294, "gen": 2295, "\u0120cro": 2296, "\u0120programmes": 2297, "355": 2298, "soci": 2299, "\u0120applause": 2300, "\u0120apartment": 2301, "\u0120rad": 2302, "ana": 2303, "ically": 2304, "\u0120promot": 2305, "\u0120rapport": 2306, "ba": 2307, "ober": 2308, "\u0120sustainable": 2309, "08": 2310, "\u0120later": 2311, "\u0120front": 2312, "mon": 2313, "\u0120function": 2314, "\u0120fight": 2315, "\u0120dig": 2316, "\u0120strength": 2317, "\u0120apply": 2318, "\u0120able": 2319, "pping": 2320, "\u0120via": 2321, "\u0120remains": 2322, "19": 2323, "\u0120soci": 2324, "\u0120infring": 2325, "\u0120cri": 2326, "\u0120class": 2327, "\u0120associ": 2328, "\u01202015": 2329, "ech": 2330, "ained": 2331, "\u0120content": 2332, "\u012093": 2333, "\u0120talk": 2334, "ify": 2335, "ret": 2336, "arian": 2337, "ither": 2338, "mental": 2339, "\u0120arri": 2340, "\u0120previous": 2341, "24": 2342, "\u0120code": 2343, "\u0120software": 2344, "\u0120voting": 2345, "\u0120civil": 2346, "\u0120infringe": 2347, "\u0120dan": 2348, "\u0120writing": 2349, "\u0120links": 2350, "\u0120forum": 2351, "\u0120respon": 2352, "uced": 2353, "bon": 2354, "\u0120kroes": 2355, "\u0120lu": 2356, "\u0120finally": 2357, "\u0120complet": 2358, "\u0120achie": 2359, "\u0120holiday": 2360, "hes": 2361, "rast": 2362, "\u0120applies": 2363, "\u0120october": 2364, "ming": 2365, "\u0120side": 2366, "\u0120excellent": 2367, "ences": 2368, "\u0120document": 2369, "199": 2370, "\u0120policies": 2371, "ditions": 2372, "\u0120categ": 2373, "\u0120bra": 2374, "\u0120regist": 2375, "\u0120updates": 2376, "\u0120proposed": 2377, "\u0120tem": 2378, "\u0120manag": 2379, "\u0120eib": 2380, "quis": 2381, "\u0120impact": 2382, "\u0120buy": 2383, "\u0120fair": 2384, "\u0120declar": 2385, "che": 2386, "\u0120amendments": 2387, "\u0120anti": 2388, "\u0120middle": 2389, "za": 2390, "\u0120response": 2391, "34": 2392, "\u0120oil": 2393, "\u0120indic": 2394, "grat": 2395, "\u0120amb": 2396, "\u0120actions": 2397, "\u0120works": 2398, "\u0120comes": 2399, "\u0120town": 2400, "att": 2401, "\u0120enc": 2402, "\u0120provide": 2403, "oud": 2404, "ended": 2405, "\u0120video": 2406, "\u0120extremely": 2407, "\u01203355": 2408, "\u0120happy": 2409, "\u0120scho": 2410, "cent": 2411, "pped": 2412, "\u0120feat": 2413, "\u0120freed": 2414, "igation": 2415, "igration": 2416, "\u0120follows": 2417, "\u0120congrat": 2418, "ensive": 2419, "\u0120principle": 2420, "\u0120source": 2421, "\u012002": 2422, "\u0120positive": 2423, "\u0120colom": 2424, "\u0120tell": 2425, "struct": 2426, "\u0120congratul": 2427, "\u0120create": 2428, "\u0120administ": 2429, "\u0120required": 2430, "atory": 2431, "\u0120mag": 2432, "\u0120hours": 2433, "erial": 2434, "\u0120du": 2435, "\u0120image": 2436, "\u0120receive": 2437, "ream": 2438, "\u0120fail": 2439, "\u0120obs": 2440, "ici": 2441, "\u0120andr": 2442, "\u0120park": 2443, "\u0120hear": 2444, "\u0120received": 2445, "\u0120individ": 2446, "\u0120descri": 2447, "\u0120included": 2448, "\u0120building": 2449, "\u0120partnership": 2450, "ton": 2451, "zer": 2452, "\u0120item": 2453, "\u0120exact": 2454, "\u0120waste": 2455, "\u0120activities": 2456, "\u0120months": 2457, "\u0120div": 2458, "ones": 2459, "\u0120eesc": 2460, "\u0120heart": 2461, "ires": 2462, "\u0120five": 2463, "\u0120bad": 2464, "aster": 2465, "\u0120pan": 2466, "\u0120focus": 2467, "\u0120super": 2468, "istics": 2469, "iet": 2470, "\u0120hon": 2471, "\u0120conditions": 2472, "fact": 2473, "\u0120aug": 2474, "\u0120bath": 2475, "urg": 2476, "pri": 2477, "\u0120option": 2478, "\u0120guid": 2479, "\u0120job": 2480, "eless": 2481, "\u0120assessment": 2482, "\u0120freedom": 2483, "\u0120convention": 2484, "hod": 2485, "icient": 2486, "\u0120regul": 2487, "21": 2488, "\u0120event": 2489, "\u0120negotiations": 2490, "ll": 2491, "\u0120eus": 2492, "\u0120log": 2493, "\u0120application": 2494, "well": 2495, "\u0120urg": 2496, "\u0120message": 2497, "\u0120546": 2498, "\u0120thus": 2499, "ening": 2500, "ively": 2501, "\u0120typ": 2502, "\u0120gener": 2503, "\u0120production": 2504, "iation": 2505, "iful": 2506, "\u0120pub": 2507, "\u0120responsibility": 2508, "\u0120music": 2509, "\u0120happened": 2510, "\u0120lar": 2511, "\u0120collect": 2512, "\u0120legislation": 2513, "\u0120purpose": 2514, "\u0120environmental": 2515, "enn": 2516, "\u0120der": 2517, "ja": 2518, "\u0120exch": 2519, "less": 2520, "\u0120beaut": 2521, "\u0120above": 2522, "\u0120sent": 2523, "\u0120submitted": 2524, "\u0120rent": 2525, "\u0120youth": 2526, "26": 2527, "\u0120force": 2528, "\u0120dev": 2529, "\u0120reports": 2530, "\u0120changes": 2531, "36": 2532, "ators": 2533, "\u0120cla": 2534, "\u0120accord": 2535, "\u0120distrib": 2536, "\u0120least": 2537, "head": 2538, "\u0120fis": 2539, "\u0120love": 2540, "ances": 2541, "\u0120hor": 2542, "\u0120young": 2543, "\u0120useful": 2544, "\u0120mentioned": 2545, "unic": 2546, "ptember": 2547, "\u0120double": 2548, "bru": 2549, "\u0120markets": 2550, "\u0120examples": 2551, "\u0120entire": 2552, "\u0120bell": 2553, "\u0120safe": 2554, "\u0120solid": 2555, "\u0120rapporteur": 2556, "\u0120pros": 2557, "\u0120christop": 2558, "\u0120society": 2559, "ini": 2560, "\u0120beautiful": 2561, "\u0120demand": 2562, "\u0120asked": 2563, "uge": 2564, "\u0120pie": 2565, "\u0120mov": 2566, "\u0120expected": 2567, "yl": 2568, "\u0120reject": 2569, "\u0120groups": 2570, "\u0120method": 2571, "\u0120completely": 2572, "%.": 2573, "\u0120stock": 2574, "\u0120nove": 2575, "\u0120fax": 2576, "\u0120da": 2577, "\u0120making": 2578, "2001": 2579, "\u0120wes": 2580, "\u0120north": 2581, "\u0120effort": 2582, "28": 2583, "\u0120maria": 2584, "\u0120298": 2585, "\u0120terror": 2586, "\u0120standard": 2587, "\u0120takes": 2588, "\u0120initiative": 2589, "\u0120suff": 2590, "pro": 2591, "itch": 2592, "\u0120called": 2593, "ade": 2594, "\u0120files": 2595, "\u0120q": 2596, "\u0120won": 2597, "\u0120got": 2598, "\u0120november": 2599, "\u0120gdp": 2600, "\u0120complete": 2601, "\u0120europes": 2602, "\u0120tick": 2603, "\u0120wall": 2604, "\u0120windows": 2605, "\u0120choice": 2606, "\u0120copy": 2607, "\u0120concludes": 2608, "\u0120gra": 2609, "\u0120reser": 2610, "\u0120steps": 2611, "\u0120oppos": 2612, "\u0120export": 2613, "\u0120dg": 2614, "ably": 2615, "\u0120basis": 2616, "\u0120payment": 2617, "\u0120sound": 2618, "\u0120funds": 2619, "\u0120georg": 2620, "\u0120univers": 2621, "\u0120gas": 2622, "utely": 2623, "por": 2624, "\u0120september": 2625, "\u0120defin": 2626, "\u0120idea": 2627, "\u0120bon": 2628, "ogn": 2629, "\u0120greece": 2630, "\u0120individual": 2631, "side": 2632, "\u0120tre": 2633, "\u0120anything": 2634, "38": 2635, "rid": 2636, "\u0120dam": 2637, "olf": 2638, "medi": 2639, "\u0120agricultural": 2640, "\u0120ol": 2641, "\u012004": 2642, "\u0120technology": 2643, "\u0120nature": 2644, "istan": 2645, "\u0120annual": 2646, "\u0120update": 2647, "\u0120age": 2648, "\u0120adj": 2649, "ada": 2650, "\u012007": 2651, "\u0120christopher": 2652, "\u0120charge": 2653, "\u0120customs": 2654, "\u0120space": 2655, "yn": 2656, "\u0120matters": 2657, "\u0120mart": 2658, "\u0120summit": 2659, "\u0120towards": 2660, "\u0120reply": 2661, "\u0120fully": 2662, "\u0120absolutely": 2663, "\u0120unac": 2664, "body": 2665, "ira": 2666, "\u0120alb": 2667, "\u0120agreements": 2668, "\u0120else": 2669, "\u0120objective": 2670, "bruary": 2671, "mod": 2672, "sequ": 2673, "\u0120perform": 2674, "\u0120summer": 2675, "order": 2676, "ured": 2677, "ging": 2678, "wa": 2679, "\u0120ic": 2680, "ization": 2681, "\u0120digital": 2682, "rastruct": 2683, "\u0120monitor": 2684, "\u0120size": 2685, "\u0120ever": 2686, "\u0120board": 2687, "\u0120forest": 2688, "ervation": 2689, "\u0120ident": 2690, "\u0120past": 2691, "\u0120standards": 2692, "\u0120cross": 2693, "coming": 2694, "\u0120recogn": 2695, "\u0120anto": 2696, "ga": 2697, "\u0120excl": 2698, "\u0120stability": 2699, "\u0120rail": 2700, "lear": 2701, "\u0120increase": 2702, "\u0120unaccept": 2703, "bar": 2704, "ograph": 2705, "\u0120approval": 2706, "\u0120february": 2707, "\u0120instru": 2708, "\u0120prop": 2709, "\u0120infrastruct": 2710, "\u0120achieved": 2711, "iveness": 2712, "ished": 2713, "\u0120ready": 2714, "\u0120white": 2715, "str\u00c3\u00b6": 2716, "\u0120task": 2717, "\u0120antoine": 2718, "ots": 2719, "\u0120leave": 2720, "\u0120changed": 2721, "cel": 2722, "crib": 2723, "hol": 2724, "isa": 2725, "\u0120material": 2726, "haps": 2727, "\u0120imm": 2728, "\u0120operational": 2729, "\u0120peter": 2730, "\u0120wed": 2731, "\u0120unacceptable": 2732, "39": 2733, "44": 2734, "\u0120mind": 2735, "\u0120travel": 2736, "\u0120declaration": 2737, "\u0120fren": 2738, "\u0120inc": 2739, "\u0120almost": 2740, "\u0120restaurant": 2741, "comes": 2742, "\u0120western": 2743, "off": 2744, "uk": 2745, "\u0120agency": 2746, "\u0120perhaps": 2747, "page": 2748, "\u0120quot": 2749, "\u0120displ": 2750, "inister": 2751, "\u0120crit": 2752, "\u0120funda": 2753, "\u0120cast": 2754, "\u0120mount": 2755, "\u0120bur": 2756, "ursday": 2757, "\u012040": 2758, "\u0120section": 2759, "\u0120sho": 2760, "\u0120picture": 2761, "\u0120seen": 2762, "\u0120round": 2763, "\u0120fill": 2764, "ouch": 2765, "aces": 2766, "\u0120tit": 2767, "\u0120mach": 2768, "\u0120station": 2769, "\u0120seems": 2770, "\u0120rates": 2771, "\u0120natural": 2772, "\u0120thursday": 2773, "\u0120west": 2774, "\u0120direction": 2775, "ita": 2776, "\u0120arch": 2777, "ark": 2778, "\u0120miss": 2779, "\u0120dest": 2780, "\u0120according": 2781, "ued": 2782, "bani": 2783, "vious": 2784, "\u0120il": 2785, "\u0120dang": 2786, "new": 2787, "\u0120consultation": 2788, "\u0120vo": 2789, "\u0120speech": 2790, "ians": 2791, "\u0120releases": 2792, "ony": 2793, "\u0120fer": 2794, "\u0120reality": 2795, "\u0120agre": 2796, "\u0120emer": 2797, "\u0120colombani": 2798, "\u0120sale": 2799, "\u0120explanations": 2800, "bia": 2801, "\u0120six": 2802, "ude": 2803, "\u0120fret": 2804, "\u0120exactly": 2805, "\u0120vict": 2806, "\u0120user": 2807, "ona": 2808, "\u0120terms": 2809, "\u0120brow": 2810, "\u0120ren": 2811, "\u0120actually": 2812, "\u0120director": 2813, "\u0120infringement": 2814, "\u0120iii": 2815, "\u0120ut": 2816, "\u0120cond": 2817, "\u0120directly": 2818, "\u0120opening": 2819, "\u0120talking": 2820, "\u0120history": 2821, "\u0120deleg": 2822, "\u0120bring": 2823, "hesion": 2824, "\u0120fretwell": 2825, "\u0120worth": 2826, "hib": 2827, "\u0120lin": 2828, "\u012031": 2829, "\u01202011": 2830, "hic": 2831, "\u0120mand": 2832, "\u0120subst": 2833, "\u0120opportunity": 2834, "\u0120croat": 2835, "55": 2836, "iard": 2837, "\u0120compu": 2838, "\u0120extra": 2839, "view": 2840, "\u0120goes": 2841, "\u0120bugt": 2842, "\u0120fall": 2843, "\u0120criter": 2844, "\u0120doub": 2845, "\u0120los": 2846, "\u0120summary": 2847, "\u0120preparation": 2848, "\u0120model": 2849, "\u01201999": 2850, "\u0120exchange": 2851, "ges": 2852, "uce": 2853, "asing": 2854, "resh": 2855, "\u0120ens": 2856, "roso": 2857, "\u0120lic": 2858, "\u0120appropri": 2859, "\u0120obvious": 2860, "88": 2861, "\u0120datab": 2862, "\u0120broad": 2863, "\u0120official": 2864, "ned": 2865, "\u0120vir": 2866, "\u0120events": 2867, "\u0120elements": 2868, "ael": 2869, "\u0120mis": 2870, "\u0120vass": 2871, "\u0120active": 2872, "\u01202013": 2873, "\u0120pool": 2874, "\u0120cir": 2875, "ova": 2876, "istic": 2877, "lax": 2878, "ola": 2879, "\u0120grand": 2880, "iterran": 2881, "\u0120essential": 2882, "phone": 2883, "vi": 2884, "\u0120facts": 2885, "\u0120flex": 2886, "\u0120cohesion": 2887, "eter": 2888, "\u0120depend": 2889, "\u0120ill": 2890, "\u0120sug": 2891, "\u0120path": 2892, "\u0120taxation": 2893, "light": 2894, "nis": 2895, "\u0120notes": 2896, "\u0120immedi": 2897, "\u0120ground": 2898, "\u0120funding": 2899, "29": 2900, "49": 2901, "ilt": 2902, "\u0120conver": 2903, "\u0120parts": 2904, "\u0120prep": 2905, "\u0120solutions": 2906, "\u0120statistics": 2907, "\u0120belliard": 2908, "itions": 2909, "itarian": 2910, "\u0120payments": 2911, "60": 2912, "\u0120lis": 2913, "ired": 2914, "\u0120ten": 2915, "\u0120half": 2916, "\u0120discussed": 2917, "inary": 2918, "\u0120alone": 2919, "ledge": 2920, "\u0120friendly": 2921, "\u0120fan": 2922, "\u0120august": 2923, "\u0120dav": 2924, "\u0120upon": 2925, "\u0120vehic": 2926, "\u0120americ": 2927, "iterranean": 2928, "fin": 2929, "uted": 2930, "\u0120goods": 2931, "\u0120record": 2932, "\u0120solidarity": 2933, "ilar": 2934, "\u0120construct": 2935, "\u0120save": 2936, "apan": 2937, "fully": 2938, "\u0120bugtraq": 2939, "\u0120cru": 2940, "enge": 2941, "\u0120conclusion": 2942, "\u0120particularly": 2943, "\u0120allowed": 2944, "\u0120fundamental": 2945, "\u0120fra": 2946, "ex": 2947, "gins": 2948, "\u0120face": 2949, "\u0120concerned": 2950, "amb": 2951, "\u012080": 2952, "\u0120started": 2953, "\u0120ideal": 2954, "\u0120pictures": 2955, "\u0120affect": 2956, "\u0120depart": 2957, "\u0120restrict": 2958, "anced": 2959, "\u0120vii": 2960, "\u0120approx": 2961, "\u0120school": 2962, "str\u00c3\u00b6m": 2963, "\u0120rule": 2964, "\u0120ours": 2965, "\u0120among": 2966, "raine": 2967, "\u0120jour": 2968, "\u0120valid": 2969, "\u0120friends": 2970, "\u0120propert": 2971, "\u0120croatia": 2972, "\u0120sens": 2973, "\u0120watch": 2974, "\u0120satis": 2975, "\u0120danger": 2976, "80": 2977, "\u0120mi": 2978, "2007": 2979, "\u0120viol": 2980, "\u0120partner": 2981, "\u012009": 2982, "\u012070": 2983, "\u0120print": 2984, "\u0120eval": 2985, "\u0120practice": 2986, "\u0120structural": 2987, "\u0120association": 2988, "\u0120french": 2989, "ob": 2990, "\u0120pen": 2991, "\u0120situ": 2992, "\u0120consequ": 2993, "\u0120credit": 2994, "65": 2995, "uclear": 2996, "\u0120signific": 2997, "rested": 2998, "elling": 2999, "\u0120purch": 3000, "\u0120ship": 3001, "ixed": 3002, "po": 3003, "\u0120kar": 3004, "\u0120provided": 3005, "\u0120challenge": 3006, "\u0120database": 3007, "47": 3008, "\u0120vac": 3009, "\u0120legisl": 3010, "\u0120aspects": 3011, "ein": 3012, "\u0120took": 3013, "emb": 3014, "\u0120shop": 3015, "\u0120ton": 3016, "\u0120ahead": 3017, "\u0120parking": 3018, "\u0120industri": 3019, "\u0120appointments": 3020, "berg": 3021, "lav": 3022, "\u0120values": 3023, "\u0120equip": 3024, "\u0120encoura": 3025, "\u0120infrastructure": 3026, "\u0120mist": 3027, "\u0120dia": 3028, "ims": 3029, "ival": 3030, "\u0120known": 3031, "\u0120creat": 3032, "ane": 3033, "\u0120autom": 3034, ");": 3035, "\u0120sam": 3036, "\u0120taking": 3037, "\u0120feed": 3038, "\u0120photos": 3039, "cal": 3040, "\u01202014": 3041, "\u0120includes": 3042, "\u0120merger": 3043, "iture": 3044, "\u0120dead": 3045, "cies": 3046, "1040": 3047, "\u0120effective": 3048, "\u0120profession": 3049, "\u0120agreed": 3050, "\u0120club": 3051, "pective": 3052, "ext": 3053, "\u0120yourself": 3054, "range": 3055, "\u0120financing": 3056, "\u0120charact": 3057, "\u0120behind": 3058, "\u0120criteria": 3059, "\u0120suggest": 3060, "\u0120low": 3061, "\u0120gon": 3062, "ored": 3063, "\u0120rather": 3064, "\u0120jobs": 3065, "\u0120created": 3066, "\u0120urban": 3067, "\u0120walk": 3068, "cast": 3069, "\u0120gard": 3070, "see": 3071, "\u0120held": 3072, "\u0120languages": 3073, "ories": 3074, "\u0120bit": 3075, "\u0120late": 3076, "uth": 3077, "\u0120fishing": 3078, "\u0120black": 3079, "\u0120capac": 3080, "ried": 3081, "\u0120similar": 3082, "umping": 3083, "\u0120fast": 3084, "\u0120relax": 3085, "\u0120altern": 3086, "\u0120register": 3087, "communic": 3088, "issions": 3089, "\u0120electric": 3090, "\u0120berlin": 3091, "\u0120comfortable": 3092, "ley": 3093, "chan": 3094, "\u0120michael": 3095, "ee": 3096, "ror": 3097, "\u0120thought": 3098, "\u0120mass": 3099, "\u0120nuclear": 3100, "\u0120sett": 3101, "\u0120warm": 3102, "\u0120tourism": 3103, "\u0120enterpr": 3104, "eth": 3105, "\u0120phil": 3106, "\u0120adopt": 3107, "\u0120category": 3108, "\u0120sense": 3109, "\u0120might": 3110, "\u0120commer": 3111, "\u0120seas": 3112, "works": 3113, "\u0120secondly": 3114, "\u0120advant": 3115, "\u0120constit": 3116, "ls": 3117, "mal": 3118, "word": 3119, "\u0120cham": 3120, "\u0120motion": 3121, "\u0120blog": 3122, "pend": 3123, "\u0120don": 3124, "\u0120die": 3125, "\u0120humanitarian": 3126, "where": 3127, "\u0120science": 3128, "--": 3129, "wise": 3130, "\u0120contract": 3131, "\u0120helpful": 3132, "\u0120cy": 3133, "\u0120either": 3134, "bert": 3135, "\u0120opened": 3136, "\u0120schem": 3137, "\u0120142": 3138, "\u0120contains": 3139, "\u0120launch": 3140, "\u0120pleased": 3141, "\u0120repl": 3142, "\u01202012": 3143, "\u0120balance": 3144, "\u0120confir": 3145, "\u0120farm": 3146, "itable": 3147, "\u0120kos": 3148, "employ": 3149, "\u0120persons": 3150, "\u0120iraq": 3151, "\u0120stage": 3152, "\u0120separ": 3153, "\u0120track": 3154, "\u0120basic": 3155, "\u0120customers": 3156, "\u0120accommod": 3157, "\u012065": 3158, "\u0120integration": 3159, "ering": 3160, "\u0120hold": 3161, "\u0120cover": 3162, "\u0120importance": 3163, "\u0120center": 3164, "\u0120blue": 3165, "\u0120industrial": 3166, "2000": 3167, "\u0120ang": 3168, "\u0120neigh": 3169, "\u0120drug": 3170, "\u0120lam": 3171, "\u0120happens": 3172, "\u0120auditors": 3173, "\u0120reached": 3174, "\u0120impos": 3175, "\u01209396": 3176, "\u0120limited": 3177, "\u0120menu": 3178, "85": 3179, "\u0120tor": 3180, "\u0120ey": 3181, "\u0120deep": 3182, "\u0120und": 3183, "23": 3184, "\u0120exec": 3185, "\u0120server": 3186, "\u0120box": 3187, "\u0120guarantee": 3188, "\u0120quickly": 3189, "\u0120display": 3190, "\u0120lisbon": 3191, "\u0120nav": 3192, "\u0120gonz": 3193, "\u0120answers": 3194, "\u0120america": 3195, "mas": 3196, "itzer": 3197, "\u0120stra": 3198, "\u012064": 3199, "\u0120simpl": 3200, "\u0120sus": 3201, "ena": 3202, "ether": 3203, "\u0120living": 3204, "\u0120comprom": 3205, "\u0120knowledge": 3206, "\u0120tv": 3207, "\u0120selector": 3208, "wal": 3209, "ero": 3210, "\u0120wonder": 3211, "\u0120tun": 3212, "\u0120star": 3213, "\u0120equipment": 3214, "\u0120japan": 3215, "\u0120shows": 3216, "\u0120reading": 3217, "\u0120challeng": 3218, "70": 3219, "ison": 3220, "\u0120outside": 3221, "\u0120michel": 3222, "\u0120involved": 3223, "\u0120subsid": 3224, "\u0120legislative": 3225, "\u0120hig": 3226, "\u0120react": 3227, "\u0120lack": 3228, "\u0120booking": 3229, "\u0120draft": 3230, "\u0120scre": 3231, "lement": 3232, "\u0120coord": 3233, "\u0120requirements": 3234, "sis": 3235, "\u0120traff": 3236, "\u0120wanted": 3237, "\u0120firstly": 3238, "ovo": 3239, "\u0120player": 3240, "\u0120pleas": 3241, "\u0120monitoring": 3242, "\u0120though": 3243, "elines": 3244, "\u0120clar": 3245, "ya": 3246, "\u0120foot": 3247, "\u0120apartments": 3248, "ti": 3249, "\u0120map": 3250, "\u0120billion": 3251, "\u0120din": 3252, "\u0120benefits": 3253, "\u0120david": 3254, "ico": 3255, "\u0120rout": 3256, "\u0120accession": 3257, "\u0120149": 3258, "\u0120maximum": 3259, "\u0120ourselves": 3260, "reg": 3261, "\u0120rural": 3262, "\u0120norway": 3263, "\u0120early": 3264, "\u0120institutions": 3265, "\u0120ukraine": 3266, "\u0120island": 3267, "\u0120sty": 3268, "\u0120death": 3269, "\u0120parag": 3270, "\u0120dimension": 3271, "\u0120higher": 3272, "\u0120consumers": 3273, "\u0120authority": 3274, "\u0120movement": 3275, "\u0120significant": 3276, "\u0120ago": 3277, "\u0120fine": 3278, "\u0120oral": 3279, "\u0120prem": 3280, "\u0120shar": 3281, "aily": 3282, "deb": 3283, "\u0120lies": 3284, "\u0120responsible": 3285, "\u0120study": 3286, "\u0120pages": 3287, "\u0120difference": 3288, "iliou": 3289, "\u0120wine": 3290, "ened": 3291, "\u0120daily": 3292, "\u0120context": 3293, "\u012034": 3294, "\u0120capacity": 3295, "81": 3296, "\u0120analy": 3297, "\u0120stre": 3298, "\u0120prec": 3299, "\u0120accepted": 3300, "\u0120os": 3301, "\u0120jos": 3302, "\u0120supported": 3303, "\u0120provides": 3304, "\u0120draw": 3305, "\u0120terrorism": 3306, "mos": 3307, "usion": 3308, "\u0120mechan": 3309, "ift": 3310, "\u0120computer": 3311, "\u0120pra": 3312, "\u0120parties": 3313, "\u0120paris": 3314, "\u0120motor": 3315, "\u0120fru": 3316, "ria": 3317, "\u0120unit": 3318, "\u012067": 3319, "\u0120strateg": 3320, "son": 3321, "ula": 3322, "marquis": 3323, "\u0120ski": 3324, "\u0120customer": 3325, "book": 3326, "\u0120fisch": 3327, "\u0120circ": 3328, "vant": 3329, "\u0120ba": 3330, "\u0120liber": 3331, "\u012058": 3332, "\u0120interested": 3333, "nesday": 3334, "put": 3335, "\u0120dream": 3336, "right": 3337, "\u0120range": 3338, "lu": 3339, "\u0120hans": 3340, "\u0120god": 3341, "\u0120games": 3342, "\u0120lear": 3343, "ses": 3344, "\u0120wto": 3345, "\u0120born": 3346, "\u0120party": 3347, "mer": 3348, "\u0120gal": 3349, "vert": 3350, "\u0120manu": 3351, "ney": 3352, "\u0120various": 3353, "itzerland": 3354, "mit": 3355, "ser": 3356, "\u0120democratic": 3357, "\u0120property": 3358, "imes": 3359, "\u0120complex": 3360, "\u0120came": 3361, "itation": 3362, "uses": 3363, "\u0120bathroom": 3364, "\u0120wednesday": 3365, "\u0120cultural": 3366, "ato": 3367, "itiveness": 3368, "\u0120calls": 3369, "\u0120benefit": 3370, "\u0120fire": 3371, "ara": 3372, "\u0120options": 3373, "\u0120bos": 3374, "\u0120having": 3375, "\u0120images": 3376, "\u0120treatment": 3377, "ox": 3378, "\u0120photo": 3379, "\u012033": 3380, "\u0120avo": 3381, "\u0120mobility": 3382, "\u0120guidelines": 3383, "\u0120published": 3384, "ml": 3385, "\u0120aware": 3386, "\u0120mic": 3387, "\u0120ord": 3388, "9586": 3389, "ake": 3390, "ador": 3391, "\u0120competitiveness": 3392, "89": 3393, "ending": 3394, "\u0120commitments": 3395, "\u0120brand": 3396, "\u0120overall": 3397, "\u0120truth": 3398, "\u00c3\u00bcn": 3399, "ien": 3400, "\u0120tob": 3401, "\u0120measure": 3402, "\u0120lev": 3403, "\u0120dise": 3404, "\u0120types": 3405, "\u0120manufact": 3406, "\u0120transfer": 3407, "\u0120outcome": 3408, "\u0120trust": 3409, "\u0120surve": 3410, "\u0120camp": 3411, "\u0120fields": 3412, "\u0120beginning": 3413, "\u0120rich": 3414, "\u0120technolog": 3415, "\u0120unemploy": 3416, "\u0120balk": 3417, "state": 3418, "\u0120tab": 3419, "\u0120telecommunic": 3420, "\u0120opportunities": 3421, "zo": 3422, "\u012048": 3423, "\u0120description": 3424, "\u0120title": 3425, "\u0120join": 3426, "\u0120selection": 3427, "\u0120communications": 3428, "debate": 3429, "\u0120isra": 3430, "ctions": 3431, "aced": 3432, "\u0120establish": 3433, "cell": 3434, "\u0120euros": 3435, "\u0120madrid": 3436, "\u0120john": 3437, "net": 3438, "\u0120award": 3439, "ression": 3440, "\u0120tren": 3441, "pecial": 3442, "\u0120built": 3443, "\u0120paragraph": 3444, "pid": 3445, "read": 3446, "\u0120pc": 3447, "\u0120bir": 3448, "\u0120minimum": 3449, "\u0120otherwise": 3450, "87": 3451, "fr": 3452, "\u0120sor": 3453, "\u0120body": 3454, "\u0120series": 3455, "\u0120networks": 3456, "\u0120tac": 3457, "\u0120pas": 3458, "elt": 3459, "ama": 3460, "\u0120announ": 3461, "\u0120unique": 3462, "term": 3463, "\u0120introduction": 3464, "\u0120compromise": 3465, "oo": 3466, "ills": 3467, "\u0120chair": 3468, "\u0120heard": 3469, "\u0120emph": 3470, "\u0120express": 3471, "iles": 3472, "\u0120spa": 3473, "\u0120increased": 3474, "\u0120urgent": 3475, "nd": 3476, "sa": 3477, "wide": 3478, "ater": 3479, "\u0120iran": 3480, "etary": 3481, "aint": 3482, "\u0120threat": 3483, "\u0120cards": 3484, "\u0120lost": 3485, "\u0120seem": 3486, "imb": 3487, "\u01201998": 3488, "board": 3489, "\u0120features": 3490, "\u0120evaluation": 3491, "41": 3492, "\u0120ways": 3493, "orm": 3494, "rop": 3495, "\u0120principles": 3496, "\u0120animal": 3497, "42": 3498, "\u0120alex": 3499, "\u0120migration": 3500, "utional": 3501, "\u0120discover": 3502, "\u0120practical": 3503, "67": 3504, "\u0120colle": 3505, "\u0120barroso": 3506, "\u0120histor": 3507, "\u0120self": 3508, "ques": 3509, "\u0120argu": 3510, "\u0120obl": 3511, "alez": 3512, "\u0120password": 3513, "\u0120established": 3514, "\u0120telecommunications": 3515, "\u0120touch": 3516, "\u0120mail": 3517, "\u0120while": 3518, "\u0120prevention": 3519, "\u0120igles": 3520, "\u0120congratulate": 3521, "office": 3522, "\u0120gonzalez": 3523, "\u0120coming": 3524, "\u0120plat": 3525, "arel": 3526, "\u0120participation": 3527, "\u0120attract": 3528, "europa": 3529, "43": 3530, "uri": 3531, "\u0120reduction": 3532, "\u0120along": 3533, "\u0120plans": 3534, "\u0120marisa": 3535, "\u0120500": 3536, "\u0120served": 3537, "\u012060": 3538, "\u0120$": 3539, "erc": 3540, "akes": 3541, "\u0120concerning": 3542, "\u0120independ": 3543, "\u0120gold": 3544, "\u0120guest": 3545, "\u0120highlight": 3546, "\u0120says": 3547, "\u0120bab": 3548, "\u0120reception": 3549, "\u0120frank": 3550, "\u0120iglesias": 3551, "\u0120).": 3552, "\u0120whether": 3553, "ume": 3554, "ster": 3555, "isions": 3556, "\u0120repe": 3557, "\u0120gi": 3558, "\u0120vat": 3559, "theless": 3560, "\u0120jean": 3561, "\u0120requires": 3562, "\u0120intervention": 3563, "\u0120nevertheless": 3564, "era": 3565, "\u0120story": 3566, "okes": 3567, "\u0120switzerland": 3568, "\u0120especial": 3569, "\u0120improving": 3570, "\u0120doubt": 3571, "\u0120sant": 3572, "\u0120stated": 3573, "\u0120conv": 3574, "\u0120goal": 3575, "cks": 3576, "\u0120surpr": 3577, "\u0120improved": 3578, "ients": 3579, "ko": 3580, "\u0120tool": 3581, "\u0120(%": 3582, "\u0120behalf": 3583, "\u0120potential": 3584, "\u0120challenges": 3585, "\u0120jav": 3586, "\u0120lives": 3587, "\u0120gar": 3588, "\u012006": 3589, "\u0120ideas": 3590, "\u0120interesting": 3591, "\u0120none": 3592, "\u0120rein": 3593, "\u0120renew": 3594, "\u0120lay": 3595, "iab": 3596, "\u0120spir": 3597, "more": 3598, "\u0120produc": 3599, "\u0120administr": 3600, "\u0120efforts": 3601, "tain": 3602, "\u0120bat": 3603, "\u0120dates": 3604, "ush": 3605, "\u0120drive": 3606, "yer": 3607, "\u012000": 3608, "\u0120cd": 3609, "\u012037": 3610, "\u0120yester": 3611, "\u0120supply": 3612, "\u0120drink": 3613, "\u0120especially": 3614, "\u0120yesterday": 3615, "\u0120sole": 3616, "\u0120ax": 3617, "verty": 3618, "\u00c3\u00bcr": 3619, "\u0120happening": 3620, "\u0120neighbour": 3621, "burg": 3622, "cd": 3623, "gi": 3624, "ches": 3625, "\u0120exhib": 3626, "\u0120advert": 3627, "cont": 3628, "\u0120operation": 3629, "\u0120founded": 3630, "\u0120poverty": 3631, "\u0120prevent": 3632, "\u0120steel": 3633, "\u0120nic": 3634, "\u0120term": 3635, "\u0120sometimes": 3636, "oulla": 3637, "\u0120emissions": 3638, "\u0120introd": 3639, "\u0120androulla": 3640, "\u0120prepared": 3641, "\u0120israel": 3642, "\u0120andre": 3643, "\u01201997": 3644, "\u0120delegation": 3645, "member": 3646, "\u0120consist": 3647, "\u0120situated": 3648, "\u0120ara": 3649, "\u0120bott": 3650, "otel": 3651, "\u0120resort": 3652, "\u0120brit": 3653, "\u0120commercial": 3654, "ids": 3655, "\u0120qual": 3656, "\u0120config": 3657, "\u0120cheap": 3658, "\u0120sheet": 3659, "48": 3660, "rs": 3661, "\u0120due": 3662, "\u0120arrange": 3663, "\u0120trip": 3664, "\u0120villa": 3665, "\u0120registration": 3666, "\u0120ital": 3667, "\u0120lik": 3668, "\u0120contain": 3669, "hern": 3670, "\u0120color": 3671, "\u0120frequ": 3672, "down": 3673, "oke": 3674, "\u0120lake": 3675, "\u0120deter": 3676, "\u0120including": 3677, "\u0120increasing": 3678, "dam": 3679, "zl": 3680, "\u0120mill": 3681, "\u0120hy": 3682, "\u0120vari": 3683, "\u0120shi": 3684, "\u0120enh": 3685, "\u0120quiet": 3686, "\u0120compl": 3687, "\u0120expert": 3688, "\u0120former": 3689, "\u0120recommendation": 3690, "\u0120rejected": 3691, "\u0120sand": 3692, "oking": 3693, "\u0120prize": 3694, "\u012092": 3695, "\u0120successful": 3696, "\u0120promotion": 3697, "\u0120kosovo": 3698, "col": 3699, "\u0120thems": 3700, "\u0120si": 3701, "\u0120pu": 3702, "\u0120chem": 3703, "\u0120sud": 3704, "\u0120speed": 3705, "\u0120balkans": 3706, "\u0120themselves": 3707, "\u0120stri": 3708, "\u012046": 3709, "\u0120aviation": 3710, "\u0120respond": 3711, "\u0120cause": 3712, "\u0120original": 3713, "zy": 3714, "\u0120mission": 3715, "\u0120eg": 3716, "\u0120asyl": 3717, "\u0120starting": 3718, "\u0120meetings": 3719, "\u0120asylum": 3720, "\u0120awa": 3721, "\u0120rub": 3722, "\u0120conflic": 3723, "\u0120detailed": 3724, "\u0120animals": 3725, "2005": 3726, "\u0120mediterranean": 3727, "ns": 3728, "\u0120cou": 3729, "itary": 3730, "\u0120ball": 3731, "antic": 3732, "ugh": 3733, "\u0120developing": 3734, "lines": 3735, "minal": 3736, "\u0120population": 3737, "\u0120ecu": 3738, "vered": 3739, "iving": 3740, "\u0120homepage": 3741, "\u0120cart": 3742, "\u0120golf": 3743, "ius": 3744, "\u0120pension": 3745, "\u0120je": 3746, "\u0120grant": 3747, "\u0120engine": 3748, "\u0120adjust": 3749, "\u0120immediately": 3750, "bott": 3751, "oon": 3752, "\u0120ped": 3753, "\u0120workers": 3754, "\u0120getting": 3755, "\u0120speaking": 3756, "\u0120equal": 3757, "\u0120waiting": 3758, "\u0120wood": 3759, "\u0120colour": 3760, "\u0120vin": 3761, "\u0120thats": 3762, "\u0120exception": 3763, "aking": 3764, "\u0120expend": 3765, "\u0120village": 3766, "\u0120emphas": 3767, "\u0120tru": 3768, "\u0120wee": 3769, "\u0120counter": 3770, "\u0120transl": 3771, "\u012074": 3772, "\u0120window": 3773, "\u0120initiatives": 3774, "\u0120popular": 3775, "\u0120connection": 3776, "\u0120dangerous": 3777, "\u0120learning": 3778, "hood": 3779, "mus": 3780, "\u0120cand": 3781, "iable": 3782, "\u0120buff": 3783, "\u0120winter": 3784, "66": 3785, "ault": 3786, "eland": 3787, "\u0120overview": 3788, "\u0120greater": 3789, "\u0120format": 3790, "\u0120garden": 3791, "\u0120sorry": 3792, "93": 3793, "di": 3794, "\u0120wid": 3795, "\u0120kr": 3796, "\u0120tradition": 3797, "\u0120professional": 3798, "mp": 3799, "\u0120sell": 3800, "\u0120mas": 3801, "ese": 3802, "\u0120ni": 3803, "\u0120brings": 3804, "\u0120paid": 3805, "hu": 3806, "\u0120concept": 3807, "ables": 3808, "\u0120india": 3809, "\u0120selected": 3810, "\u0120appear": 3811, "ank": 3812, "\u0120gall": 3813, "unt": 3814, "anto": 3815, "force": 3816, "\u0120prime": 3817, "mination": 3818, "\u0120confidence": 3819, "\u0120flight": 3820, "\u0120medic": 3821, "\u0120status": 3822, "\u0120sales": 3823, "\u0120season": 3824, "\u0120doll": 3825, "\u0120gives": 3826, "astic": 3827, "ecsp": 3828, "\u0120newslet": 3829, "\u0120violence": 3830, "\u0120tu": 3831, "\u0120largest": 3832, "\u0120todays": 3833, "\u0120flash": 3834, "\u0120fruit": 3835, "nia": 3836, "\u0120muse": 3837, "verage": 3838, "\u0120imports": 3839, "\u0120recent": 3840, "\u0120limit": 3841, "\u0120glad": 3842, "\u0120earth": 3843, "77": 3844, "sc": 3845, "rep": 3846, "\u0120sort": 3847, "encies": 3848, "\u0120bear": 3849, "rance": 3850, "\u0120monetary": 3851, "\u0120deser": 3852, "atically": 3853, "\u0120vehicles": 3854, "back": 3855, "\u0120poor": 3856, "europe": 3857, "cribe": 3858, "\u0120weeks": 3859, "sch": 3860, "\u0120--": 3861, "imately": 3862, "\u0120related": 3863, "\u0120bedroom": 3864, "vote": 3865, "\u0120plus": 3866, "\u012096": 3867, "marks": 3868, "\u0120assemb": 3869, "\u0120across": 3870, "\u0120smes": 3871, "\u0120facilities": 3872, "\u0120optim": 3873, "\u0120trading": 3874, "\u0120unemployment": 3875, "ez": 3876, "\u0120plant": 3877, "\u0120costa": 3878, "\u0120elections": 3879, "\u0120film": 3880, "\u0120milk": 3881, "iciency": 3882, "\u0120appropriate": 3883, "\u012090": 3884, "\u0120interp": 3885, "ika": 3886, "\u0120barcel": 3887, "\u0120campa": 3888, "pan": 3889, "sen": 3890, "urd": 3891, "\u0120thinking": 3892, "\u0120telephone": 3893, "\u0120radio": 3894, "\u0120instruments": 3895, "\u0120sn": 3896, "\u0120notice": 3897, "\u0120sha": 3898, "\u0120covered": 3899, "\u0120reserved": 3900, "\u0120construction": 3901, "\u0120expenditure": 3902, "gue": 3903, "\u0120virt": 3904, "dumping": 3905, "\u0120wide": 3906, "\u0120pact": 3907, "\u0120joe": 3908, "\u0120wait": 3909, "\u0120commented": 3910, "\u0120opposite": 3911, "\u0120philip": 3912, "mission": 3913, "ature": 3914, "\u0120whe": 3915, "0000": 3916, "\u0120sugar": 3917, "\u0120reforms": 3918, "\u0120activity": 3919, "\u0120slow": 3920, "\u0120structure": 3921, "\u0120morning": 3922, "\u0120copyright": 3923, "\u0120scheme": 3924, "\u0120went": 3925, "\u0120huge": 3926, "urance": 3927, "\u0120easily": 3928, "\u0120delivery": 3929, "\u0120obser": 3930, "\u0120performance": 3931, "\u0120street": 3932, "dra": 3933, "acco": 3934, "92": 3935, "\u0120lou": 3936, "\u0120marit": 3937, "\u0120compos": 3938, "\u0120myself": 3939, "\u0120electron": 3940, "\u0120interests": 3941, "\u0120relevant": 3942, "\u0120condition": 3943, "face": 3944, "ws": 3945, "\u0120ls": 3946, "\u0120stav": 3947, "\u0120shown": 3948, "\u0120kill": 3949, "\u0120running": 3950, "\u0120crime": 3951, "90": 3952, "\u0120forget": 3953, "\u0120store": 3954, "\u0120ja": 3955, "\u0120jac": 3956, "\u0120figure": 3957, "\u0120campaign": 3958, "\u0120dv": 3959, "aries": 3960, "\u0120asia": 3961, "\u0120character": 3962, "cul": 3963, "\u0120hall": 3964, "\u0120weak": 3965, "\u0120margins": 3966, "\u0120span": 3967, "\u0120guide": 3968, "\u0120dimas": 3969, "\u0120museum": 3970, "61": 3971, "\u0120fear": 3972, "\u0120base": 3973, "\u0120ada": 3974, "\u0120regular": 3975, "\u0120spring": 3976, "ead": 3977, "kt": 3978, "\u0120las": 3979, "\u0120registered": 3980, "\u0120administration": 3981, "\u0120obviously": 3982, "sk": 3983, "olution": 3984, "\u0120abst": 3985, "\u012085": 3986, "\u0120recommendations": 3987, "mbh": 3988, "\u0120integrated": 3989, "eurs": 3990, "ique": 3991, "pal": 3992, "\u0120son": 3993, "\u0120supports": 3994, "quipped": 3995, "ourable": 3996, "inas": 3997, "\u0120oj": 3998, "\u0120defic": 3999, "\u0120species": 4000, "\u0120casino": 4001, "68": 4002, "doc": 4003, "lad": 4004, "....": 4005, "\u0120barn": 4006, "\u0120addressed": 4007, "\u0120accommodation": 4008, "52": 4009, "vis": 4010, "\u0120coll": 4011, "used": 4012, "\u0120wants": 4013, "\u0120conduct": 4014, "\u0120pressure": 4015, "\u0120anyone": 4016, "\u0120sites": 4017, "\u0120restrictive": 4018, "iro": 4019, "lier": 4020, "tic": 4021, "iding": 4022, "\u0120exerc": 4023, "\u0120alloc": 4024, "\u0120decided": 4025, "\u0120discount": 4026, "\u0120attack": 4027, "2013": 4028, "\u0120tobacco": 4029, "ev": 4030, "\u0120prob": 4031, "\u0120sex": 4032, "\u0120load": 4033, "\u0120entry": 4034, "\u0120reflect": 4035, "\u0120flat": 4036, "\u0120advance": 4037, "\u0120membership": 4038, "\u0120malm": 4039, "\u0120newsletter": 4040, "\u0120barcelona": 4041, "nor": 4042, "\u0120pow": 4043, "\u0120bol": 4044, "\u0120dub": 4045, "\u0120knows": 4046, "\u0120costas": 4047, "\u0120existing": 4048, "\u0120levels": 4049, "\u0120alexand": 4050, "bu": 4051, "\u0120gmbh": 4052, "ands": 4053, "\u0120reservation": 4054, "agen": 4055, "ibilities": 4056, "orders": 4057, "\u0120crucial": 4058, "fish": 4059, "\u012089": 4060, "\u0120managing": 4061, "\u0120university": 4062, "\u0120immigration": 4063, "\u0120maritime": 4064, "ho": 4065, "rel": 4066, "\u0120ep": 4067, "\u0120equipped": 4068, "\u0120ko": 4069, "\u0120kore": 4070, "\u0120police": 4071, "\u0120efficient": 4072, "\u0120listen": 4073, "iction": 4074, "\u0120distance": 4075, "\u0120applied": 4076, "\u0120regulations": 4077, "\u0120entirely": 4078, "\u0120alternative": 4079, "\u0120sad": 4080, "usive": 4081, "\u0120chance": 4082, "engen": 4083, "\u0120distributed": 4084, "gl": 4085, "ios": 4086, "\u0120sle": 4087, "\u0120fort": 4088, "\u0120karel": 4089, "\u0120poll": 4090, "\u0120furn": 4091, "\u0120sched": 4092, "\u0120efficiency": 4093, "\u0120military": 4094, "\u0120cci": 4095, "\u0120kin": 4096, "\u0120minor": 4097, "\u0120compon": 4098, "\u0120critic": 4099, "hold": 4100, "rd": 4101, "\u0120squ": 4102, "\u0120nort": 4103, "\u0120proper": 4104, "\u0120rat": 4105, "\u0120coast": 4106, "balgs": 4107, "\u0120piebalgs": 4108, "cs": 4109, "jan": 4110, "reci": 4111, "\u0120fest": 4112, "\u0120beds": 4113, "\u0120ensure": 4114, "\u0120lszl": 4115, "\u0120pad": 4116, "\u0120instead": 4117, "\u0120extension": 4118, "\u0120stands": 4119, "\u0120martin": 4120, "lim": 4121, "\u0120tast": 4122, "reh": 4123, "\u0120suitable": 4124, "ube": 4125, "assador": 4126, "94": 4127, "vision": 4128, "orge": 4129, "\u0120fit": 4130, "\u0120fly": 4131, "\u0120investigation": 4132, "\u0120packages": 4133, "\u0120mm": 4134, "ghan": 4135, "\u0120carry": 4136, "\u0120reference": 4137, "\u0120sco": 4138, "ervations": 4139, "\u0120luck": 4140, "\u0120coordination": 4141, "ateral": 4142, "\u0120eth": 4143, "\u012003": 4144, "\u0120governance": 4145, "\u0120satisf": 4146, "\u0120pain": 4147, "\u0120bern": 4148, "\u0120duty": 4149, "umn": 4150, "\u0120teach": 4151, "\u0120currency": 4152, "\u0120schengen": 4153, "\u0120acceptable": 4154, "\u0120inside": 4155, "\u0120285": 4156, "\u0120style": 4157, "ees": 4158, "zz": 4159, "\u012044": 4160, "\u0120commitment": 4161, "\u0120totally": 4162, "\u0120evening": 4163, "aza": 4164, "\u0120stake": 4165, "\u0120railway": 4166, "\u0120victims": 4167, "\u0120adoption": 4168, "\u0120costasur": 4169, "ially": 4170, "no": 4171, "\u0120fresh": 4172, "ille": 4173, "\u0120lines": 4174, "\u0120g\u00c3\u00bcn": 4175, "ode": 4176, "\u012036": 4177, "\u012041": 4178, "\u0120regret": 4179, "\u0120afghan": 4180, "\u0120error": 4181, "ariat": 4182, "\u0120cele": 4183, "\u0120purchase": 4184, "\u0120execut": 4185, "\u0120spanish": 4186, "cle": 4187, "overy": 4188, "\u0120cant": 4189, "\u0120ven": 4190, "\u0120moreover": 4191, "cco": 4192, "\u0120developed": 4193, "\u0120invites": 4194, "\u0120swim": 4195, "\u01202020": 4196, "\u0120released": 4197, "\u0120shipping": 4198, "\u0120philippe": 4199, "\u0120adapt": 4200, "rate": 4201, "\u0120border": 4202, "\u0120ok": 4203, "uration": 4204, "\u0120developments": 4205, "\u0120remember": 4206, "\u0120saying": 4207, "ifications": 4208, "ength": 4209, "\u0120assembly": 4210, "91": 4211, "\u0120lond": 4212, "stein": 4213, "\u0120hostel": 4214, "\u0120politics": 4215, "\u0120hands": 4216, "\u0120articles": 4217, "\u0120aims": 4218, "\u0120linux": 4219, "57": 4220, "equ": 4221, "fa": 4222, "\u0120fu": 4223, "\u0120ly": 4224, "\u0120300": 4225, "\u0120manuel": 4226, "\u0120disp": 4227, "\u0120medium": 4228, "\u0120match": 4229, "\u0120minute": 4230, "\u0120cars": 4231, "\u0120highly": 4232, "\u0120eras": 4233, "\u0120presented": 4234, "\u0120throughout": 4235, "2010": 4236, "\u0120consequences": 4237, "\u0120drugs": 4238, "\u0120#": 4239, "\u0120mir": 4240, "\u0120bag": 4241, "enty": 4242, "\u0120(\u00e2\u0124\u00ac": 4243, "\u0120475": 4244, "\u0120fourth": 4245, "\u0120voice": 4246, "\u0120editors": 4247, "\u0120reduced": 4248, "\u0120risks": 4249, "\u0120malta": 4250, "\u0120tickets": 4251, "\u0120spirit": 4252, "51": 4253, "ura": 4254, "\u0120mig": 4255, "\u0120youll": 4256, "chise": 4257, "\u0120jun": 4258, "ptive": 4259, "\u0120php": 4260, "\u0120cred": 4261, "\u0120completed": 4262, "\u0120pm": 4263, "\u0120ones": 4264, "\u0120sto": 4265, "\u0120proto": 4266, "oper": 4267, "\u0120appreci": 4268, "\u0120secretariat": 4269, "\u0120confirm": 4270, "\u0120administrative": 4271, "ken": 4272, "\u012001": 4273, "\u0120stor": 4274, "ends": 4275, "\u0120button": 4276, "\u0120raised": 4277, "\u0120write": 4278, "\u0120banks": 4279, "\u0120operations": 4280, "\u0120promote": 4281, "\u0120applications": 4282, "\u0120deliver": 4283, "\u0120browser": 4284, "\u0120fat": 4285, "arm": 4286, "iev": 4287, "oker": 4288, "crete": 4289, "\u0120carl": 4290, "\u0120criminal": 4291, "\u0120fischler": 4292, "bit": 4293, "\u0120mos": 4294, "\u0120dut": 4295, "\u0120stress": 4296, "00352": 4297, "\u0120planning": 4298, "\u0120majority": 4299, "\u0120improvement": 4300, "\u0120analysis": 4301, "estic": 4302, "\u0120heav": 4303, "\u0120serbia": 4304, "gypt": 4305, "\u0120representatives": 4306, "uesday": 4307, "\u0120franchise": 4308, "\u0120setting": 4309, "\u0120paul": 4310, "\u0120arrival": 4311, "su": 4312, "enna": 4313, "\u0120islands": 4314, "ilateral": 4315, "\u0120ministerial": 4316, "\u0120visitors": 4317, "\u0120congratulations": 4318, "\u0120chemical": 4319, "rary": 4320, "ivered": 4321, "\u0120coff": 4322, "2002": 4323, "\u0120players": 4324, "\u0120leaders": 4325, "\u0120separate": 4326, "\u0120average": 4327, "\u0120thous": 4328, "onik": 4329, "\u0120grate": 4330, "erences": 4331, "\u0120numbers": 4332, "\u0120delivered": 4333, "\u0120anton": 4334, "\u0120constant": 4335, "\u0120american": 4336, "\u0120candid": 4337, "\u0120lt": 4338, "ife": 4339, "\u0120holidays": 4340, "\u0120stavros": 4341, "64": 4342, "83": 4343, "\u0120na": 4344, "\u0120provisions": 4345, "\u0120veget": 4346, "\u0120proceedings": 4347, "\u0120mountain": 4348, "\u0120oblig": 4349, "\u0120erasmus": 4350, "isely": 4351, "\u0120core": 4352, "\u0120bey": 4353, "verse": 4354, "\u0120europeans": 4355, "\u0120gets": 4356, "\u0120welcomes": 4357, "\u0120authorities": 4358, "\u0120subsidi": 4359, "\u0120london": 4360, "\u0120concrete": 4361, "\u0120influ": 4362, "versity": 4363, "\u0120machine": 4364, "\u0120strategic": 4365, "cer": 4366, "\u0120tro": 4367, "\u0120fif": 4368, "\u0120fab": 4369, "\u0120borders": 4370, "\u0120ix": 4371, "\u0120conven": 4372, "\u0120sav": 4373, "\u0120playing": 4374, "\u0120updated": 4375, "\u0120susp": 4376, "\u0120avoid": 4377, "\u0120grateful": 4378, "54": 4379, "my": 4380, "\u0120ult": 4381, "\u0120pure": 4382, "\u0120fixed": 4383, "\u0120carried": 4384, "\u0120refuge": 4385, "\u0120protected": 4386, "\u0120organisation": 4387, "\u0120scient": 4388, "\u0120song": 4389, "enh": 4390, "\u0120length": 4391, "\u0120buffet": 4392, "inated": 4393, "\u0120controls": 4394, "\u0120exports": 4395, "\u0120album": 4396, "\u0120route": 4397, "eg": 4398, "under": 4399, "rian": 4400, "\u0120debt": 4401, "\u0120cook": 4402, "ously": 4403, "\u0120transition": 4404, "\u0120sets": 4405, "\u0120collection": 4406, "ecspokes": 4407, "62": 4408, "82": 4409, "da": 4410, "\u0120spr": 4411, "\u012052": 4412, "\u0120entrep": 4413, "\u0120worldwide": 4414, "\u0120winners": 4415, "\u0120iceland": 4416, "\u0120fraud": 4417, "\u0120entrepren": 4418, "%)": 4419, "round": 4420, "\u0120hous": 4421, "\u0120egypt": 4422, "\u0120vess": 4423, "\u01201000": 4424, "aging": 4425, "\u0120brought": 4426, "\u0120rapid": 4427, "\u0120lessons": 4428, "\u0120nights": 4429, "\u0120appeal": 4430, "\u0120prospective": 4431, "\u0120traffic": 4432, "zil": 4433, "\u0120cities": 4434, "\u0120que": 4435, "\u0120secure": 4436, "\u01201996": 4437, "\u0120normal": 4438, "\u0120terrace": 4439, "\u0120effects": 4440, "\u0120harmon": 4441, "\u0120navigation": 4442, "focus": 4443, "ny": 4444, "\u0120gir": 4445, "rade": 4446, "ivity": 4447, "\u0120ministers": 4448, "ugos": 4449, "\u00c3\u00b6r": 4450, "\u0120catalog": 4451, "\u0120promoting": 4452, "\u0120italian": 4453, "antoine": 4454, "ecspokesantoine": 4455, "\u0120fol": 4456, "osen": 4457, "\u0120firm": 4458, "\u0120marked": 4459, "\u0120vision": 4460, "\u0120probably": 4461, "\u0120beyond": 4462, "sman": 4463, "\u0120tuesday": 4464, "enminister": 4465, "\u012055": 4466, "\u012008": 4467, "\u0120prefer": 4468, "\u0120letter": 4469, "\u0120acp": 4470, "\u0120attach": 4471, "\u0120afghanistan": 4472, "aid": 4473, "press": 4474, "vii": 4475, "\u0120forms": 4476, "raft": 4477, "\u0120places": 4478, "\u0120phys": 4479, "\u0120string": 4480, "\u0120symb": 4481, "\u0120etc": 4482, "\u0120vassiliou": 4483, "bre": 4484, "\u0120door": 4485, "\u0120chur": 4486, "\u0120chap": 4487, "\u0120ru": 4488, "\u012047": 4489, "\u0120parad": 4490, "\u0120default": 4491, "\u0120deliber": 4492, "\u0120mistake": 4493, "\u0120tack": 4494, "\u0120ht": 4495, "abil": 4496, "\u0120river": 4497, "\u0120mont": 4498, "\u0120advice": 4499, "\u0120christian": 4500, "\u0120diam": 4501, "\u0120pick": 4502, "\u0120councils": 4503, "aga": 4504, "\u012005": 4505, "\u01201995": 4506, "\u0120designed": 4507, "\u0120horiz": 4508, "\u0120quotas": 4509, "\u0120imposs": 4510, "\u0120electronic": 4511, "\u0120barnier": 4512, "\u0120hu": 4513, "\u0120explain": 4514, "\u0120considered": 4515, "\u0120descriptive": 4516, "\u0120enterprise": 4517, "ork": 4518, "\u0120mut": 4519, "eld": 4520, "\u0120deg": 4521, "\u0120jon": 4522, "\u0120translation": 4523, "\u0120securityfocus": 4524, "\u0120tonnes": 4525, "\u0120pina": 4526, "\u0120batt": 4527, "\u0120hyp": 4528, "\u0120grad": 4529, "iano": 4530, "\u0120starts": 4531, "\u0120forestry": 4532, "\u0120northern": 4533, "100": 4534, "\u0120bay": 4535, "\u0120yugos": 4536, "\u0120kal": 4537, "ief": 4538, "\u0120goog": 4539, "ips": 4540, "aves": 4541, "\u0120consists": 4542, "\u0120corpor": 4543, "\u0120continu": 4544, "\u0120budgetary": 4545, "\u0120implemented": 4546, "hr": 4547, "iers": 4548, "ience": 4549, "just": 4550, "\u0120snow": 4551, "\u0120sides": 4552, "\u0120dispos": 4553, "cession": 4554, "\u0120growing": 4555, "\u0120organis": 4556, "\u0120seriously": 4557, "wald": 4558, "\u0120technologies": 4559, "asbourg": 4560, "anda": 4561, "\u0120resum": 4562, "\u012043": 4563, "\u0120offered": 4564, "\u0120doesnt": 4565, "\u0120phase": 4566, "\u0120institutional": 4567, "\u0120colleag": 4568, "\u0120omb": 4569, "oph": 4570, "\u0120debian": 4571, "mann": 4572, "\u0120raise": 4573, "\u0120swiss": 4574, "\u0120scri": 4575, "ological": 4576, "\u0120distribution": 4577, "\u0120sufficient": 4578, "\u0120shopping": 4579, "\u0120baby": 4580, "\u0120conflict": 4581, "\u0120coffee": 4582, "\u0120impossible": 4583, "nal": 4584, "\u0120mel": 4585, "itude": 4586, "\u0120hi": 4587, "\u0120names": 4588, "\u0120dele": 4589, "\u0120neg": 4590, "\u0120param": 4591, "\u0120forecast": 4592, "\u0120seconds": 4593, "\u0120recovery": 4594, "\u0120wishes": 4595, "\u0120produced": 4596, "\u0120targets": 4597, "\u0120damage": 4598, "\u0120precisely": 4599, "\u0120protocol": 4600, "mo": 4601, "arus": 4602, "iger": 4603, "abled": 4604, "\u0120represented": 4605, "\u0120honourable": 4606, "\u0120instrument": 4607, "\u0120celebr": 4608, "\u0120cos": 4609, "\u0120hal": 4610, "\u0120remarks": 4611, "\u0120represents": 4612, "\u0120looks": 4613, "\u0120century": 4614, "\u0120played": 4615, "\u0120formal": 4616, "box": 4617, "\u0120carefully": 4618, "\u0120occur": 4619, "\u0120strengthening": 4620, "\u0120electricity": 4621, "\u0120farmers": 4622, "\u0120ombud": 4623, "cia": 4624, "lantic": 4625, "\u0120nam": 4626, "\u0120rob": 4627, "\u0120inflation": 4628, "\u0120block": 4629, "\u0120advantage": 4630, "house": 4631, "eds": 4632, "\u0120usually": 4633, "\u0120percent": 4634, "cript": 4635, "\u0120brazil": 4636, "ora": 4637, "\u0120spl": 4638, "\u0120arms": 4639, "\u0120limits": 4640, "european": 4641, "84": 4642, "eec": 4643, "pdo": 4644, "\u0120au": 4645, "\u0120cash": 4646, "roy": 4647, "icial": 4648, "\u0120withdra": 4649, "\u0120suc": 4650, "\u0120presentation": 4651, "\u0120charter": 4652, "\u0120referred": 4653, "\u0120wonderful": 4654, "\u0120advertising": 4655, "\u0120deficit": 4656, "\u0120ram": 4657, "\u0120lower": 4658, "charge": 4659, "elson": 4660, "dep": 4661, "\u0120trav": 4662, "\u0120editor": 4663, "\u0120lets": 4664, "\u0120planned": 4665, "vent": 4666, "\u0120poker": 4667, "\u0120recon": 4668, "\u0120les": 4669, "\u0120chosen": 4670, "\u0120rh": 4671, "aged": 4672, "...?": 4673, "\u0120marketing": 4674, "\u0120definition": 4675, "\u0120penal": 4676, "\u0120platform": 4677, "\u0120executive": 4678, "\u0120ombudsman": 4679, "\u0120neither": 4680, "\u0120cool": 4681, "\u012076": 4682, "\u0120baltic": 4683, "\u0120potonik": 4684, "\u0120installation": 4685, "\u0120depends": 4686, "\u0120journey": 4687, "wer": 4688, "\u0120cors": 4689, "itious": 4690, "\u0120gn": 4691, "\u0120unf": 4692, "\u0120nobody": 4693, "\u0120compar": 4694, "\u012073": 4695, "\u0120proud": 4696, "ariff": 4697, "\u0120audit": 4698, "\u0120accounts": 4699, "\u0120regarding": 4700, "\u0120briefly": 4701, "\u0120materials": 4702, "\u0120ferre": 4703, "\u0120emerg": 4704, "\u0120straight": 4705, "\u0120cab": 4706, "\u0120sources": 4707, "aria": 4708, "\u0120kitch": 4709, "\u0120usa": 4710, "\u0120belong": 4711, "\u0120info": 4712, "\u0120janez": 4713, "\u0120multip": 4714, "\u0120forums": 4715, "\u0120feature": 4716, "\u0120succeed": 4717, "72": 4718, "itely": 4719, "asion": 4720, "pper": 4721, "amic": 4722, "\u0120uns": 4723, "\u0120mex": 4724, "\u0120listed": 4725, "\u0120breakdown": 4726, "\u0120famous": 4727, "\u0120liberal": 4728, "\u0120script": 4729, "bel": 4730, "yal": 4731, "\u0120cere": 4732, "road": 4733, "\u0120weap": 4734, "resp": 4735, "\u0120client": 4736, "\u0120disapp": 4737, "\u0120worked": 4738, "\u0120creation": 4739, "\u0120surround": 4740, "\u0120sports": 4741, "\u0120affected": 4742, "\u0120bosnia": 4743, "\u0120axis": 4744, "\u0120google": 4745, "71": 4746, "ois": 4747, "ancy": 4748, "\u0120pla": 4749, "\u012088": 4750, "\u0120supplement": 4751, "56": 4752, "dd": 4753, "\u0120fant": 4754, "\u0120hom": 4755, "urt": 4756, "\u0120plug": 4757, "\u0120instruct": 4758, "\u0120visa": 4759, "\u0120continues": 4760, "\u0120continued": 4761, "\u0120natur": 4762, "atherine": 4763, "\u0120illeg": 4764, "\u0120chairman": 4765, "\u0120korea": 4766, "ham": 4767, "\u0120hes": 4768, "ull": 4769, "ella": 4770, "\u0120investments": 4771, "\u0120walking": 4772, "came": 4773, "fare": 4774, "\u0120hen": 4775, "\u0120ist": 4776, "\u012084": 4777, "\u0120surely": 4778, "\u0120flexibility": 4779, "\u0120screen": 4780, "\u0120mechanism": 4781, "\u0120survey": 4782, "\u0120neighbourhood": 4783, "\u0120swimming": 4784, "\u0120bor": 4785, "\u0120lose": 4786, "\u012056": 4787, "\u0120closure": 4788, "\u0120decide": 4789, "\u0120businesses": 4790, "\u0120insurance": 4791, "\u0120europol": 4792, "\u0120methods": 4793, "miss": 4794, "\u0120catherine": 4795, "\u0120fle": 4796, "\u0120becomes": 4797, "\u0120von": 4798, "\u0120depos": 4799, "utes": 4800, "\u0120compreh": 4801, "\u0120regime": 4802, "rich": 4803, "\u0120excess": 4804, "\u0120changing": 4805, "\u0120patent": 4806, "\u0120appears": 4807, "ughter": 4808, "\u0120exercise": 4809, "ea": 4810, "\u0120ola": 4811, "\u0120chann": 4812, "\u0120kat": 4813, "\u0120contrary": 4814, "\u012051": 4815, "\u0120worlds": 4816, "\u0120communities": 4817, "\u0120personally": 4818, "\u0120tours": 4819, "ai": 4820, "car": 4821, "\u0120theme": 4822, "\u0120became": 4823, "\u0120lif": 4824, "\u0120margin": 4825, "\u0120someone": 4826, "\u0120intended": 4827, "\u0120profile": 4828, "\u0120moving": 4829, "\u0120license": 4830, "iability": 4831, "\u0120couple": 4832, "\u0120emergency": 4833, "\u0120cell": 4834, "outh": 4835, "\u0120nations": 4836, "\u0120invite": 4837, "cape": 4838, "\u0120reding": 4839, "59": 4840, "\u0120mere": 4841, "\u0120band": 4842, "ops": 4843, "\u0120ky": 4844, "\u0120lift": 4845, "\u0120zone": 4846, "standing": 4847, "\u0120innovative": 4848, "\u0120galile": 4849, "\u0120exhibition": 4850, "\u0120ech": 4851, "\u012039": 4852, "\u0120followed": 4853, "\u0120discri": 4854, "\u0120scen": 4855, "\u0120eastern": 4856, "\u0120frid": 4857, "\u0120ticket": 4858, "\u0120albania": 4859, "\u0120approximately": 4860, "\u0120disease": 4861, "\u0120independent": 4862, "\u0120gallery": 4863, "\u0120malmstr\u00c3\u00b6m": 4864, "\u0120disappoint": 4865, "fi": 4866, "\u0120rot": 4867, "\u0120furthermore": 4868, "\u0120ambitious": 4869, "\u0120scope": 4870, "ball": 4871, "\u0120ger": 4872, "ugg": 4873, "\u0120everybody": 4874, "\u0120score": 4875, "\u0120factor": 4876, "\u0120revolution": 4877, "\u0120camera": 4878, "\u0120election": 4879, "\u0120282": 4880, "\u0120vassil": 4881, "\u0120interpret": 4882, "\u0120satisfied": 4883, "jo": 4884, "occo": 4885, "ras": 4886, "\u0120;": 4887, "illa": 4888, "\u0120demon": 4889, "\u0120employees": 4890, "53": 4891, "\u0120theres": 4892, "\u0120cott": 4893, "\u0120mix": 4894, "ancing": 4895, "ette": 4896, "ender": 4897, "\u0120spend": 4898, "\u0120decor": 4899, "zeg": 4900, "\u0120element": 4901, "\u0120sanctions": 4902, "\u0120critical": 4903, "74": 4904, "fs": 4905, "ql": 4906, "\u0120tariff": 4907, "enary": 4908, "\u0120lan": 4909, "\u0120weight": 4910, "\u0120finish": 4911, "\u0120proposes": 4912, "weg": 4913, "\u00c3\u00bcb": 4914, "\u0120returns": 4915, "\u0120trying": 4916, "\u0120variety": 4917, "\u0120vessels": 4918, "\u0120kitchen": 4919, "zen": 4920, "\u0120cm": 4921, "\u0120gone": 4922, "\u0120shower": 4923, "\u0120meant": 4924, "\u0120covers": 4925, "\u0120recently": 4926, "english": 4927, "\u0120failure": 4928, "\u0120divided": 4929, "\u0120georgia": 4930, "\u0120department": 4931, "\u0120advantages": 4932, "bby": 4933, "can": 4934, "una": 4935, "rap": 4936, "\u0120sum": 4937, "\u0120enorm": 4938, "\u0120pret": 4939, "\u0120participate": 4940, "\u0120150": 4941, "inese": 4942, "ield": 4943, "\u0120occup": 4944, "\u0120galileo": 4945, "nos": 4946, "\u0120rise": 4947, "\u0120adult": 4948, "\u0120upg": 4949, "\u0120belarus": 4950, "\u0120instance": 4951, "\u0120franz": 4952, "\u0120famil": 4953, "\u0120frequently": 4954, "\u0120sleep": 4955, "fl": 4956, "gence": 4957, "onte": 4958, "\u0120mcc": 4959, "\u0120asking": 4960, "\u0120goals": 4961, "\u0120boot": 4962, "\u0120balcon": 4963, "\u0120sunday": 4964, "\u0120festival": 4965, "\u0120naturally": 4966, "\u0120{": 4967, "itate": 4968, "empt": 4969, "\u0120plenary": 4970, "thern": 4971, "\u0120topic": 4972, "\u0120trend": 4973, "tes": 4974, "\u0120tests": 4975, "\u0120youre": 4976, "olo": 4977, "0027": 4978, "\u0120contest": 4979, "umb": 4980, "\u012097": 4981, "\u0120delay": 4982, "\u0120meters": 4983, "\u0120skin": 4984, "\u0120photograph": 4985, "\u0120explanation": 4986, "\u0120adjour": 4987, "\u0120missing": 4988, "\u0120encourage": 4989, "border": 4990, "free": 4991, "\u0120libr": 4992, "\u01201994": 4993, "\u0120herring": 4994, "\u0120palest": 4995, "\u0120chamber": 4996, "500": 4997, "met": 4998, "nel": 4999, "\u0120cu": 5000, "enger": 5001, "\u0120pier": 5002, "\u0120bod": 5003, "\u0120gran": 5004, "izes": 5005, "phere": 5006, "\u0120consumption": 5007, "\u0120southern": 5008, "\u0120composition": 5009, "63": 5010, "bl": 5011, "eib": 5012, "\u0120borg": 5013, "\u0120inh": 5014, "alia": 5015, "\u0120atmos": 5016, "\u0120chinese": 5017, "\u0120race": 5018, "cker": 5019, "ertain": 5020, "ruption": 5021, "\u0120anna": 5022, "\u0120prodi": 5023, "\u0120automatically": 5024, "\u0120storage": 5025, "\u0120church": 5026, "tle": 5027, "ying": 5028, "\u0120pak": 5029, "iling": 5030, "\u0120lag": 5031, "\u0120gave": 5032, "oss": 5033, "\u0120seven": 5034, "\u0120doc": 5035, "berto": 5036, "\u0120pref": 5037, "\u0120ze": 5038, "going": 5039, "\u0120definitely": 5040, "mr": 5041, "\u0120hence": 5042, "\u0120luc": 5043, "\u0120vital": 5044, "\u0120closely": 5045, "\u0120cold": 5046, "\u0120george": 5047, "\u0120involve": 5048, "\u0120categories": 5049, "\u0120enterprises": 5050, "\u0120scientific": 5051, "time": 5052, "\u0120fal": 5053, "vere": 5054, "ado": 5055, "\u0120suites": 5056, "\u0120accident": 5057, "ovina": 5058, "\u0120requests": 5059, "\u0120irish": 5060, "\u0120failed": 5061, "loud": 5062, "rant": 5063, "tained": 5064, "\u0120master": 5065, "\u0120uses": 5066, "\u0120imag": 5067, "vely": 5068, "\u0120kept": 5069, "\u0120studio": 5070, "\u0120glass": 5071, "\u0120cecil": 5072, "\u0120journal": 5073, "\u0120constitution": 5074, "sterdam": 5075, "contin": 5076, "\u0120cec": 5077, "ata": 5078, "atively": 5079, "\u0120began": 5080, "\u0120committed": 5081, "\u0120ka": 5082, "\u012038": 5083, "\u0120organised": 5084, "\u0120privacy": 5085, "porary": 5086, "\u0120arrangements": 5087, "\u0120subsidiarity": 5088, "\u0120resumption": 5089, "\u0120cecilia": 5090, "\u0120fem": 5091, "\u0120hit": 5092, "acious": 5093, "sec": 5094, "\u0120agencies": 5095, "\u0120debates": 5096, "\u0120courses": 5097, "\u0120dennis": 5098, "\u0120202": 5099, "\u0120medical": 5100, "\u0120texts": 5101, "\u0120honest": 5102, "\u0120piece": 5103, "\u0120reserve": 5104, "\u0120flexible": 5105, "\u0120dinner": 5106, "\u0120truly": 5107, "\u0120ferrero": 5108, "\u0120ak": 5109, "\u0120cub": 5110, "\u0120pil": 5111, "\u0120remark": 5112, "\u0120amsterdam": 5113, "\u0120manual": 5114, "icking": 5115, "\u0120maintain": 5116, "\u0120vienna": 5117, "\u0120facing": 5118, "\u0120mandate": 5119, "\u0120satisfact": 5120, "\u0120eyes": 5121, "\u0120ded": 5122, "\u0120gift": 5123, "\u0120weather": 5124, "\u0120alt": 5125, "\u0120chinas": 5126, "\u0120whats": 5127, "\u012083": 5128, "\u0120supporting": 5129, "\u0120swe": 5130, "\u0120models": 5131, "\u0120erk": 5132, "\u0120driving": 5133, "\u0120hearing": 5134, "\u0120pleasant": 5135, "\u0120illegal": 5136, "iance": 5137, "entions": 5138, "\u0120clients": 5139, "elles": 5140, "\u0120rock": 5141, "\u0120compat": 5142, "\u0120monday": 5143, "\u0120recommended": 5144, "\u0120leader": 5145, "\u0120battle": 5146, "zegovina": 5147, "ris": 5148, "\u0120fell": 5149, "\u0120gross": 5150, "\u0120ros": 5151, "\u0120serve": 5152, "\u0120rare": 5153, "\u0120acquis": 5154, "\u0120provision": 5155, "\u0120fulf": 5156, "\u0120thirdly": 5157, "\u0120restaurants": 5158, "76": 5159, "hl": 5160, "ky": 5161, "\u0120pin": 5162, "\u0120pill": 5163, "\u0120mik": 5164, "\u0120eat": 5165, "osp": 5166, "\u0120spoke": 5167, "\u0120perspective": 5168, "\u0120highest": 5169, "\u0120contribute": 5170, "win": 5171, "\u0120bill": 5172, "\u0120horn": 5173, "\u0120earn": 5174, "omas": 5175, "\u0120whom": 5176, "\u0120except": 5177, "\u0120compli": 5178, "2003": 5179, "\u0120dimit": 5180, "\u0120fiscal": 5181, "forcement": 5182, "waldner": 5183, "\u0120demonstr": 5184, "\u0120pi": 5185, "\u0120abbott": 5186, "ache": 5187, "\u0120directives": 5188, "\u0120relates": 5189, "\u0120entries": 5190, "\u0120xii": 5191, "\u0120shared": 5192, "\u0120perfectly": 5193, "\u0120tasks": 5194, "\u0120pleasure": 5195, "\u0120till": 5196, "\u0120cup": 5197, "\u0120dyn": 5198, "\u0120dark": 5199, "\u0120complic": 5200, "\u0120findings": 5201, "\u0120expand": 5202, "\u0120welfare": 5203, "\u0120runs": 5204, "\u0120macro": 5205, "\u0120device": 5206, "\u0120eye": 5207, "\u0120birth": 5208, "\u0120british": 5209, "73": 5210, "79": 5211, "\u0120wo": 5212, "\u0120command": 5213, "\u0120worse": 5214, "\u0120defined": 5215, "\u0120rome": 5216, "\u0120discussions": 5217, "\u0120accordingly": 5218, "\u0120entrepreneurs": 5219, "\u0120fi": 5220, "ider": 5221, "\u0120spot": 5222, "\u0120websites": 5223, "\u0120expensive": 5224, "\u0120relationship": 5225, "\u0120portal": 5226, "\u0120leading": 5227, "\u0120students": 5228, "\u0120messages": 5229, "\u0120combating": 5230, "\u0120amounts": 5231, "\u0120substances": 5232, "\u0120champ": 5233, "\u0120candidate": 5234, "\u0120ot": 5235, "\u0120dina": 5236, "\u0120nut": 5237, "\u0120reci": 5238, "\u0120europeaid": 5239, "\u0120chat": 5240, "\u0120suite": 5241, "\u0120asht": 5242, "\u0120meat": 5243, "\u0120400": 5244, "\u0120guard": 5245, "\u0120finances": 5246, "\u0120intend": 5247, "\u0120biggest": 5248, "\u0120earlier": 5249, "\u0120satell": 5250, "\u0120appointment": 5251, "\u0120silence": 5252, "\u0120rental": 5253, "\u0120prospect": 5254, "\u0120comprehensive": 5255, "58": 5256, "78": 5257, "night": 5258, "\u0120ice": 5259, "enture": 5260, "adt": 5261, "amp": 5262, "\u0120allows": 5263, "\u0120rose": 5264, "\u012049": 5265, "ager": 5266, "\u0120spread": 5267, "\u0120syn": 5268, "2006": 5269, "\u0120barri": 5270, "\u0120banking": 5271, "\u0120calcul": 5272, "general": 5273, "imbab": 5274, "deputy": 5275, "\u0120cecaf": 5276, "\u0120erkki": 5277, "bb": 5278, "pm": 5279, "ining": 5280, "ione": 5281, "ental": 5282, "\u0120giving": 5283, "\u0120avra": 5284, "\u0120syria": 5285, "\u0120creative": 5286, "\u0120possibility": 5287, "\u0120metres": 5288, "\u0120reasonable": 5289, "\u0120meaning": 5290, "1999": 5291, "\u0120sudan": 5292, "\u0120deliberation": 5293, "based": 5294, "vo": 5295, "\u0120ml": 5296, "\u0120mixed": 5297, "\u0120lunch": 5298, "\u0120exit": 5299, "\u0120informed": 5300, "rupt": 5301, "\u0120zimbab": 5302, "\u0120concent": 5303, "\u0120estate": 5304, "\u0120easier": 5305, "\u0120governments": 5306, "\u0120ign": 5307, "\u0120castle": 5308, "\u0120argument": 5309, "\u0120square": 5310, "\u0120disposal": 5311, "\u0120families": 5312, "inem": 5313, "\u0120leban": 5314, "\u0120books": 5315, "\u0120flow": 5316, "\u0120merc": 5317, "\u0120lots": 5318, "\u0120vacation": 5319, "\u0120micro": 5320, "\u0120mexico": 5321, "\u0120vassilious": 5322, "\u0120enormous": 5323, "ax": 5324, "fo": 5325, "\u0120ps": 5326, "itz": 5327, "rometer": 5328, "\u0120leon": 5329, "\u0120output": 5330, "\u0120mode": 5331, "\u0120scand": 5332, "\u0120patten": 5333, "\u0120shortly": 5334, "\u0120appreciate": 5335, "\u0120ltd": 5336, "enhagen": 5337, "\u0120avraam": 5338, "iff": 5339, "table": 5340, "isms": 5341, "\u0120sir": 5342, "enced": 5343, "\u0120pun": 5344, "\u0120hop": 5345, "\u0120canada": 5346, "\u0120kall": 5347, "\u0120contrad": 5348, "\u0120quar": 5349, "\u0120timet": 5350, "\u0120discharge": 5351, "\u0120brid": 5352, "\u012066": 5353, "\u0120fee": 5354, "\u0120peoples": 5355, "\u0120equality": 5356, "\u0120russian": 5357, "\u0120domestic": 5358, "\u0120combat": 5359, "\u0120olaf": 5360, "\u0120mold": 5361, "\u0120henn": 5362, "\u0120eight": 5363, "uled": 5364, "\u0120dog": 5365, "\u0120kg": 5366, "\u0120spacious": 5367, "\u0120upload": 5368, "\u0120boat": 5369, "\u0120genu": 5370, "\u0120switch": 5371, "\u0120palace": 5372, "\u0120installed": 5373, "\u0120treas": 5374, "\u0120dvd": 5375, "\u0120symbol": 5376, "han": 5377, "\u0120init": 5378, "\u0120nom": 5379, "look": 5380, "\u0120died": 5381, "\u0120compens": 5382, "\u0120advis": 5383, "\u0120functioning": 5384, "\u0120indicators": 5385, "\u0120devices": 5386, "\u0120stocks": 5387, "\u0120replace": 5388, "\u0120manufacture": 5389, "\u0120louis": 5390, "\u0120ty": 5391, "\u0120bang": 5392, "rock": 5393, "\u0120euroba": 5394, "2008": 5395, "\u0120evidence": 5396, "\u0120healthy": 5397, "\u0120tourist": 5398, "\u0120leads": 5399, "\u0120753": 5400, "\u0120deposit": 5401, "\u0120ashton": 5402, "\u0120led": 5403, "\u0120forgot": 5404, "\u0120york": 5405, "\u0120becoming": 5406, "ista": 5407, "\u0120parlia": 5408, "\u0120luxury": 5409, "\u0120jacques": 5410, "\u0120zimbabwe": 5411, "\u0120parliaments": 5412, "itect": 5413, "\u0120gain": 5414, "001": 5415, "opoul": 5416, "cccc": 5417, "\u0120remove": 5418, "\u0120extended": 5419, "\u0120morocco": 5420, "\u0120testing": 5421, "\u0120volume": 5422, "\u0120accompan": 5423, "\u0120publish": 5424, "\u0120recognition": 5425, "\u0120departure": 5426, "\u0120virtual": 5427, "holders": 5428, "\u0120taste": 5429, "\u0120weapons": 5430, "eesc": 5431, "yt": 5432, "\u0120crow": 5433, "\u0120bes": 5434, "\u0120bure": 5435, "ida": 5436, "\u0120exists": 5437, "\u0120amaz": 5438, "\u0120opens": 5439, "\u0120prim": 5440, "inding": 5441, "\u0120numer": 5442, "\u0120delight": 5443, "\u0120advoc": 5444, "\u0120explore": 5445, "\u0120safegu": 5446, "\u01200475": 5447, "\u0120displayed": 5448, "\u0120eurobarometer": 5449, "\u0120sen": 5450, "\u0120told": 5451, "rak": 5452, "\u0120quant": 5453, "\u0120worry": 5454, "cla": 5455, "\u0120propose": 5456, "\u0120welcom": 5457, "\u0120sectors": 5458, "\u0120signed": 5459, "\u0120inspect": 5460, "presse": 5461, "\u0120domain": 5462, "\u0120subscribe": 5463, "\u0120atmosphere": 5464, "vy": 5465, "\u0120dry": 5466, "\u0120lind": 5467, "\u0120andor": 5468, "\u0120unc": 5469, "cons": 5470, "\u0120saw": 5471, "iann": 5472, "\u0120describ": 5473, "\u0120latin": 5474, "\u0120intel": 5475, "\u0120versions": 5476, "\u0120produce": 5477, "\u0120videos": 5478, "\u0120guaranteed": 5479, "\u0120movie": 5480, "\u0120appropriations": 5481, "\u0120balcony": 5482, "jud": 5483, "\u0120oce": 5484, "\u0120seat": 5485, "\u0120rid": 5486, "\u0120placed": 5487, "\u0120emb": 5488, "\u0120rain": 5489, "\u0120corner": 5490, "\u0120requested": 5491, "\u0120labelling": 5492, "\u0120destroy": 5493, "\u0120arab": 5494, "\u0120mun": 5495, "\u0120hair": 5496, "\u012071": 5497, "appro": 5498, "\u0120sold": 5499, "\u0120reduce": 5500, "\u0120studies": 5501, "\u0120creating": 5502, "\u0120orders": 5503, "\u0120discrimination": 5504, ".(": 5505, "gent": 5506, "hann": 5507, "ker": 5508, "rum": 5509, "orf": 5510, "ils": 5511, "oto": 5512, "ctor": 5513, "\u0120begins": 5514, "quir": 5515, "\u0120solve": 5516, "\u0120foundation": 5517, "\u0120warning": 5518, "\u0120infringements": 5519, "\u0120bonus": 5520, "\u0120simplification": 5521, "\u0120renewable": 5522, "69": 5523, "\u0120ib": 5524, "\u0120jack": 5525, "lock": 5526, "\u0120taxes": 5527, "\u0120operating": 5528, "\u0120\u0120\u0120\u0120": 5529, "\u0120wallstr\u00c3\u00b6m": 5530, "\u0120interpretation": 5531, "\u0120welcomed": 5532, "cz": 5533, "zone": 5534, "\u0120wild": 5535, "\u0120iia": 5536, "osed": 5537, "\u0120plants": 5538, "active": 5539, "\u0120transact": 5540, "\u0120maybe": 5541, "\u0120posted": 5542, "\u0120slight": 5543, "\u0120maced": 5544, "\u0120exclusive": 5545, "holm": 5546, "\u0120wheel": 5547, "\u0120excessive": 5548, "oved": 5549, "\u0120ah": 5550, "\u0120cra": 5551, "ila": 5552, "urement": 5553, "\u0120verhe": 5554, "\u0120carlo": 5555, "\u0120estim": 5556, "\u0120satur": 5557, "\u0120copenhagen": 5558, "\u0120calend": 5559, "\u0120hardly": 5560, "\u0120architect": 5561, "\u0120convergence": 5562, "\u0120vehicle": 5563, "\u0120premium": 5564, "\u0120satellite": 5565, "rors": 5566, "\u012077": 5567, "\u0120undert": 5568, "2004": 5569, "\u0120metro": 5570, "\u0120strongly": 5571, "\u0120georgiev": 5572, "\u0120establishment": 5573, "bus": 5574, "ray": 5575, "\u0120aust": 5576, "\u0120sight": 5577, "anas": 5578, "\u0120beg": 5579, "\u0120enforcement": 5580, "\u0120cooper": 5581, "cycl": 5582, "\u0120skills": 5583, "\u0120insp": 5584, "\u0120implementing": 5585, "\u0120library": 5586, "\u0120lebanon": 5587, "\u0120hennon": 5588, "lie": 5589, "itage": 5590, "\u0120intention": 5591, "\u0120factors": 5592, "\u0120xiv": 5593, "\u0120parent": 5594, "\u0120topics": 5595, "\u0120manager": 5596, "\u0120angel": 5597, "\u0120antonio": 5598, "ding": 5599, "atch": 5600, "\u0120bm": 5601, "iminister": 5602, "\u0120unions": 5603, "\u0120resource": 5604, "\u0120logo": 5605, "rick": 5606, "\u0120moved": 5607, "\u0120heritage": 5608, "\u0120balanced": 5609, "\u0120charges": 5610, "\u0120purposes": 5611, "\u0120casa": 5612, "\u0120schools": 5613, "\u0120burma": 5614, "\u0120suggestions": 5615, "\u0120historic": 5616, "build": 5617, "\u0120criticism": 5618, "\u0120supplementary": 5619, "\u0120adjourn": 5620, "\u0120georgievas": 5621, "german": 5622, "eding": 5623, "\u0120liability": 5624, "ett": 5625, "\u0120alco": 5626, "\u0120byr": 5627, "\u0120noise": 5628, "\u0120residence": 5629, "ivian": 5630, "\u012059": 5631, "\u0120closer": 5632, "\u0120extent": 5633, "\u00c3\u00b6n": 5634, "azza": 5635, "\u0120transparent": 5636, "\u0120andris": 5637, "onym": 5638, "\u0120immediate": 5639, "\u0120repeat": 5640, "\u0120friday": 5641, "\u0120ast": 5642, "anen": 5643, "ito": 5644, "\u0120bse": 5645, "\u0120memory": 5646, "\u0120herzegovina": 5647, "\u0120african": 5648, "\u0120archive": 5649, "\u0120components": 5650, "\u0120pakistan": 5651, "\u0120verheug": 5652, "\u0120adjournment": 5653, "je": 5654, "icy": 5655, "inea": 5656, "\u0120concert": 5657, "\u0120delic": 5658, "\u0120investig": 5659, "ourage": 5660, "\u0120temper": 5661, "\u0120regulatory": 5662, "\u0120launched": 5663, "\u0120bottom": 5664, "\u0120catalogue": 5665, "\u0120chapter": 5666, "\u0120pretty": 5667, "\u0120timetable": 5668, "\u0120initial": 5669, "pol": 5670, "\u0120cow": 5671, "ords": 5672, "\u0120mol": 5673, "\u0120ef": 5674, "elle": 5675, "ige": 5676, "\u012042": 5677, "\u0120spect": 5678, "\u0120transpos": 5679, "\u0120procurement": 5680, "ibly": 5681, "\u0120causes": 5682, "\u0120occasion": 5683, "379": 5684, "\u0120renov": 5685, "\u0120viii": 5686, "\u0120granted": 5687, "\u0120forth": 5688, "\u0120stick": 5689, "\u0120strict": 5690, "\u0120rac": 5691, "\u0120actual": 5692, "\u0120everywhere": 5693, "\u0120desk": 5694, "2009": 5695, "\u0120skype": 5696, "\u0120older": 5697, "\u0120bright": 5698, "\u0120audi": 5699, "\u0120catch": 5700, "\u0120institute": 5701, "\u0120improvements": 5702, "\u0120arrived": 5703, "\u0120settings": 5704, "\u0120historical": 5705, "\u0120negative": 5706, "\u0120plaice": 5707, "ares": 5708, "pes": 5709, "pers": 5710, "onom": 5711, "atis": 5712, "\u0120nord": 5713, "olid": 5714, "\u0120favor": 5715, "\u0120pattern": 5716, "\u0120absolute": 5717, "\u0120urgently": 5718, "\u0120demands": 5719, "\u0120saturday": 5720, "km": 5721, "kest": 5722, "\u0120dro": 5723, "\u0120das": 5724, "uts": 5725, "\u0120kil": 5726, "\u0120enem": 5727, "\u0120disaster": 5728, "\u012079": 5729, "\u0120800": 5730, "\u0120relig": 5731, "\u0120valley": 5732, "\u0120amended": 5733, "\u0120norm": 5734, "\u0120laws": 5735, "\u0120diseases": 5736, "\u0120pollution": 5737, "\u0120multiple": 5738, "\u0120compatible": 5739, "\u0120macedonia": 5740, "\u0120dun": 5741, "\u0120dies": 5742, "stood": 5743, "\u0120kaz": 5744, "\u0120lie": 5745, "ucht": 5746, "\u0120mainly": 5747, "\u0120scale": 5748, "\u0120speakers": 5749, "\u0120facility": 5750, "\u0120officer": 5751, "\u0120circum": 5752, "\u0120powers": 5753, "econom": 5754, "gos": 5755, "year": 5756, "\u0120cry": 5757, "\u0120mu": 5758, "aru": 5759, "illed": 5760, "\u0120plenty": 5761, "\u0120rol": 5762, "\u0120fees": 5763, "\u0120audio": 5764, "\u0120practices": 5765, "\u0120panel": 5766, "\u0120horse": 5767, "\u0120olive": 5768, "wegian": 5769, "\u0120verheugen": 5770, "cam": 5771, "craft": 5772, "ded": 5773, "etic": 5774, "stadt": 5775, "\u0120dipl": 5776, "\u012053": 5777, "\u0120empt": 5778, "\u0120monica": 5779, "athan": 5780, "\u0120dealing": 5781, "\u01202731": 5782, "\u0120mountains": 5783, "\u0120traditional": 5784, "fers": 5785, "ua": 5786, "vass": 5787, "\u0120aqu": 5788, "\u0120anca": 5789, "\u0120seeing": 5790, "\u0120600": 5791, "\u0120resolved": 5792, "\u0120committees": 5793, "\u0120250": 5794, "\u0120signs": 5795, "\u0120strengthen": 5796, "\u0120temporary": 5797, "\u0120managed": 5798, "\u0120incor": 5799, "\u0120characters": 5800, "\u0120lamy": 5801, "\u0120allocation": 5802, "\u0120colleagues": 5803, "kestein": 5804, "dis": 5805, "war": 5806, "\u0120burn": 5807, "omen": 5808, "\u0120gy": 5809, "\u0120noted": 5810, "\u0120rss": 5811, "\u0120finished": 5812, "\u0120reservations": 5813, "\u0120programs": 5814, "\u0120smart": 5815, "\u0120attend": 5816, "\u0120funded": 5817, "\u0120winner": 5818, "\u0120buildings": 5819, "\u0120karl": 5820, "\u0120announce": 5821, "\u0120convin": 5822, "\u0120bolkestein": 5823, "quiry": 5824, "()": 5825, "\u00c3\u0141": 5826, "inn": 5827, "\u0120sac": 5828, "\u0120wolf": 5829, "\u0120hun": 5830, "\u0120hund": 5831, "\u0120ye": 5832, "\u0120bea": 5833, "eters": 5834, "\u0120prohib": 5835, "ima": 5836, "\u0120roma": 5837, "\u0120passed": 5838, "\u0120noneth": 5839, "\u0120generally": 5840, "\u0120exclud": 5841, "\u0120likely": 5842, "\u0120mutual": 5843, "\u0120calendar": 5844, "\u0120alcohol": 5845, "\u0120nonetheless": 5846, "des": 5847, "erto": 5848, "\u0120courage": 5849, "\u0120wik": 5850, "\u0120beat": 5851, "irt": 5852, "ando": 5853, "akis": 5854, "\u0120afford": 5855, "\u0120acts": 5856, "\u0120johann": 5857, "\u0120corruption": 5858, "\u0120roman": 5859, "engers": 5860, "mediterranean": 5861, "\u0120suppl": 5862, "\u0120cycl": 5863, "\u0120javas": 5864, "\u0120vegetables": 5865, "\u0120complicated": 5866, "ught": 5867, "\u0120um": 5868, "\u0120f\u00c3\u00bc": 5869, "ario": 5870, "arily": 5871, "\u0120nick": 5872, "\u0120whiting": 5873, "\u0120kn": 5874, "\u0120nov": 5875, "oken": 5876, "\u0120module": 5877, "commission": 5878, "\u0120understanding": 5879, "\u0120universal": 5880, "\u0120refugees": 5881, "pu": 5882, "\u0120wire": 5883, "\u0120dress": 5884, "alle": 5885, "\u0120gam": 5886, "\u0120va": 5887, "chen": 5888, "\u0120prejud": 5889, "\u012095": 5890, "\u0120strasbourg": 5891, "\u0120trou": 5892, "ifying": 5893, "\u0120frag": 5894, "\u0120encouraging": 5895, "\u0120introduced": 5896, "\u0120duties": 5897, "\u0120heavy": 5898, "\u0120organisations": 5899, "\u0120fantastic": 5900, "\u0120javascript": 5901, "inen": 5902, "\u0120oh": 5903, "\u0120hosp": 5904, "ederal": 5905, "\u0120toler": 5906, "\u0120nos": 5907, "\u0120stars": 5908, "\u0120seg": 5909, "ciliation": 5910, "\u0120disabled": 5911, "\u012061": 5912, "\u0120edition": 5913, "\u0120flag": 5914, "\u0120esc": 5915, "\u0120opinions": 5916, "\u0120nearly": 5917, "\u0120opposed": 5918, "\u0120substant": 5919, "\u0120americas": 5920, "\u0120producers": 5921, "\u0120chemicals": 5922, "\u0120corporate": 5923, "\u0120ath": 5924, "\u0120thomas": 5925, "\u0120cs": 5926, "\u0120saint": 5927, "\u0120income": 5928, "\u0120remin": 5929, "ades": 5930, "portion": 5931, "\u0120mini": 5932, "\u0120usual": 5933, "\u0120monten": 5934, "\u0120joined": 5935, "\u0120removed": 5936, "\u01201993": 5937, "\u0120facil": 5938, "\u0120considerable": 5939, "\u0120connected": 5940, "\u0120burden": 5941, "**": 5942, "ben": 5943, "\u0120awards": 5944, "\u0120duration": 5945, "rot": 5946, "\u0120eco": 5947, "\u0120ling": 5948, "\u0120wear": 5949, "oren": 5950, "igible": 5951, "\u0120enquiries": 5952, "abor": 5953, "\u0120cents": 5954, "\u0120smoking": 5955, "\u0120corresp": 5956, "\u0120autumn": 5957, "\u0120sky": 5958, "what": 5959, "\u0120consequently": 5960, "\u0120tunis": 5961, "\u0120jonathan": 5962, "\u0120inhab": 5963, "\u0120dimitri": 5964, "\u0120moldova": 5965, "\u0120austral": 5966, "\u0120bmw": 5967, "bor": 5968, "\u0120ul": 5969, "\u0120fern": 5970, "\u0120father": 5971, "\u0120eleg": 5972, "raid": 5973, "\u0120boost": 5974, "\u0120directory": 5975, "\u0120desp": 5976, "\u0120realistic": 5977, "\u0120revision": 5978, "\u0120surv": 5979, "\u0120judicial": 5980, "ashion": 5981, "\u0120heading": 5982, "\u0120arrive": 5983, "\u0120condem": 5984, "\u0120settlement": 5985, "\u0120tacs": 5986, "\u0120attractive": 5987, "\u0120kallas": 5988, "economic": 5989, "bast": 5990, "lam": 5991, "inal": 5992, "\u0120od": 5993, "\u0120vul": 5994, "\u0120voc": 5995, "eta": 5996, "\u0120alm": 5997, "\u0120ran": 5998, "\u0120marc": 5999, "aret": 6000, "\u0120brux": 6001, "avi": 6002, "\u0120functions": 6003, "\u0120afraid": 6004, "\u0120processing": 6005, "\u0120differences": 6006, "\u0120packaging": 6007, "\u0120passengers": 6008, "\u0120trafficking": 6009, "ilioueu": 6010, "\u0120convenient": 6011, "\u0120empty": 6012, "vassilioueu": 6013, "card": 6014, "here": 6015, "\u0120por": 6016, "\u0120kor": 6017, "\u0120royal": 6018, "abilities": 6019, "\u0120mys": 6020, "\u0120accessible": 6021, "\u0120passenger": 6022, "\u0120consideration": 6023, "\u0120lesson": 6024, "ambassador": 6025, "\u0120bruxelles": 6026, "hotel": 6027, "tr": 6028, "wan": 6029, "reme": 6030, "\u0120ing": 6031, "uraru": 6032, "\u0120ring": 6033, "group": 6034, "\u0120guinea": 6035, "\u0120signal": 6036, "\u0120label": 6037, "\u0120dealt": 6038, "\u0120daniel": 6039, "\u0120torres": 6040, "\u0120attached": 6041, "\u0120monteneg": 6042, "set": 6043, "\u0120ti": 6044, "\u0120trib": 6045, "iny": 6046, "anim": 6047, "\u0120ga": 6048, "\u0120stable": 6049, "rain": 6050, "\u0120shut": 6051, "\u0120yours": 6052, "\u0120polish": 6053, "\u0120arm": 6054, "\u0120boy": 6055, "ensus": 6056, "\u0120entered": 6057, "\u0120possibilities": 6058, "govern": 6059, "\u0120television": 6060, "\u0120powerful": 6061, "\u0120learned": 6062, "\u0120destination": 6063, "\u0120arguments": 6064, "\u0120physical": 6065, "\u0120upgrade": 6066, "\u0120barriers": 6067, "ele": 6068, "\u0120dol": 6069, "\u0120nik": 6070, "\u0120len": 6071, "\u0120ongoing": 6072, "\u0120atlantic": 6073, "\u0120plays": 6074, "\u0120saved": 6075, "\u0120aftern": 6076, "\u01201992": 6077, "\u0120banner": 6078, "\u0120aids": 6079, "\u0120turned": 6080, "\u0120soul": 6081, "\u0120paduraru": 6082, "\u0120fifth": 6083, "\u0120ocean": 6084, "\u0120ought": 6085, "\u0120sv": 6086, "acht": 6087, "\u0120chan": 6088, "alled": 6089, "\u0120compr": 6090, "erent": 6091, "\u0120franc": 6092, "\u0120answered": 6093, "\u0120drag": 6094, "\u0120posts": 6095, "\u0120careful": 6096, "\u0120weekend": 6097, "\u0120sounds": 6098, "\u0120scheduled": 6099, "\u0120dedic": 6100, "link": 6101, "sm": 6102, "\u0120thresh": 6103, "\u0120mes": 6104, "\u0120font": 6105, "\u0120breat": 6106, "\u0120lod": 6107, "\u0120gucht": 6108, "\u0120vary": 6109, "\u0120stano": 6110, "\u0120stream": 6111, "\u0120proof": 6112, "\u0120resist": 6113, "reevy": 6114, "\u0120lobby": 6115, "\u012062": 6116, "\u0120franco": 6117, "\u0120restruct": 6118, "\u0120capt": 6119, "\u0120drivers": 6120, "unicip": 6121, "\u0120pedro": 6122, "\u0120munich": 6123, "\u0120montenegro": 6124, "\u0120afternoon": 6125, "\u0120threshold": 6126, "band": 6127, "nl": 6128, "nik": 6129, "\u0120tan": 6130, "inations": 6131, "\u0120wi": 6132, "\u0120todd": 6133, "asse": 6134, "\u0120reven": 6135, "\u0120rul": 6136, "\u0120liby": 6137, "\u0120abol": 6138, "\u0120diversity": 6139, "\u0120marine": 6140, "\u0120relation": 6141, "ucing": 6142, "\u0120entrance": 6143, "\u0120scr": 6144, "\u0120competitive": 6145, "\u0120organic": 6146, "\u0120deserves": 6147, "\u0120merely": 6148, "\u0120primary": 6149, "\u0120fix": 6150, "\u0120bio": 6151, "\u0120gap": 6152, "utor": 6153, "\u0120liik": 6154, "\u0120lovely": 6155, "\u0120roll": 6156, "\u0120spoken": 6157, "\u0120worksh": 6158, "anges": 6159, "\u0120swed": 6160, "\u0120accessed": 6161, "\u0120metal": 6162, "\u0120index": 6163, "\u0120driver": 6164, "\u0120fighting": 6165, "\u0120machines": 6166, "\u0120westeren": 6167, "\u0120leadership": 6168, "\u0120penalty": 6169, "how": 6170, "\u0120ou": 6171, "\u0120f\u00c3\u00bcr": 6172, "ales": 6173, "\u0120stef": 6174, "\u0120ken": 6175, "appe": 6176, "\u0120mann": 6177, "lavia": 6178, "\u012063": 6179, "aving": 6180, "\u0120impress": 6181, "\u0120contributions": 6182, "\u0120bike": 6183, "\u0120quota": 6184, "\u0120deadlines": 6185, "\u0120surprise": 6186, "nam": 6187, "\u0120tib": 6188, "\u0120cf": 6189, "\u0120municip": 6190, "\u0120bom": 6191, "\u0120dar": 6192, "rote": 6193, "asc": 6194, "\u0120liter": 6195, "stan": 6196, "\u0120relating": 6197, "\u0120implic": 6198, "\u0120parliamentary": 6199, "\u0120textiles": 6200, "\u0120wordpress": 6201, "\u0120labor": 6202, "\u0120responsibilities": 6203, "\u0120brian": 6204, "\u0120volunt": 6205, "\u0120classic": 6206, "\u0120complain": 6207, "\u0120echo": 6208, "building": 6209, "eff": 6210, "inos": 6211, "\u0120isol": 6212, "ctic": 6213, "\u0120vers": 6214, "\u0120alp": 6215, "aminister": 6216, "\u0120grass": 6217, "\u0120visible": 6218, "\u0120barbar": 6219, "\u0120territor": 6220, "\u0120lands": 6221, "gaard": 6222, "\u0120illust": 6223, "\u0120determin": 6224, "\u0120deserve": 6225, "\u0120g\u00c3\u00bcnther": 6226, "\u0120savings": 6227, "\u0120genuine": 6228, "water": 6229, "ych": 6230, "\u0120pip": 6231, "\u0120fashion": 6232, "\u0120h\u00c3\u00bcb": 6233, "\u0120hamb": 6234, "\u0120transfers": 6235, "\u0120solar": 6236, "\u0120processes": 6237, "\u0120visits": 6238, "\u0120trial": 6239, "\u0120blood": 6240, "\u0120stronger": 6241, "\u0120feeling": 6242, "\u0120....": 6243, "\u0120associated": 6244, "\u0120loss": 6245, "\u0120feedback": 6246, "\u0120dispute": 6247, "\u0120thousand": 6248, "\u0120mccreevy": 6249, "\u0120circumst": 6250, "\u0120cad": 6251, "\u0120congo": 6252, "rif": 6253, "\u0120cha": 6254, "\u0120cancer": 6255, "\u0120monti": 6256, "\u0120latter": 6257, "\u0120confident": 6258, "\u0120greatest": 6259, "\u0120woman": 6260, "\u0120iron": 6261, "\u0120hesitate": 6262, "\u0120cotton": 6263, "\u0120entrepreneurship": 6264, "\u0120h\u00c3\u00bcbner": 6265, "hof": 6266, "lan": 6267, "\u0120),": 6268, "\u0120thor": 6269, "\u0120sail": 6270, "\u0120sara": 6271, "\u0120bot": 6272, "\u0120lord": 6273, "\u0120verified": 6274, "\u0120regards": 6275, "\u0120expression": 6276, "\u0120edu": 6277, "\u0120era": 6278, "\u0120geograph": 6279, "\u0120christmas": 6280, "\u0120discussing": 6281, "\u0120unfair": 6282, "\u0120safeguard": 6283, "\u0120liikanen": 6284, "uz": 6285, "\u0120pia": 6286, "\u0120bran": 6287, "elia": 6288, "\u0120iphone": 6289, "\u0120onto": 6290, "\u0120deals": 6291, "adem": 6292, "\u0120novak": 6293, "\u0120coal": 6294, "\u0120trail": 6295, "place": 6296, "\u0120obst": 6297, "\u0120edps": 6298, "\u0120scan": 6299, "\u0120helps": 6300, "\u0120didnt": 6301, "\u0120advanced": 6302, "\u0120charlie": 6303, "while": 6304, "\u0120irina": 6305, "\u0120silver": 6306, "\u0120claim": 6307, "\u0120technological": 6308, "\u0120experts": 6309, "continuation": 6310, "\u0120intellect": 6311, "\u0120cult": 6312, "\u0120om": 6313, "\u0120isnt": 6314, "\u0120vlad": 6315, "idden": 6316, "izing": 6317, "\u012094": 6318, "\u0120desired": 6319, "\u0120understood": 6320, "\u0120valu": 6321, "\u0120extract": 6322, "\u0120specifically": 6323, "\u0120typical": 6324, "\u0120larger": 6325, "\u0120announced": 6326, "\u0120andreas": 6327, "\u0120shares": 6328, "\u0120observed": 6329, "\u0120obligations": 6330, "\u0120numerous": 6331, "\u0120advocate": 6332, "__": 6333, "pap": 6334, "spe": 6335, "\u0120aus": 6336, "inter": 6337, "\u0120mother": 6338, "ala": 6339, "\u0120eb": 6340, "\u0120rehn": 6341, "\u0120forces": 6342, "\u0120gh": 6343, "ulf": 6344, "\u0120jul": 6345, "\u0120loan": 6346, "\u0120heat": 6347, "\u0120coh": 6348, "\u0120relatively": 6349, "\u0120representation": 6350, "\u0120themes": 6351, "\u0120obtain": 6352, "\u0120mainten": 6353, "\u0120zero": 6354, "\u0120tried": 6355, "\u0120structures": 6356, "\u0120identified": 6357, "\u0120clarification": 6358, "\u0120batter": 6359, "\u0120diplom": 6360, ")?": 6361, "ole": 6362, "\u0120tam": 6363, "\u0120trem": 6364, "\u0120wont": 6365, "\u0120faster": 6366, "\u0120dram": 6367, "ste": 6368, "\u0120jer": 6369, "\u0120jose": 6370, "\u0120leaves": 6371, "\u0120adequ": 6372, "laughter": 6373, "\u012072": 6374, "\u0120consensus": 6375, "\u0120prison": 6376, "\u0120indones": 6377, "\u0120submit": 6378, "\u01201990": 6379, "\u0120lists": 6380, "\u0120operate": 6381, "\u0120229": 6382, "\u0120stein": 6383, "\u0120nearby": 6384, "\u0120filled": 6385, "\u0120sensitive": 6386, "\u0120layer": 6387, "\u0120kinds": 6388, "410": 6389, "\u0120mit": 6390, "\u0120loun": 6391, "\u0120plaza": 6392, "\u0120poly": 6393, "\u0120creates": 6394, "\u0120ports": 6395, "\u0120certific": 6396, "owski": 6397, "\u0120turning": 6398, "\u0120expectations": 6399, "\u0120returned": 6400, "2012": 6401, "\u0120harm": 6402, "iliar": 6403, "\u0120claims": 6404, "\u0120restrictions": 6405, "\u0120richard": 6406, "\u0120pascal": 6407, "\u0120flights": 6408, "\u0120scandal": 6409, "\u0120forgotten": 6410, "\u0120described": 6411, "uck": 6412, "vest": 6413, "\u0120pg": 6414, "\u0120mouse": 6415, "\u0120dir": 6416, "\u0120vb": 6417, "\u0120stard": 6418, "\u0120stabil": 6419, "\u0120decre": 6420, "rie": 6421, "\u0120clock": 6422, "\u0120argent": 6423, "\u0120somewhat": 6424, "\u0120looked": 6425, "\u0120colors": 6426, "\u0120auth": 6427, "\u0120surf": 6428, "\u0120purs": 6429, "\u0120explained": 6430, "\u0120shape": 6431, "\u0120g\u00c3\u00bcnter": 6432, "\u0120yugoslavia": 6433, "\u0120intellectual": 6434, "hel": 6435, "hne": 6436, "know": 6437, "\u0120poul": 6438, "\u0120dor": 6439, "\u0120dish": 6440, "\u0120hell": 6441, "icians": 6442, "\u0120sem": 6443, "\u0120dogs": 6444, "\u0120shock": 6445, "ardo": 6446, "\u0120robert": 6447, "abbott": 6448, "rics": 6449, "comp": 6450, "\u0120sincere": 6451, "\u0120floors": 6452, "\u0120organization": 6453, "\u0120applicable": 6454, "dennis": 6455, "\u0120multi": 6456, "\u0120declarations": 6457, "\u0120magn": 6458, "\u0120olli": 6459, "\u0120utc": 6460, "\u0120strategies": 6461, "\u0120tabled": 6462, "\u0120golden": 6463, "\u0120yesterdays": 6464, "\u0120puerto": 6465, "\u0120mosc": 6466, "\u0120pierre": 6467, "germany": 6468, "\u0120beauty": 6469, "\u0120inhabit": 6470, "\u0120libya": 6471, "\u0120circumstances": 6472, "\u0120novakova": 6473, "dennisabbott": 6474, "bur": 6475, "ooth": 6476, "point": 6477, "\u0120bound": 6478, "ional": 6479, "\u0120hat": 6480, "\u0120nar": 6481, "oster": 6482, "\u0120dear": 6483, "\u0120unanim": 6484, "\u0120login": 6485, "agg": 6486, "\u0120diss": 6487, "\u0120pred": 6488, "\u0120embar": 6489, "\u0120availability": 6490, "\u0120anyway": 6491, "\u0120raw": 6492, "\u0120120": 6493, "\u0120impression": 6494, "\u0120interim": 6495, "\u0120zur": 6496, "\u0120objects": 6497, "\u0120camps": 6498, "\u0120exciting": 6499, "\u0120himself": 6500, "\u0120ambassador": 6501, "\u0120sharrock": 6502, "\u0120rubber": 6503, "\u0120horizont": 6504, "\u0120cuba": 6505, "\u0120restructuring": 6506, "\u0120obstac": 6507, "300": 6508, "bi": 6509, "bes": 6510, "dr": 6511, "gn": 6512, "irect": 6513, "rit": 6514, "\u0120bought": 6515, "ela": 6516, "\u0120willing": 6517, "\u0120usd": 6518, "\u0120alliance": 6519, "aken": 6520, "ellig": 6521, "\u0120root": 6522, "\u0120permitted": 6523, "\u0120justified": 6524, "minute": 6525, "\u0120proposing": 6526, "\u0120visited": 6527, "\u0120visiting": 6528, "\u0120surface": 6529, "uffs": 6530, "\u0120corrected": 6531, "\u0120appointed": 6532, "\u0120drinks": 6533, "\u0120folder": 6534, "\u0120maintenance": 6535, "*)": 6536, "dro": 6537, "kas": 6538, "\u0120cig": 6539, "eline": 6540, "\u0120kids": 6541, "\u0120disappe": 6542, "\u0120generation": 6543, "\u012098": 6544, "\u0120interview": 6545, "iking": 6546, "\u0120crist": 6547, "\u0120fratt": 6548, "\u0120greet": 6549, "\u0120conclude": 6550, "\u0120prague": 6551, "\u0120vincent": 6552, "\u0120bedrooms": 6553, "\u0120tree": 6554, "\u0120wil": 6555, "anmar": 6556, "\u0120bak": 6557, "\u0120gun": 6558, "\u0120spent": 6559, "\u0120attitude": 6560, "\u0120elim": 6561, "\u0120adventure": 6562, "\u0120taxi": 6563, "\u0120promise": 6564, "\u0120winning": 6565, "\u0120treated": 6566, "\u0120confirmed": 6567, "\u0120trends": 6568, "\u0120houses": 6569, "\u0120instructions": 6570, "\u0120voluntary": 6571, "\u0120eea": 6572, "\u0120proved": 6573, "quin": 6574, "\u0120orient": 6575, "ague": 6576, "law": 6577, "\u012082": 6578, "\u0120acqu": 6579, "\u0120incred": 6580, "\u0120equally": 6581, "annis": 6582, "\u0120guarantees": 6583, "\u0120colours": 6584, "\u0120abstained": 6585, "\u0120palestin": 6586, "\u0120byrne": 6587, "\u0120hamburg": 6588, "france": 6589, "pgi": 6590, "\u0120mur": 6591, "\u0120fuel": 6592, "\u0120hug": 6593, "\u0120vit": 6594, "\u0120jes": 6595, "\u0120doors": 6596, "\u0120cancell": 6597, "\u0120fines": 6598, "\u0120meg": 6599, "cond": 6600, "\u0120seek": 6601, "\u0120pharm": 6602, "\u0120attempt": 6603, "\u0120calling": 6604, "\u0120talks": 6605, "\u0120requirement": 6606, "\u0120judge": 6607, "\u0120difficulties": 6608, "\u0120documentation": 6609, "\u0120magaz": 6610, "\u0120observation": 6611, "\u0120santa": 6612, "\u0120influence": 6613, "\u0120delete": 6614, "\u0120tunisia": 6615, "\u0120stardoll": 6616, "cic": 6617, "iot": 6618, "\u0120cable": 6619, "\u0120mc": 6620, "\u0120ein": 6621, "\u0120chi": 6622, "\u0120shame": 6623, "\u0120kon": 6624, "\u0120ride": 6625, "\u0120amelia": 6626, "\u0120700": 6627, "\u0120interface": 6628, "\u0120carbon": 6629, "\u0120warrant": 6630, "\u0120enjoyed": 6631, "\u0120absurd": 6632, "\u0120greek": 6633, "\u0120directorate": 6634, "\u0120pensions": 6635, "\u0120furniture": 6636, "\u0120miguel": 6637, "\u0120tackle": 6638, "\u0120degree": 6639, "\u0120amazing": 6640, "fra": 6641, "sl": 6642, "wes": 6643, "zes": 6644, "\u0120cul": 6645, "\u0120pir": 6646, "\u0120eve": 6647, "\u0120stone": 6648, "ulled": 6649, "\u0120ado": 6650, "eller": 6651, "ovis": 6652, "\u0120serves": 6653, "\u0120explo": 6654, "\u0120planet": 6655, "\u0120retail": 6656, "\u0120cleaning": 6657, "\u0120shops": 6658, "\u0120reaction": 6659, "\u0120alexander": 6660, "\u0120properly": 6661, "\u0120bernard": 6662, "\u0120thousands": 6663, "\u0120channel": 6664, "\u0120parents": 6665, "\u0120valuable": 6666, "gress": 6667, "hand": 6668, "oni": 6669, "\u0120ci": 6670, "orse": 6671, "rov": 6672, "oli": 6673, "\u0120europa": 6674, "\u0120semin": 6675, "\u0120kong": 6676, "\u0120tag": 6677, "\u0120imf": 6678, "\u0120dismiss": 6679, "ittings": 6680, "\u0120invitation": 6681, "\u0120detect": 6682, "\u0120extend": 6683, "\u0120examine": 6684, "\u0120eligible": 6685, "\u0120treaties": 6686, "\u0120insert": 6687, "\u00c3\u00a4r": 6688, "\u0120globalisation": 6689, "\u0120codec": 6690, "\u0120citizen": 6691, "sson": 6692, "\u0120observations": 6693, "\u0120delegations": 6694, "\u0120schemes": 6695, "\u0120medicine": 6696, "\u0120compensation": 6697, "\u0120inhabitants": 6698, "fri": 6699, "making": 6700, "yle": 6701, "\u0120ack": 6702, "\u0120cinem": 6703, "\u0120felt": 6704, "\u0120hem": 6705, "omio": 6706, "\u0120alf": 6707, "\u0120seats": 6708, "\u0120kern": 6709, "acks": 6710, "\u0120coin": 6711, "\u0120rig": 6712, "\u01201991": 6713, "\u0120somalia": 6714, "\u0120errors": 6715, "\u0120urmas": 6716, "\u0120familiar": 6717, "\u0120tradem": 6718, "rosoft": 6719, "\u0120sensible": 6720, "\u0120microsoft": 6721, "\u0120expressed": 6722, "\u0120college": 6723, "\u0120split": 6724, "pi": 6725, "inst": 6726, "\u0120py": 6727, "\u0120bog": 6728, "\u0120bilateral": 6729, "\u0120tow": 6730, "\u0120gri": 6731, "\u0120gmos": 6732, "\u0120vel": 6733, "pez": 6734, "\u0120proportion": 6735, "\u0120alc": 6736, "\u0120exceed": 6737, "\u0120kl": 6738, "connect": 6739, "phan": 6740, "102": 6741, "\u0120defe": 6742, "\u0120intellig": 6743, "roslav": 6744, "\u0120upper": 6745, "\u0120district": 6746, "\u0120addresses": 6747, "\u0120paet": 6748, "\u0120turk": 6749, "\u0120supposed": 6750, "\u0120safer": 6751, "iciary": 6752, "\u0120panor": 6753, "\u0120licens": 6754, "\u0120misunder": 6755, "\u0120prepare": 6756, "\u0120recorded": 6757, "\u0120deadline": 6758, "\u0120clarify": 6759, "\u0120liked": 6760, "\u0120tuomio": 6761, "\u0120stopped": 6762, "\u0120suspended": 6763, "\u0120percentage": 6764, "\u0120henri": 6765, "\u0120horizontal": 6766, "hi": 6767, "nio": 6768, "xx": 6769, "isine": 6770, "\u0120mb": 6771, "\u0120binding": 6772, "\u0120hus": 6773, "\u0120iso": 6774, "\u0120anders": 6775, "\u0120gender": 6776, "\u0120presence": 6777, "\u0120margot": 6778, "\u0120spam": 6779, "\u012054": 6780, "\u0120outstanding": 6781, "anged": 6782, "\u0120centres": 6783, "cretary": 6784, "\u0120joy": 6785, "\u0120demo": 6786, "\u0120complement": 6787, "\u0120owners": 6788, "\u0120romano": 6789, "\u0120revised": 6790, "\u0120budgets": 6791, "\u0120bench": 6792, "\u0120maja": 6793, "urious": 6794, "\u0120adjustment": 6795, "\u0120fortunately": 6796, "\u0120prospects": 6797, "\u0120johannes": 6798, "\u0120dedicated": 6799, "\u0120implications": 6800, "101": 6801, "federal": 6802, "\u0120ts": 6803, "\u0120sar": 6804, "\u0120sizes": 6805, "\u0120wit": 6806, "\u0120bicy": 6807, "\u0120ive": 6808, "\u0120vista": 6809, "acher": 6810, "\u0120expos": 6811, "\u0120unto": 6812, "\u0120ends": 6813, "reness": 6814, "\u012091": 6815, "\u01201989": 6816, "\u0120sheep": 6817, "\u0120holds": 6818, "\u0120correctly": 6819, "\u0120magic": 6820, "\u0120mechanisms": 6821, "\u0120camping": 6822, "\u0120tables": 6823, "\u0120java": 6824, "\u0120qualifications": 6825, "\u0120configur": 6826, "\u0120awareness": 6827, "\u0120component": 6828, "\u0120cereals": 6829, "\u0120horny": 6830, "\u0120indonesia": 6831, "bed": 6832, "mine": 6833, "onic": 6834, "\u0120ther": 6835, "\u0120mp": 6836, "\u0120io": 6837, "quer": 6838, "\u0120roger": 6839, "\u0120presidents": 6840, "\u0120transform": 6841, "\u0120preced": 6842, "\u0120zu": 6843, "\u0120endorse": 6844, "\u0120viet": 6845, "\u0120broken": 6846, "\u0120beaches": 6847, "\u0120identity": 6848, "\u0120holding": 6849, "\u0120krist": 6850, "\u0120paradise": 6851, "\u0120slightly": 6852, "\u0120transposition": 6853, "\u0120vulner": 6854, "\u0120barbara": 6855, "list": 6856, "any": 6857, "itory": 6858, "\u0120oly": 6859, "\u0120input": 6860, "\u0120beef": 6861, "etically": 6862, "stuffs": 6863, "opol": 6864, "\u0120plain": 6865, "\u0120accur": 6866, "\u0120outlook": 6867, "\u0120aircraft": 6868, "\u0120faq": 6869, "\u0120postal": 6870, "\u0120consulting": 6871, "\u0120reinfor": 6872, "\u0120consistent": 6873, "\u0120furnished": 6874, "\u0120cuisine": 6875, "\u0120sweet": 6876, "known": 6877, "\u0120olymp": 6878, "gers": 6879, "ju": 6880, "mel": 6881, "tar": 6882, "isy": 6883, "\u0120sie": 6884, "edia": 6885, "\u0120niger": 6886, "\u0120anonym": 6887, "\u0120offices": 6888, "\u0120emu": 6889, "\u0120letters": 6890, "\u0120fores": 6891, "\u0120corazza": 6892, "\u0120records": 6893, "\u0120putin": 6894, "\u0120prosper": 6895, "\u0120vacc": 6896, "\u0120girls": 6897, "\u0120delighted": 6898, "\u0120swedish": 6899, "ovisual": 6900, "ao": 6901, "gic": 6902, "si": 6903, "yst": 6904, "yard": 6905, "\u0120pod": 6906, "\u0120recycl": 6907, "\u0120lit": 6908, "\u0120jur": 6909, "\u0120suit": 6910, "\u0120units": 6911, "\u0120coins": 6912, "\u0120tea": 6913, "ussia": 6914, "\u012068": 6915, "\u0120gene": 6916, "\u0120consolid": 6917, "ovi": 6918, "\u0120phen": 6919, "\u0120edit": 6920, "\u0120carri": 6921, "\u0120ended": 6922, "\u0120reader": 6923, "tenstein": 6924, "\u0120urge": 6925, "\u0120distin": 6926, "\u0120linked": 6927, "\u0120increases": 6928, "\u0120!!": 6929, "\u0120checks": 6930, "\u0120drawn": 6931, "\u0120independence": 6932, "\u0120cookies": 6933, "\u0120reconstruct": 6934, "\u0120forthcoming": 6935, "\u0120chancell": 6936, ".,": 6937, "aw": 6938, "aff": 6939, "cr": 6940, "dri": 6941, "map": 6942, "part": 6943, "\u0120mall": 6944, "\u0120reve": 6945, "\u0120ry": 6946, "\u0120liech": 6947, "\u0120positions": 6948, "\u0120tray": 6949, "\u0120bush": 6950, "\u0120smaller": 6951, "\u0120equival": 6952, "\u0120responses": 6953, "\u0120downloaded": 6954, "\u0120citizenship": 6955, "\u0120palac": 6956, "\u0120correction": 6957, "\u0120periods": 6958, "!!!": 6959, "\u0120mistakes": 6960, "\u0120creature": 6961, "\u0120massage": 6962, "\u0120football": 6963, "\u0120fischer": 6964, "\u0120engineering": 6965, "\u0120dublin": 6966, "\u0120parameter": 6967, "\u0120adults": 6968, "\u0120configurations": 6969, "\u0120liechtenstein": 6970, "arest": 6971, "furt": 6972, "lor": 6973, "\u0120throw": 6974, "\u0120pig": 6975, "\u0120bj": 6976, "\u0120dance": 6977, "\u0120drop": 6978, "alis": 6979, "\u0120vig": 6980, "\u0120stim": 6981, "\u0120conciliation": 6982, "\u0120transit": 6983, "\u0120deskt": 6984, "\u0120entit": 6985, "\u0120define": 6986, "\u0120blame": 6987, "\u0120filter": 6988, "\u0120broch": 6989, "\u0120brown": 6990, "\u0120substance": 6991, "\u0120dollpage": 6992, "\u0120slowly": 6993, "\u0120constantly": 6994, "\u0120pilot": 6995, "\u0120treasury": 6996, "\u0120convinced": 6997, "\u0120mysql": 6998, "\u0120lounge": 6999, "kes": 7000, "\u0120ale": 7001, "\u0120incent": 7002, "\u0120vic": 7003, "illance": 7004, "chi": 7005, "\u0120commod": 7006, "\u0120preser": 7007, "istical": 7008, "\u0120prelim": 7009, "\u0120conservation": 7010, "ordan": 7011, "\u0120remov": 7012, "\u0120owner": 7013, "\u0120specified": 7014, "\u0120privat": 7015, "\u0120contracts": 7016, "\u0120dreams": 7017, "\u0120surveillance": 7018, "\u0120correspond": 7019, "\u0120australia": 7020, "tp": 7021, "\u0120tend": 7022, "\u0120sme": 7023, "\u0120pac": 7024, "orah": 7025, "\u0120bild": 7026, "\u0120biod": 7027, "\u0120hong": 7028, "\u0120vil": 7029, "\u0120commend": 7030, "\u0120hahn": 7031, "\u0120kyp": 7032, "\u0120marg": 7033, "elsen": 7034, "\u0120sap": 7035, "\u0120modules": 7036, "\u0120extreme": 7037, "\u0120courts": 7038, "geria": 7039, "\u0120handle": 7040, "\u0120career": 7041, "\u0120domin": 7042, "\u0120involves": 7043, "\u0120achievement": 7044, "1998": 7045, "\u0120forests": 7046, "\u0120facebook": 7047, "\u0120sample": 7048, "\u0120suggestion": 7049, "\u0120enhanced": 7050, "\u0120egf": 7051, "\u0120liberalisation": 7052, "\u0120acquisition": 7053, "\u0120dynamic": 7054, "\u0120renovated": 7055, "\u0120audiovisual": 7056, "\u0120prejudge": 7057, "bod": 7058, "ppe": 7059, "rey": 7060, "\u0120dup": 7061, "\u0120lakes": 7062, "adop": 7063, "secretary": 7064, "aine": 7065, "\u0120ray": 7066, "\u0120leather": 7067, "\u0120tai": 7068, "\u0120deborah": 7069, "\u0120coach": 7070, "\u0120apost": 7071, "\u0120maintained": 7072, "\u0120welcoming": 7073, "\u0120profit": 7074, "\u0120subsidies": 7075, "\u0120ordered": 7076, "\u0120exceptional": 7077, "\u0120killed": 7078, "\u0120named": 7079, "approx": 7080, "\u0120acknow": 7081, ".-": 7082, "coun": 7083, "nen": 7084, "\u0120tort": 7085, "\u0120tenn": 7086, "\u0120fib": 7087, "\u0120ble": 7088, "\u0120dj": 7089, "accession": 7090, "\u0120whate": 7091, "\u0120chile": 7092, "\u0120unne": 7093, "\u0120ku": 7094, "cijan": 7095, "\u0120lobs": 7096, "ogne": 7097, "\u0120guy": 7098, "\u0120bars": 7099, "\u0120controlled": 7100, "\u0120faith": 7101, "\u0120experienced": 7102, "\u0120miles": 7103, "\u0120silent": 7104, "\u0120logic": 7105, "\u0120generated": 7106, "----": 7107, "\u0120manufacturing": 7108, "\u0120attacks": 7109, "\u0120teaching": 7110, "\u0120continuing": 7111, "\u0120elegant": 7112, "\u0120preliminary": 7113, "\u0120whatever": 7114, "cijancic": 7115, "gang": 7116, "iversity": 7117, "rants": 7118, "ship": 7119, "\u0120aer": 7120, "enza": 7121, "\u0120bert": 7122, "\u0120hed": 7123, "\u0120nap": 7124, "otal": 7125, "\u0120gro": 7126, "\u0120prove": 7127, "\u0120mrpresident": 7128, "\u0120traged": 7129, "\u0120outdo": 7130, "\u0120marks": 7131, "\u0120reliable": 7132, "\u0120assign": 7133, "\u0120protecting": 7134, "\u0120consultations": 7135, "\u0120declared": 7136, "\u0120sustainability": 7137, "enez": 7138, "\u0120strengthened": 7139, "\u0120templ": 7140, "\u0120computers": 7141, "\u0120motorway": 7142, "\u0120increasingly": 7143, "\u0120kocijancic": 7144, "\u0120schedule": 7145, "\u0120credibility": 7146, "rianou": 7147, "\u0120kyprianou": 7148, "??": 7149, "ties": 7150, "\u0120tip": 7151, "ald": 7152, "alm": 7153, "\u0120nine": 7154, "omet": 7155, "\u0120stored": 7156, "\u0120mario": 7157, "\u0120disag": 7158, "\u0120booth": 7159, "\u0120decent": 7160, "\u0120entertain": 7161, "\u0120simon": 7162, "\u0120termin": 7163, "kingdom": 7164, "\u0120webcam": 7165, "\u0120ivan": 7166, "\u0120achievements": 7167, "\u0120moves": 7168, "\u0120trees": 7169, "\u0120incident": 7170, "\u0120introduce": 7171, "\u0120dutch": 7172, "\u0120yugoslav": 7173, "\u0120bridge": 7174, "\u0120despite": 7175, "\u0120adobe": 7176, "isen": 7177, "\u0120coup": 7178, "\u0120sis": 7179, "\u0120spp": 7180, "\u0120gaza": 7181, "uls": 7182, "opia": 7183, "\u0120unable": 7184, "\u0120minim": 7185, "cient": 7186, "cious": 7187, "\u0120reporting": 7188, "\u0120emp": 7189, "\u0120paralle": 7190, "\u0120feet": 7191, "\u01202016": 7192, "\u0120invent": 7193, "\u0120visual": 7194, "\u0120flu": 7195, "\u0120floren": 7196, "\u0120factory": 7197, "\u0120meets": 7198, "\u0120flood": 7199, "\u0120shareholders": 7200, "\u0120milan": 7201, "\u0120commenting": 7202, "\u0120calm": 7203, "\u0120hydro": 7204, "\u0120nielson": 7205, "\u0120confirmation": 7206, "\u0120false": 7207, "\u0120frattini": 7208, "\u0120desktop": 7209, "hus": 7210, "\u0120thail": 7211, "\u0120sel": 7212, "\u0120wines": 7213, "\u0120push": 7214, "\u0120mt": 7215, "\u0120fans": 7216, "\u0120nons": 7217, "\u0120vitor": 7218, "unity": 7219, "umin": 7220, "\u012081": 7221, "\u0120issued": 7222, "\u0120helene": 7223, "\u0120smooth": 7224, "\u0120remed": 7225, "\u0120infect": 7226, "\u0120helping": 7227, "\u0120politicians": 7228, "hein": 7229, "\u0120elected": 7230, "\u0120tested": 7231, "\u0120remained": 7232, "\u0120weakness": 7233, "\u0120housing": 7234, "\u0120imagine": 7235, "adopted": 7236, "\u0120unnecess": 7237, "\u0120tragedy": 7238, "fol": 7239, "ivers": 7240, "\u0120\u00c3\u00b6": 7241, "\u0120tran": 7242, "\u0120tight": 7243, "\u0120cord": 7244, "\u0120inland": 7245, "\u0120ei": 7246, "\u0120reverse": 7247, "\u0120andors": 7248, "\u0120beij": 7249, "ayer": 7250, "ounted": 7251, "\u0120sebast": 7252, "\u0120exem": 7253, "odor": 7254, "akh": 7255, "\u0120rio": 7256, "\u0120anywhere": 7257, "\u0120counts": 7258, "\u0120column": 7259, "\u0120standing": 7260, "\u00c3\u00a4ki": 7261, "\u0120heads": 7262, "\u0120ecb": 7263, "chez": 7264, "\u0120extraord": 7265, "\u0120enhance": 7266, "\u0120girl": 7267, "\u0120bodies": 7268, "\u0120temperature": 7269, "\u0120tennis": 7270, "cor": 7271, "kov": 7272, "lik": 7273, "van": 7274, "\u0120ict": 7275, "rej": 7276, "\u0120sd": 7277, "\u0120fasc": 7278, "\u0120()": 7279, "\u0120kla": 7280, "\u0120liqu": 7281, "\u0120adam": 7282, "\u0120worst": 7283, "\u0120roof": 7284, "\u0120saving": 7285, "\u0120spending": 7286, "\u0120reported": 7287, "\u0120292": 7288, "\u0120genetically": 7289, "\u0120schre": 7290, "\u0120listening": 7291, "\u0120objections": 7292, "\u0120annulled": 7293, "anni": 7294, "\u0120industries": 7295, "\u0120bigger": 7296, "\u0120concluded": 7297, "\u0120combined": 7298, "\u0120indicator": 7299, "\u0120icon": 7300, "\u0120shoes": 7301, "\u0120circle": 7302, "\u0120passion": 7303, "\u0120kyoto": 7304, "governmental": 7305, "\u0120complaints": 7306, "\u0120vladim": 7307, "\u0120codecision": 7308, "\u0120kernel": 7309, "ket": 7310, "real": 7311, "ener": 7312, "\u0120pour": 7313, "\u0120maps": 7314, "\u0120bis": 7315, "\u0120nation": 7316, "using": 7317, "otic": 7318, "\u0120vent": 7319, "\u0120110": 7320, "uta": 7321, "\u0120kde": 7322, "\u0120enable": 7323, "\u0120spons": 7324, "\u012087": 7325, "\u0120wellness": 7326, "\u0120intens": 7327, "\u0120nato": 7328, "\u0120effectiveness": 7329, "\u0120rising": 7330, "ahn": 7331, "cription": 7332, "\u0120institution": 7333, "\u0120remaining": 7334, "\u0120clause": 7335, "\u0120opposition": 7336, "\u0120printing": 7337, "\u0120situations": 7338, "aneous": 7339, "\u0120tuna": 7340, "mlaga": 7341, "\u0120repeated": 7342, "\u0120songs": 7343, "\u0120html": 7344, "\u0120plugin": 7345, "\u0120scoreboard": 7346, "\u0120excluded": 7347, "400": 7348, "kil": 7349, "nock": 7350, "\u0120tiron": 7351, "\u0120sul": 7352, "\u0120gate": 7353, "\u0120beer": 7354, "osis": 7355, "cha": 7356, "ulous": 7357, "aming": 7358, "\u0120chal": 7359, "\u0120contrast": 7360, "\u0120quote": 7361, "\u0120abroad": 7362, "\u0120marco": 7363, "\u0120height": 7364, "\u0120cock": 7365, "\u0120strugg": 7366, "\u0120sym": 7367, "\u0120desire": 7368, "\u0120hello": 7369, "\u0120speaks": 7370, "\u0120examined": 7371, "\u0120antnio": 7372, "\u0120frits": 7373, "\u0120receiving": 7374, "otechn": 7375, "\u0120danish": 7376, "\u0120supervision": 7377, "\u0120mandelson": 7378, "\u0120thailand": 7379, "\u0120tironi": 7380, "ni": 7381, "nings": 7382, "zi": 7383, "\u0120cens": 7384, "\u0120pays": 7385, "oria": 7386, "ani": 7387, "italy": 7388, "\u0120hur": 7389, "aling": 7390, "\u0120gear": 7391, "\u0120stig": 7392, "urb": 7393, "\u0120chain": 7394, "\u0120rup": 7395, "\u012057": 7396, "\u0120tex": 7397, "\u0120referen": 7398, "\u0120locations": 7399, "\u0120booked": 7400, "\u0120blan": 7401, "\u0120austrian": 7402, "\u0120operators": 7403, "\u0120stockholm": 7404, "\u0120suffering": 7405, "\u0120britain": 7406, "\u0120emphasise": 7407, "\u0120transitional": 7408, "\u0120champions": 7409, "ais": 7410, "gas": 7411, "gely": 7412, "life": 7413, "wood": 7414, "oned": 7415, "isk": 7416, "oral": 7417, "\u0120mary": 7418, "\u0120inquiry": 7419, "\u0120vw": 7420, "\u0120(*)": 7421, "cht": 7422, "\u0120habit": 7423, "\u0120chart": 7424, "\u0120chief": 7425, "\u0120apple": 7426, "\u0120heating": 7427, "\u0120twin": 7428, "\u0120belie": 7429, "\u0120laure": 7430, "\u0120defense": 7431, "\u0120academ": 7432, "\u0120inclusion": 7433, "\u0120scene": 7434, "\u0120posselt": 7435, "\u0120decisive": 7436, "\u0120resolve": 7437, "\u0120certification": 7438, "\u0120pets": 7439, "\u0120salz": 7440, "\u0120santer": 7441, "\u0120macke": 7442, "\u0120bathrooms": 7443, "\u0120alexandre": 7444, "\u0120kinnock": 7445, "\u0120satisfaction": 7446, "\u0120landscape": 7447, "\u0120schreyer": 7448, "een": 7449, "\u0120ces": 7450, "\u0120cath": 7451, "\u0120sittings": 7452, "\u0120foster": 7453, "\u0120het": 7454, "ulate": 7455, "igu": 7456, "\u0120presents": 7457, "\u0120commissioners": 7458, "\u0120usb": 7459, "\u0120soil": 7460, "\u0120programming": 7461, "\u0120solved": 7462, "\u0120mostly": 7463, "\u0120extensive": 7464, "\u0120legit": 7465, "\u0120wars": 7466, "\u0120chris": 7467, "\u0120sessions": 7468, "\u0120printed": 7469, "\u0120minority": 7470, "\u0120hyper": 7471, "\u0120begun": 7472, "\u0120wireless": 7473, "\u0120argentina": 7474, "\u0120magazine": 7475, "\u0120vietnam": 7476, "\u0120phenomen": 7477, "cp": 7478, "culation": 7479, "lt": 7480, "\u0120dign": 7481, "\u0120hill": 7482, "\u0120gb": 7483, "\u0120alg": 7484, "ours": 7485, "\u0120doha": 7486, "\u0120clin": 7487, "sole": 7488, "cles": 7489, "ifies": 7490, "\u0120acceding": 7491, "\u0120artist": 7492, "\u0120camer": 7493, "\u0120mobil": 7494, "\u0120patient": 7495, "\u0120roads": 7496, "\u0120essence": 7497, "\u0120crops": 7498, "\u0120damages": 7499, "\u0120recognise": 7500, "\u0120conversion": 7501, "\u0120affects": 7502, "\u0120evalu": 7503, "\u0120deeply": 7504, "related": 7505, "\u0120venice": 7506, "\u0120juncker": 7507, "\u0120harmonisation": 7508, "\u0120diamant": 7509, "\u0120hypocr": 7510, "\u0120comparison": 7511, "rated": 7512, "russia": 7513, "}:": 7514, "\u0120sz": 7515, "\u0120pix": 7516, "alities": 7517, "\u0120tower": 7518, "\u0120ancient": 7519, "\u0120reward": 7520, "\u0120haz": 7521, "stal": 7522, "oda": 7523, "\u0120mine": 7524, "\u0120rou": 7525, "rome": 7526, "\u0120cloth": 7527, "\u0120twenty": 7528, "\u012078": 7529, "\u0120greatly": 7530, "ecd": 7531, "\u0120putting": 7532, "\u0120charged": 7533, "\u0120faces": 7534, "\u0120statistical": 7535, "\u0120elsewhere": 7536, "\u0120exclus": 7537, "\u0120speeches": 7538, "\u0120cycle": 7539, "\u0120precise": 7540, "\u0120highlights": 7541, "\u0120await": 7542, "\u0120dubois": 7543, "\u0120ccile": 7544, "\u0120fitness": 7545, "\u0120fellow": 7546, "\u0120adequate": 7547, "\u0120moscow": 7548, "\u0120obstacles": 7549, "friend": 7550, "\u0120reconstruction": 7551, "\u0120disagree": 7552, "ament": 7553, "case": 7554, "vin": 7555, "\u0120tough": 7556, "\u0120hang": 7557, "\u0120nu": 7558, "\u0120rect": 7559, "\u0120venez": 7560, "emann": 7561, "\u0120lived": 7562, "endo": 7563, "\u0120resident": 7564, "ubb": 7565, "\u0120loved": 7566, "\u0120array": 7567, "\u0120annexes": 7568, "\u0120referring": 7569, "\u0120preparing": 7570, "\u0120guidance": 7571, "\u0120philos": 7572, "\u0120awarded": 7573, "\u0120minorities": 7574, "\u0120female": 7575, "\u0120quarter": 7576, "opoulou": 7577, "\u0120substantial": 7578, "council": 7579, "\u0120nonsense": 7580, "\u0120beijing": 7581, "bc": 7582, "bek": 7583, "run": 7584, "inate": 7585, "\u0120ford": 7586, "acle": 7587, "\u0120algeria": 7588, "ursion": 7589, "\u0120haiti": 7590, "\u0120neut": 7591, "\u0120kid": 7592, "ounds": 7593, "\u0120marina": 7594, "\u0120compared": 7595, "\u0120firms": 7596, "\u0120publication": 7597, "\u0120paying": 7598, "\u0120artists": 7599, "\u0120hero": 7600, "\u0120caused": 7601, "\u0120operates": 7602, "\u0120films": 7603, "\u0120fault": 7604, "\u0120trips": 7605, "\u0120experiences": 7606, "\u0120showing": 7607, "\u0120combination": 7608, "\u0120talked": 7609, "\u0120focused": 7610, "\u0120broadcast": 7611, "\u0120automatic": 7612, "\u0120warmly": 7613, "\u0120sharing": 7614, "\u0120giul": 7615, "\u0120matching": 7616, "\u0120destroyed": 7617, "\u0120wolfgang": 7618, "gel": 7619, "las": 7620, "\u0120tips": 7621, "atom": 7622, "\u0120pom": 7623, "orter": 7624, "orca": 7625, "\u0120dal": 7626, "\u0120inev": 7627, "\u0120alth": 7628, "\u0120ham": 7629, "\u0120kit": 7630, "cipl": 7631, "\u0120novel": 7632, "\u0120guided": 7633, "\u0120apolog": 7634, "\u0120clicking": 7635, "\u0120forwarded": 7636, "\u0120offering": 7637, "\u0120excursion": 7638, "\u0120veter": 7639, "\u0120harbour": 7640, "\u0120preparations": 7641, "\u0120teams": 7642, "\u0120achieving": 7643, "\u0120buying": 7644, "\u0120missed": 7645, "\u0120officials": 7646, "\u0120ships": 7647, "\u0120diag": 7648, "\u0120(%)": 7649, "\u0120dollar": 7650, "\u0120scenario": 7651, "\u0120estimated": 7652, "\u0120vocational": 7653, "\u0120equivalent": 7654, "kin": 7655, "pre": 7656, "\u0120thir": 7657, "\u0120sla": 7658, "enburg": 7659, "\u0120dos": 7660, "asis": 7661, "inger": 7662, "\u0120iz": 7663, "\u0120vouch": 7664, "ido": 7665, "\u0120alph": 7666, "\u0120cancel": 7667, "\u0120abuse": 7668, "\u0120servers": 7669, "\u0120stays": 7670, "\u0120anymore": 7671, "\u0120schul": 7672, "words": 7673, "\u0120formats": 7674, "roll": 7675, "\u0120promises": 7676, "\u0120topical": 7677, "\u0120designs": 7678, "\u0120statute": 7679, "overed": 7680, "\u0120frontiers": 7681, "adequ": 7682, "\u0120mandatory": 7683, "\u0120grounds": 7684, "\u0120commerce": 7685, "\u0120collabor": 7686, "\u0120horizon": 7687, "\u0120mller": 7688, "\u0120burea": 7689, "\u0120normally": 7690, "utorial": 7691, "\u0120biodiversity": 7692, "fig": 7693, "vb": 7694, "\u0120ern": 7695, "\u0120sin": 7696, "\u0120frans": 7697, "\u0120inadequ": 7698, "\u0120hil": 7699, "acov": 7700, "ading": 7701, "\u0120adm": 7702, "\u0120impl": 7703, "\u0120meals": 7704, "elli": 7705, "ishing": 7706, "\u0120instant": 7707, "\u0120paypal": 7708, "iii": 7709, "\u0120owned": 7710, "\u0120reducing": 7711, "\u0120distort": 7712, "\u0120checked": 7713, "\u0120enlar": 7714, "\u0120decline": 7715, "\u0120elev": 7716, "\u0120karin": 7717, "\u0120surprised": 7718, "\u0120bathing": 7719, "\u0120preferences": 7720, "\u0120favorite": 7721, "\u0120comprises": 7722, "\u0120impressive": 7723, "\u0120entitled": 7724, "\u0120extraordinary": 7725, "\u0120although": 7726, "arent": 7727, "count": 7728, "ville": 7729, "inating": 7730, "\u0120cer": 7731, "\u0120mort": 7732, "\u0120mouth": 7733, "\u0120bung": 7734, "\u0120han": 7735, "entially": 7736, "\u0120lars": 7737, "acing": 7738, "utsch": 7739, "chant": 7740, "\u0120jn": 7741, "\u0120jordan": 7742, "ads": 7743, "essler": 7744, "odes": 7745, "\u0120ric": 7746, "\u0120allah": 7747, "\u0120leaving": 7748, "\u0120polack": 7749, "apest": 7750, "\u0120myth": 7751, "\u0120para": 7752, "\u0120rightly": 7753, "\u0120moder": 7754, "\u0120obama": 7755, "\u0120expan": 7756, "\u0120economics": 7757, "\u0120procedural": 7758, "\u0120playa": 7759, "\u0120opera": 7760, "\u0120oldest": 7761, "\u0120supervis": 7762, "\u0120largely": 7763, "\u0120shoot": 7764, "\u0120thoughts": 7765, "\u0120dining": 7766, "\u0120routes": 7767, "\u0120frankfurt": 7768, "\u0120enhancing": 7769, "\u0120emphasis": 7770, "\u0120compliance": 7771, "\u0120contradict": 7772, "\u0120f\u00c3\u00bcle": 7773, "\u0120territorial": 7774, "\u0120bildt": 7775, "\u0120lobster": 7776, "aa": 7777, "div": 7778, "hou": 7779, "kan": 7780, "\u0120tutorial": 7781, "encia": 7782, "rog": 7783, "\u0120toile": 7784, "asi": 7785, "\u0120yang": 7786, "\u0120knew": 7787, "grace": 7788, "\u0120apparent": 7789, "apore": 7790, "ensen": 7791, "\u0120everyday": 7792, "\u0120mayor": 7793, "\u0120basically": 7794, "\u0120blind": 7795, "\u0120xp": 7796, "\u0120caf": 7797, "\u0120escape": 7798, "\u0120motiv": 7799, "\u0120foodstuffs": 7800, "\u0120womens": 7801, "\u0120multilateral": 7802, "\u0120division": 7803, "\u0120obligation": 7804, "\u0120garage": 7805, "\u0120translated": 7806, "\u0120regularly": 7807, "\u0120ethi": 7808, "claude": 7809, "\u0120architecture": 7810, "\u0120stefan": 7811, "\u0120cigaret": 7812, "\u0120witness": 7813, "\u0120vulnerable": 7814, "mont": 7815, "oning": 7816, "\u0120therap": 7817, "\u0120dair": 7818, "\u0120ini": 7819, "\u0120yacht": 7820, "\u0120vita": 7821, "\u0120stations": 7822, "\u0120strange": 7823, "acs": 7824, "ulated": 7825, "ails": 7826, "\u0120meal": 7827, "log": 7828, "\u0120hein": 7829, "abri": 7830, "\u0120mana": 7831, "\u0120repair": 7832, "cket": 7833, "\u0120maystadt": 7834, "\u0120assets": 7835, "\u0120providing": 7836, "\u0120investors": 7837, "\u0120afterwards": 7838, "\u0120norwegian": 7839, "\u0120respected": 7840, "\u0120keeping": 7841, "\u0120existence": 7842, "\u0120rapporteurs": 7843, "\u0120derog": 7844, "\u0120suffer": 7845, "\u0120miroslav": 7846, "\u0120relaxing": 7847, "\u0120carlos": 7848, "vereign": 7849, "\u0120uncertain": 7850, "\u0120dimitrij": 7851, "\u0120geneva": 7852, "\u0120unnecessary": 7853, "\u0120rupel": 7854, "\u0120phenomenon": 7855, "\u0120diamantopoulou": 7856, "\u0120inadequate": 7857, "\u0120dairy": 7858, "600": 7859, "bted": 7860, "kar": 7861, "mat": 7862, "\u0120trop": 7863, "\u0120theory": 7864, "\u0120wise": 7865, "\u0120hier": 7866, "\u0120hidden": 7867, "aled": 7868, "iced": 7869, "\u0120lady": 7870, "vet": 7871, "emen": 7872, "\u0120jak": 7873, "\u0120doctor": 7874, "\u0120washing": 7875, "\u0120resid": 7876, "aceut": 7877, "\u0120sauna": 7878, "eputy": 7879, "\u0120cologne": 7880, "\u0120imper": 7881, "\u0120defend": 7882, "uese": 7883, "\u0120remote": 7884, "\u0120recru": 7885, "\u0120formula": 7886, "\u0120url": 7887, "\u0120england": 7888, "\u0120behavi": 7889, "\u0120moments": 7890, "ija": 7891, "\u0120walls": 7892, "\u0120bonn": 7893, "\u0120victory": 7894, "\u0120lacking": 7895, "\u0120medicines": 7896, "\u0120paradox": 7897, "justice": 7898, "\u0120involvement": 7899, "\u0120incorrect": 7900, "\u0120prohibited": 7901, "\u0120tibet": 7902, "\u0120geographical": 7903, "\u0120parallel": 7904, "\u0120bungal": 7905, "dum": 7906, "field": 7907, "wing": 7908, "\u0120paint": 7909, "itis": 7910, "ente": 7911, "ingu": 7912, "\u0120wealth": 7913, "\u0120stages": 7914, "\u0120kom": 7915, "\u0120cloud": 7916, "\u0120sovereign": 7917, "\u0120ability": 7918, "\u0120roberto": 7919, "\u0120manner": 7920, "\u0120disgrace": 7921, "ocol": 7922, "\u01201040": 7923, "\u0120helped": 7924, "\u0120engines": 7925, "\u0120prompt": 7926, "\u0120tourna": 7927, "\u0120faced": 7928, "\u0120monthly": 7929, "\u0120gentoo": 7930, "\u0120potato": 7931, "\u0120surprising": 7932, "\u0120millions": 7933, "\u0120exceptions": 7934, "\u0120francis": 7935, "\u0120workshop": 7936, "\u0120prosperity": 7937, "\u0120taiwan": 7938, "\u0120expansion": 7939, "aj": 7940, "fold": 7941, "feld": 7942, "hen": 7943, "wr": 7944, "\u0120tid": 7945, "atlantic": 7946, "\u0120pag": 7947, "\u0120bout": 7948, "\u0120bik": 7949, "\u0120dict": 7950, "ominister": 7951, "\u0120bei": 7952, "\u0120vivian": 7953, "etch": 7954, "\u0120seed": 7955, "este": 7956, "ami": 7957, "\u0120chic": 7958, "\u0120shift": 7959, "\u0120plot": 7960, "\u0120sof": 7961, "\u0120aband": 7962, "alling": 7963, "aks": 7964, "\u0120mango": 7965, "\u0120closing": 7966, "\u0120prizes": 7967, "\u0120invited": 7968, "\u0120finding": 7969, "\u0120obtained": 7970, "\u0120trace": 7971, "\u0120farming": 7972, "\u0120competence": 7973, "\u0120belgian": 7974, "\u0120politically": 7975, "207": 7976, "\u0120keys": 7977, "\u0120textile": 7978, "\u0120benita": 7979, "\u0120juan": 7980, "annual": 7981, "brussels": 7982, "\u0120greenland": 7983, "\u0120reviewed": 7984, "\u0120installations": 7985, "\u0120falls": 7986, "\u0120imposed": 7987, "\u0120japanese": 7988, "\u0120dimensions": 7989, "\u0120configuration": 7990, "\u0120gladly": 7991, "\u0120allocated": 7992, "\u0120travelling": 7993, "\u0120belongs": 7994, "\u0120trouble": 7995, "aceutical": 7996, "\u0120behaviour": 7997, "aug": 7998, "hop": 7999, "nas": 8000, "site": 8001, "yes": 8002, "ati": 8003, "\u0120pul": 8004, "\u0120dk": 8005, "\u0120lv": 8006, "\u0120stories": 8007, "\u0120jam": 8008, "\u0120rating": 8009, "udi": 8010, "\u0120disk": 8011, "\u0120mare": 8012, "ucr": 8013, "uces": 8014, "\u0120subsequ": 8015, "\u0120assent": 8016, "\u0120busquin": 8017, "\u0120evil": 8018, "162": 8019, "\u0120diving": 8020, "\u0120flying": 8021, "\u0120auf": 8022, "\u0120channels": 8023, "\u0120transaction": 8024, "\u0120hundred": 8025, "\u0120determined": 8026, "\u0120certificate": 8027, "\u0120trademark": 8028, "\u0120traynor": 8029, "hard": 8030, "rition": 8031, "west": 8032, "\u0120ug": 8033, "atures": 8034, "oring": 8035, "\u0120bund": 8036, "\u0120dre": 8037, "\u0120dur": 8038, "\u0120nh": 8039, "level": 8040, "oles": 8041, "\u0120sequ": 8042, "star": 8043, "\u0120shad": 8044, "\u0120ker": 8045, "aki": 8046, "elled": 8047, "\u0120621": 8048, "\u0120invo": 8049, "\u0120intergovernmental": 8050, "\u0120depth": 8051, "\u0120inclusive": 8052, "\u0120autonom": 8053, "\u0120erdf": 8054, "\u0120effectively": 8055, "\u0120wake": 8056, "\u0120portuguese": 8057, "\u0120copies": 8058, "\u0120negotiation": 8059, "\u0120airports": 8060, "\u0120fairly": 8061, "\u0120terrorist": 8062, "\u0120doubts": 8063, "\u0120rapidly": 8064, "\u0120cells": 8065, "\u0120contradiction": 8066, "\u0120worrying": 8067, "\u0120anonymous": 8068, "otechnology": 8069, "\u0120mackerel": 8070, "sized": 8071, "\u0120aik": 8072, "olt": 8073, "\u0120mineral": 8074, "\u0120plastic": 8075, "\u0120climb": 8076, "\u0120compact": 8077, "\u0120spokes": 8078, "\u0120maur": 8079, "erner": 8080, "\u0120generals": 8081, "\u0120legally": 8082, "\u0120amending": 8083, "\u0120bless": 8084, "\u0120capabilities": 8085, "hips": 8086, "\u0120operator": 8087, "\u0120esp": 8088, "\u0120singapore": 8089, "\u0120peaceful": 8090, "\u0120ageing": 8091, "\u0120destruct": 8092, "\u0120constitutional": 8093, "saw": 8094, "\u0120jew": 8095, "\u0120wider": 8096, "\u0120sadly": 8097, "myanmar": 8098, "\u0120announcement": 8099, "\u0120thorough": 8100, "\u0120pharmaceutical": 8101, "\u0120palacio": 8102, "\u0120referendum": 8103, "\u0120bureaucr": 8104, "bat": 8105, "bach": 8106, "code": 8107, "\u0120tang": 8108, "\u0120wins": 8109, "\u0120piet": 8110, "oured": 8111, "\u0120bow": 8112, "alt": 8113, "iders": 8114, "\u0120alias": 8115, "cher": 8116, "\u0120james": 8117, "\u0120shot": 8118, "\u0120kre": 8119, "alls": 8120, "\u0120partition": 8121, "\u0120lock": 8122, "upo": 8123, "comings": 8124, "\u0120carib": 8125, "\u0120zones": 8126, "strasbourg": 8127, "\u0120pursu": 8128, "\u0120turns": 8129, "\u0120newsroom": 8130, "\u0120behold": 8131, "lined": 8132, "\u0120searching": 8133, "\u0120sunny": 8134, "\u0120ambition": 8135, "\u0120colombia": 8136, "\u0120electrical": 8137, "\u0120interpre": 8138, "\u0120deleted": 8139, "\u0120occurred": 8140, "\u0120zeal": 8141, "\u0120accidents": 8142, "\u0120satisfactory": 8143, "\u0120delicious": 8144, "fraud": 8145, "\u0120ioannis": 8146, "\u0120outdoor": 8147, "\u0120philosoph": 8148, "\u0120veterinary": 8149, "\u0120ethiopia": 8150, "\u0120viviane": 8151, "cn": 8152, "ders": 8153, "\u0120cz": 8154, "\u0120fold": 8155, "ouminister": 8156, "itals": 8157, "\u0120inequ": 8158, "\u0120hect": 8159, "iled": 8160, "\u0120vib": 8161, "olas": 8162, "utt": 8163, "uting": 8164, "keep": 8165, "\u0120chf": 8166, "\u0120shell": 8167, "ford": 8168, "\u0120rum": 8169, "\u0120rational": 8170, "\u0120rough": 8171, "\u0120rank": 8172, "ellow": 8173, "tek": 8174, "\u0120arran": 8175, "\u0120timor": 8176, "\u0120accel": 8177, "\u0120approve": 8178, "\u0120laid": 8179, "\u0120financed": 8180, "\u0120edge": 8181, "\u0120smile": 8182, "\u0120references": 8183, "\u0120buses": 8184, "\u0120lastly": 8185, "\u0120engage": 8186, "\u0120puts": 8187, "\u0120greens": 8188, "\u0120shortcomings": 8189, "\u0120territory": 8190, "\u0120postp": 8191, "bean": 8192, "\u0120blocks": 8193, "\u0120moral": 8194, "\u0120reviews": 8195, "\u0120corrections": 8196, "\u0120radical": 8197, "\u0120luis": 8198, "\u0120pieces": 8199, "\u0120grave": 8200, "\u0120oliv": 8201, "\u0120infrastructures": 8202, "\u0120sixth": 8203, "\u0120convert": 8204, "\u0120relaxation": 8205, "\u0120screens": 8206, "\u0120birds": 8207, "\u0120dollars": 8208, "\u0120cosy": 8209, "\u0120ceremon": 8210, "\u0120fleet": 8211, "\u0120shuttle": 8212, "fur": 8213, "lat": 8214, "pay": 8215, "\u0120aw": 8216, "\u0120cure": 8217, "\u0120pic": 8218, "\u0120pent": 8219, "\u0120pity": 8220, "esth": 8221, "\u0120ox": 8222, "aring": 8223, "\u0120islam": 8224, "\u0120iacov": 8225, "\u0120youve": 8226, "etting": 8227, "\u0120130": 8228, "rim": 8229, "\u0120unb": 8230, "\u0120clarity": 8231, "\u0120marie": 8232, "\u0120marian": 8233, "ifs": 8234, "abel": 8235, "\u0120underground": 8236, "\u0120joa": 8237, "\u0120protest": 8238, "\u0120barb": 8239, "\u0120listened": 8240, "\u0120blank": 8241, "\u0120sections": 8242, "peri": 8243, "\u0120cutting": 8244, "\u0120patients": 8245, "\u0120activate": 8246, "\u0120downloads": 8247, "\u0120authorised": 8248, "\u0120russias": 8249, "\u0120connections": 8250, "haus": 8251, "\u0120movies": 8252, "\u0120miscell": 8253, "\u0120constructive": 8254, "\u0120tracks": 8255, "belg": 8256, "\u0120concentrate": 8257, "\u0120manufacturers": 8258, "\u0120enemy": 8259, "\u0120kenya": 8260, "\u0120cinema": 8261, "akhstan": 8262, "\u0120dignity": 8263, "called": 8264, "mt": 8265, "pack": 8266, "sv": 8267, "\u0120fert": 8268, "\u0120herman": 8269, "\u0120anch": 8270, "oms": 8271, "\u0120lud": 8272, "unds": 8273, "igi": 8274, "\u0120kov": 8275, "\u0120armen": 8276, "ckling": 8277, "plus": 8278, "\u0120overnight": 8279, "\u0120desert": 8280, "\u0120adopts": 8281, "\u0120investor": 8282, "\u0120hole": 8283, "mma": 8284, "\u0120continent": 8285, "heim": 8286, "\u0120handling": 8287, "\u0120patch": 8288, "\u0120consulted": 8289, "\u0120sanchez": 8290, "\u0120indicated": 8291, "\u0120logical": 8292, "\u0120claus": 8293, "\u0120individuals": 8294, "\u0120producer": 8295, "\u0120sudden": 8296, "scale": 8297, "\u0120parameters": 8298, "\u0120celebrate": 8299, "\u0120decorated": 8300, "\u0120inspection": 8301, "\u0120transactions": 8302, "\u0120eibs": 8303, "\u0120schulz": 8304, "bul": 8305, "cat": 8306, "gg": 8307, "lang": 8308, "merman": 8309, "sing": 8310, "trans": 8311, "\u0120ari": 8312, "\u0120cv": 8313, "\u0120hide": 8314, "\u0120hiking": 8315, "\u0120nero": 8316, "lets": 8317, "\u0120beings": 8318, "uli": 8319, "iam": 8320, "\u0120unch": 8321, "\u0120tail": 8322, "\u0120row": 8323, "ached": 8324, "\u0120discipl": 8325, "\u0120directions": 8326, "marily": 8327, "\u0120scot": 8328, "\u0120budapest": 8329, "\u0120antar": 8330, "\u0120advise": 8331, "150": 8332, "\u0120patents": 8333, "\u0120salmon": 8334, "\u0120meanwhile": 8335, "\u0120necessarily": 8336, "\u0120structured": 8337, "\u0120accompl": 8338, "\u0120targeted": 8339, "\u0120classes": 8340, "\u0120previously": 8341, "\u0120emerging": 8342, "\u0120shipbuilding": 8343, "\u0120simplified": 8344, "\u0120produces": 8345, "\u0120drinking": 8346, "\u0120earthqu": 8347, "\u0120withdrawn": 8348, "\u0120meantime": 8349, "\u0120macroeconomic": 8350, "\u0120hopes": 8351, "\u0120bureau": 8352, "utsche": 8353, "\u0120supplies": 8354, "\u0120lodge": 8355, "\u0120juris": 8356, "\u0120template": 8357, "\u0120exclusively": 8358, "bekistan": 8359, "dor": 8360, "dorf": 8361, "mot": 8362, "pass": 8363, "total": 8364, "upe": 8365, "\u0120auct": 8366, "incl": 8367, "inery": 8368, "\u0120wer": 8369, "\u0120pv": 8370, "\u0120nl": 8371, "\u0120reass": 8372, "\u0120lav": 8373, "\u0120gessler": 8374, "\u0120ali": 8375, "\u0120una": 8376, "\u0120informal": 8377, "\u0120clip": 8378, "\u0120clancy": 8379, "\u0120loans": 8380, "agn": 8381, "iza": 8382, "\u012086": 8383, "\u0120primarily": 8384, "\u0120phare": 8385, "\u0120confusion": 8386, "\u0120bread": 8387, "\u0120accessibility": 8388, "heet": 8389, "\u0120subjects": 8390, "\u0120newspap": 8391, "\u0120difficulty": 8392, "\u0120replaced": 8393, "\u0120avoided": 8394, "\u0120counterfe": 8395, "\u0120widely": 8396, "\u0120teachers": 8397, "\u0120colleague": 8398, "\u0120guardian": 8399, "opoulos": 8400, "iannual": 8401, "\u0120zurich": 8402, "\u0120palestinian": 8403, "\u0120turkish": 8404, "\u0120recycling": 8405, "\u0120miscellaneous": 8406, "hem": 8407, "kelsen": 8408, "may": 8409, "\u0120ub": 8410, "inet": 8411, "\u0120sq": 8412, "\u0120wc": 8413, "\u0120wis": 8414, "\u0120pid": 8415, "\u0120fel": 8416, "\u0120bah": 8417, "\u0120epp": 8418, "ican": 8419, "\u0120lul": 8420, "lying": 8421, "\u0120deutsch": 8422, "rible": 8423, "opes": 8424, "\u0120tap": 8425, "\u0120marri": 8426, "teen": 8427, "\u0120transatlantic": 8428, "\u0120describe": 8429, "\u0120enthus": 8430, "\u0120conferences": 8431, "\u0120zo": 8432, "\u0120scar": 8433, "\u0120resolutions": 8434, "\u0120cheese": 8435, "\u0120uz": 8436, "\u0120favourite": 8437, "\u0120organized": 8438, "\u0120specify": 8439, "\u0120waite": 8440, "\u0120telecom": 8441, "\u0120federation": 8442, "ijn": 8443, "\u0120multiannual": 8444, "\u0120352": 8445, "\u0120honour": 8446, "\u0120recognised": 8447, "\u0120properties": 8448, "\u0120seemed": 8449, "\u0120layout": 8450, "direct": 8451, "\u0120lyrics": 8452, "\u0120influenza": 8453, "\u0120ultimately": 8454, "\u0120psych": 8455, "\u0120revenue": 8456, "110": 8457, "date": 8458, "yr": 8459, "\u0120tent": 8460, "\u0120theat": 8461, "\u0120selling": 8462, "\u0120fare": 8463, "\u0120hiv": 8464, "arth": 8465, "\u0120gained": 8466, "ctors": 8467, "iration": 8468, "esta": 8469, "\u0120j\u00c3\u00bcr": 8470, "\u0120jnos": 8471, "\u0120unity": 8472, "\u0120unfor": 8473, "\u0120kim": 8474, "arted": 8475, "\u0120rand": 8476, "\u0120finn": 8477, "\u0120verification": 8478, "\u0120married": 8479, "\u0120arc": 8480, "\u0120acting": 8481, "\u0120britt": 8482, "\u0120staying": 8483, "\u0120emot": 8484, "\u0120markos": 8485, "\u0120900": 8486, "\u0120swift": 8487, "\u0120assum": 8488, "\u0120schm": 8489, "\u0120deploy": 8490, "\u0120endors": 8491, "\u0120evident": 8492, "\u0120certified": 8493, "\u0120privile": 8494, "\u0120authorisation": 8495, "\u0120declare": 8496, "\u0120keeps": 8497, "\u0120identify": 8498, "ukan": 8499, "\u0120hansen": 8500, "aterini": 8501, "\u0120bottle": 8502, "\u0120conflicts": 8503, "\u0120epis": 8504, "\u0120ratification": 8505, "\u0120regrettable": 8506, "\u0120ultimate": 8507, "\u0120refugee": 8508, "\u0120strictly": 8509, "\u0120condemn": 8510, "aggf": 8511, "\u0120apostola": 8512, "\u0120aikaterini": 8513, "belgium": 8514, "bn": 8515, "cur": 8516, "db": 8517, "long": 8518, "tical": 8519, "\u0120tus": 8520, "\u0120fro": 8521, "itar": 8522, "ester": 8523, "\u0120oecd": 8524, "\u0120dh": 8525, "\u0120hors": 8526, "asters": 8527, "elong": 8528, "acin": 8529, "\u0120prox": 8530, "chair": 8531, "\u0120prest": 8532, "\u0120unw": 8533, "\u0120kam": 8534, "\u0120query": 8535, "\u0120resc": 8536, "ago": 8537, "\u0120twice": 8538, "\u0120boats": 8539, "\u0120881": 8540, "\u0120beta": 8541, "\u0120envis": 8542, "\u0120province": 8543, "\u0120banned": 8544, "\u0120urs": 8545, "\u0120esf": 8546, "\u0120recei": 8547, "\u0120pricing": 8548, "\u0120activated": 8549, "\u0120sectoral": 8550, "\u0120glance": 8551, "\u0120roadmap": 8552, "\u0120%.": 8553, "auer": 8554, "\u0120civilian": 8555, "\u0120partnerships": 8556, "\u0120urgency": 8557, "\u0120demanding": 8558, "product": 8559, "\u0120gasperi": 8560, "\u0120performed": 8561, "\u0120exclusion": 8562, "\u0120ensuring": 8563, "\u0120firef": 8564, "\u0120complaint": 8565, "\u0120conditioning": 8566, "\u0120splend": 8567, "\u0120woj": 8568, "\u0120calculated": 8569, "condition": 8570, "\u0120alcide": 8571, "\u0120tuomioja": 8572, "\u0120exemption": 8573, "dric": 8574, "gre": 8575, "nic": 8576, "\u0120tric": 8577, "\u0120tired": 8578, "\u0120thin": 8579, "\u0120werner": 8580, "\u0120pere": 8581, "\u0120pace": 8582, "\u0120bin": 8583, "\u0120dall": 8584, "\u0120gut": 8585, "\u0120wet": 8586, "\u0120storm": 8587, "\u0120congress": 8588, "\u0120chocol": 8589, "istent": 8590, "\u0120riding": 8591, "avan": 8592, "iana": 8593, "\u0120listing": 8594, "\u0120investing": 8595, "\u0120restric": 8596, "\u0120warsaw": 8597, "\u0120frdric": 8598, "\u0120annem": 8599, "\u0120annivers": 8600, "\u0120successfully": 8601, "\u0120childrens": 8602, "\u0120brother": 8603, "\u0120hardware": 8604, "\u0120considerations": 8605, "\u0120lights": 8606, "\u0120variable": 8607, "\u0120brain": 8608, "\u0120optional": 8609, "\u0120exchanges": 8610, "\u0120reserves": 8611, "holds": 8612, "\u0120fallen": 8613, "\u0120skiing": 8614, "\u0120qualified": 8615, "\u0120loaded": 8616, "\u0120lifelong": 8617, "\u0120synth": 8618, "\u0120ignore": 8619, "\u0120bangemann": 8620, "\u0120quantity": 8621, "\u0120ingred": 8622, "\u0120jesus": 8623, "\u0120nigeria": 8624, "\u0120chancellor": 8625, "\u0120florence": 8626, "\u0120liquid": 8627, "\u0120enlarged": 8628, "1000": 8629, "198": 8630, "700": 8631, "cen": 8632, "city": 8633, "uro": 8634, "\u0120tl": 8635, "\u0120ahern": 8636, "\u0120thick": 8637, "\u0120cache": 8638, "\u0120sr": 8639, "\u0120fires": 8640, "\u0120flav": 8641, "\u0120bid": 8642, "esh": 8643, "\u0120eld": 8644, "\u0120ana": 8645, "\u0120revers": 8646, "\u0120yemen": 8647, "unk": 8648, "\u0120alle": 8649, "\u0120alps": 8650, "\u0120une": 8651, "\u0120unde": 8652, "\u0120rice": 8653, "umps": 8654, "\u0120plate": 8655, "\u0120backup": 8656, "agne": 8657, "ifi": 8658, "\u0120riv": 8659, "\u0120stayed": 8660, "\u0120emission": 8661, "\u0120asset": 8662, "\u0120trump": 8663, "\u0120openness": 8664, "\u0120refers": 8665, "\u0120flows": 8666, "iera": 8667, "\u0120rompu": 8668, "\u0120personnel": 8669, "\u0120grey": 8670, "\u0120wave": 8671, "hai": 8672, "\u0120modernisation": 8673, "\u0120superior": 8674, "oboda": 8675, "\u0120separately": 8676, "\u0120ordinary": 8677, "\u0120nicola": 8678, "\u0120purely": 8679, "\u0120forecasts": 8680, "\u0120fulfil": 8681, "\u0120kazakhstan": 8682, "\u0120confidential": 8683, "\u0120intelligent": 8684, "\u0120zealand": 8685, "210": 8686, "bot": 8687, "cm": 8688, "dan": 8689, "ey": 8690, "kka": 8691, "mak": 8692, "rust": 8693, "vit": 8694, "\u0120bou": 8695, "\u0120biz": 8696, "\u0120db": 8697, "\u0120eaggf": 8698, "ication": 8699, "ason": 8700, "\u0120rena": 8701, "\u0120youn": 8702, "0001": 8703, "\u0120seeds": 8704, "artic": 8705, "\u0120pressing": 8706, "ints": 8707, "\u0120arrest": 8708, "\u0120guys": 8709, "\u0120matt": 8710, "\u0120busy": 8711, "\u0120auto": 8712, "\u0120blu": 8713, "\u0120erik": 8714, "\u0120caution": 8715, "160": 8716, "\u0120principal": 8717, "\u0120supplier": 8718, "\u0120sending": 8719, "\u0120searched": 8720, "1995": 8721, "\u0120sentence": 8722, "\u0120identification": 8723, "\u0120displays": 8724, "finan": 8725, "\u0120purchasing": 8726, "\u0120boxes": 8727, "\u0120expertise": 8728, "\u0120firmly": 8729, "\u0120htel": 8730, "\u0120pillar": 8731, "\u0120leni": 8732, "\u0120isolated": 8733, "\u0120incentives": 8734, "\u0120recruit": 8735, "\u0120arranged": 8736, "\u0120firefox": 8737, "900": 8738, "gm": 8739, "vivian": 8740, "\u0120az": 8741, "\u0120mul": 8742, "\u0120oetting": 8743, "\u0120dive": 8744, "\u0120nad": 8745, "ingeu": 8746, "usal": 8747, "\u0120ont": 8748, "unia": 8749, "add": 8750, "\u0120contro": 8751, "\u0120orange": 8752, "ishment": 8753, "\u0120repro": 8754, "\u0120raim": 8755, "\u0120indirect": 8756, "ierra": 8757, "\u0120basel": 8758, "eredingeu": 8759, "\u00c3\u00bcss": 8760, "\u0120researchers": 8761, "\u0120petitions": 8762, "\u0120entering": 8763, "\u0120salt": 8764, "\u0120stops": 8765, "uela": 8766, "\u0120danube": 8767, "\u0120indicates": 8768, "\u0120collective": 8769, "\u0120virtually": 8770, "\u0120ratio": 8771, "\u0120mirror": 8772, "\u0120obliged": 8773, "\u0120advisory": 8774, "\u0120ridic": 8775, "\u0120toilet": 8776, "\u0120destruction": 8777, "vivianeredingeu": 8778, "\u0120oettinger": 8779, "iant": 8780, "iques": 8781, "ool": 8782, "pc": 8783, "wall": 8784, "zio": 8785, "\u0120ort": 8786, "\u0120ich": 8787, "atz": 8788, "\u0120bil": 8789, "\u0120ozone": 8790, "\u0120hire": 8791, "\u0120eaf": 8792, "\u0120nit": 8793, "\u0120ik": 8794, "\u0120ya": 8795, "\u0120yellow": 8796, "\u0120vs": 8797, "\u0120kale": 8798, "\u0120enabled": 8799, "\u0120rt": 8800, "ective": 8801, "\u0120verd": 8802, "\u0120dile": 8803, "\u0120partly": 8804, "\u0120roots": 8805, "\u0120timmerman": 8806, "\u0120nowhere": 8807, "\u0120boel": 8808, "\u0120raises": 8809, "\u0120portfol": 8810, "\u0120180": 8811, "\u0120differently": 8812, "\u0120esdp": 8813, "\u0120organiz": 8814, "\u0120additionally": 8815, "\u0120student": 8816, "\u0120\u0120\u0120": 8817, "\u0120generate": 8818, "\u0120crossroad": 8819, "\u0120quoted": 8820, "\u0120machinery": 8821, "\u0120bringing": 8822, "\u0120significantly": 8823, "\u0120streets": 8824, "\u0120manufactured": 8825, "\u0120pcs": 8826, "\u0120advertise": 8827, "\u0120dishes": 8828, "\u0120struggle": 8829, "\u0120uzbekistan": 8830, "\u0120rescue": 8831, "financial": 8832, "\u0120eafrd": 8833, "\u0120timmermans": 8834, "ae": 8835, "fu": 8836, "gal": 8837, "lis": 8838, "xi": 8839, "\u0120tat": 8840, "\u0120tank": 8841, "rees": 8842, "\u0120sms": 8843, "itas": 8844, "\u0120honey": 8845, "\u0120loud": 8846, "\u0120vas": 8847, "rims": 8848, "\u0120eurojust": 8849, "\u0120jump": 8850, "\u0120shap": 8851, "\u0120aster": 8852, "\u0120canary": 8853, "\u0120spare": 8854, "\u0120indices": 8855, "\u0120aponte": 8856, "\u0120monte": 8857, "\u0120intermedi": 8858, "\u0120155": 8859, "\u0120examination": 8860, "\u0120continental": 8861, "\u0120charles": 8862, "\u0120promised": 8863, "161": 8864, "\u0120uniform": 8865, "mester": 8866, "\u0120judgments": 8867, "liers": 8868, "\u0120negotiating": 8869, "\u0120irre": 8870, "spain": 8871, "\u0120subscription": 8872, "\u0120utmost": 8873, "\u0120licence": 8874, "\u0120millenn": 8875, "\u0120width": 8876, "\u0120sexual": 8877, "\u0120hubert": 8878, "\u0120disappointed": 8879, "\u0120summar": 8880, "\u0120besides": 8881, "\u0120seminar": 8882, "\u0120brochure": 8883, "\u0120entertainment": 8884, "\u0120hyperlink": 8885, "\u0120therapy": 8886, "\u0120tropical": 8887, "4379": 8888, "800": 8889, "bet": 8890, "gor": 8891, "mant": 8892, "\u0120cot": 8893, "enz": 8894, "\u0120mons": 8895, "\u0120bren": 8896, "\u0120bold": 8897, "\u0120incoming": 8898, "arre": 8899, "\u0120gulf": 8900, "aco": 8901, "\u0120semester": 8902, "stream": 8903, "\u0120unus": 8904, "\u0120rd": 8905, "\u0120agri": 8906, "\u0120league": 8907, "\u0120finds": 8908, "uding": 8909, "\u01204379": 8910, "\u0120peru": 8911, "\u0120spaces": 8912, "\u0120trains": 8913, "arer": 8914, "\u0120precious": 8915, "meier": 8916, "\u0120directed": 8917, "\u0120monu": 8918, "\u0120helen": 8919, "\u0120bookings": 8920, "\u0120paula": 8921, "\u0120hungarian": 8922, "\u0120trig": 8923, "\u0120globalization": 8924, "\u0120briefing": 8925, "\u0120oppose": 8926, "\u0120logistics": 8927, "\u0120undou": 8928, "\u0120determine": 8929, "\u0120optimistic": 8930, "\u0120abstain": 8931, "\u0120conducted": 8932, "\u0120surrounded": 8933, "\u0120borne": 8934, "\u0120birthday": 8935, "\u0120fernando": 8936, "\u0120ruling": 8937, "\u0120scrut": 8938, "\u0120branch": 8939, "\u0120battery": 8940, "\u0120stabilisation": 8941, "\u0120decentral": 8942, "\u0120klaus": 8943, "\u0120boutique": 8944, "\u0120unchanged": 8945, "\u0120unforget": 8946, "\u0120anniversary": 8947, "\u0120rompuy": 8948, "\u0120controvers": 8949, "aud": 8950, "bant": 8951, "lers": 8952, "\u0120wife": 8953, "\u0120pt": 8954, "\u0120owe": 8955, "\u0120inner": 8956, "\u0120ny": 8957, "othing": 8958, "\u0120gord": 8959, "\u0120vie": 8960, "idas": 8961, "idad": 8962, "united": 8963, "\u0120nepal": 8964, "\u0120ron": 8965, "\u0120ages": 8966, "\u0120agent": 8967, "\u0120tape": 8968, "\u0120350": 8969, "loc": 8970, "\u0120diox": 8971, "\u0120permit": 8972, "\u0120spell": 8973, "\u0120arbit": 8974, "\u0120maro": 8975, "\u0120transmission": 8976, "plan": 8977, "\u0120raising": 8978, "\u0120overcome": 8979, "\u0120refund": 8980, "\u0120frances": 8981, "\u0120legend": 8982, "\u0120freight": 8983, "\u0120distingu": 8984, "\u0120peters": 8985, "being": 8986, "beek": 8987, "\u0120broek": 8988, "\u0120towns": 8989, "\u0120archives": 8990, "\u0120arrangement": 8991, "\u0120laser": 8992, "\u0120adaptation": 8993, "\u0120surroundings": 8994, "ontex": 8995, "\u0120palestine": 8996, "ilingual": 8997, "\u0120investigations": 8998, "\u0120athens": 8999, "\u0120mallorca": 9000, "\u0120clothes": 9001, "\u0120philosophy": 9002, "\u0120antarctic": 9003, "\u0120j\u00c3\u00bcrgen": 9004, "cost": 9005, "har": 9006, "hot": 9007, "jk": 9008, "kel": 9009, "nn": 9010, "ping": 9011, "pcd": 9012, "\u0120azer": 9013, "rec": 9014, "\u0120sierra": 9015, "\u0120bour": 9016, "\u0120dres": 9017, "\u0120ngos": 9018, "il\u00c3\u00a4": 9019, "\u0120forced": 9020, "\u0120stad": 9021, "oler": 9022, "osur": 9023, "unate": 9024, "\u0120101": 9025, "rial": 9026, "\u0120nearest": 9027, "adays": 9028, "\u0120asp": 9029, "\u0120ende": 9030, "\u0120avian": 9031, "izhou": 9032, "\u0120phones": 9033, "\u0120106": 9034, "\u0120moz": 9035, "\u0120solbes": 9036, "\u0120smoke": 9037, "\u0120cream": 9038, "\u0120140": 9039, "\u0120bananas": 9040, "\u0120hoyer": 9041, "\u00c3\u00bcck": 9042, "\u0120antid": 9043, "\u0120specialist": 9044, "\u0120frontex": 9045, "\u0120insist": 9046, "\u0120christos": 9047, "\u0120varied": 9048, "!!!!": 9049, "1997": 9050, "\u0120duan": 9051, "prot": 9052, "\u0120depending": 9053, "\u0120watching": 9054, "\u0120purchased": 9055, "\u0120creativity": 9056, "\u0120brands": 9057, "\u0120gnu": 9058, "missible": 9059, "\u0120mikkelsen": 9060, "\u0120compliment": 9061, "\u0120nutrition": 9062, "\u0120religion": 9063, "\u0120crystal": 9064, "\u0120hospital": 9065, "\u0120facilit": 9066, "\u0120survive": 9067, "\u0120hazard": 9068, "\u0120caribbean": 9069, "\u0120armenia": 9070, "\u0120millennium": 9071, "\u0120undoubted": 9072, "pcdd": 9073, "fire": 9074, "gart": 9075, "oire": 9076, "rc": 9077, "tel": 9078, "\u0120tub": 9079, "onds": 9080, "\u0120sik": 9081, "\u0120pam": 9082, "\u0120pav": 9083, "\u0120pull": 9084, "\u0120nan": 9085, "\u0120yizhou": 9086, "\u0120alert": 9087, "china": 9088, "\u0120severe": 9089, "andre": 9090, "\u0120sup": 9091, "\u0120kel": 9092, "aila": 9093, "teq": 9094, "lich": 9095, "lick": 9096, "igned": 9097, "\u0120affili": 9098, "\u0120nowadays": 9099, "\u0120memor": 9100, "\u012069": 9101, "meat": 9102, "\u0120pointed": 9103, "ibcd": 9104, "\u0120indo": 9105, "\u0120mood": 9106, "\u0120franois": 9107, "\u0120arts": 9108, "\u0120freely": 9109, "\u0120excise": 9110, "\u0120addressing": 9111, "\u0120actively": 9112, "\u0120accounting": 9113, "\u0120crises": 9114, "\u0120suppliers": 9115, "\u0120malays": 9116, "apsed": 9117, "\u0120silva": 9118, "\u0120biotechnology": 9119, "\u0120indicative": 9120, "\u0120accommodate": 9121, "\u0120tunnel": 9122, "\u0120renewed": 9123, "\u0120strike": 9124, "\u0120translate": 9125, "\u0120disappointing": 9126, "\u0120photography": 9127, "\u0120crazy": 9128, "\u0120efovi": 9129, "\u0120religious": 9130, "\u0120gym": 9131, "\u0120remind": 9132, "\u0120almunia": 9133, "\u0120eduard": 9134, "\u0120predict": 9135, "\u0120alfred": 9136, "\u0120ernst": 9137, "\u0120acceler": 9138, "\u0120earthquake": 9139, "\u0120pidla": 9140, "\u0120ursula": 9141, "article": 9142, "\u0120undoubtedly": 9143, "gat": 9144, "ui": 9145, "\u0120ay": 9146, "\u0120sick": 9147, "\u0120pending": 9148, "\u0120murd": 9149, "\u0120dell": 9150, "\u0120rede": 9151, "\u0120lugg": 9152, "\u0120lpez": 9153, "olaf": 9154, "uno": 9155, "aya": 9156, "\u0120deutsche": 9157, "ulum": 9158, "\u0120eurozone": 9159, "keys": 9160, "\u0120kan": 9161, "\u0120kle": 9162, "erer": 9163, "ports": 9164, "action": 9165, "berger": 9166, "ubs": 9167, "\u0120mara": 9168, "\u0120loi": 9169, "\u0120comply": 9170, "rica": 9171, "\u0120arise": 9172, "\u0120pron": 9173, "\u0120productivity": 9174, "\u0120clearance": 9175, "115": 9176, "\u0120didier": 9177, "\u0120freder": 9178, "\u0120poet": 9179, "\u0120signals": 9180, "azz": 9181, "\u0120sought": 9182, "\u0120ceiling": 9183, "undi": 9184, "vaert": 9185, "\u0120talko": 9186, "ography": 9187, "\u0120alternatives": 9188, "\u0120premises": 9189, "\u0120unemployed": 9190, "\u0120containing": 9191, "\u0120discounts": 9192, "\u0120venue": 9193, "\u0120tackling": 9194, "\u0120jonas": 9195, "\u0120withdrawal": 9196, "\u0120homes": 9197, "\u0120tariffs": 9198, "\u0120journalists": 9199, "\u0120ignored": 9200, "\u0120resistance": 9201, "\u0120embargo": 9202, "\u0120ceremony": 9203, "\u0120wojtek": 9204, "\u0120crossroads": 9205, "cb": 9206, "cap": 9207, "gage": 9208, "pie": 9209, "session": 9210, "tit": 9211, "tra": 9212, "tur": 9213, "onian": 9214, "\u0120cce": 9215, "\u0120piano": 9216, "\u0120oli": 9217, "roph": 9218, "\u0120gale": 9219, "unes": 9220, "\u0120whose": 9221, "\u0120alar": 9222, "aman": 9223, "\u0120leis": 9224, "class": 9225, "\u0120diet": 9226, "ellers": 9227, "\u0120roaming": 9228, "licit": 9229, "\u0120tragic": 9230, "\u0120maize": 9231, "enses": 9232, "\u0120symp": 9233, "\u0120guil": 9234, "\u0120county": 9235, "\u0120indis": 9236, "\u0120interrupt": 9237, "\u0120discovered": 9238, "\u0120valle": 9239, "\u0120possibly": 9240, "\u0120basket": 9241, "\u0120blow": 9242, "\u0120romantic": 9243, "\u0120choos": 9244, "\u0120choices": 9245, "\u0120iiia": 9246, "\u0120notebook": 9247, "\u0120audrey": 9248, "\u0120profiles": 9249, "\u0120papers": 9250, "\u0120ceo": 9251, "\u0120sustained": 9252, "\u0120popul": 9253, "haust": 9254, "\u0120regulated": 9255, "\u0120eventually": 9256, "irable": 9257, "ographic": 9258, "\u0120encouraged": 9259, "\u0120clubs": 9260, "\u0120suspect": 9261, "\u0120reactions": 9262, "\u0120establishing": 9263, "\u0120jaime": 9264, "\u0120fuels": 9265, "\u0120succeeded": 9266, "\u0120cooperate": 9267, "\u0120pursue": 9268, "\u0120incredible": 9269, "\u0120pacific": 9270, "\u0120excursions": 9271, "upea": 9272, "\u0120dilemma": 9273, "cultural": 9274, "iia": 9275, "oj": 9276, "rand": 9277, "try": 9278, "vine": 9279, "villa": 9280, "\u0120tension": 9281, "reb": 9282, "\u0120cds": 9283, "\u0120craft": 9284, "\u0120mme": 9285, "\u0120dick": 9286, "\u0120hd": 9287, "icz": 9288, "\u0120bears": 9289, "\u0120ved": 9290, "char": 9291, "\u0120hareng": 9292, "stra": 9293, "\u0120jung": 9294, "\u0120informations": 9295, "ieva": 9296, "\u0120govaert": 9297, "\u0120seeking": 9298, "\u0120teacher": 9299, "\u0120aven": 9300, "ensible": 9301, "\u0120directors": 9302, "\u0120productive": 9303, "\u0120125": 9304, "\u0120participating": 9305, "\u0120clears": 9306, "\u0120secur": 9307, "\u0120setup": 9308, "\u0120recover": 9309, "117": 9310, "\u0120intoler": 9311, "\u0120xml": 9312, "\u0120erg": 9313, "\u0120cafe": 9314, "\u0120cambod": 9315, "\u0120judiciary": 9316, "\u00c3\u00a4l": 9317, "brid": 9318, "\u0120dialogues": 9319, "ijan": 9320, "\u0120multilingual": 9321, "\u0120oppon": 9322, "\u0120brabant": 9323, "\u0120universities": 9324, "\u0120cruz": 9325, "\u0120replies": 9326, "front": 9327, "\u0120adjusted": 9328, "\u0120observe": 9329, "skis": 9330, "\u0120reflected": 9331, "\u0120stores": 9332, "\u0120photographs": 9333, "\u0120fulfilled": 9334, "person": 9335, "\u0120hunting": 9336, "\u0120supplied": 9337, "\u0120harmful": 9338, "ulsory": 9339, "\u0120inevitable": 9340, "\u0120voucher": 9341, "\u0120chocolate": 9342, "\u0120portfolio": 9343, "\u0120luggage": 9344, "\u0120sympath": 9345, "austri": 9346, "del": 9347, "lant": 9348, "reds": 9349, "\u0120sed": 9350, "\u0120mim": 9351, "\u0120oc": 9352, "\u0120oasis": 9353, "asp": 9354, "\u0120reyn": 9355, "omer": 9356, "elo": 9357, "uster": 9358, "\u0120gt": 9359, "outs": 9360, "\u0120agents": 9361, "render": 9362, "\u0120army": 9363, "\u0120disasters": 9364, "\u0120economies": 9365, "\u0120visas": 9366, "\u0120techniques": 9367, "\u0120artis": 9368, "\u0120employers": 9369, "\u0120keyboard": 9370, "\u0120winds": 9371, "\u0120patience": 9372, "\u0120patrick": 9373, "\u0120euratom": 9374, "2011": 9375, "max": 9376, "\u0120augier": 9377, "\u0120methodology": 9378, "\u0120misle": 9379, "\u0120americans": 9380, "financing": 9381, "\u0120stylish": 9382, "\u0120renewal": 9383, "\u0120medicinal": 9384, "norwegian": 9385, "\u0120withdraw": 9386, "\u0120pillars": 9387, "\u0120accompanied": 9388, "\u0120incorpor": 9389, "\u0120bomb": 9390, "\u0120coherent": 9391, "\u0120ridiculous": 9392, "bra": 9393, "borg": 9394, "care": 9395, "gues": 9396, "hs": 9397, "hal": 9398, "ifor": 9399, "oz": 9400, "rou": 9401, "\u0120ave": 9402, "reach": 9403, "inist": 9404, "\u0120sri": 9405, "\u0120fate": 9406, "\u0120bn": 9407, "\u0120bav": 9408, "\u0120hann": 9409, "\u0120iter": 9410, "\u0120concession": 9411, "\u0120alumin": 9412, "illing": 9413, "iring": 9414, "adus": 9415, "\u0120presse": 9416, "\u0120ash": 9417, "\u0120kir": 9418, "\u0120rs": 9419, "\u0120imbal": 9420, "\u0120voters": 9421, "\u0120mariann": 9422, "\u0120roth": 9423, "elsink": 9424, "erald": 9425, "\u0120subdiv": 9426, "\u0120desper": 9427, "\u0120betting": 9428, "\u0120matches": 9429, "\u0120fool": 9430, "\u0120lasts": 9431, "\u0120providers": 9432, "111": 9433, "\u0120intensive": 9434, "2020": 9435, "\u0120hopefully": 9436, "\u0120certainty": 9437, "\u0120organize": 9438, "\u0120approaches": 9439, "ufficient": 9440, "lerfish": 9441, "\u0120aimed": 9442, "\u0120headqu": 9443, "\u0120catal": 9444, "\u0120palma": 9445, "\u0120occurs": 9446, "\u0120applying": 9447, "\u0120collected": 9448, "inique": 9449, "\u0120agrees": 9450, "\u0120util": 9451, "\u0120licences": 9452, "\u0120factsheet": 9453, "\u0120amongst": 9454, "rorism": 9455, "\u0120massive": 9456, "\u0120neighbor": 9457, "\u0120deaths": 9458, "\u0120conventions": 9459, "\u0120axes": 9460, "\u0120cheaper": 9461, "\u0120coastal": 9462, "\u0120preferred": 9463, "\u0120undertaking": 9464, "\u0120spectrum": 9465, "\u0120authent": 9466, "\u0120ryan": 9467, "\u0120corresponding": 9468, "heinz": 9469, "\u0120sebastien": 9470, "\u0120hypocrisy": 9471, "\u0120venezuela": 9472, "born": 9473, "dk": 9474, "nie": 9475, "pg": 9476, "pens": 9477, "tor": 9478, "vio": 9479, "\u0120tall": 9480, "\u0120tube": 9481, "rea": 9482, "onen": 9483, "\u0120cum": 9484, "\u0120sql": 9485, "enov": 9486, "\u0120pink": 9487, "organ": 9488, "\u0120ole": 9489, "\u0120inj": 9490, "\u0120hj": 9491, "\u0120ee": 9492, "\u0120eating": 9493, "\u0120isa": 9494, "ilo": 9495, "\u0120lone": 9496, "usz": 9497, "ota": 9498, "\u0120beet": 9499, "\u0120viv": 9500, "\u0120stun": 9501, "\u0120proven": 9502, "\u0120alive": 9503, "illes": 9504, "step": 9505, "\u0120jel": 9506, "\u0120jury": 9507, "\u0120jenn": 9508, "\u0120chose": 9509, "\u0120shir": 9510, "\u0120rg": 9511, "\u0120contained": 9512, "ounded": 9513, "\u0120admit": 9514, "\u0120wash": 9515, "\u0120orphan": 9516, "\u0120mecu": 9517, "\u0120butt": 9518, "\u0120phr": 9519, "\u0120somewhere": 9520, "\u0120interven": 9521, "\u0120caught": 9522, "\u0120petr": 9523, "\u00c3\u00a4n": 9524, "\u0120calculation": 9525, "\u0120momentum": 9526, "\u0120essentially": 9527, "\u0120biom": 9528, "check": 9529, "\u0120individually": 9530, "\u0120victim": 9531, "\u0120praise": 9532, "ecspok": 9533, "\u0120cosmet": 9534, "\u0120lanza": 9535, "\u0120contestant": 9536, "\u0120replacement": 9537, "\u0120cultiv": 9538, "\u0120authors": 9539, "\u0120weaknesses": 9540, "\u0120shadow": 9541, "\u0120suddenly": 9542, "\u0120scotland": 9543, "\u0120unforgettable": 9544, "\u0120gordon": 9545, "\u0120dresden": 9546, "\u0120leisure": 9547, "elsinki": 9548, "/+": 9549, "kos": 9550, "ront": 9551, "uay": 9552, "vable": 9553, "\u0120tong": 9554, "initi": 9555, "erted": 9556, "\u0120pear": 9557, "\u0120mg": 9558, "\u0120male": 9559, "\u0120mental": 9560, "\u0120bart": 9561, "\u0120hr": 9562, "\u0120een": 9563, "\u0120ease": 9564, "lez": 9565, "ilings": 9566, "\u0120lupo": 9567, "\u0120gom": 9568, "\u0120gay": 9569, "olved": 9570, "irl": 9571, "\u0120hague": 9572, "thr": 9573, "sted": 9574, "\u0120ji": 9575, "sea": 9576, "essor": 9577, "\u0120admission": 9578, "\u0120tags": 9579, "\u0120lovers": 9580, "rence": 9581, "\u0120sab": 9582, "\u0120myster": 9583, "pling": 9584, "\u0120relate": 9585, "\u0120viewed": 9586, "\u0120assume": 9587, "\u0120explicit": 9588, "\u0120112": 9589, "\u0120terrible": 9590, "\u0120provider": 9591, "hearted": 9592, "\u0120160": 9593, "\u0120explos": 9594, "bank": 9595, "asha": 9596, "\u0120morhu": 9597, "\u0120greenhouse": 9598, "like": 9599, "\u0120appeared": 9600, "\u0120tells": 9601, "\u0120suffered": 9602, "\u0120falling": 9603, "\u0120donor": 9604, "\u0120fruits": 9605, "\u0120learnt": 9606, "\u0120mailing": 9607, "\u0120arable": 9608, "\u0120eggs": 9609, "\u0120dvds": 9610, "\u0120deficits": 9611, "\u0120reflection": 9612, "\u0120adapted": 9613, "\u0120bags": 9614, "\u0120physics": 9615, "\u0120gradually": 9616, "\u0120rarely": 9617, "\u0120ibiza": 9618, "\u0120patterns": 9619, "\u0120kilomet": 9620, "\u0120hundreds": 9621, "\u0120panorama": 9622, "\u0120accurate": 9623, "\u0120distinction": 9624, "\u0120vladimir": 9625, "\u0120salzburg": 9626, "\u0120restricted": 9627, "\u0120endeav": 9628, "\u0120antidumping": 9629, "\u0120lanzarote": 9630, "aus": 9631, "cf": 9632, "rous": 9633, "\u0120tdi": 9634, "onn": 9635, "iser": 9636, "\u0120wifi": 9637, "itte": 9638, "itical": 9639, "itored": 9640, "\u0120bird": 9641, "edps": 9642, "\u0120gm": 9643, "\u0120gast": 9644, "\u0120ond": 9645, "\u0120arena": 9646, "\u0120jar": 9647, "\u0120asian": 9648, "\u0120canaria": 9649, "\u0120rf": 9650, "\u0120usern": 9651, "\u0120adri": 9652, "ifa": 9653, "\u0120perm": 9654, "\u0120compare": 9655, "riculum": 9656, "ogether": 9657, "\u0120monitored": 9658, "\u0120carmel": 9659, "\u01201980": 9660, "\u0120smith": 9661, "\u0120fisher": 9662, "\u0120receives": 9663, "\u0120fried": 9664, "\u0120facult": 9665, "\u0120codes": 9666, "\u0120steam": 9667, "\u0120ceilings": 9668, "\u0120landf": 9669, "space": 9670, "\u0120completion": 9671, "\u0120oils": 9672, "\u0120ferry": 9673, "\u0120settle": 9674, "\u0120contractual": 9675, "\u0120drawing": 9676, "\u0120frequent": 9677, "\u0120characteristics": 9678, "\u0120troika": 9679, "\u0120convenience": 9680, "\u0120albums": 9681, "\u0120corporation": 9682, "\u01204398": 9683, "\u0120upgrad": 9684, "\u0120senior": 9685, "\u0120segment": 9686, "\u0120towels": 9687, "\u0120stimul": 9688, "\u0120torture": 9689, "\u0120supervisory": 9690, "\u0120marianne": 9691, "\u0120harengus": 9692, "\u0120cambodia": 9693, "bas": 9694, "eing": 9695, "hm": 9696, "ku": 9697, "post": 9698, "vist": 9699, "\u0120cav": 9700, "\u0120sag": 9701, "\u0120ore": 9702, "\u0120divid": 9703, "\u0120gest": 9704, "\u0120gren": 9705, "\u0120vip": 9706, "\u0120stret": 9707, "idal": 9708, "\u0120conform": 9709, "\u0120prote": 9710, "rag": 9711, "\u0120notification": 9712, "\u0120sehr": 9713, "advant": 9714, "\u0120exhaust": 9715, "\u0120kub": 9716, "\u0120usage": 9717, "cif": 9718, "cience": 9719, "\u0120plass": 9720, "\u0120divers": 9721, "\u0120heres": 9722, "\u0120sake": 9723, "\u0120timing": 9724, "\u0120emeta": 9725, "\u0120feas": 9726, "\u0120counting": 9727, "ighter": 9728, "\u0120acid": 9729, "cope": 9730, "\u01201615": 9731, "\u0120charming": 9732, "\u0120organise": 9733, "anny": 9734, "\u0120fao": 9735, "\u00c3\u00a4u": 9736, "otti": 9737, "\u0120absor": 9738, "\u0120cats": 9739, "\u0120unfortunate": 9740, "\u0120bugs": 9741, "baijan": 9742, "\u0120classified": 9743, "\u0120telling": 9744, "\u0120georgios": 9745, "\u0120utter": 9746, "\u0120losses": 9747, "\u0120broadband": 9748, "\u0120dependent": 9749, "\u0120recording": 9750, "pool": 9751, "arelli": 9752, "\u0120highlighted": 9753, "\u0120giov": 9754, "\u01200001": 9755, "\u0120configure": 9756, "\u0120wheat": 9757, "\u0120museums": 9758, "\u0120lucky": 9759, "\u0120ethical": 9760, "\u0120junior": 9761, "undering": 9762, "\u0120gerrit": 9763, "\u0120lanka": 9764, "\u0120remarkable": 9765, "\u0120explorer": 9766, "\u0120diplomatic": 9767, "\u0120poultry": 9768, "\u0120privatisation": 9769, "\u0120vitorino": 9770, "\u0120chalet": 9771, "friendly": 9772, "\u0120giulio": 9773, "country": 9774, "\u0120vitae": 9775, "\u0120auction": 9776, "\u0120tuscan": 9777, "\u0120splendid": 9778, "\u0120misleading": 9779, "\u0120ondrej": 9780, "\u0120username": 9781, "cke": 9782, "ipp": 9783, "lv": 9784, "made": 9785, "zs": 9786, "erre": 9787, "alus": 9788, "lev": 9789, "\u0120lap": 9790, "\u0120gif": 9791, "\u0120stan": 9792, "\u0120stem": 9793, "ete": 9794, "osa": 9795, "rig": 9796, "\u0120alarm": 9797, "\u0120notifications": 9798, "ema": 9799, "\u0120kh": 9800, "\u0120pled": 9801, "text": 9802, "tegat": 9803, "\u0120butter": 9804, "\u0120disadvant": 9805, "play": 9806, "\u0120forever": 9807, "\u0120foremost": 9808, "ressed": 9809, "ocal": 9810, "\u0120colum": 9811, "\u0120interconnect": 9812, "\u0120schwar": 9813, "\u0120transportation": 9814, "chnya": 9815, "\u0120accessories": 9816, "\u00c3\u00bcl": 9817, "\u0120signature": 9818, "\u0120charm": 9819, "\u0120apartament": 9820, "anna": 9821, "\u0120dealer": 9822, "denmark": 9823, "ilipp": 9824, "\u0120maxim": 9825, "\u0120badly": 9826, "\u0120ticker": 9827, "\u0120diego": 9828, "\u0120attractions": 9829, "\u0120millan": 9830, "\u0120puzz": 9831, "zzi": 9832, "\u0120surrounding": 9833, "\u0120akvis": 9834, "\u0120tremont": 9835, "\u0120misunderstanding": 9836, "\u0120kovcs": 9837, "\u0120wisdom": 9838, "initiative": 9839, "310": 9840, "but": 9841, "fit": 9842, "gram": 9843, "name": 9844, "oft": 9845, "orest": 9846, "rates": 9847, "ski": 9848, "zza": 9849, "isse": 9850, "\u0120wrote": 9851, "enland": 9852, "\u0120pel": 9853, "\u0120pestic": 9854, "orient": 9855, "\u0120b\u00c3\u00b6": 9856, "\u0120helsinki": 9857, "asy": 9858, "\u0120reh": 9859, "\u0120rely": 9860, "elve": 9861, "\u0120gior": 9862, "\u0120gsp": 9863, "\u0120vast": 9864, "\u0120stubb": 9865, "acies": 9866, "acular": 9867, "emic": 9868, "\u0120enchant": 9869, "umer": 9870, "iek": 9871, "ende": 9872, "gry": 9873, "\u0120ross": 9874, "agas": 9875, "\u0120compulsory": 9876, "\u0120philipp": 9877, "\u0120assurance": 9878, "fta": 9879, "iki": 9880, "\u0120crash": 9881, "park": 9882, "\u0120terminal": 9883, "112": 9884, "\u0120downt": 9885, "\u0120airlines": 9886, "\u0120artific": 9887, "\u0120chechnya": 9888, "\u0120antic": 9889, "\u0120fewer": 9890, "print": 9891, "\u0120respects": 9892, "afo": 9893, "\u0120connecting": 9894, "\u0120classification": 9895, "1996": 9896, "\u0120indicate": 9897, "\u0120focuses": 9898, "\u0120honor": 9899, "\u0120constitutes": 9900, "\u0120navig": 9901, "walter": 9902, "\u0120sharp": 9903, "\u0120threats": 9904, "\u0120preventive": 9905, "\u0120appearance": 9906, "\u0120fears": 9907, "\u0120sexy": 9908, "\u0120tyrol": 9909, "\u0120versus": 9910, "\u0120pipeline": 9911, "\u0120tremend": 9912, "\u0120steinmeier": 9913, "\u0120narrow": 9914, "\u0120cristina": 9915, "\u0120megrims": 9916, "\u0120bungalow": 9917, "\u0120hectares": 9918, "\u0120finnish": 9919, "\u0120kalevi": 9920, "\u0120scrutiny": 9921, "\u0120azerbaijan": 9922, "austria": 9923, "+?": 9924, "egaard": 9925, "fan": 9926, "national": 9927, "\u0120ace": 9928, "\u0120thys": 9929, "\u0120theodor": 9930, "\u0120cc": 9931, "\u0120cte": 9932, "\u0120pup": 9933, "\u0120porn": 9934, "\u0120fla": 9935, "\u0120fits": 9936, "\u0120bub": 9937, "\u0120bare": 9938, "\u0120buch": 9939, "\u0120toys": 9940, "om\u00c3\u00a4ki": 9941, "\u0120laila": 9942, "oting": 9943, "\u0120gert": 9944, "\u0120vine": 9945, "utation": 9946, "think": 9947, "\u0120seo": 9948, "quality": 9949, "implement": 9950, "umes": 9951, "cio": 9952, "\u0120admitted": 9953, "udes": 9954, "\u0120marin": 9955, "dec": 9956, "dez": 9957, "\u0120arrested": 9958, "\u0120approves": 9959, "\u0120lapt": 9960, "\u0120pride": 9961, "\u0120indian": 9962, "\u0120modest": 9963, "\u0120porto": 9964, "\u0120natas": 9965, "\u0120tourists": 9966, "\u0120paolo": 9967, "\u0120nationals": 9968, "\u0120recommends": 9969, "\u0120graphic": 9970, "\u0120palm": 9971, "\u0120harvest": 9972, "\u0120assessed": 9973, "\u0120bonino": 9974, "\u0120browse": 9975, "\u0120tonight": 9976, "\u0120tonio": 9977, "\u0120gardens": 9978, "\u0120anglerfish": 9979, "\u0120straw": 9980, "\u0120complac": 9981, "\u0120campaigns": 9982, "limited": 9983, "\u0120queen": 9984, "\u0120penalties": 9985, "\u0120scripts": 9986, "\u0120estimates": 9987, "\u0120tribute": 9988, "\u0120chaos": 9989, "\u0120scandalous": 9990, "\u0120sincerely": 9991, "\u0120bicycle": 9992, "\u0120foreseen": 9993, "\u0120carrier": 9994, "\u0120imperative": 9995, "\u0120malaysia": 9996, "\u0120plassnik": 9997, "%-": 9998, "aire": 9999, "bla": 10000, "kat": 10001, "los": 10002, "ores": 10003, "pot": 10004, "\u0120tiss": 10005, "\u0120thread": 10006, "\u0120cel": 10007, "\u0120cach": 10008, "\u0120sark": 10009, "encing": 10010, "\u0120h\u00c3\u00a4": 10011, "arie": 10012, "\u0120gd": 10013, "\u0120vand": 10014, "\u0120venture": 10015, "\u0120stood": 10016, "idel": 10017, "\u0120conce": 10018, "iga": 10019, "sten": 10020, "\u0120jap": 10021, "\u0120clothing": 10022, "\u0120orch": 10023, "\u0120worried": 10024, "asts": 10025, "\u0120loop": 10026, "\u0120heath": 10027, "\u0120rodri": 10028, "apter": 10029, "richt": 10030, "\u0120twelve": 10031, "\u0120emma": 10032, "\u0120boards": 10033, "\u0120boys": 10034, "\u0120anybody": 10035, "izer": 10036, "\u0120moon": 10037, "\u0120modify": 10038, "\u0120colon": 10039, "\u0120interreg": 10040, "\u0120formed": 10041, "\u0120changeover": 10042, "sweden": 10043, "120": 10044, "\u0120humans": 10045, "hez": 10046, "\u0120operated": 10047, "\u0120cuts": 10048, "\u0120turnover": 10049, "\u0120salv": 10050, "\u0120respective": 10051, "ustainable": 10052, "172": 10053, "\u0120excellence": 10054, "\u0120sciences": 10055, "\u0120referral": 10056, "\u0120icons": 10057, "str\u00c3\u00b6ms": 10058, "\u0120substit": 10059, "\u0120virus": 10060, "\u0120significance": 10061, "\u0120launches": 10062, "\u0120powered": 10063, "\u0120epso": 10064, "jani": 10065, "\u0120degrees": 10066, "\u00c3\u00bcbig": 10067, "\u0120altogether": 10068, "\u0120dynam": 10069, "\u0120expanded": 10070, "\u0120flowers": 10071, "\u0120enemies": 10072, "\u0120abolition": 10073, "\u0120abolished": 10074, "\u0120prisoners": 10075, "\u0120magnific": 10076, "\u0120exploitation": 10077, "\u0120defeats": 10078, "\u0120acknowledge": 10079, "\u0120neutral": 10080, "\u0120uncertainty": 10081, "\u0120counterfeiting": 10082, "\u0120endorsed": 10083, "\u0120hazardous": 10084, "\u0120oliver": 10085, "from": 10086, "gies": 10087, "host": 10088, "tv": 10089, "zones": 10090, "\u0120\u00c3\u00bc": 10091, "inity": 10092, "\u0120wir": 10093, "\u0120piz": 10094, "\u0120fot": 10095, "anu": 10096, "iten": 10097, "esis": 10098, "\u0120ineff": 10099, "\u0120epid": 10100, "icht": 10101, "asions": 10102, "\u0120reimb": 10103, "ilia": 10104, "\u0120lac": 10105, "\u0120gue": 10106, "\u0120gib": 10107, "eties": 10108, "tering": 10109, "eminister": 10110, "\u0120jim": 10111, "amin": 10112, "amas": 10113, "anti": 10114, "\u0120unknown": 10115, "\u0120asks": 10116, "\u0120kukan": 10117, "\u0120ras": 10118, "\u0120bytes": 10119, "\u0120newly": 10120, "tech": 10121, "\u0120saves": 10122, "010": 10123, "\u0120spo": 10124, "\u0120ups": 10125, "\u0120mai": 10126, "\u0120brink": 10127, "\u0120relief": 10128, "\u0120publications": 10129, "\u0120decades": 10130, "\u0120impr": 10131, "\u0120refused": 10132, "\u0120corrid": 10133, "\u0120highway": 10134, "\u0120formally": 10135, "\u0120reads": 10136, "\u0120freival": 10137, "\u0120antib": 10138, "\u0120sheets": 10139, "\u0120preview": 10140, "\u0120countryside": 10141, "\u0120insufficient": 10142, "\u0120brig": 10143, "\u0120slides": 10144, "\u0120papandre": 10145, "\u0120appointing": 10146, "\u0120villas": 10147, "\u0120functional": 10148, "\u0120managers": 10149, "\u0120encry": 10150, "\u0120divoire": 10151, "\u0120dermot": 10152, "\u0120worthy": 10153, "\u0120replied": 10154, "\u0120simpler": 10155, "\u0120measurement": 10156, "ropol": 10157, "\u0120consistency": 10158, "\u0120optimism": 10159, "\u0120stakeholders": 10160, "\u0120huber": 10161, "\u0120maintaining": 10162, "\u0120provisional": 10163, "\u0120andorra": 10164, "\u0120laboratory": 10165, "\u0120batteries": 10166, "\u0120hemil\u00c3\u00a4": 10167, "\u0120complementary": 10168, "\u0120precedent": 10169, "\u0120reinforced": 10170, "\u0120hedegaard": 10171, "figures": 10172, "\u0120tournament": 10173, "\u0120schmid": 10174, "\u0120horses": 10175, "\u0120riviera": 10176, "\u0120leniency": 10177, "\u0120indoor": 10178, "through": 10179, "\u0120freivalds": 10180, "hminister": 10181, "lux": 10182, "tube": 10183, "with": 10184, "\u0120arom": 10185, "\u0120thou": 10186, "isons": 10187, "erife": 10188, "\u0120ced": 10189,
[...]
